<?xml version="1.0"?>
<MethodSetup Method="BDT::BDTG">
  <GeneralInfo>
    <Info name="TMVA Release" value="4.1.2 [262402]"/>
    <Info name="ROOT Release" value="5.30/00 [335360]"/>
    <Info name="Creator" value="folgueras"/>
    <Info name="Date" value="Wed May  9 19:06:13 2012"/>
    <Info name="Host" value="Linux fanae127.geol.uniovi.es 2.6.18-238.5.1.el5 #1 SMP Wed Mar 2 15:08:52 CET 2011 x86_64 x86_64 x86_64 GNU/Linux"/>
    <Info name="Dir" value="/mnt_pool/fanae105/user/folgueras/HWW/TMVA/test"/>
    <Info name="Training events" value="52354"/>
    <Info name="TrainingTime" value="1.89374298e+02"/>
    <Info name="AnalysisType" value="Classification"/>
  </GeneralInfo>
  <Options>
    <Option name="V" modified="Yes">False</Option>
    <Option name="VerbosityLevel" modified="No">Default</Option>
    <Option name="VarTransform" modified="No">None</Option>
    <Option name="H" modified="Yes">False</Option>
    <Option name="CreateMVAPdfs" modified="No">False</Option>
    <Option name="IgnoreNegWeightsInTraining" modified="No">False</Option>
    <Option name="NTrees" modified="Yes">2000</Option>
    <Option name="RenormByClass" modified="No">False</Option>
    <Option name="BoostType" modified="Yes">Grad</Option>
    <Option name="AdaBoostR2Loss" modified="No">quadratic</Option>
    <Option name="UseBaggedGrad" modified="Yes">False</Option>
    <Option name="GradBaggingFraction" modified="No">6.000000e-01</Option>
    <Option name="Shrinkage" modified="Yes">1.000000e-01</Option>
    <Option name="AdaBoostBeta" modified="No">1.000000e+00</Option>
    <Option name="UseRandomisedTrees" modified="No">False</Option>
    <Option name="UseNvars" modified="Yes">4</Option>
    <Option name="UsePoissonNvars" modified="No">True</Option>
    <Option name="UseNTrainEvents" modified="No">52354</Option>
    <Option name="UseWeightedTrees" modified="No">True</Option>
    <Option name="UseYesNoLeaf" modified="No">True</Option>
    <Option name="NodePurityLimit" modified="No">5.000000e-01</Option>
    <Option name="SeparationType" modified="No">giniindex</Option>
    <Option name="nEventsMin" modified="Yes">100</Option>
    <Option name="nCuts" modified="Yes">2000</Option>
    <Option name="UseFisherCuts" modified="No">False</Option>
    <Option name="MinLinCorrForFisher" modified="No">8.000000e-01</Option>
    <Option name="UseExclusiveVars" modified="No">False</Option>
    <Option name="PruneStrength" modified="Yes">0.000000e+00</Option>
    <Option name="PruneMethod" modified="Yes">nopruning</Option>
    <Option name="PruneBeforeBoost" modified="No">False</Option>
    <Option name="PruningValFraction" modified="No">5.000000e-01</Option>
    <Option name="NNodesMax" modified="Yes">5</Option>
    <Option name="MaxDepth" modified="Yes">6</Option>
    <Option name="DoBoostMonitor" modified="No">False</Option>
    <Option name="NegWeightTreatment" modified="No">ignorenegweights</Option>
  </Options>
  <Variables NVar="4">
    <Variable VarIndex="0" Expression="PFChargedDR04" Label="PFChargedDR04" Title="PFChargedOverPt" Unit="" Internal="PFChargedDR04" Type="F" Min="0.00000000e+00" Max="2.50000000e+00"/>
    <Variable VarIndex="1" Expression="PFNePhCorrDR04" Label="PFNePhCorrDR04" Title="PFNePhCorrOverPt" Unit="" Internal="PFNePhCorrDR04" Type="F" Min="0.00000000e+00" Max="2.50000000e+00"/>
    <Variable VarIndex="2" Expression="SumDeltaRCharged" Label="SumDeltaRCharged" Title="SumDeltaRCharged" Unit="" Internal="SumDeltaRCharged" Type="F" Min="0.00000000e+00" Max="7.49670029e+00"/>
    <Variable VarIndex="3" Expression="DeltaRMeanCharged" Label="DeltaRMeanCharged" Title="DeltaRMeanCharged" Unit="" Internal="DeltaRMeanCharged" Type="F" Min="0.00000000e+00" Max="4.99969900e-01"/>
  </Variables>
  <Spectators NSpec="0"/>
  <Classes NClass="2">
    <Class Name="Signal" Index="0"/>
    <Class Name="Background" Index="1"/>
  </Classes>
  <Transformations NTransformations="0"/>
  <MVAPdfs/>
  <Weights NTrees="2000" AnalysisType="1">
    <BinaryTree type="DecisionTree" boostWeight="1.0000000000000000e+00" itree="0">
      <Node pos="s" depth="0" NCoef="0" IVar="0" Cut="1.4242878556251526e-01" cType="1" res="9.8559804260730743e-02" rms="4.9018973112106323e-01" purity="5.9855979681015015e-01" nType="0">
        <Node pos="l" depth="1" NCoef="0" IVar="-1" Cut="0.0000000000000000e+00" cType="1" res="7.1208462119102478e-02" rms="3.5104683041572571e-01" purity="8.5604232549667358e-01" nType="-99"/>
        <Node pos="r" depth="1" NCoef="0" IVar="0" Cut="2.4140287935733795e-01" cType="1" res="-3.4408435225486755e-01" rms="3.6277535557746887e-01" purity="1.5591564774513245e-01" nType="0">
          <Node pos="l" depth="2" NCoef="0" IVar="-1" Cut="0.0000000000000000e+00" cType="1" res="-2.6594089344143867e-02" rms="4.8199465870857239e-01" purity="3.6702954769134521e-01" nType="-99"/>
          <Node pos="r" depth="2" NCoef="0" IVar="-1" Cut="0.0000000000000000e+00" cType="1" res="-7.9397246241569519e-02" rms="3.0397686362266541e-01" purity="1.0301376879215240e-01" nType="-99"/>
        </Node>
      </Node>
    </BinaryTree>
    <BinaryTree type="DecisionTree" boostWeight="1.0000000000000000e+00" itree="1">
      <Node pos="s" depth="0" NCoef="0" IVar="0" Cut="1.4617690443992615e-01" cType="1" res="8.8717088103294373e-02" rms="4.6678709983825684e-01" purity="5.9855979681015015e-01" nType="0">
        <Node pos="l" depth="1" NCoef="0" IVar="-1" Cut="0.0000000000000000e+00" cType="1" res="6.4083434641361237e-02" rms="3.5277599096298218e-01" purity="8.5407841205596924e-01" nType="-99"/>
        <Node pos="r" depth="1" NCoef="0" IVar="0" Cut="2.5911793112754822e-01" cType="1" res="-3.1290325522422791e-01" rms="3.5676547884941101e-01" purity="1.5255126357078552e-01" nType="0">
          <Node pos="l" depth="2" NCoef="0" IVar="-1" Cut="0.0000000000000000e+00" cType="1" res="-2.8342977166175842e-02" rms="4.7350087761878967e-01" purity="3.4178715944290161e-01" nType="-99"/>
          <Node pos="r" depth="2" NCoef="0" IVar="-1" Cut="0.0000000000000000e+00" cType="1" res="-7.2776198387145996e-02" rms="2.9837697744369507e-01" purity="9.8787881433963776e-02" nType="-99"/>
        </Node>
      </Node>
    </BinaryTree>
    <BinaryTree type="DecisionTree" boostWeight="1.0000000000000000e+00" itree="2">
      <Node pos="s" depth="0" NCoef="0" IVar="0" Cut="1.1369315534830093e-01" cType="1" res="7.9886004328727722e-02" rms="4.4706588983535767e-01" purity="5.9855979681015015e-01" nType="0">
        <Node pos="l" depth="1" NCoef="0" IVar="-1" Cut="0.0000000000000000e+00" cType="1" res="6.1990130692720413e-02" rms="3.3455455303192139e-01" purity="8.7158209085464478e-01" nType="-99"/>
        <Node pos="r" depth="1" NCoef="0" IVar="0" Cut="2.0910339057445526e-01" cType="1" res="-2.5786694884300232e-01" rms="3.7723621726036072e-01" purity="1.8773323297500610e-01" nType="0">
          <Node pos="l" depth="2" NCoef="0" IVar="-1" Cut="0.0000000000000000e+00" cType="1" res="-9.4544794410467148e-03" rms="4.9365979433059692e-01" purity="4.6296715736389160e-01" nType="-99"/>
          <Node pos="r" depth="2" NCoef="0" IVar="-1" Cut="0.0000000000000000e+00" cType="1" res="-6.4230553805828094e-02" rms="3.1629231572151184e-01" purity="1.1402923613786697e-01" nType="-99"/>
        </Node>
      </Node>
    </BinaryTree>
    <BinaryTree type="DecisionTree" boostWeight="1.0000000000000000e+00" itree="3">
      <Node pos="s" depth="0" NCoef="0" IVar="0" Cut="1.1369315534830093e-01" cType="1" res="7.1968153119087219e-02" rms="4.2977625131607056e-01" purity="5.9855979681015015e-01" nType="0">
        <Node pos="l" depth="1" NCoef="0" IVar="-1" Cut="0.0000000000000000e+00" cType="1" res="5.7002462446689606e-02" rms="3.3455455303192139e-01" purity="8.7158209085464478e-01" nType="-99"/>
        <Node pos="r" depth="1" NCoef="0" IVar="0" Cut="2.2579914331436157e-01" cType="1" res="-2.3233924806118011e-01" rms="3.7427213788032532e-01" purity="1.8773323297500610e-01" nType="0">
          <Node pos="l" depth="2" NCoef="0" IVar="-1" Cut="0.0000000000000000e+00" cType="1" res="-1.1302889324724674e-02" rms="4.9012637138366699e-01" purity="4.4145223498344421e-01" nType="-99"/>
          <Node pos="r" depth="2" NCoef="0" IVar="-1" Cut="0.0000000000000000e+00" cType="1" res="-6.0237117111682892e-02" rms="3.0915850400924683e-01" purity="1.0768456012010574e-01" nType="-99"/>
        </Node>
      </Node>
    </BinaryTree>
    <BinaryTree type="DecisionTree" boostWeight="1.0000000000000000e+00" itree="4">
      <Node pos="s" depth="0" NCoef="0" IVar="0" Cut="1.1119440197944641e-01" cType="1" res="6.4850851893424988e-02" rms="4.1523852944374084e-01" purity="5.9855979681015015e-01" nType="0">
        <Node pos="l" depth="1" NCoef="0" IVar="-1" Cut="0.0000000000000000e+00" cType="1" res="5.2914828062057495e-02" rms="3.3336585760116577e-01" purity="8.7264889478683472e-01" nType="-99"/>
        <Node pos="r" depth="1" NCoef="0" IVar="0" Cut="2.9387474060058594e-01" cType="1" res="-2.0801800489425659e-01" rms="3.7305140495300293e-01" purity="1.9059841334819794e-01" nType="0">
          <Node pos="l" depth="2" NCoef="0" IVar="-1" Cut="0.0000000000000000e+00" cType="1" res="-1.6871880739927292e-02" rms="4.7170206904411316e-01" purity="3.8041821122169495e-01" nType="-99"/>
          <Node pos="r" depth="2" NCoef="0" IVar="-1" Cut="0.0000000000000000e+00" cType="1" res="-5.9037391096353531e-02" rms="2.8818067908287048e-01" purity="9.1402515769004822e-02" nType="-99"/>
        </Node>
      </Node>
    </BinaryTree>
    <BinaryTree type="DecisionTree" boostWeight="1.0000000000000000e+00" itree="5">
      <Node pos="s" depth="0" NCoef="0" IVar="0" Cut="9.4952523708343506e-02" cType="1" res="5.8449376374483109e-02" rms="4.0303045511245728e-01" purity="5.9855979681015015e-01" nType="0">
        <Node pos="l" depth="1" NCoef="0" IVar="-1" Cut="0.0000000000000000e+00" cType="1" res="5.0963636487722397e-02" rms="3.2361194491386414e-01" purity="8.8115000724792480e-01" nType="-99"/>
        <Node pos="r" depth="1" NCoef="0" IVar="0" Cut="2.0675577223300934e-01" cType="1" res="-1.7697301506996155e-01" rms="3.7985911965370178e-01" purity="2.1568010747432709e-01" nType="0">
          <Node pos="l" depth="2" NCoef="0" IVar="-1" Cut="0.0000000000000000e+00" cType="1" res="-3.6986605264246464e-03" rms="4.8985928297042847e-01" purity="5.0977283716201782e-01" nType="-99"/>
          <Node pos="r" depth="2" NCoef="0" IVar="-1" Cut="0.0000000000000000e+00" cType="1" res="-5.1241595298051834e-02" rms="3.1595286726951599e-01" purity="1.1478281766176224e-01" nType="-99"/>
        </Node>
      </Node>
    </BinaryTree>
    <BinaryTree type="DecisionTree" boostWeight="1.0000000000000000e+00" itree="6">
      <Node pos="s" depth="0" NCoef="0" IVar="0" Cut="8.3708144724369049e-02" cType="1" res="5.2696168422698975e-02" rms="3.9255800843238831e-01" purity="5.9855979681015015e-01" nType="0">
        <Node pos="l" depth="1" NCoef="0" IVar="-1" Cut="0.0000000000000000e+00" cType="1" res="4.8859633505344391e-02" rms="3.1628155708312988e-01" purity="8.8725441694259644e-01" nType="-99"/>
        <Node pos="r" depth="1" NCoef="0" IVar="0" Cut="2.0929428935050964e-01" cType="1" res="-1.5197773277759552e-01" rms="3.8326027989387512e-01" purity="2.3552240431308746e-01" nType="0">
          <Node pos="l" depth="2" NCoef="0" IVar="-1" Cut="0.0000000000000000e+00" cType="1" res="-2.3499941453337669e-03" rms="4.8583224415779114e-01" purity="5.3441596031188965e-01" nType="-99"/>
          <Node pos="r" depth="2" NCoef="0" IVar="-1" Cut="0.0000000000000000e+00" cType="1" res="-4.7936156392097473e-02" rms="3.1501385569572449e-01" purity="1.1378117650747299e-01" nType="-99"/>
        </Node>
      </Node>
    </BinaryTree>
    <BinaryTree type="DecisionTree" boostWeight="1.0000000000000000e+00" itree="7">
      <Node pos="s" depth="0" NCoef="0" IVar="0" Cut="1.3618190586566925e-01" cType="1" res="4.7519568353891373e-02" rms="3.8369277119636536e-01" purity="5.9855979681015015e-01" nType="0">
        <Node pos="l" depth="1" NCoef="0" IVar="-1" Cut="0.0000000000000000e+00" cType="1" res="4.0627203881740570e-02" rms="3.4265565872192383e-01" purity="8.5906857252120972e-01" nType="-99"/>
        <Node pos="r" depth="1" NCoef="0" IVar="0" Cut="3.3229231834411621e-01" cType="1" res="-1.6576807200908661e-01" rms="3.5289931297302246e-01" purity="1.6197291016578674e-01" nType="0">
          <Node pos="l" depth="2" NCoef="0" IVar="-1" Cut="0.0000000000000000e+00" cType="1" res="-1.7304461449384689e-02" rms="4.5065096020698547e-01" purity="3.0958780646324158e-01" nType="-99"/>
          <Node pos="r" depth="2" NCoef="0" IVar="-1" Cut="0.0000000000000000e+00" cType="1" res="-5.0491228699684143e-02" rms="2.7912840247154236e-01" purity="8.5165902972221375e-02" nType="-99"/>
        </Node>
      </Node>
    </BinaryTree>
    <BinaryTree type="DecisionTree" boostWeight="1.0000000000000000e+00" itree="8">
      <Node pos="s" depth="0" NCoef="0" IVar="0" Cut="7.4962519109249115e-02" cType="1" res="4.2821303009986877e-02" rms="3.7673357129096985e-01" purity="5.9855979681015015e-01" nType="0">
        <Node pos="l" depth="1" NCoef="0" IVar="-1" Cut="0.0000000000000000e+00" cType="1" res="4.4151548296213150e-02" rms="3.1062638759613037e-01" purity="8.9180511236190796e-01" nType="-99"/>
        <Node pos="r" depth="1" NCoef="0" IVar="0" Cut="1.9011791050434113e-01" cType="1" res="-1.2130863964557648e-01" rms="3.8187602162361145e-01" purity="2.5230142474174500e-01" nType="0">
          <Node pos="l" depth="2" NCoef="0" IVar="-1" Cut="0.0000000000000000e+00" cType="1" res="-9.3147938605397940e-04" rms="4.8082166910171509e-01" purity="5.7654106616973877e-01" nType="-99"/>
          <Node pos="r" depth="2" NCoef="0" IVar="-1" Cut="0.0000000000000000e+00" cType="1" res="-4.0999688208103180e-02" rms="3.2270908355712891e-01" purity="1.2295320630073547e-01" nType="-99"/>
        </Node>
      </Node>
    </BinaryTree>
    <BinaryTree type="DecisionTree" boostWeight="1.0000000000000000e+00" itree="9">
      <Node pos="s" depth="0" NCoef="0" IVar="0" Cut="7.4962519109249115e-02" cType="1" res="3.8629796355962753e-02" rms="3.7043499946594238e-01" purity="5.9855979681015015e-01" nType="0">
        <Node pos="l" depth="1" NCoef="0" IVar="-1" Cut="0.0000000000000000e+00" cType="1" res="4.1389498859643936e-02" rms="3.1062635779380798e-01" purity="8.9180511236190796e-01" nType="-99"/>
        <Node pos="r" depth="1" NCoef="0" IVar="0" Cut="3.2585075497627258e-01" cType="1" res="-1.0938442498445511e-01" rms="3.8060086965560913e-01" purity="2.5230142474174500e-01" nType="0">
          <Node pos="l" depth="2" NCoef="0" IVar="-1" Cut="0.0000000000000000e+00" cType="1" res="-7.4648424051702023e-03" rms="4.6170863509178162e-01" purity="4.5000454783439636e-01" nType="-99"/>
          <Node pos="r" depth="2" NCoef="0" IVar="-1" Cut="0.0000000000000000e+00" cType="1" res="-4.5074898749589920e-02" rms="2.8020945191383362e-01" purity="8.5915923118591309e-02" nType="-99"/>
        </Node>
      </Node>
    </BinaryTree>
    <BinaryTree type="DecisionTree" boostWeight="1.0000000000000000e+00" itree="10">
      <Node pos="s" depth="0" NCoef="0" IVar="0" Cut="6.6216893494129181e-02" cType="1" res="3.4841470420360565e-02" rms="3.6517739295959473e-01" purity="5.9855979681015015e-01" nType="0">
        <Node pos="l" depth="1" NCoef="0" IVar="-1" Cut="0.0000000000000000e+00" cType="1" res="4.0006827563047409e-02" rms="3.0481737852096558e-01" purity="8.9634126424789429e-01" nType="-99"/>
        <Node pos="r" depth="1" NCoef="0" IVar="0" Cut="2.1704305708408356e-01" cType="1" res="-9.3871779739856720e-02" rms="3.8199159502983093e-01" purity="2.7261450886726379e-01" nType="0">
          <Node pos="l" depth="2" NCoef="0" IVar="-1" Cut="0.0000000000000000e+00" cType="1" res="-1.1612902162596583e-03" rms="4.7395589947700500e-01" purity="5.7042253017425537e-01" nType="-99"/>
          <Node pos="r" depth="2" NCoef="0" IVar="-1" Cut="0.0000000000000000e+00" cType="1" res="-3.7723802030086517e-02" rms="3.1069704890251160e-01" purity="1.1067876964807510e-01" nType="-99"/>
        </Node>
      </Node>
    </BinaryTree>
    <BinaryTree type="DecisionTree" boostWeight="1.0000000000000000e+00" itree="11">
      <Node pos="s" depth="0" NCoef="0" IVar="0" Cut="8.3708144724369049e-02" cType="1" res="3.1431909650564194e-02" rms="3.6078387498855591e-01" purity="5.9855979681015015e-01" nType="0">
        <Node pos="l" depth="1" NCoef="0" IVar="-1" Cut="0.0000000000000000e+00" cType="1" res="3.5445921123027802e-02" rms="3.1547203660011292e-01" purity="8.8725441694259644e-01" nType="-99"/>
        <Node pos="r" depth="1" NCoef="0" IVar="0" Cut="3.2642579078674316e-01" cType="1" res="-9.3024000525474548e-02" rms="3.7535527348518372e-01" purity="2.3552240431308746e-01" nType="0">
          <Node pos="l" depth="2" NCoef="0" IVar="-1" Cut="0.0000000000000000e+00" cType="1" res="-6.5905097872018814e-03" rms="4.6213102340698242e-01" purity="4.2695635557174683e-01" nType="-99"/>
          <Node pos="r" depth="2" NCoef="0" IVar="-1" Cut="0.0000000000000000e+00" cType="1" res="-4.0411062538623810e-02" rms="2.8026202321052551e-01" purity="8.5951298475265503e-02" nType="-99"/>
        </Node>
      </Node>
    </BinaryTree>
    <BinaryTree type="DecisionTree" boostWeight="1.0000000000000000e+00" itree="12">
      <Node pos="s" depth="0" NCoef="0" IVar="0" Cut="6.3718140125274658e-02" cType="1" res="2.8343236073851585e-02" rms="3.5724005103111267e-01" purity="5.9855979681015015e-01" nType="0">
        <Node pos="l" depth="1" NCoef="0" IVar="-1" Cut="0.0000000000000000e+00" cType="1" res="3.5702336579561234e-02" rms="3.0339613556861877e-01" purity="8.9743024110794067e-01" nType="-99"/>
        <Node pos="r" depth="1" NCoef="0" IVar="1" Cut="9.9950022995471954e-02" cType="1" res="-7.6157055795192719e-02" rms="3.8031032681465149e-01" purity="2.7823504805564880e-01" nType="0">
          <Node pos="l" depth="2" NCoef="0" IVar="-1" Cut="0.0000000000000000e+00" cType="1" res="-3.7814988754689693e-03" rms="4.0249735116958618e-01" purity="3.8675591349601746e-01" nType="-99"/>
          <Node pos="r" depth="2" NCoef="0" IVar="-1" Cut="0.0000000000000000e+00" cType="1" res="-3.6022786051034927e-02" rms="3.4764304757118225e-01" purity="1.7371037602424622e-01" nType="-99"/>
        </Node>
      </Node>
    </BinaryTree>
    <BinaryTree type="DecisionTree" boostWeight="1.0000000000000000e+00" itree="13">
      <Node pos="s" depth="0" NCoef="0" IVar="0" Cut="1.6116940975189209e-01" cType="1" res="2.5593088939785957e-02" rms="3.5410386323928833e-01" purity="5.9855979681015015e-01" nType="0">
        <Node pos="l" depth="1" NCoef="0" IVar="-1" Cut="0.0000000000000000e+00" cType="1" res="2.5965066626667976e-02" rms="3.4510463476181030e-01" purity="8.4581202268600464e-01" nType="-99"/>
        <Node pos="r" depth="1" NCoef="0" IVar="3" Cut="3.0653893947601318e-01" cType="0" res="-1.0016893595457077e-01" rms="3.3564054965972900e-01" purity="1.4138005673885345e-01" nType="0">
          <Node pos="l" depth="2" NCoef="0" IVar="-1" Cut="0.0000000000000000e+00" cType="1" res="-9.6689378842711449e-03" rms="4.0864706039428711e-01" purity="2.3036304116249084e-01" nType="-99"/>
          <Node pos="r" depth="2" NCoef="0" IVar="-1" Cut="0.0000000000000000e+00" cType="1" res="-3.4548543393611908e-02" rms="3.0501553416252136e-01" purity="1.1213939636945724e-01" nType="-99"/>
        </Node>
      </Node>
    </BinaryTree>
    <BinaryTree type="DecisionTree" boostWeight="1.0000000000000000e+00" itree="14">
      <Node pos="s" depth="0" NCoef="0" IVar="0" Cut="6.3718140125274658e-02" cType="1" res="2.3051789030432701e-02" rms="3.5183414816856384e-01" purity="5.9855979681015015e-01" nType="0">
        <Node pos="l" depth="1" NCoef="0" IVar="-1" Cut="0.0000000000000000e+00" cType="1" res="3.1887017190456390e-02" rms="3.0339616537094116e-01" purity="8.9743024110794067e-01" nType="-99"/>
        <Node pos="r" depth="1" NCoef="0" IVar="1" Cut="9.9950022995471954e-02" cType="1" res="-6.4605429768562317e-02" rms="3.7808817625045776e-01" purity="2.7823504805564880e-01" nType="0">
          <Node pos="l" depth="2" NCoef="0" IVar="-1" Cut="0.0000000000000000e+00" cType="1" res="-2.9758727177977562e-03" rms="4.0048384666442871e-01" purity="3.8675591349601746e-01" nType="-99"/>
          <Node pos="r" depth="2" NCoef="0" IVar="-1" Cut="0.0000000000000000e+00" cType="1" res="-3.2536894083023071e-02" rms="3.4762936830520630e-01" purity="1.7371037602424622e-01" nType="-99"/>
        </Node>
      </Node>
    </BinaryTree>
    <BinaryTree type="DecisionTree" boostWeight="1.0000000000000000e+00" itree="15">
      <Node pos="s" depth="0" NCoef="0" IVar="1" Cut="2.0239880681037903e-01" cType="1" res="2.0812708884477615e-02" rms="3.4956464171409607e-01" purity="5.9855979681015015e-01" nType="0">
        <Node pos="l" depth="1" NCoef="0" IVar="-1" Cut="0.0000000000000000e+00" cType="1" res="1.8205614760518074e-02" rms="3.3207011222839355e-01" purity="6.9570261240005493e-01" nType="-99"/>
        <Node pos="r" depth="1" NCoef="0" IVar="1" Cut="3.9421448111534119e-01" cType="1" res="-1.2233310937881470e-01" rms="3.6963954567909241e-01" purity="2.6535794138908386e-01" nType="0">
          <Node pos="l" depth="2" NCoef="0" IVar="-1" Cut="0.0000000000000000e+00" cType="1" res="-2.4369016289710999e-02" rms="3.7437075376510620e-01" purity="3.6651033163070679e-01" nType="-99"/>
          <Node pos="r" depth="2" NCoef="0" IVar="-1" Cut="0.0000000000000000e+00" cType="1" res="-4.8599138855934143e-02" rms="3.6097443103790283e-01" purity="1.6927899420261383e-01" nType="-99"/>
        </Node>
      </Node>
    </BinaryTree>
    <BinaryTree type="DecisionTree" boostWeight="1.0000000000000000e+00" itree="16">
      <Node pos="s" depth="0" NCoef="0" IVar="0" Cut="4.8725638538599014e-02" cType="1" res="1.8723180517554283e-02" rms="3.4781956672668457e-01" purity="5.9855979681015015e-01" nType="0">
        <Node pos="l" depth="1" NCoef="0" IVar="-1" Cut="0.0000000000000000e+00" cType="1" res="3.1051993370056152e-02" rms="2.9368904232978821e-01" purity="9.0368217229843140e-01" nType="-99"/>
        <Node pos="r" depth="1" NCoef="0" IVar="0" Cut="3.2559725642204285e-01" cType="1" res="-5.3085908293724060e-02" rms="3.7707599997520447e-01" purity="3.1768158078193665e-01" nType="0">
          <Node pos="l" depth="2" NCoef="0" IVar="-1" Cut="0.0000000000000000e+00" cType="1" res="-1.9770662765949965e-03" rms="4.4291746616363525e-01" purity="5.3009843826293945e-01" nType="-99"/>
          <Node pos="r" depth="2" NCoef="0" IVar="-1" Cut="0.0000000000000000e+00" cType="1" res="-3.3481035381555557e-02" rms="2.8055962920188904e-01" purity="8.6042948067188263e-02" nType="-99"/>
        </Node>
      </Node>
    </BinaryTree>
    <BinaryTree type="DecisionTree" boostWeight="1.0000000000000000e+00" itree="17">
      <Node pos="s" depth="0" NCoef="0" IVar="0" Cut="1.7616191506385803e-01" cType="1" res="1.6886316239833832e-02" rms="3.4602019190788269e-01" purity="5.9855979681015015e-01" nType="0">
        <Node pos="l" depth="1" NCoef="0" IVar="-1" Cut="0.0000000000000000e+00" cType="1" res="1.9710075110197067e-02" rms="3.4550812840461731e-01" purity="8.3764511346817017e-01" nType="-99"/>
        <Node pos="r" depth="1" NCoef="0" IVar="3" Cut="3.3758395910263062e-01" cType="0" res="-7.7989287674427032e-02" rms="3.2682606577873230e-01" purity="1.3126410543918610e-01" nType="0">
          <Node pos="l" depth="2" NCoef="0" IVar="-1" Cut="0.0000000000000000e+00" cType="1" res="2.2636540234088898e-03" rms="4.2964580655097961e-01" purity="2.5700712203979492e-01" nType="-99"/>
          <Node pos="r" depth="2" NCoef="0" IVar="-1" Cut="0.0000000000000000e+00" cType="1" res="-2.8228592127561569e-02" rms="3.0853554606437683e-01" purity="1.1431316286325455e-01" nType="-99"/>
        </Node>
      </Node>
    </BinaryTree>
    <BinaryTree type="DecisionTree" boostWeight="1.0000000000000000e+00" itree="18">
      <Node pos="s" depth="0" NCoef="0" IVar="1" Cut="1.3743127882480621e-01" cType="1" res="1.5198003500699997e-02" rms="3.4479871392250061e-01" purity="5.9855979681015015e-01" nType="0">
        <Node pos="l" depth="1" NCoef="0" IVar="-1" Cut="0.0000000000000000e+00" cType="1" res="1.7889723181724548e-02" rms="3.2386785745620728e-01" purity="7.1571111679077148e-01" nType="-99"/>
        <Node pos="r" depth="1" NCoef="0" IVar="1" Cut="2.6261249184608459e-01" cType="1" res="-8.4987781941890717e-02" rms="3.7056154012680054e-01" purity="3.2437950372695923e-01" nType="0">
          <Node pos="l" depth="2" NCoef="0" IVar="-1" Cut="0.0000000000000000e+00" cType="1" res="-1.0042308829724789e-02" rms="3.6940419673919678e-01" purity="4.7203972935676575e-01" nType="-99"/>
          <Node pos="r" depth="2" NCoef="0" IVar="-1" Cut="0.0000000000000000e+00" cType="1" res="-3.8872670382261276e-02" rms="3.6724931001663208e-01" purity="2.2667515277862549e-01" nType="-99"/>
        </Node>
      </Node>
    </BinaryTree>
    <BinaryTree type="DecisionTree" boostWeight="1.0000000000000000e+00" itree="19">
      <Node pos="s" depth="0" NCoef="0" IVar="0" Cut="4.8725638538599014e-02" cType="1" res="1.3677778653800488e-02" rms="3.4342303872108459e-01" purity="5.9855979681015015e-01" nType="0">
        <Node pos="l" depth="1" NCoef="0" IVar="-1" Cut="0.0000000000000000e+00" cType="1" res="2.7163425460457802e-02" rms="2.9259181022644043e-01" purity="9.0368217229843140e-01" nType="-99"/>
        <Node pos="r" depth="1" NCoef="0" IVar="1" Cut="5.1224388182163239e-02" cType="1" res="-4.5742522925138474e-02" rms="3.7461137771606445e-01" purity="3.1768158078193665e-01" nType="0">
          <Node pos="l" depth="2" NCoef="0" IVar="-1" Cut="0.0000000000000000e+00" cType="1" res="2.4424621369689703e-04" rms="3.8978868722915649e-01" purity="4.6089103817939758e-01" nType="-99"/>
          <Node pos="r" depth="2" NCoef="0" IVar="-1" Cut="0.0000000000000000e+00" cType="1" res="-2.3571347817778587e-02" rms="3.6074179410934448e-01" purity="2.2181394696235657e-01" nType="-99"/>
        </Node>
      </Node>
    </BinaryTree>
    <BinaryTree type="DecisionTree" boostWeight="1.0000000000000000e+00" itree="20">
      <Node pos="s" depth="0" NCoef="0" IVar="1" Cut="1.9615192711353302e-01" cType="1" res="1.2357294559478760e-02" rms="3.4218093752861023e-01" purity="5.9855979681015015e-01" nType="0">
        <Node pos="l" depth="1" NCoef="0" IVar="-1" Cut="0.0000000000000000e+00" cType="1" res="1.3687858358025551e-02" rms="3.2726791501045227e-01" purity="6.9747376441955566e-01" nType="-99"/>
        <Node pos="r" depth="1" NCoef="0" IVar="0" Cut="2.0239880681037903e-01" cType="1" res="-8.9706823229789734e-02" rms="3.6961072683334351e-01" purity="2.7076467871665955e-01" nType="0">
          <Node pos="l" depth="2" NCoef="0" IVar="-1" Cut="0.0000000000000000e+00" cType="1" res="-3.9022494107484818e-02" rms="4.6171891689300537e-01" purity="5.4977518320083618e-01" nType="-99"/>
          <Node pos="r" depth="2" NCoef="0" IVar="-1" Cut="0.0000000000000000e+00" cType="1" res="-2.1826667711138725e-02" rms="2.9279756546020508e-01" purity="9.6182182431221008e-02" nType="-99"/>
        </Node>
      </Node>
    </BinaryTree>
    <BinaryTree type="DecisionTree" boostWeight="1.0000000000000000e+00" itree="21">
      <Node pos="s" depth="0" NCoef="0" IVar="0" Cut="4.6226885169744492e-02" cType="1" res="1.1137880384922028e-02" rms="3.4119838476181030e-01" purity="5.9855979681015015e-01" nType="0">
        <Node pos="l" depth="1" NCoef="0" IVar="-1" Cut="0.0000000000000000e+00" cType="1" res="2.5257945060729980e-02" rms="2.9036876559257507e-01" purity="9.0462893247604370e-01" nType="-99"/>
        <Node pos="r" depth="1" NCoef="0" IVar="0" Cut="3.6015301942825317e-01" cType="1" res="-4.0992148220539093e-02" rms="3.7331414222717285e-01" purity="3.2489144802093506e-01" nType="0">
          <Node pos="l" depth="2" NCoef="0" IVar="-1" Cut="0.0000000000000000e+00" cType="1" res="-2.4434488732367754e-03" rms="4.3215805292129517e-01" purity="5.1573914289474487e-01" nType="-99"/>
          <Node pos="r" depth="2" NCoef="0" IVar="-1" Cut="0.0000000000000000e+00" cType="1" res="-2.9799301177263260e-02" rms="2.7616846561431885e-01" purity="8.2258194684982300e-02" nType="-99"/>
        </Node>
      </Node>
    </BinaryTree>
    <BinaryTree type="DecisionTree" boostWeight="1.0000000000000000e+00" itree="22">
      <Node pos="s" depth="0" NCoef="0" IVar="0" Cut="4.6226885169744492e-02" cType="1" res="1.0042176581919193e-02" rms="3.4020128846168518e-01" purity="5.9855979681015015e-01" nType="0">
        <Node pos="l" depth="1" NCoef="0" IVar="-1" Cut="0.0000000000000000e+00" cType="1" res="2.3565210402011871e-02" rms="2.9046601057052612e-01" purity="9.0462893247604370e-01" nType="-99"/>
        <Node pos="r" depth="1" NCoef="0" IVar="0" Cut="3.6015301942825317e-01" cType="1" res="-3.6963071674108505e-02" rms="3.7296417355537415e-01" purity="3.2489144802093506e-01" nType="0">
          <Node pos="l" depth="2" NCoef="0" IVar="-1" Cut="0.0000000000000000e+00" cType="1" res="-2.1986283827573061e-03" rms="4.3215620517730713e-01" purity="5.1573914289474487e-01" nType="-99"/>
          <Node pos="r" depth="2" NCoef="0" IVar="-1" Cut="0.0000000000000000e+00" cType="1" res="-2.7978789061307907e-02" rms="2.7605304121971130e-01" purity="8.2258194684982300e-02" nType="-99"/>
        </Node>
      </Node>
    </BinaryTree>
    <BinaryTree type="DecisionTree" boostWeight="1.0000000000000000e+00" itree="23">
      <Node pos="s" depth="0" NCoef="0" IVar="1" Cut="1.3243378698825836e-01" cType="1" res="9.0531604364514351e-03" rms="3.3939066529273987e-01" purity="5.9855979681015015e-01" nType="0">
        <Node pos="l" depth="1" NCoef="0" IVar="-1" Cut="0.0000000000000000e+00" cType="1" res="1.3703507371246815e-02" rms="3.2055762410163879e-01" purity="7.1743077039718628e-01" nType="-99"/>
        <Node pos="r" depth="1" NCoef="0" IVar="1" Cut="3.9392623305320740e-01" cType="1" res="-6.3469365239143372e-02" rms="3.6852085590362549e-01" purity="3.2885864377021790e-01" nType="0">
          <Node pos="l" depth="2" NCoef="0" IVar="-1" Cut="0.0000000000000000e+00" cType="1" res="-1.2329227291047573e-02" rms="3.6806344985961914e-01" purity="4.2604503035545349e-01" nType="-99"/>
          <Node pos="r" depth="2" NCoef="0" IVar="-1" Cut="0.0000000000000000e+00" cType="1" res="-3.9386268705129623e-02" rms="3.6520460247993469e-01" purity="1.6936016082763672e-01" nType="-99"/>
        </Node>
      </Node>
    </BinaryTree>
    <BinaryTree type="DecisionTree" boostWeight="1.0000000000000000e+00" itree="24">
      <Node pos="s" depth="0" NCoef="0" IVar="0" Cut="3.6231882870197296e-02" cType="1" res="8.1425849348306656e-03" rms="3.3856949210166931e-01" purity="5.9855979681015015e-01" nType="0">
        <Node pos="l" depth="1" NCoef="0" IVar="-1" Cut="0.0000000000000000e+00" cType="1" res="2.2729678079485893e-02" rms="2.8516912460327148e-01" purity="9.0799564123153687e-01" nType="-99"/>
        <Node pos="r" depth="1" NCoef="0" IVar="1" Cut="5.1224388182163239e-02" cType="1" res="-3.0971799045801163e-02" rms="3.7068620324134827e-01" purity="3.5469108819961548e-01" nType="0">
          <Node pos="l" depth="2" NCoef="0" IVar="-1" Cut="0.0000000000000000e+00" cType="1" res="1.0728855850175023e-03" rms="3.7900373339653015e-01" purity="5.0791049003601074e-01" nType="-99"/>
          <Node pos="r" depth="2" NCoef="0" IVar="-1" Cut="0.0000000000000000e+00" cType="1" res="-1.8430011346936226e-02" rms="3.6259084939956665e-01" purity="2.4525761604309082e-01" nType="-99"/>
        </Node>
      </Node>
    </BinaryTree>
    <BinaryTree type="DecisionTree" boostWeight="1.0000000000000000e+00" itree="25">
      <Node pos="s" depth="0" NCoef="0" IVar="1" Cut="8.9955024421215057e-02" cType="1" res="7.3584336787462234e-03" rms="3.3790484070777893e-01" purity="5.9855979681015015e-01" nType="0">
        <Node pos="l" depth="1" NCoef="0" IVar="-1" Cut="0.0000000000000000e+00" cType="1" res="1.3573929667472839e-02" rms="3.1649848818778992e-01" purity="7.3294252157211304e-01" nType="-99"/>
        <Node pos="r" depth="1" NCoef="0" IVar="1" Cut="2.6340749859809875e-01" cType="1" res="-4.5793298631906509e-02" rms="3.6431086063385010e-01" purity="3.7713041901588440e-01" nType="0">
          <Node pos="l" depth="2" NCoef="0" IVar="-1" Cut="0.0000000000000000e+00" cType="1" res="-4.9430043436586857e-03" rms="3.5868531465530396e-01" purity="5.1408451795578003e-01" nType="-99"/>
          <Node pos="r" depth="2" NCoef="0" IVar="-1" Cut="0.0000000000000000e+00" cType="1" res="-2.9759367927908897e-02" rms="3.6740389466285706e-01" purity="2.2621452808380127e-01" nType="-99"/>
        </Node>
      </Node>
    </BinaryTree>
    <BinaryTree type="DecisionTree" boostWeight="1.0000000000000000e+00" itree="26">
      <Node pos="s" depth="0" NCoef="0" IVar="0" Cut="1.8740630149841309e-01" cType="1" res="6.6219768486917019e-03" rms="3.3725345134735107e-01" purity="5.9855979681015015e-01" nType="0">
        <Node pos="l" depth="1" NCoef="0" IVar="-1" Cut="0.0000000000000000e+00" cType="1" res="1.1820519343018532e-02" rms="3.4144645929336548e-01" purity="8.3152019977569580e-01" nType="-99"/>
        <Node pos="r" depth="1" NCoef="0" IVar="3" Cut="3.3758395910263062e-01" cType="0" res="-5.0191555172204971e-02" rms="3.2114040851593018e-01" purity="1.2407192587852478e-01" nType="0">
          <Node pos="l" depth="2" NCoef="0" IVar="-1" Cut="0.0000000000000000e+00" cType="1" res="6.5639815293252468e-03" rms="4.2587077617645264e-01" purity="2.4750000238418579e-01" nType="-99"/>
          <Node pos="r" depth="2" NCoef="0" IVar="-1" Cut="0.0000000000000000e+00" cType="1" res="-2.2117715328931808e-02" rms="3.0346837639808655e-01" purity="1.0787401348352432e-01" nType="-99"/>
        </Node>
      </Node>
    </BinaryTree>
    <BinaryTree type="DecisionTree" boostWeight="1.0000000000000000e+00" itree="27">
      <Node pos="s" depth="0" NCoef="0" IVar="0" Cut="3.1234383583068848e-02" cType="1" res="5.9498888440430164e-03" rms="3.3681291341781616e-01" purity="5.9855979681015015e-01" nType="0">
        <Node pos="l" depth="1" NCoef="0" IVar="-1" Cut="0.0000000000000000e+00" cType="1" res="2.0589606836438179e-02" rms="2.8216716647148132e-01" purity="9.0974891185760498e-01" nType="-99"/>
        <Node pos="r" depth="1" NCoef="0" IVar="0" Cut="3.6065837740898132e-01" cType="1" res="-2.5737863034009933e-02" rms="3.6848708987236023e-01" purity="3.7115275859832764e-01" nType="0">
          <Node pos="l" depth="2" NCoef="0" IVar="-1" Cut="0.0000000000000000e+00" cType="1" res="-1.5783617272973061e-03" rms="4.1771748661994934e-01" purity="5.6537842750549316e-01" nType="-99"/>
          <Node pos="r" depth="2" NCoef="0" IVar="-1" Cut="0.0000000000000000e+00" cType="1" res="-2.3590544238686562e-02" rms="2.7703925967216492e-01" purity="8.2305543124675751e-02" nType="-99"/>
        </Node>
      </Node>
    </BinaryTree>
    <BinaryTree type="DecisionTree" boostWeight="1.0000000000000000e+00" itree="28">
      <Node pos="s" depth="0" NCoef="0" IVar="1" Cut="2.4362818896770477e-01" cType="1" res="5.3641386330127716e-03" rms="3.3634158968925476e-01" purity="5.9855979681015015e-01" nType="0">
        <Node pos="l" depth="1" NCoef="0" IVar="-1" Cut="0.0000000000000000e+00" cType="1" res="8.0382451415061951e-03" rms="3.2568234205245972e-01" purity="6.8496131896972656e-01" nType="-99"/>
        <Node pos="r" depth="1" NCoef="0" IVar="0" Cut="1.6366817057132721e-01" cType="1" res="-6.7469350993633270e-02" rms="3.6897069215774536e-01" purity="2.3633839190006256e-01" nType="0">
          <Node pos="l" depth="2" NCoef="0" IVar="-1" Cut="0.0000000000000000e+00" cType="1" res="-4.6594604849815369e-02" rms="4.7167482972145081e-01" purity="5.2999997138977051e-01" nType="-99"/>
          <Node pos="r" depth="2" NCoef="0" IVar="-1" Cut="0.0000000000000000e+00" cType="1" res="-9.1724572703242302e-03" rms="2.9751950502395630e-01" purity="9.9811129271984100e-02" nType="-99"/>
        </Node>
      </Node>
    </BinaryTree>
    <BinaryTree type="DecisionTree" boostWeight="1.0000000000000000e+00" itree="29">
      <Node pos="s" depth="0" NCoef="0" IVar="0" Cut="3.1234383583068848e-02" cType="1" res="4.8466944135725498e-03" rms="3.3570367097854614e-01" purity="5.9855979681015015e-01" nType="0">
        <Node pos="l" depth="1" NCoef="0" IVar="-1" Cut="0.0000000000000000e+00" cType="1" res="1.8969552591443062e-02" rms="2.8142485022544861e-01" purity="9.0974891185760498e-01" nType="-99"/>
        <Node pos="r" depth="1" NCoef="0" IVar="0" Cut="2.9403528571128845e-01" cType="1" res="-2.3680184036493301e-02" rms="3.6776095628738403e-01" purity="3.7115275859832764e-01" nType="0">
          <Node pos="l" depth="2" NCoef="0" IVar="-1" Cut="0.0000000000000000e+00" cType="1" res="-9.0291356900706887e-04" rms="4.2217385768890381e-01" purity="6.0638880729675293e-01" nType="-99"/>
          <Node pos="r" depth="2" NCoef="0" IVar="-1" Cut="0.0000000000000000e+00" cType="1" res="-2.0273791626095772e-02" rms="2.8815960884094238e-01" purity="9.1284207999706268e-02" nType="-99"/>
        </Node>
      </Node>
    </BinaryTree>
    <BinaryTree type="DecisionTree" boostWeight="1.0000000000000000e+00" itree="30">
      <Node pos="s" depth="0" NCoef="0" IVar="1" Cut="8.6206898093223572e-02" cType="1" res="4.3695908971130848e-03" rms="3.3532866835594177e-01" purity="5.9855979681015015e-01" nType="0">
        <Node pos="l" depth="1" NCoef="0" IVar="-1" Cut="0.0000000000000000e+00" cType="1" res="1.0978987440466881e-02" rms="3.1403836607933044e-01" purity="7.3438614606857300e-01" nType="-99"/>
        <Node pos="r" depth="1" NCoef="0" IVar="1" Cut="4.0588620305061340e-01" cType="1" res="-3.6680527031421661e-02" rms="3.6294972896575928e-01" purity="3.8212710618972778e-01" nType="0">
          <Node pos="l" depth="2" NCoef="0" IVar="-1" Cut="0.0000000000000000e+00" cType="1" res="-7.3584727942943573e-03" rms="3.6055901646614075e-01" purity="4.7025179862976074e-01" nType="-99"/>
          <Node pos="r" depth="2" NCoef="0" IVar="-1" Cut="0.0000000000000000e+00" cType="1" res="-3.1643901020288467e-02" rms="3.6585813760757446e-01" purity="1.6615384817123413e-01" nType="-99"/>
        </Node>
      </Node>
    </BinaryTree>
    <BinaryTree type="DecisionTree" boostWeight="1.0000000000000000e+00" itree="31">
      <Node pos="s" depth="0" NCoef="0" IVar="3" Cut="1.2742861174046993e-02" cType="1" res="3.9300830103456974e-03" rms="3.3487293124198914e-01" purity="5.9855979681015015e-01" nType="0">
        <Node pos="l" depth="1" NCoef="0" IVar="-1" Cut="0.0000000000000000e+00" cType="1" res="2.5299681350588799e-02" rms="2.5627174973487854e-01" purity="9.2308878898620605e-01" nType="-99"/>
        <Node pos="r" depth="1" NCoef="0" IVar="1" Cut="5.1224388182163239e-02" cType="1" res="-1.3450027443468571e-02" rms="3.5526150465011597e-01" purity="4.9176207184791565e-01" nType="0">
          <Node pos="l" depth="2" NCoef="0" IVar="-1" Cut="0.0000000000000000e+00" cType="1" res="3.9861840195953846e-03" rms="3.4336128830909729e-01" purity="6.5509575605392456e-01" nType="-99"/>
          <Node pos="r" depth="2" NCoef="0" IVar="-1" Cut="0.0000000000000000e+00" cType="1" res="-1.3356572017073631e-02" rms="3.6433351039886475e-01" purity="3.4114086627960205e-01" nType="-99"/>
        </Node>
      </Node>
    </BinaryTree>
    <BinaryTree type="DecisionTree" boostWeight="1.0000000000000000e+00" itree="32">
      <Node pos="s" depth="0" NCoef="0" IVar="0" Cut="1.8740630149841309e-01" cType="1" res="3.5600708797574043e-03" rms="3.3447450399398804e-01" purity="5.9855979681015015e-01" nType="0">
        <Node pos="l" depth="1" NCoef="0" IVar="-1" Cut="0.0000000000000000e+00" cType="1" res="8.3788037300109863e-03" rms="3.3921584486961365e-01" purity="8.3152019977569580e-01" nType="-99"/>
        <Node pos="r" depth="1" NCoef="0" IVar="1" Cut="1.4867566525936127e-01" cType="1" res="-3.6029938608407974e-02" rms="3.2098352909088135e-01" purity="1.2407192587852478e-01" nType="0">
          <Node pos="l" depth="2" NCoef="0" IVar="-1" Cut="0.0000000000000000e+00" cType="1" res="-1.9736967980861664e-02" rms="3.4000334143638611e-01" purity="1.4717954397201538e-01" nType="-99"/>
          <Node pos="r" depth="2" NCoef="0" IVar="-1" Cut="0.0000000000000000e+00" cType="1" res="-4.7923219390213490e-03" rms="2.9879429936408997e-01" purity="1.0145759582519531e-01" nType="-99"/>
        </Node>
      </Node>
    </BinaryTree>
    <BinaryTree type="DecisionTree" boostWeight="1.0000000000000000e+00" itree="33">
      <Node pos="s" depth="0" NCoef="0" IVar="1" Cut="1.3743127882480621e-01" cType="1" res="3.1992536969482899e-03" rms="3.3426433801651001e-01" purity="5.9855979681015015e-01" nType="0">
        <Node pos="l" depth="1" NCoef="0" IVar="-1" Cut="0.0000000000000000e+00" cType="1" res="7.9284226521849632e-03" rms="3.1777447462081909e-01" purity="7.1571111679077148e-01" nType="-99"/>
        <Node pos="r" depth="1" NCoef="0" IVar="0" Cut="1.9240379333496094e-01" cType="1" res="-3.9038121700286865e-02" rms="3.6653837561607361e-01" purity="3.2437950372695923e-01" nType="0">
          <Node pos="l" depth="2" NCoef="0" IVar="-1" Cut="0.0000000000000000e+00" cType="1" res="-2.2425755858421326e-02" rms="4.3914553523063660e-01" purity="6.2339788675308228e-01" nType="-99"/>
          <Node pos="r" depth="2" NCoef="0" IVar="-1" Cut="0.0000000000000000e+00" cType="1" res="-4.9341204576194286e-03" rms="2.9751875996589661e-01" purity="1.0052438080310822e-01" nType="-99"/>
        </Node>
      </Node>
    </BinaryTree>
    <BinaryTree type="DecisionTree" boostWeight="1.0000000000000000e+00" itree="34">
      <Node pos="s" depth="0" NCoef="0" IVar="3" Cut="1.2742861174046993e-02" cType="1" res="2.8895339928567410e-03" rms="3.3393606543540955e-01" purity="5.9855979681015015e-01" nType="0">
        <Node pos="l" depth="1" NCoef="0" IVar="-1" Cut="0.0000000000000000e+00" cType="1" res="2.3049522191286087e-02" rms="2.5604027509689331e-01" purity="9.2308878898620605e-01" nType="-99"/>
        <Node pos="r" depth="1" NCoef="0" IVar="1" Cut="5.1224388182163239e-02" cType="1" res="-1.2292654253542423e-02" rms="3.5455048084259033e-01" purity="4.9176207184791565e-01" nType="0">
          <Node pos="l" depth="2" NCoef="0" IVar="-1" Cut="0.0000000000000000e+00" cType="1" res="2.9285994824022055e-03" rms="3.4284830093383789e-01" purity="6.5509575605392456e-01" nType="-99"/>
          <Node pos="r" depth="2" NCoef="0" IVar="-1" Cut="0.0000000000000000e+00" cType="1" res="-1.1582285165786743e-02" rms="3.6394956707954407e-01" purity="3.4114086627960205e-01" nType="-99"/>
        </Node>
      </Node>
    </BinaryTree>
    <BinaryTree type="DecisionTree" boostWeight="1.0000000000000000e+00" itree="35">
      <Node pos="s" depth="0" NCoef="0" IVar="1" Cut="2.4362818896770477e-01" cType="1" res="2.6190923526883125e-03" rms="3.3364319801330566e-01" purity="5.9855979681015015e-01" nType="0">
        <Node pos="l" depth="1" NCoef="0" IVar="-1" Cut="0.0000000000000000e+00" cType="1" res="5.4420330561697483e-03" rms="3.2407695055007935e-01" purity="6.8496131896972656e-01" nType="-99"/>
        <Node pos="r" depth="1" NCoef="0" IVar="0" Cut="1.3993003964424133e-01" cType="1" res="-4.7352802008390427e-02" rms="3.6688220500946045e-01" purity="2.3633839190006256e-01" nType="0">
          <Node pos="l" depth="2" NCoef="0" IVar="-1" Cut="0.0000000000000000e+00" cType="1" res="-3.8966473191976547e-02" rms="4.7331073880195618e-01" purity="5.5334901809692383e-01" nType="-99"/>
          <Node pos="r" depth="2" NCoef="0" IVar="-1" Cut="0.0000000000000000e+00" cType="1" res="-2.7722890954464674e-03" rms="3.0202829837799072e-01" purity="1.0390888899564743e-01" nType="-99"/>
        </Node>
      </Node>
    </BinaryTree>
    <BinaryTree type="DecisionTree" boostWeight="1.0000000000000000e+00" itree="36">
      <Node pos="s" depth="0" NCoef="0" IVar="0" Cut="1.8740630149841309e-01" cType="1" res="2.3701440077275038e-03" rms="3.3323878049850464e-01" purity="5.9855979681015015e-01" nType="0">
        <Node pos="l" depth="1" NCoef="0" IVar="-1" Cut="0.0000000000000000e+00" cType="1" res="7.2882091626524925e-03" rms="3.3772888779640198e-01" purity="8.3152019977569580e-01" nType="-99"/>
        <Node pos="r" depth="1" NCoef="0" IVar="1" Cut="1.4867566525936127e-01" cType="1" res="-3.2603040337562561e-02" rms="3.2107350230216980e-01" purity="1.2407192587852478e-01" nType="0">
          <Node pos="l" depth="2" NCoef="0" IVar="-1" Cut="0.0000000000000000e+00" cType="1" res="-1.9084939733147621e-02" rms="3.4007835388183594e-01" purity="1.4717954397201538e-01" nType="-99"/>
          <Node pos="r" depth="2" NCoef="0" IVar="-1" Cut="0.0000000000000000e+00" cType="1" res="-2.7407344896346331e-03" rms="2.9877176880836487e-01" purity="1.0145759582519531e-01" nType="-99"/>
        </Node>
      </Node>
    </BinaryTree>
    <BinaryTree type="DecisionTree" boostWeight="1.0000000000000000e+00" itree="37">
      <Node pos="s" depth="0" NCoef="0" IVar="0" Cut="3.7481259554624557e-02" cType="1" res="2.1276401821523905e-03" rms="3.3306455612182617e-01" purity="5.9855979681015015e-01" nType="0">
        <Node pos="l" depth="1" NCoef="0" IVar="-1" Cut="0.0000000000000000e+00" cType="1" res="1.3368878513574600e-02" rms="2.8253647685050964e-01" purity="9.0753775835037231e-01" nType="-99"/>
        <Node pos="r" depth="1" NCoef="0" IVar="3" Cut="2.5091156363487244e-01" cType="0" res="-1.8689397722482681e-02" rms="3.6728098988533020e-01" purity="3.5085001587867737e-01" nType="0">
          <Node pos="l" depth="2" NCoef="0" IVar="-1" Cut="0.0000000000000000e+00" cType="1" res="-1.5114495763555169e-03" rms="3.9279770851135254e-01" purity="4.1629037261009216e-01" nType="-99"/>
          <Node pos="r" depth="2" NCoef="0" IVar="-1" Cut="0.0000000000000000e+00" cType="1" res="-1.4995260164141655e-02" rms="3.2223206758499146e-01" purity="2.4863339960575104e-01" nType="-99"/>
        </Node>
      </Node>
    </BinaryTree>
    <BinaryTree type="DecisionTree" boostWeight="1.0000000000000000e+00" itree="38">
      <Node pos="s" depth="0" NCoef="0" IVar="1" Cut="8.9955024421215057e-02" cType="1" res="1.9233559723943472e-03" rms="3.3289268612861633e-01" purity="5.9855979681015015e-01" nType="0">
        <Node pos="l" depth="1" NCoef="0" IVar="-1" Cut="0.0000000000000000e+00" cType="1" res="7.3972335085272789e-03" rms="3.1331756711006165e-01" purity="7.3294252157211304e-01" nType="-99"/>
        <Node pos="r" depth="1" NCoef="0" IVar="0" Cut="1.8215892314910889e+00" cType="1" res="-2.6180593296885490e-02" rms="3.6109808087348938e-01" purity="3.7713041901588440e-01" nType="0">
          <Node pos="l" depth="2" NCoef="0" IVar="-1" Cut="0.0000000000000000e+00" cType="1" res="-1.1765861883759499e-02" rms="3.6017227172851562e-01" purity="3.8812470436096191e-01" nType="-99"/>
          <Node pos="r" depth="2" NCoef="0" IVar="-1" Cut="0.0000000000000000e+00" cType="1" res="4.7344096004962921e-02" rms="3.6516591906547546e-01" purity="1.5783898532390594e-01" nType="-99"/>
        </Node>
      </Node>
    </BinaryTree>
    <BinaryTree type="DecisionTree" boostWeight="1.0000000000000000e+00" itree="39">
      <Node pos="s" depth="0" NCoef="0" IVar="3" Cut="1.2742861174046993e-02" cType="1" res="1.7277605365961790e-03" rms="3.3268788456916809e-01" purity="5.9855979681015015e-01" nType="0">
        <Node pos="l" depth="1" NCoef="0" IVar="-1" Cut="0.0000000000000000e+00" cType="1" res="2.0046109333634377e-02" rms="2.5549831986427307e-01" purity="9.2308878898620605e-01" nType="-99"/>
        <Node pos="r" depth="1" NCoef="0" IVar="0" Cut="3.3233383297920227e-01" cType="1" res="-1.0770791210234165e-02" rms="3.5354125499725342e-01" purity="4.9176207184791565e-01" nType="0">
          <Node pos="l" depth="2" NCoef="0" IVar="-1" Cut="0.0000000000000000e+00" cType="1" res="3.6859168903902173e-04" rms="3.8333728909492493e-01" purity="6.8832832574844360e-01" nType="-99"/>
          <Node pos="r" depth="2" NCoef="0" IVar="-1" Cut="0.0000000000000000e+00" cType="1" res="-1.6999781131744385e-02" rms="2.8043013811111450e-01" purity="8.4872573614120483e-02" nType="-99"/>
        </Node>
      </Node>
    </BinaryTree>
    <BinaryTree type="DecisionTree" boostWeight="1.0000000000000000e+00" itree="40">
      <Node pos="s" depth="0" NCoef="0" IVar="1" Cut="2.5237381458282471e-01" cType="1" res="1.5588431851938367e-03" rms="3.3248984813690186e-01" purity="5.9855979681015015e-01" nType="0">
        <Node pos="l" depth="1" NCoef="0" IVar="-1" Cut="0.0000000000000000e+00" cType="1" res="4.3654250912368298e-03" rms="3.2378980517387390e-01" purity="6.8286210298538208e-01" nType="-99"/>
        <Node pos="r" depth="1" NCoef="0" IVar="0" Cut="1.3993003964424133e-01" cType="1" res="-4.0701866149902344e-02" rms="3.6502081155776978e-01" purity="2.3111565411090851e-01" nType="0">
          <Node pos="l" depth="2" NCoef="0" IVar="-1" Cut="0.0000000000000000e+00" cType="1" res="-3.6062669008970261e-02" rms="4.7457399964332581e-01" purity="5.4686945676803589e-01" nType="-99"/>
          <Node pos="r" depth="2" NCoef="0" IVar="-1" Cut="0.0000000000000000e+00" cType="1" res="-1.8283267854712903e-04" rms="3.0025732517242432e-01" purity="1.0254932940006256e-01" nType="-99"/>
        </Node>
      </Node>
    </BinaryTree>
    <BinaryTree type="DecisionTree" boostWeight="1.0000000000000000e+00" itree="41">
      <Node pos="s" depth="0" NCoef="0" IVar="3" Cut="1.2742861174046993e-02" cType="1" res="1.4127527829259634e-03" rms="3.3216005563735962e-01" purity="5.9855979681015015e-01" nType="0">
        <Node pos="l" depth="1" NCoef="0" IVar="-1" Cut="0.0000000000000000e+00" cType="1" res="1.8671235069632530e-02" rms="2.5510975718498230e-01" purity="9.2308878898620605e-01" nType="-99"/>
        <Node pos="r" depth="1" NCoef="0" IVar="0" Cut="3.5982009768486023e-01" cType="1" res="-9.9170301109552383e-03" rms="3.5313278436660767e-01" purity="4.9176207184791565e-01" nType="0">
          <Node pos="l" depth="2" NCoef="0" IVar="-1" Cut="0.0000000000000000e+00" cType="1" res="1.9917455210816115e-04" rms="3.8177055120468140e-01" purity="6.7431277036666870e-01" nType="-99"/>
          <Node pos="r" depth="2" NCoef="0" IVar="-1" Cut="0.0000000000000000e+00" cType="1" res="-1.6635764390230179e-02" rms="2.7690401673316956e-01" purity="8.2180500030517578e-02" nType="-99"/>
        </Node>
      </Node>
    </BinaryTree>
    <BinaryTree type="DecisionTree" boostWeight="1.0000000000000000e+00" itree="42">
      <Node pos="s" depth="0" NCoef="0" IVar="1" Cut="3.9480260014533997e-01" cType="1" res="1.2742909602820873e-03" rms="3.3199393749237061e-01" purity="5.9855979681015015e-01" nType="0">
        <Node pos="l" depth="1" NCoef="0" IVar="-1" Cut="0.0000000000000000e+00" cType="1" res="3.0714725144207478e-03" rms="3.2747885584831238e-01" purity="6.5465265512466431e-01" nType="-99"/>
        <Node pos="r" depth="1" NCoef="0" IVar="0" Cut="1.2618690729141235e-01" cType="1" res="-4.9130506813526154e-02" rms="3.6076217889785767e-01" purity="1.6900943219661713e-01" nType="0">
          <Node pos="l" depth="2" NCoef="0" IVar="-1" Cut="0.0000000000000000e+00" cType="1" res="-5.7591609656810760e-02" rms="4.8442095518112183e-01" purity="4.2174246907234192e-01" nType="-99"/>
          <Node pos="r" depth="2" NCoef="0" IVar="-1" Cut="0.0000000000000000e+00" cType="1" res="1.2181118363514543e-03" rms="2.9898092150688171e-01" purity="1.0000000149011612e-01" nType="-99"/>
        </Node>
      </Node>
    </BinaryTree>
    <BinaryTree type="DecisionTree" boostWeight="1.0000000000000000e+00" itree="43">
      <Node pos="s" depth="0" NCoef="0" IVar="0" Cut="5.9970013797283173e-02" cType="1" res="1.1565240565687418e-03" rms="3.3159175515174866e-01" purity="5.9855979681015015e-01" nType="0">
        <Node pos="l" depth="1" NCoef="0" IVar="-1" Cut="0.0000000000000000e+00" cType="1" res="9.1076269745826721e-03" rms="2.9123789072036743e-01" purity="8.9877647161483765e-01" nType="-99"/>
        <Node pos="r" depth="1" NCoef="0" IVar="3" Cut="2.5091156363487244e-01" cType="0" res="-1.7216105014085770e-02" rms="3.6788105964660645e-01" purity="2.8743678331375122e-01" nType="0">
          <Node pos="l" depth="2" NCoef="0" IVar="-1" Cut="0.0000000000000000e+00" cType="1" res="-1.1134959058836102e-03" rms="3.9777934551239014e-01" purity="3.4879150986671448e-01" nType="-99"/>
          <Node pos="r" depth="2" NCoef="0" IVar="-1" Cut="0.0000000000000000e+00" cType="1" res="-1.4242176897823811e-02" rms="3.1812411546707153e-01" purity="1.9774010777473450e-01" nType="-99"/>
        </Node>
      </Node>
    </BinaryTree>
    <BinaryTree type="DecisionTree" boostWeight="1.0000000000000000e+00" itree="44">
      <Node pos="s" depth="0" NCoef="0" IVar="3" Cut="1.2742861174046993e-02" cType="1" res="1.0432418202981353e-03" rms="3.3149349689483643e-01" purity="5.9855979681015015e-01" nType="0">
        <Node pos="l" depth="1" NCoef="0" IVar="-1" Cut="0.0000000000000000e+00" cType="1" res="1.6718048602342606e-02" rms="2.5469124317169189e-01" purity="9.2308878898620605e-01" nType="-99"/>
        <Node pos="r" depth="1" NCoef="0" IVar="0" Cut="3.7356323003768921e-01" cType="1" res="-8.7242275476455688e-03" rms="3.5258778929710388e-01" purity="4.9176207184791565e-01" nType="0">
          <Node pos="l" depth="2" NCoef="0" IVar="-1" Cut="0.0000000000000000e+00" cType="1" res="9.3812603154219687e-05" rms="3.8060694932937622e-01" purity="6.6865283250808716e-01" nType="-99"/>
          <Node pos="r" depth="2" NCoef="0" IVar="-1" Cut="0.0000000000000000e+00" cType="1" res="-1.5219118446111679e-02" rms="2.7576270699501038e-01" purity="8.1486478447914124e-02" nType="-99"/>
        </Node>
      </Node>
    </BinaryTree>
    <BinaryTree type="DecisionTree" boostWeight="1.0000000000000000e+00" itree="45">
      <Node pos="s" depth="0" NCoef="0" IVar="1" Cut="5.1224388182163239e-02" cType="1" res="9.4086857279762626e-04" rms="3.3136996626853943e-01" purity="5.9855979681015015e-01" nType="0">
        <Node pos="l" depth="1" NCoef="0" IVar="-1" Cut="0.0000000000000000e+00" cType="1" res="6.8882335908710957e-03" rms="3.0709281563758850e-01" purity="7.4832278490066528e-01" nType="-99"/>
        <Node pos="r" depth="1" NCoef="0" IVar="0" Cut="1.8215892314910889e+00" cType="1" res="-1.6644604504108429e-02" rms="3.5562330484390259e-01" purity="4.3189796805381775e-01" nType="0">
          <Node pos="l" depth="2" NCoef="0" IVar="-1" Cut="0.0000000000000000e+00" cType="1" res="-7.9063707962632179e-03" rms="3.5475316643714905e-01" purity="4.4315603375434875e-01" nType="-99"/>
          <Node pos="r" depth="2" NCoef="0" IVar="-1" Cut="0.0000000000000000e+00" cType="1" res="4.6886030584573746e-02" rms="3.6500835418701172e-01" purity="1.5762537717819214e-01" nType="-99"/>
        </Node>
      </Node>
    </BinaryTree>
    <BinaryTree type="DecisionTree" boostWeight="1.0000000000000000e+00" itree="46">
      <Node pos="s" depth="0" NCoef="0" IVar="1" Cut="5.0849574804306030e-01" cType="1" res="8.4346072981134057e-04" rms="3.3123216032981873e-01" purity="5.9855979681015015e-01" nType="0">
        <Node pos="l" depth="1" NCoef="0" IVar="-1" Cut="0.0000000000000000e+00" cType="1" res="2.1790692117065191e-03" rms="3.2828387618064880e-01" purity="6.3924431800842285e-01" nType="-99"/>
        <Node pos="r" depth="1" NCoef="0" IVar="0" Cut="1.1119440197944641e-01" cType="1" res="-5.0852451473474503e-02" rms="3.5858497023582458e-01" purity="1.4285714924335480e-01" nType="0">
          <Node pos="l" depth="2" NCoef="0" IVar="-1" Cut="0.0000000000000000e+00" cType="1" res="-7.4595175683498383e-02" rms="4.6907356381416321e-01" purity="3.3644860982894897e-01" nType="-99"/>
          <Node pos="r" depth="2" NCoef="0" IVar="-1" Cut="0.0000000000000000e+00" cType="1" res="3.0899411067366600e-03" rms="3.0210724472999573e-01" purity="1.0191982239484787e-01" nType="-99"/>
        </Node>
      </Node>
    </BinaryTree>
    <BinaryTree type="DecisionTree" boostWeight="1.0000000000000000e+00" itree="47">
      <Node pos="s" depth="0" NCoef="0" IVar="0" Cut="2.5987005233764648e-01" cType="1" res="7.6806778088212013e-04" rms="3.3082163333892822e-01" purity="5.9855979681015015e-01" nType="0">
        <Node pos="l" depth="1" NCoef="0" IVar="-1" Cut="0.0000000000000000e+00" cType="1" res="4.0530809201300144e-03" rms="3.4300720691680908e-01" purity="7.9615712165832520e-01" nType="-99"/>
        <Node pos="r" depth="1" NCoef="0" IVar="1" Cut="1.4867566525936127e-01" cType="1" res="-2.4176880717277527e-02" rms="2.9630839824676514e-01" purity="9.8583951592445374e-02" nType="0">
          <Node pos="l" depth="2" NCoef="0" IVar="-1" Cut="0.0000000000000000e+00" cType="1" res="-2.1181801334023476e-02" rms="3.0332407355308533e-01" purity="1.0669155418872833e-01" nType="-99"/>
          <Node pos="r" depth="2" NCoef="0" IVar="-1" Cut="0.0000000000000000e+00" cType="1" res="3.3072161022573709e-03" rms="2.8677487373352051e-01" purity="9.1406054794788361e-02" nType="-99"/>
        </Node>
      </Node>
    </BinaryTree>
    <BinaryTree type="DecisionTree" boostWeight="1.0000000000000000e+00" itree="48">
      <Node pos="s" depth="0" NCoef="0" IVar="3" Cut="1.2742861174046993e-02" cType="1" res="6.8185006966814399e-04" rms="3.3070552349090576e-01" purity="5.9855979681015015e-01" nType="0">
        <Node pos="l" depth="1" NCoef="0" IVar="-1" Cut="0.0000000000000000e+00" cType="1" res="1.5142594464123249e-02" rms="2.5406017899513245e-01" purity="9.2308878898620605e-01" nType="-99"/>
        <Node pos="r" depth="1" NCoef="0" IVar="0" Cut="4.7851073741912842e-01" cType="1" res="-7.9368036240339279e-03" rms="3.5187444090843201e-01" purity="4.9176207184791565e-01" nType="0">
          <Node pos="l" depth="2" NCoef="0" IVar="-1" Cut="0.0000000000000000e+00" cType="1" res="-4.0936397272162139e-04" rms="3.7502840161323547e-01" purity="6.2697666883468628e-01" nType="-99"/>
          <Node pos="r" depth="2" NCoef="0" IVar="-1" Cut="0.0000000000000000e+00" cType="1" res="-1.5457100234925747e-02" rms="2.6741769909858704e-01" purity="7.6119557023048401e-02" nType="-99"/>
        </Node>
      </Node>
    </BinaryTree>
    <BinaryTree type="DecisionTree" boostWeight="1.0000000000000000e+00" itree="49">
      <Node pos="s" depth="0" NCoef="0" IVar="1" Cut="2.0239880681037903e-01" cType="1" res="6.1508704675361514e-04" rms="3.3061334490776062e-01" purity="5.9855979681015015e-01" nType="0">
        <Node pos="l" depth="1" NCoef="0" IVar="-1" Cut="0.0000000000000000e+00" cType="1" res="3.4612508025020361e-03" rms="3.2011839747428894e-01" purity="6.9570261240005493e-01" nType="-99"/>
        <Node pos="r" depth="1" NCoef="0" IVar="0" Cut="1.5617191791534424e-01" cType="1" res="-2.6339316740632057e-02" rms="3.6303138732910156e-01" purity="2.6535794138908386e-01" nType="0">
          <Node pos="l" depth="2" NCoef="0" IVar="-1" Cut="0.0000000000000000e+00" cType="1" res="-2.3413006216287613e-02" rms="4.5498859882354736e-01" purity="5.8183181285858154e-01" nType="-99"/>
          <Node pos="r" depth="2" NCoef="0" IVar="-1" Cut="0.0000000000000000e+00" cType="1" res="3.2726298086345196e-03" rms="3.0057528614997864e-01" purity="1.0368192195892334e-01" nType="-99"/>
        </Node>
      </Node>
    </BinaryTree>
    <BinaryTree type="DecisionTree" boostWeight="1.0000000000000000e+00" itree="50">
      <Node pos="s" depth="0" NCoef="0" IVar="0" Cut="9.4952523708343506e-02" cType="1" res="5.5838970001786947e-04" rms="3.3041375875473022e-01" purity="5.9855979681015015e-01" nType="0">
        <Node pos="l" depth="1" NCoef="0" IVar="-1" Cut="0.0000000000000000e+00" cType="1" res="5.7078981772065163e-03" rms="3.0690690875053406e-01" purity="8.8115000724792480e-01" nType="-99"/>
        <Node pos="r" depth="1" NCoef="0" IVar="3" Cut="2.4942541122436523e-01" cType="0" res="-1.5455138869583607e-02" rms="3.5920158028602600e-01" purity="2.1568010747432709e-01" nType="0">
          <Node pos="l" depth="2" NCoef="0" IVar="-1" Cut="0.0000000000000000e+00" cType="1" res="-3.1293090432882309e-04" rms="3.9275172352790833e-01" purity="2.6829457283020020e-01" nType="-99"/>
          <Node pos="r" depth="2" NCoef="0" IVar="-1" Cut="0.0000000000000000e+00" cType="1" res="-1.4640782959759235e-02" rms="3.0615711212158203e-01" purity="1.4349727332592010e-01" nType="-99"/>
        </Node>
      </Node>
    </BinaryTree>
    <BinaryTree type="DecisionTree" boostWeight="1.0000000000000000e+00" itree="51">
      <Node pos="s" depth="0" NCoef="0" IVar="1" Cut="5.1224388182163239e-02" cType="1" res="5.0067069241777062e-04" rms="3.3034771680831909e-01" purity="5.9855979681015015e-01" nType="0">
        <Node pos="l" depth="1" NCoef="0" IVar="-1" Cut="0.0000000000000000e+00" cType="1" res="5.6494302116334438e-03" rms="3.0656734108924866e-01" purity="7.4832278490066528e-01" nType="-99"/>
        <Node pos="r" depth="1" NCoef="0" IVar="0" Cut="1.8653173446655273e+00" cType="1" res="-1.3765624724328518e-02" rms="3.5439854860305786e-01" purity="4.3189796805381775e-01" nType="0">
          <Node pos="l" depth="2" NCoef="0" IVar="-1" Cut="0.0000000000000000e+00" cType="1" res="-6.7215841263532639e-03" rms="3.5349515080451965e-01" purity="4.4246006011962891e-01" nType="-99"/>
          <Node pos="r" depth="2" NCoef="0" IVar="-1" Cut="0.0000000000000000e+00" cType="1" res="4.3910034000873566e-02" rms="3.6691620945930481e-01" purity="1.5982721745967865e-01" nType="-99"/>
        </Node>
      </Node>
    </BinaryTree>
    <BinaryTree type="DecisionTree" boostWeight="1.0000000000000000e+00" itree="52">
      <Node pos="s" depth="0" NCoef="0" IVar="3" Cut="1.2742861174046993e-02" cType="1" res="4.4733117101714015e-04" rms="3.3024540543556213e-01" purity="5.9855979681015015e-01" nType="0">
        <Node pos="l" depth="1" NCoef="0" IVar="-1" Cut="0.0000000000000000e+00" cType="1" res="1.3623790815472603e-02" rms="2.5379788875579834e-01" purity="9.2308878898620605e-01" nType="-99"/>
        <Node pos="r" depth="1" NCoef="0" IVar="0" Cut="4.7851073741912842e-01" cType="1" res="-7.0968721993267536e-03" rms="3.5146179795265198e-01" purity="4.9176207184791565e-01" nType="0">
          <Node pos="l" depth="2" NCoef="0" IVar="-1" Cut="0.0000000000000000e+00" cType="1" res="-3.9092422230169177e-04" rms="3.7464934587478638e-01" purity="6.2697666883468628e-01" nType="-99"/>
          <Node pos="r" depth="2" NCoef="0" IVar="-1" Cut="0.0000000000000000e+00" cType="1" res="-1.4101453125476837e-02" rms="2.6707088947296143e-01" purity="7.6119557023048401e-02" nType="-99"/>
        </Node>
      </Node>
    </BinaryTree>
    <BinaryTree type="DecisionTree" boostWeight="1.0000000000000000e+00" itree="53">
      <Node pos="s" depth="0" NCoef="0" IVar="1" Cut="5.1349323987960815e-01" cType="1" res="4.0353357326239347e-04" rms="3.3017516136169434e-01" purity="5.9855979681015015e-01" nType="0">
        <Node pos="l" depth="1" NCoef="0" IVar="-1" Cut="0.0000000000000000e+00" cType="1" res="1.7032203031703830e-03" rms="3.2767495512962341e-01" purity="6.3855421543121338e-01" nType="-99"/>
        <Node pos="r" depth="1" NCoef="0" IVar="0" Cut="1.1119440197944641e-01" cType="1" res="-4.2343229055404663e-02" rms="3.5470825433731079e-01" purity="1.4167061448097229e-01" nType="0">
          <Node pos="l" depth="2" NCoef="0" IVar="-1" Cut="0.0000000000000000e+00" cType="1" res="-6.4326979219913483e-02" rms="4.6864357590675354e-01" purity="3.2968536019325256e-01" nType="-99"/>
          <Node pos="r" depth="2" NCoef="0" IVar="-1" Cut="0.0000000000000000e+00" cType="1" res="5.0445254892110825e-03" rms="3.0231314897537231e-01" purity="1.0221073776483536e-01" nType="-99"/>
        </Node>
      </Node>
    </BinaryTree>
    <BinaryTree type="DecisionTree" boostWeight="1.0000000000000000e+00" itree="54">
      <Node pos="s" depth="0" NCoef="0" IVar="0" Cut="1.6116940975189209e-01" cType="1" res="3.6799849476665258e-04" rms="3.2985362410545349e-01" purity="5.9855979681015015e-01" nType="0">
        <Node pos="l" depth="1" NCoef="0" IVar="-1" Cut="0.0000000000000000e+00" cType="1" res="3.8154546637088060e-03" rms="3.2863941788673401e-01" purity="8.4581202268600464e-01" nType="-99"/>
        <Node pos="r" depth="1" NCoef="0" IVar="1" Cut="1.8865567445755005e-01" cType="1" res="-1.5880478546023369e-02" rms="3.3147400617599487e-01" purity="1.4138005673885345e-01" nType="0">
          <Node pos="l" depth="2" NCoef="0" IVar="-1" Cut="0.0000000000000000e+00" cType="1" res="-1.1648959480226040e-02" rms="3.5200968384742737e-01" purity="1.6988116502761841e-01" nType="-99"/>
          <Node pos="r" depth="2" NCoef="0" IVar="-1" Cut="0.0000000000000000e+00" cType="1" res="4.8828311264514923e-03" rms="3.0176669359207153e-01" purity="1.0530209541320801e-01" nType="-99"/>
        </Node>
      </Node>
    </BinaryTree>
    <BinaryTree type="DecisionTree" boostWeight="1.0000000000000000e+00" itree="55">
      <Node pos="s" depth="0" NCoef="0" IVar="1" Cut="2.8485757112503052e-01" cType="1" res="3.2788745011202991e-04" rms="3.2980003952980042e-01" purity="5.9855979681015015e-01" nType="0">
        <Node pos="l" depth="1" NCoef="0" IVar="-1" Cut="0.0000000000000000e+00" cType="1" res="2.3550246842205524e-03" rms="3.2362675666809082e-01" purity="6.7517936229705811e-01" nType="-99"/>
        <Node pos="r" depth="1" NCoef="0" IVar="0" Cut="5.3723137825727463e-02" cType="1" res="-2.6375217363238335e-02" rms="3.5785597562789917e-01" purity="2.1584793925285339e-01" nType="0">
          <Node pos="l" depth="2" NCoef="0" IVar="-1" Cut="0.0000000000000000e+00" cType="1" res="-3.6327552050352097e-02" rms="4.7413796186447144e-01" purity="5.9507262706756592e-01" nType="-99"/>
          <Node pos="r" depth="2" NCoef="0" IVar="-1" Cut="0.0000000000000000e+00" cType="1" res="-7.4655428761616349e-04" rms="3.2128965854644775e-01" purity="1.3188810646533966e-01" nType="-99"/>
        </Node>
      </Node>
    </BinaryTree>
    <BinaryTree type="DecisionTree" boostWeight="1.0000000000000000e+00" itree="56">
      <Node pos="s" depth="0" NCoef="0" IVar="3" Cut="1.2742861174046993e-02" cType="1" res="3.0211833654902875e-04" rms="3.2960954308509827e-01" purity="5.9855979681015015e-01" nType="0">
        <Node pos="l" depth="1" NCoef="0" IVar="-1" Cut="0.0000000000000000e+00" cType="1" res="1.2502839788794518e-02" rms="2.5298556685447693e-01" purity="9.2308878898620605e-01" nType="-99"/>
        <Node pos="r" depth="1" NCoef="0" IVar="0" Cut="2.3463268280029297e+00" cType="1" res="-6.4726164564490318e-03" rms="3.5092410445213318e-01" purity="4.9176207184791565e-01" nType="0">
          <Node pos="l" depth="2" NCoef="0" IVar="-1" Cut="0.0000000000000000e+00" cType="1" res="-2.9130077455192804e-03" rms="3.5031703114509583e-01" purity="4.9640658497810364e-01" nType="-99"/>
          <Node pos="r" depth="2" NCoef="0" IVar="-1" Cut="0.0000000000000000e+00" cType="1" res="4.5083340257406235e-02" rms="3.8053956627845764e-01" purity="1.7543859779834747e-01" nType="-99"/>
        </Node>
      </Node>
    </BinaryTree>
    <BinaryTree type="DecisionTree" boostWeight="1.0000000000000000e+00" itree="57">
      <Node pos="s" depth="0" NCoef="0" IVar="1" Cut="5.1224388182163239e-02" cType="1" res="2.7379058883525431e-04" rms="3.2955601811408997e-01" purity="5.9855979681015015e-01" nType="0">
        <Node pos="l" depth="1" NCoef="0" IVar="-1" Cut="0.0000000000000000e+00" cType="1" res="4.7477521002292633e-03" rms="3.0625176429748535e-01" purity="7.4832278490066528e-01" nType="-99"/>
        <Node pos="r" depth="1" NCoef="0" IVar="0" Cut="1.8215892314910889e+00" cType="1" res="-1.1600723490118980e-02" rms="3.5331061482429504e-01" purity="4.3189796805381775e-01" nType="0">
          <Node pos="l" depth="2" NCoef="0" IVar="-1" Cut="0.0000000000000000e+00" cType="1" res="-5.7599795982241631e-03" rms="3.5255038738250732e-01" purity="4.4315603375434875e-01" nType="-99"/>
          <Node pos="r" depth="2" NCoef="0" IVar="-1" Cut="0.0000000000000000e+00" cType="1" res="3.3383570611476898e-02" rms="3.6427980661392212e-01" purity="1.5762537717819214e-01" nType="-99"/>
        </Node>
      </Node>
    </BinaryTree>
    <BinaryTree type="DecisionTree" boostWeight="1.0000000000000000e+00" itree="58">
      <Node pos="s" depth="0" NCoef="0" IVar="0" Cut="3.2608696818351746e-01" cType="1" res="2.4432258214801550e-04" rms="3.2948103547096252e-01" purity="5.9855979681015015e-01" nType="0">
        <Node pos="l" depth="1" NCoef="0" IVar="-1" Cut="0.0000000000000000e+00" cType="1" res="2.6082815602421761e-03" rms="3.4398031234741211e-01" purity="7.6837205886840820e-01" nType="-99"/>
        <Node pos="r" depth="1" NCoef="0" IVar="1" Cut="1.2868565320968628e-01" cType="0" res="-1.9227178767323494e-02" rms="2.8031677007675171e-01" purity="8.5968680679798126e-02" nType="0">
          <Node pos="l" depth="2" NCoef="0" IVar="-1" Cut="0.0000000000000000e+00" cType="1" res="5.0539462827146053e-03" rms="2.7924165129661560e-01" purity="8.6170211434364319e-02" nType="-99"/>
          <Node pos="r" depth="2" NCoef="0" IVar="-1" Cut="0.0000000000000000e+00" cType="1" res="-2.2984895855188370e-02" rms="2.7771279215812683e-01" purity="8.5693538188934326e-02" nType="-99"/>
        </Node>
      </Node>
    </BinaryTree>
    <BinaryTree type="DecisionTree" boostWeight="1.0000000000000000e+00" itree="59">
      <Node pos="s" depth="0" NCoef="0" IVar="1" Cut="5.1349323987960815e-01" cType="1" res="2.1045777248218656e-04" rms="3.2939326763153076e-01" purity="5.9855979681015015e-01" nType="0">
        <Node pos="l" depth="1" NCoef="0" IVar="-1" Cut="0.0000000000000000e+00" cType="1" res="1.4684182824566960e-03" rms="3.2735753059387207e-01" purity="6.3855421543121338e-01" nType="-99"/>
        <Node pos="r" depth="1" NCoef="0" IVar="0" Cut="8.3708144724369049e-02" cType="1" res="-3.7607606500387192e-02" rms="3.4959676861763000e-01" purity="1.4167061448097229e-01" nType="0">
          <Node pos="l" depth="2" NCoef="0" IVar="-1" Cut="0.0000000000000000e+00" cType="1" res="-5.7058002799749374e-02" rms="4.7318771481513977e-01" purity="3.4579437971115112e-01" nType="-99"/>
          <Node pos="r" depth="2" NCoef="0" IVar="-1" Cut="0.0000000000000000e+00" cType="1" res="1.4920611865818501e-03" rms="3.0550518631935120e-01" purity="1.0498320311307907e-01" nType="-99"/>
        </Node>
      </Node>
    </BinaryTree>
    <BinaryTree type="DecisionTree" boostWeight="1.0000000000000000e+00" itree="60">
      <Node pos="s" depth="0" NCoef="0" IVar="2" Cut="5.3574621677398682e-01" cType="1" res="1.9293057266622782e-04" rms="3.2915163040161133e-01" purity="5.9855979681015015e-01" nType="0">
        <Node pos="l" depth="1" NCoef="0" IVar="-1" Cut="0.0000000000000000e+00" cType="1" res="4.8643918707966805e-03" rms="2.9924491047859192e-01" purity="7.9944181442260742e-01" nType="-99"/>
        <Node pos="r" depth="1" NCoef="0" IVar="0" Cut="1.2493752874433994e-03" cType="1" res="-1.1453009210526943e-02" rms="3.6000803112983704e-01" purity="3.6854180693626404e-01" nType="0">
          <Node pos="l" depth="2" NCoef="0" IVar="-1" Cut="0.0000000000000000e+00" cType="1" res="-3.9358016103506088e-02" rms="3.9435094594955444e-01" purity="7.9348933696746826e-01" nType="-99"/>
          <Node pos="r" depth="2" NCoef="0" IVar="-1" Cut="0.0000000000000000e+00" cType="1" res="-3.1498919706791639e-03" rms="3.5818636417388916e-01" purity="3.5070866346359253e-01" nType="-99"/>
        </Node>
      </Node>
    </BinaryTree>
    <BinaryTree type="DecisionTree" boostWeight="1.0000000000000000e+00" itree="61">
      <Node pos="s" depth="0" NCoef="0" IVar="0" Cut="3.1234383583068848e-02" cType="1" res="1.7912234761752188e-04" rms="3.2910123467445374e-01" purity="5.9855979681015015e-01" nType="0">
        <Node pos="l" depth="1" NCoef="0" IVar="-1" Cut="0.0000000000000000e+00" cType="1" res="6.8860957399010658e-03" rms="2.7530089020729065e-01" purity="9.0974891185760498e-01" nType="-99"/>
        <Node pos="r" depth="1" NCoef="0" IVar="3" Cut="2.3605006933212280e-01" cType="0" res="-8.6981505155563354e-03" rms="3.6315754055976868e-01" purity="3.7115275859832764e-01" nType="0">
          <Node pos="l" depth="2" NCoef="0" IVar="-1" Cut="0.0000000000000000e+00" cType="1" res="-1.2649418204091489e-04" rms="3.8259530067443848e-01" purity="4.2082989215850830e-01" nType="-99"/>
          <Node pos="r" depth="2" NCoef="0" IVar="-1" Cut="0.0000000000000000e+00" cType="1" res="-1.0763335973024368e-02" rms="3.1729951500892639e-01" purity="2.6578620076179504e-01" nType="-99"/>
        </Node>
      </Node>
    </BinaryTree>
    <BinaryTree type="DecisionTree" boostWeight="1.0000000000000000e+00" itree="62">
      <Node pos="s" depth="0" NCoef="0" IVar="1" Cut="1.3743127882480621e-01" cType="1" res="1.6250670887529850e-04" rms="3.2906207442283630e-01" purity="5.9855979681015015e-01" nType="0">
        <Node pos="l" depth="1" NCoef="0" IVar="-1" Cut="0.0000000000000000e+00" cType="1" res="2.9507945291697979e-03" rms="3.1490054726600647e-01" purity="7.1571111679077148e-01" nType="-99"/>
        <Node pos="r" depth="1" NCoef="0" IVar="0" Cut="1.9240379333496094e-01" cType="1" res="-1.5446128323674202e-02" rms="3.5955154895782471e-01" purity="3.2437950372695923e-01" nType="0">
          <Node pos="l" depth="2" NCoef="0" IVar="-1" Cut="0.0000000000000000e+00" cType="1" res="-1.2507361359894276e-02" rms="4.2797636985778809e-01" purity="6.2339788675308228e-01" nType="-99"/>
          <Node pos="r" depth="2" NCoef="0" IVar="-1" Cut="0.0000000000000000e+00" cType="1" res="3.7913159467279911e-03" rms="2.9635787010192871e-01" purity="1.0052438080310822e-01" nType="-99"/>
        </Node>
      </Node>
    </BinaryTree>
    <BinaryTree type="DecisionTree" boostWeight="1.0000000000000000e+00" itree="63">
      <Node pos="s" depth="0" NCoef="0" IVar="0" Cut="4.7851073741912842e-01" cType="1" res="1.4808846754021943e-04" rms="3.2896518707275391e-01" purity="5.9855979681015015e-01" nType="0">
        <Node pos="l" depth="1" NCoef="0" IVar="-1" Cut="0.0000000000000000e+00" cType="1" res="1.9790816586464643e-03" rms="3.4144070744514465e-01" purity="7.1715843677520752e-01" nType="-99"/>
        <Node pos="r" depth="1" NCoef="0" IVar="1" Cut="1.2868565320968628e-01" cType="0" res="-2.1072186529636383e-02" rms="2.6613399386405945e-01" purity="7.6184578239917755e-02" nType="0">
          <Node pos="l" depth="2" NCoef="0" IVar="-1" Cut="0.0000000000000000e+00" cType="1" res="4.3513616546988487e-03" rms="2.7537170052528381e-01" purity="8.3585098385810852e-02" nType="-99"/>
          <Node pos="r" depth="2" NCoef="0" IVar="-1" Cut="0.0000000000000000e+00" cType="1" res="-2.8858443722128868e-02" rms="2.4443864822387695e-01" purity="6.4360417425632477e-02" nType="-99"/>
        </Node>
      </Node>
    </BinaryTree>
    <BinaryTree type="DecisionTree" boostWeight="1.0000000000000000e+00" itree="64">
      <Node pos="s" depth="0" NCoef="0" IVar="1" Cut="3.9480260014533997e-01" cType="1" res="1.2355110084172338e-04" rms="3.2888343930244446e-01" purity="5.9855979681015015e-01" nType="0">
        <Node pos="l" depth="1" NCoef="0" IVar="-1" Cut="0.0000000000000000e+00" cType="1" res="1.5530094970017672e-03" rms="3.2594910264015198e-01" purity="6.5465265512466431e-01" nType="-99"/>
        <Node pos="r" depth="1" NCoef="0" IVar="0" Cut="2.0364817976951599e-01" cType="1" res="-2.7141969650983810e-02" rms="3.4933999180793762e-01" purity="1.6900943219661713e-01" nType="0">
          <Node pos="l" depth="2" NCoef="0" IVar="-1" Cut="0.0000000000000000e+00" cType="1" res="-2.9895843937993050e-02" rms="4.5505002140998840e-01" purity="3.6331775784492493e-01" nType="-99"/>
          <Node pos="r" depth="2" NCoef="0" IVar="-1" Cut="0.0000000000000000e+00" cType="1" res="8.8417623192071915e-03" rms="2.8778806328773499e-01" purity="9.2272199690341949e-02" nType="-99"/>
        </Node>
      </Node>
    </BinaryTree>
    <BinaryTree type="DecisionTree" boostWeight="1.0000000000000000e+00" itree="65">
      <Node pos="s" depth="0" NCoef="0" IVar="2" Cut="5.3574621677398682e-01" cType="1" res="1.1039037053706124e-04" rms="3.2871887087821960e-01" purity="5.9855979681015015e-01" nType="0">
        <Node pos="l" depth="1" NCoef="0" IVar="-1" Cut="0.0000000000000000e+00" cType="1" res="4.2971177026629448e-03" rms="2.9881882667541504e-01" purity="7.9944181442260742e-01" nType="-99"/>
        <Node pos="r" depth="1" NCoef="0" IVar="0" Cut="1.2493752874433994e-03" cType="1" res="-1.0097004473209381e-02" rms="3.5964670777320862e-01" purity="3.6854180693626404e-01" nType="0">
          <Node pos="l" depth="2" NCoef="0" IVar="-1" Cut="0.0000000000000000e+00" cType="1" res="-3.4445449709892273e-02" rms="3.9384213089942932e-01" purity="7.9348933696746826e-01" nType="-99"/>
          <Node pos="r" depth="2" NCoef="0" IVar="-1" Cut="0.0000000000000000e+00" cType="1" res="-2.7512549422681332e-03" rms="3.5787993669509888e-01" purity="3.5070866346359253e-01" nType="-99"/>
        </Node>
      </Node>
    </BinaryTree>
    <BinaryTree type="DecisionTree" boostWeight="1.0000000000000000e+00" itree="66">
      <Node pos="s" depth="0" NCoef="0" IVar="0" Cut="2.2738631069660187e-01" cType="1" res="1.0359935549786314e-04" rms="3.2868006825447083e-01" purity="5.9855979681015015e-01" nType="0">
        <Node pos="l" depth="1" NCoef="0" IVar="-1" Cut="0.0000000000000000e+00" cType="1" res="2.5083736982196569e-03" rms="3.3873030543327332e-01" purity="8.1154185533523560e-01" nType="-99"/>
        <Node pos="r" depth="1" NCoef="0" IVar="3" Cut="3.3758395910263062e-01" cType="0" res="-1.4027993194758892e-02" rms="3.0374741554260254e-01" purity="1.0697586089372635e-01" nType="0">
          <Node pos="l" depth="2" NCoef="0" IVar="-1" Cut="0.0000000000000000e+00" cType="1" res="2.1468242630362511e-02" rms="4.1288042068481445e-01" purity="2.2481572628021240e-01" nType="-99"/>
          <Node pos="r" depth="2" NCoef="0" IVar="-1" Cut="0.0000000000000000e+00" cType="1" res="-1.1175266467034817e-02" rms="2.8747200965881348e-01" purity="9.3463867902755737e-02" nType="-99"/>
        </Node>
      </Node>
    </BinaryTree>
    <BinaryTree type="DecisionTree" boostWeight="1.0000000000000000e+00" itree="67">
      <Node pos="s" depth="0" NCoef="0" IVar="1" Cut="8.6206898093223572e-02" cType="1" res="8.6459127487614751e-05" rms="3.2861238718032837e-01" purity="5.9855979681015015e-01" nType="0">
        <Node pos="l" depth="1" NCoef="0" IVar="-1" Cut="0.0000000000000000e+00" cType="1" res="3.1962809152901173e-03" rms="3.1019222736358643e-01" purity="7.3438614606857300e-01" nType="-99"/>
        <Node pos="r" depth="1" NCoef="0" IVar="0" Cut="1.6616691350936890e+00" cType="1" res="-1.1278660967946053e-02" rms="3.5570469498634338e-01" purity="3.8212710618972778e-01" nType="0">
          <Node pos="l" depth="2" NCoef="0" IVar="-1" Cut="0.0000000000000000e+00" cType="1" res="-5.9613455086946487e-03" rms="3.5554027557373047e-01" purity="3.9640587568283081e-01" nType="-99"/>
          <Node pos="r" depth="2" NCoef="0" IVar="-1" Cut="0.0000000000000000e+00" cType="1" res="2.9490791261196136e-02" rms="3.5261574387550354e-01" purity="1.4705882966518402e-01" nType="-99"/>
        </Node>
      </Node>
    </BinaryTree>
    <BinaryTree type="DecisionTree" boostWeight="1.0000000000000000e+00" itree="68">
      <Node pos="s" depth="0" NCoef="0" IVar="3" Cut="1.2742861174046993e-02" cType="1" res="7.5376927270554006e-05" rms="3.2855269312858582e-01" purity="5.9855979681015015e-01" nType="0">
        <Node pos="l" depth="1" NCoef="0" IVar="-1" Cut="0.0000000000000000e+00" cType="1" res="9.8596401512622833e-03" rms="2.5220292806625366e-01" purity="9.2308878898620605e-01" nType="-99"/>
        <Node pos="r" depth="1" NCoef="0" IVar="3" Cut="2.1122881770133972e-01" cType="0" res="-5.0141257233917713e-03" rms="3.4990581870079041e-01" purity="4.9176207184791565e-01" nType="0">
          <Node pos="l" depth="2" NCoef="0" IVar="-1" Cut="0.0000000000000000e+00" cType="1" res="-2.4869682965800166e-04" rms="3.5874578356742859e-01" purity="5.2846223115921021e-01" nType="-99"/>
          <Node pos="r" depth="2" NCoef="0" IVar="-1" Cut="0.0000000000000000e+00" cType="1" res="-9.7815105691552162e-03" rms="3.1048589944839478e-01" purity="3.4156432747840881e-01" nType="-99"/>
        </Node>
      </Node>
    </BinaryTree>
    <BinaryTree type="DecisionTree" boostWeight="1.0000000000000000e+00" itree="69">
      <Node pos="s" depth="0" NCoef="0" IVar="1" Cut="5.1349323987960815e-01" cType="1" res="7.0232155849225819e-05" rms="3.2851943373680115e-01" purity="5.9855979681015015e-01" nType="0">
        <Node pos="l" depth="1" NCoef="0" IVar="-1" Cut="0.0000000000000000e+00" cType="1" res="1.1213860707357526e-03" rms="3.2689169049263000e-01" purity="6.3855421543121338e-01" nType="-99"/>
        <Node pos="r" depth="1" NCoef="0" IVar="0" Cut="5.2473764866590500e-02" cType="1" res="-2.9230672866106033e-02" rms="3.4522274136543274e-01" purity="1.4167061448097229e-01" nType="0">
          <Node pos="l" depth="2" NCoef="0" IVar="-1" Cut="0.0000000000000000e+00" cType="1" res="-5.3692299872636795e-02" rms="4.7541576623916626e-01" purity="3.5991820693016052e-01" nType="-99"/>
          <Node pos="r" depth="2" NCoef="0" IVar="-1" Cut="0.0000000000000000e+00" cType="1" res="-4.8096368118422106e-05" rms="3.1278523802757263e-01" purity="1.1302013695240021e-01" nType="-99"/>
        </Node>
      </Node>
    </BinaryTree>
    <BinaryTree type="DecisionTree" boostWeight="1.0000000000000000e+00" itree="70">
      <Node pos="s" depth="0" NCoef="0" IVar="0" Cut="4.7851073741912842e-01" cType="1" res="6.5796462877187878e-05" rms="3.2834732532501221e-01" purity="5.9855979681015015e-01" nType="0">
        <Node pos="l" depth="1" NCoef="0" IVar="-1" Cut="0.0000000000000000e+00" cType="1" res="1.6583467368036509e-03" rms="3.4089866280555725e-01" purity="7.1715843677520752e-01" nType="-99"/>
        <Node pos="r" depth="1" NCoef="0" IVar="1" Cut="2.2363817691802979e-01" cType="0" res="-1.7780786380171776e-02" rms="2.6537364721298218e-01" purity="7.6184578239917755e-02" nType="0">
          <Node pos="l" depth="2" NCoef="0" IVar="-1" Cut="0.0000000000000000e+00" cType="1" res="1.0594384744763374e-02" rms="2.7925881743431091e-01" purity="8.6689278483390808e-02" nType="-99"/>
          <Node pos="r" depth="2" NCoef="0" IVar="-1" Cut="0.0000000000000000e+00" cType="1" res="-2.3883186280727386e-02" rms="2.4769002199172974e-01" purity="6.6210508346557617e-02" nType="-99"/>
        </Node>
      </Node>
    </BinaryTree>
    <BinaryTree type="DecisionTree" boostWeight="1.0000000000000000e+00" itree="71">
      <Node pos="s" depth="0" NCoef="0" IVar="1" Cut="6.2343829870223999e-01" cType="1" res="4.9955266149481758e-05" rms="3.2828074693679810e-01" purity="5.9855979681015015e-01" nType="0">
        <Node pos="l" depth="1" NCoef="0" IVar="-1" Cut="0.0000000000000000e+00" cType="1" res="8.9774967636913061e-04" rms="3.2725727558135986e-01" purity="6.2812834978103638e-01" nType="-99"/>
        <Node pos="r" depth="1" NCoef="0" IVar="0" Cut="8.3708144724369049e-02" cType="1" res="-3.2703202217817307e-02" rms="3.4254321455955505e-01" purity="1.2666018307209015e-01" nType="0">
          <Node pos="l" depth="2" NCoef="0" IVar="-1" Cut="0.0000000000000000e+00" cType="1" res="-6.0322672128677368e-02" rms="4.3570417165756226e-01" purity="2.5665858387947083e-01" nType="-99"/>
          <Node pos="r" depth="2" NCoef="0" IVar="-1" Cut="0.0000000000000000e+00" cType="1" res="3.8657819386571646e-03" rms="3.0751770734786987e-01" purity="1.0658189654350281e-01" nType="-99"/>
        </Node>
      </Node>
    </BinaryTree>
    <BinaryTree type="DecisionTree" boostWeight="1.0000000000000000e+00" itree="72">
      <Node pos="s" depth="0" NCoef="0" IVar="0" Cut="8.2458771765232086e-02" cType="1" res="4.5828895963495597e-05" rms="3.2809209823608398e-01" purity="5.9855979681015015e-01" nType="0">
        <Node pos="l" depth="1" NCoef="0" IVar="-1" Cut="0.0000000000000000e+00" cType="1" res="3.7990440614521503e-03" rms="2.9816415905952454e-01" purity="8.8776105642318726e-01" nType="-99"/>
        <Node pos="r" depth="1" NCoef="0" IVar="3" Cut="2.4942541122436523e-01" cType="0" res="-9.2788655310869217e-03" rms="3.6176672577857971e-01" purity="2.3768837749958038e-01" nType="0">
          <Node pos="l" depth="2" NCoef="0" IVar="-1" Cut="0.0000000000000000e+00" cType="1" res="4.5778183266520500e-04" rms="3.9476034045219421e-01" purity="2.9282051324844360e-01" nType="-99"/>
          <Node pos="r" depth="2" NCoef="0" IVar="-1" Cut="0.0000000000000000e+00" cType="1" res="-1.0503076016902924e-02" rms="3.0845522880554199e-01" purity="1.5963074564933777e-01" nType="-99"/>
        </Node>
      </Node>
    </BinaryTree>
    <BinaryTree type="DecisionTree" boostWeight="1.0000000000000000e+00" itree="73">
      <Node pos="s" depth="0" NCoef="0" IVar="2" Cut="5.3574621677398682e-01" cType="1" res="4.0131446439772844e-05" rms="3.2806700468063354e-01" purity="5.9855979681015015e-01" nType="0">
        <Node pos="l" depth="1" NCoef="0" IVar="-1" Cut="0.0000000000000000e+00" cType="1" res="3.6196622531861067e-03" rms="2.9806417226791382e-01" purity="7.9944181442260742e-01" nType="-99"/>
        <Node pos="r" depth="1" NCoef="0" IVar="0" Cut="1.2493752874433994e-03" cType="1" res="-8.4248166531324387e-03" rms="3.5917142033576965e-01" purity="3.6854180693626404e-01" nType="0">
          <Node pos="l" depth="2" NCoef="0" IVar="-1" Cut="0.0000000000000000e+00" cType="1" res="-3.0285600572824478e-02" rms="3.9299035072326660e-01" purity="7.9348933696746826e-01" nType="-99"/>
          <Node pos="r" depth="2" NCoef="0" IVar="-1" Cut="0.0000000000000000e+00" cType="1" res="-2.2363713942468166e-03" rms="3.5746106505393982e-01" purity="3.5070866346359253e-01" nType="-99"/>
        </Node>
      </Node>
    </BinaryTree>
    <BinaryTree type="DecisionTree" boostWeight="1.0000000000000000e+00" itree="74">
      <Node pos="s" depth="0" NCoef="0" IVar="1" Cut="5.1224388182163239e-02" cType="1" res="3.9360038499580696e-05" rms="3.2803797721862793e-01" purity="5.9855979681015015e-01" nType="0">
        <Node pos="l" depth="1" NCoef="0" IVar="-1" Cut="0.0000000000000000e+00" cType="1" res="3.3231507986783981e-03" rms="3.0540588498115540e-01" purity="7.4832278490066528e-01" nType="-99"/>
        <Node pos="r" depth="1" NCoef="0" IVar="3" Cut="4.1025564074516296e-01" cType="0" res="-8.0428188666701317e-03" rms="3.5133841633796692e-01" purity="4.3189796805381775e-01" nType="0">
          <Node pos="l" depth="2" NCoef="0" IVar="-1" Cut="0.0000000000000000e+00" cType="1" res="-1.8022758886218071e-02" rms="4.1364791989326477e-01" purity="7.1042680740356445e-01" nType="-99"/>
          <Node pos="r" depth="2" NCoef="0" IVar="-1" Cut="0.0000000000000000e+00" cType="1" res="-1.8540663877502084e-03" rms="3.4557181596755981e-01" purity="4.0941208600997925e-01" nType="-99"/>
        </Node>
      </Node>
    </BinaryTree>
    <BinaryTree type="DecisionTree" boostWeight="1.0000000000000000e+00" itree="75">
      <Node pos="s" depth="0" NCoef="0" IVar="0" Cut="3.1234383583068848e-02" cType="1" res="3.7311623600544408e-05" rms="3.2798886299133301e-01" purity="5.9855979681015015e-01" nType="0">
        <Node pos="l" depth="1" NCoef="0" IVar="-1" Cut="0.0000000000000000e+00" cType="1" res="5.2574854344129562e-03" rms="2.7383083105087280e-01" purity="9.0974891185760498e-01" nType="-99"/>
        <Node pos="r" depth="1" NCoef="0" IVar="1" Cut="1.9977511167526245e+00" cType="1" res="-6.5422323532402515e-03" rms="3.6234289407730103e-01" purity="3.7115275859832764e-01" nType="0">
          <Node pos="l" depth="2" NCoef="0" IVar="-1" Cut="0.0000000000000000e+00" cType="1" res="-2.6668289210647345e-03" rms="3.6181208491325378e-01" purity="3.7202727794647217e-01" nType="-99"/>
          <Node pos="r" depth="2" NCoef="0" IVar="-1" Cut="0.0000000000000000e+00" cType="1" res="7.0975281298160553e-02" rms="4.2022088170051575e-01" purity="2.2826087474822998e-01" nType="-99"/>
        </Node>
      </Node>
    </BinaryTree>
    <BinaryTree type="DecisionTree" boostWeight="1.0000000000000000e+00" itree="76">
      <Node pos="s" depth="0" NCoef="0" IVar="1" Cut="6.2343829870223999e-01" cType="1" res="3.2583462598267943e-05" rms="3.2796904444694519e-01" purity="5.9855979681015015e-01" nType="0">
        <Node pos="l" depth="1" NCoef="0" IVar="-1" Cut="0.0000000000000000e+00" cType="1" res="7.9095130786299706e-04" rms="3.2714098691940308e-01" purity="6.2812834978103638e-01" nType="-99"/>
        <Node pos="r" depth="1" NCoef="0" IVar="0" Cut="6.3718140125274658e-02" cType="1" res="-2.8736863285303116e-02" rms="3.3961987495422363e-01" purity="1.2666018307209015e-01" nType="0">
          <Node pos="l" depth="2" NCoef="0" IVar="-1" Cut="0.0000000000000000e+00" cType="1" res="-5.8707214891910553e-02" rms="4.3705129623413086e-01" purity="2.6436781883239746e-01" nType="-99"/>
          <Node pos="r" depth="2" NCoef="0" IVar="-1" Cut="0.0000000000000000e+00" cType="1" res="2.1231083665043116e-03" rms="3.1040233373641968e-01" purity="1.0916392505168915e-01" nType="-99"/>
        </Node>
      </Node>
    </BinaryTree>
    <BinaryTree type="DecisionTree" boostWeight="1.0000000000000000e+00" itree="77">
      <Node pos="s" depth="0" NCoef="0" IVar="0" Cut="4.7851073741912842e-01" cType="1" res="3.0167007935233414e-05" rms="3.2781338691711426e-01" purity="5.9855979681015015e-01" nType="0">
        <Node pos="l" depth="1" NCoef="0" IVar="-1" Cut="0.0000000000000000e+00" cType="1" res="1.4025121927261353e-03" rms="3.4039196372032166e-01" purity="7.1715843677520752e-01" nType="-99"/>
        <Node pos="r" depth="1" NCoef="0" IVar="1" Cut="3.2108944654464722e-01" cType="0" res="-1.5030656009912491e-02" rms="2.6488238573074341e-01" purity="7.6184578239917755e-02" nType="0">
          <Node pos="l" depth="2" NCoef="0" IVar="-1" Cut="0.0000000000000000e+00" cType="1" res="1.5598075464367867e-02" rms="2.8673109412193298e-01" purity="9.2200480401515961e-02" nType="-99"/>
          <Node pos="r" depth="2" NCoef="0" IVar="-1" Cut="0.0000000000000000e+00" cType="1" res="-2.0256193354725838e-02" rms="2.4762172996997833e-01" purity="6.6151782870292664e-02" nType="-99"/>
        </Node>
      </Node>
    </BinaryTree>
    <BinaryTree type="DecisionTree" boostWeight="1.0000000000000000e+00" itree="78">
      <Node pos="s" depth="0" NCoef="0" IVar="1" Cut="3.6356821656227112e-01" cType="1" res="1.8601836927700788e-05" rms="3.2775825262069702e-01" purity="5.9855979681015015e-01" nType="0">
        <Node pos="l" depth="1" NCoef="0" IVar="-1" Cut="0.0000000000000000e+00" cType="1" res="1.1926868464797735e-03" rms="3.2481101155281067e-01" purity="6.5953534841537476e-01" nType="-99"/>
        <Node pos="r" depth="1" NCoef="0" IVar="0" Cut="5.3723137825727463e-02" cType="1" res="-1.8603703007102013e-02" rms="3.4664434194564819e-01" purity="1.8214446306228638e-01" nType="0">
          <Node pos="l" depth="2" NCoef="0" IVar="-1" Cut="0.0000000000000000e+00" cType="1" res="-2.8653299435973167e-02" rms="4.7273051738739014e-01" purity="5.1425760984420776e-01" nType="-99"/>
          <Node pos="r" depth="2" NCoef="0" IVar="-1" Cut="0.0000000000000000e+00" cType="1" res="2.7447790489532053e-04" rms="3.1499829888343811e-01" purity="1.2257495522499084e-01" nType="-99"/>
        </Node>
      </Node>
    </BinaryTree>
    <BinaryTree type="DecisionTree" boostWeight="1.0000000000000000e+00" itree="79">
      <Node pos="s" depth="0" NCoef="0" IVar="0" Cut="5.9970013797283173e-02" cType="1" res="1.8512875612941571e-05" rms="3.2766348123550415e-01" purity="5.9855979681015015e-01" nType="0">
        <Node pos="l" depth="1" NCoef="0" IVar="-1" Cut="0.0000000000000000e+00" cType="1" res="3.8484667893499136e-03" rms="2.8615051507949829e-01" purity="8.9877647161483765e-01" nType="-99"/>
        <Node pos="r" depth="1" NCoef="0" IVar="2" Cut="2.7349281311035156e-01" cType="1" res="-7.2597111575305462e-03" rms="3.6560386419296265e-01" purity="2.8743678331375122e-01" nType="0">
          <Node pos="l" depth="2" NCoef="0" IVar="-1" Cut="0.0000000000000000e+00" cType="1" res="-1.4585725963115692e-02" rms="3.8443794846534729e-01" purity="3.5349717736244202e-01" nType="-99"/>
          <Node pos="r" depth="2" NCoef="0" IVar="-1" Cut="0.0000000000000000e+00" cType="1" res="-1.3636260991916060e-03" rms="3.6366298794746399e-01" purity="2.8151226043701172e-01" nType="-99"/>
        </Node>
      </Node>
    </BinaryTree>
    <BinaryTree type="DecisionTree" boostWeight="1.0000000000000000e+00" itree="80">
      <Node pos="s" depth="0" NCoef="0" IVar="2" Cut="3.2781672477722168e+00" cType="1" res="1.7401822333340533e-05" rms="3.2763898372650146e-01" purity="5.9855979681015015e-01" nType="0">
        <Node pos="l" depth="1" NCoef="0" IVar="-1" Cut="0.0000000000000000e+00" cType="1" res="-2.2053293650969863e-04" rms="3.2715502381324768e-01" purity="6.0073769092559814e-01" nType="-99"/>
        <Node pos="r" depth="1" NCoef="0" IVar="3" Cut="3.3615544438362122e-01" cType="0" res="9.1590359807014465e-02" rms="3.9277267456054688e-01" purity="2.1812079846858978e-01" nType="0">
          <Node pos="l" depth="2" NCoef="0" IVar="-1" Cut="0.0000000000000000e+00" cType="1" res="7.3225058615207672e-02" rms="4.5031923055648804e-01" purity="3.6000001430511475e-01" nType="-99"/>
          <Node pos="r" depth="2" NCoef="0" IVar="-1" Cut="0.0000000000000000e+00" cType="1" res="2.4292169138789177e-02" rms="3.5082244873046875e-01" purity="1.4646464586257935e-01" nType="-99"/>
        </Node>
      </Node>
    </BinaryTree>
    <BinaryTree type="DecisionTree" boostWeight="1.0000000000000000e+00" itree="81">
      <Node pos="s" depth="0" NCoef="0" IVar="3" Cut="4.0552282333374023e-01" cType="0" res="1.3842499356542248e-05" rms="3.2761389017105103e-01" purity="5.9855979681015015e-01" nType="0">
        <Node pos="l" depth="1" NCoef="0" IVar="-1" Cut="0.0000000000000000e+00" cType="1" res="-8.9356582611799240e-03" rms="3.5394033789634705e-01" purity="8.1676059961318970e-01" nType="-99"/>
        <Node pos="r" depth="1" NCoef="0" IVar="0" Cut="3.1234383583068848e-02" cType="1" res="2.3754141293466091e-03" rms="3.2430094480514526e-01" purity="5.7294088602066040e-01" nType="0">
          <Node pos="l" depth="2" NCoef="0" IVar="-1" Cut="0.0000000000000000e+00" cType="1" res="9.4722621142864227e-03" rms="2.5432723760604858e-01" purity="9.2391180992126465e-01" nType="-99"/>
          <Node pos="r" depth="2" NCoef="0" IVar="-1" Cut="0.0000000000000000e+00" cType="1" res="-1.9236457301303744e-03" rms="3.5939973592758179e-01" purity="3.6358061432838440e-01" nType="-99"/>
        </Node>
      </Node>
    </BinaryTree>
    <BinaryTree type="DecisionTree" boostWeight="1.0000000000000000e+00" itree="82">
      <Node pos="s" depth="0" NCoef="0" IVar="1" Cut="2.0239880681037903e-01" cType="1" res="1.7173872038256377e-05" rms="3.2758143544197083e-01" purity="5.9855979681015015e-01" nType="0">
        <Node pos="l" depth="1" NCoef="0" IVar="-1" Cut="0.0000000000000000e+00" cType="1" res="1.5754171181470156e-03" rms="3.1869912147521973e-01" purity="6.9570261240005493e-01" nType="-99"/>
        <Node pos="r" depth="1" NCoef="0" IVar="0" Cut="2.0239880681037903e-01" cType="1" res="-1.2088745832443237e-02" rms="3.5610425472259521e-01" purity="2.6535794138908386e-01" nType="0">
          <Node pos="l" depth="2" NCoef="0" IVar="-1" Cut="0.0000000000000000e+00" cType="1" res="-1.2184267863631248e-02" rms="4.4075497984886169e-01" purity="5.4219549894332886e-01" nType="-99"/>
          <Node pos="r" depth="2" NCoef="0" IVar="-1" Cut="0.0000000000000000e+00" cType="1" res="5.9714675880968571e-03" rms="2.9027897119522095e-01" purity="9.5673538744449615e-02" nType="-99"/>
        </Node>
      </Node>
    </BinaryTree>
    <BinaryTree type="DecisionTree" boostWeight="1.0000000000000000e+00" itree="83">
      <Node pos="s" depth="0" NCoef="0" IVar="0" Cut="4.7851073741912842e-01" cType="1" res="1.5545727364951745e-05" rms="3.2751482725143433e-01" purity="5.9855979681015015e-01" nType="0">
        <Node pos="l" depth="1" NCoef="0" IVar="-1" Cut="0.0000000000000000e+00" cType="1" res="1.2924636248499155e-03" rms="3.4012934565544128e-01" purity="7.1715843677520752e-01" nType="-99"/>
        <Node pos="r" depth="1" NCoef="0" IVar="1" Cut="1.2868565320968628e-01" cType="0" res="-1.3831486925482750e-02" rms="2.6445323228836060e-01" purity="7.6184578239917755e-02" nType="0">
          <Node pos="l" depth="2" NCoef="0" IVar="-1" Cut="0.0000000000000000e+00" cType="1" res="4.6431287191808224e-03" rms="2.7438935637474060e-01" purity="8.3585098385810852e-02" nType="-99"/>
          <Node pos="r" depth="2" NCoef="0" IVar="-1" Cut="0.0000000000000000e+00" cType="1" res="-2.3655680939555168e-02" rms="2.4423977732658386e-01" purity="6.4360417425632477e-02" nType="-99"/>
        </Node>
      </Node>
    </BinaryTree>
    <BinaryTree type="DecisionTree" boostWeight="1.0000000000000000e+00" itree="84">
      <Node pos="s" depth="0" NCoef="0" IVar="1" Cut="6.2343829870223999e-01" cType="1" res="7.7996583058848046e-06" rms="3.2747143507003784e-01" purity="5.9855979681015015e-01" nType="0">
        <Node pos="l" depth="1" NCoef="0" IVar="-1" Cut="0.0000000000000000e+00" cType="1" res="7.0485839387401938e-04" rms="3.2689267396926880e-01" purity="6.2812834978103638e-01" nType="-99"/>
        <Node pos="r" depth="1" NCoef="0" IVar="0" Cut="2.5237381458282471e-01" cType="1" res="-2.5690659880638123e-02" rms="3.3552944660186768e-01" purity="1.2666018307209015e-01" nType="0">
          <Node pos="l" depth="2" NCoef="0" IVar="-1" Cut="0.0000000000000000e+00" cType="1" res="-3.7523891776800156e-02" rms="3.9625588059425354e-01" purity="2.0024569332599640e-01" nType="-99"/>
          <Node pos="r" depth="2" NCoef="0" IVar="-1" Cut="0.0000000000000000e+00" cType="1" res="1.4428569935262203e-02" rms="2.9735249280929565e-01" purity="1.0030796378850937e-01" nType="-99"/>
        </Node>
      </Node>
    </BinaryTree>
    <BinaryTree type="DecisionTree" boostWeight="1.0000000000000000e+00" itree="85">
      <Node pos="s" depth="0" NCoef="0" IVar="0" Cut="1.9490255415439606e-01" cType="1" res="3.7318036447686609e-06" rms="3.2734775543212891e-01" purity="5.9855979681015015e-01" nType="0">
        <Node pos="l" depth="1" NCoef="0" IVar="-1" Cut="0.0000000000000000e+00" cType="1" res="1.8592292908579111e-03" rms="3.3277755975723267e-01" purity="8.2816743850708008e-01" nType="-99"/>
        <Node pos="r" depth="1" NCoef="0" IVar="1" Cut="1.8740629777312279e-02" cType="1" res="-9.1171516105532646e-03" rms="3.1555557250976562e-01" purity="1.2080734223127365e-01" nType="0">
          <Node pos="l" depth="2" NCoef="0" IVar="-1" Cut="0.0000000000000000e+00" cType="1" res="-1.4808609150350094e-02" rms="3.3632957935333252e-01" purity="1.4467005431652069e-01" nType="-99"/>
          <Node pos="r" depth="2" NCoef="0" IVar="-1" Cut="0.0000000000000000e+00" cType="1" res="1.2081186287105083e-03" rms="3.0729427933692932e-01" purity="1.1263822764158249e-01" nType="-99"/>
        </Node>
      </Node>
    </BinaryTree>
    <BinaryTree type="DecisionTree" boostWeight="1.0000000000000000e+00" itree="86">
      <Node pos="s" depth="0" NCoef="0" IVar="1" Cut="5.1224388182163239e-02" cType="1" res="6.6332142978353659e-07" rms="3.2731032371520996e-01" purity="5.9855979681015015e-01" nType="0">
        <Node pos="l" depth="1" NCoef="0" IVar="-1" Cut="0.0000000000000000e+00" cType="1" res="2.8708106838166714e-03" rms="3.0502822995185852e-01" purity="7.4832278490066528e-01" nType="-99"/>
        <Node pos="r" depth="1" NCoef="0" IVar="0" Cut="2.3463268280029297e+00" cType="1" res="-6.8367421627044678e-03" rms="3.5031837224960327e-01" purity="4.3189796805381775e-01" nType="0">
          <Node pos="l" depth="2" NCoef="0" IVar="-1" Cut="0.0000000000000000e+00" cType="1" res="-3.4553003497421741e-03" rms="3.4936341643333435e-01" purity="4.3721657991409302e-01" nType="-99"/>
          <Node pos="r" depth="2" NCoef="0" IVar="-1" Cut="0.0000000000000000e+00" cType="1" res="3.3532511442899704e-02" rms="3.8475161790847778e-01" purity="1.8426103889942169e-01" nType="-99"/>
        </Node>
      </Node>
    </BinaryTree>
    <BinaryTree type="DecisionTree" boostWeight="1.0000000000000000e+00" itree="87">
      <Node pos="s" depth="0" NCoef="0" IVar="3" Cut="4.0102532505989075e-01" cType="0" res="-9.0905996330548078e-07" rms="3.2727640867233276e-01" purity="5.9855979681015015e-01" nType="0">
        <Node pos="l" depth="1" NCoef="0" IVar="-1" Cut="0.0000000000000000e+00" cType="1" res="-7.7157029882073402e-03" rms="3.5590299963951111e-01" purity="8.1284058094024658e-01" nType="-99"/>
        <Node pos="r" depth="1" NCoef="0" IVar="0" Cut="9.2453770339488983e-02" cType="1" res="2.2176124621182680e-03" rms="3.2341206073760986e-01" purity="5.7149004936218262e-01" nType="0">
          <Node pos="l" depth="2" NCoef="0" IVar="-1" Cut="0.0000000000000000e+00" cType="1" res="5.6232186034321785e-03" rms="2.9216349124908447e-01" purity="8.9060527086257935e-01" nType="-99"/>
          <Node pos="r" depth="2" NCoef="0" IVar="-1" Cut="0.0000000000000000e+00" cType="1" res="-2.8235751669853926e-03" rms="3.5485243797302246e-01" purity="2.1474461257457733e-01" nType="-99"/>
        </Node>
      </Node>
    </BinaryTree>
    <BinaryTree type="DecisionTree" boostWeight="1.0000000000000000e+00" itree="88">
      <Node pos="s" depth="0" NCoef="0" IVar="2" Cut="3.2781672477722168e+00" cType="1" res="1.6295803106913809e-06" rms="3.2725283503532410e-01" purity="5.9855979681015015e-01" nType="0">
        <Node pos="l" depth="1" NCoef="0" IVar="-1" Cut="0.0000000000000000e+00" cType="1" res="-2.0482631225604564e-04" rms="3.2679897546768188e-01" purity="6.0073769092559814e-01" nType="-99"/>
        <Node pos="r" depth="1" NCoef="0" IVar="3" Cut="3.3528792858123779e-01" cType="0" res="8.1631802022457123e-02" rms="3.9018854498863220e-01" purity="2.1812079846858978e-01" nType="0">
          <Node pos="l" depth="2" NCoef="0" IVar="-1" Cut="0.0000000000000000e+00" cType="1" res="6.1405021697282791e-02" rms="4.4643193483352661e-01" purity="3.5238096117973328e-01" nType="-99"/>
          <Node pos="r" depth="2" NCoef="0" IVar="-1" Cut="0.0000000000000000e+00" cType="1" res="1.8981954082846642e-02" rms="3.4763211011886597e-01" purity="1.4507772028446198e-01" nType="-99"/>
        </Node>
      </Node>
    </BinaryTree>
    <BinaryTree type="DecisionTree" boostWeight="1.0000000000000000e+00" itree="89">
      <Node pos="s" depth="0" NCoef="0" IVar="0" Cut="4.7851073741912842e-01" cType="1" res="1.3690645062069962e-07" rms="3.2723215222358704e-01" purity="5.9855979681015015e-01" nType="0">
        <Node pos="l" depth="1" NCoef="0" IVar="-1" Cut="0.0000000000000000e+00" cType="1" res="1.1570890201255679e-03" rms="3.3991181850433350e-01" purity="7.1715843677520752e-01" nType="-99"/>
        <Node pos="r" depth="1" NCoef="0" IVar="1" Cut="3.2108944654464722e-01" cType="0" res="-1.2362534180283546e-02" rms="2.6388335227966309e-01" purity="7.6184578239917755e-02" nType="0">
          <Node pos="l" depth="2" NCoef="0" IVar="-1" Cut="0.0000000000000000e+00" cType="1" res="1.1457367800176144e-02" rms="2.8618574142456055e-01" purity="9.2200480401515961e-02" nType="-99"/>
          <Node pos="r" depth="2" NCoef="0" IVar="-1" Cut="0.0000000000000000e+00" cType="1" res="-1.7409708350896835e-02" rms="2.4724105000495911e-01" purity="6.6151782870292664e-02" nType="-99"/>
        </Node>
      </Node>
    </BinaryTree>
    <BinaryTree type="DecisionTree" boostWeight="1.0000000000000000e+00" itree="90">
      <Node pos="s" depth="0" NCoef="0" IVar="1" Cut="5.0849574804306030e-01" cType="1" res="-5.6449844123562798e-06" rms="3.2719734311103821e-01" purity="5.9855979681015015e-01" nType="0">
        <Node pos="l" depth="1" NCoef="0" IVar="-1" Cut="0.0000000000000000e+00" cType="1" res="8.0499466275796294e-04" rms="3.2632803916931152e-01" purity="6.3924431800842285e-01" nType="-99"/>
        <Node pos="r" depth="1" NCoef="0" IVar="0" Cut="2.9110443592071533e-01" cType="1" res="-2.0541433244943619e-02" rms="3.3609858155250549e-01" purity="1.4285714924335480e-01" nType="0">
          <Node pos="l" depth="2" NCoef="0" IVar="-1" Cut="0.0000000000000000e+00" cType="1" res="-2.4299245327711105e-02" rms="4.0828302502632141e-01" purity="2.4546115100383759e-01" nType="-99"/>
          <Node pos="r" depth="2" NCoef="0" IVar="-1" Cut="0.0000000000000000e+00" cType="1" res="1.0352673009037971e-02" rms="2.8918662667274475e-01" purity="9.4371996819972992e-02" nType="-99"/>
        </Node>
      </Node>
    </BinaryTree>
    <BinaryTree type="DecisionTree" boostWeight="1.0000000000000000e+00" itree="91">
      <Node pos="s" depth="0" NCoef="0" IVar="2" Cut="2.2741115093231201e+00" cType="1" res="-7.2998359428311232e-06" rms="3.2711663842201233e-01" purity="5.9855979681015015e-01" nType="0">
        <Node pos="l" depth="1" NCoef="0" IVar="-1" Cut="0.0000000000000000e+00" cType="1" res="-4.8173806862905622e-04" rms="3.2611960172653198e-01" purity="6.1308050155639648e-01" nType="-99"/>
        <Node pos="r" depth="1" NCoef="0" IVar="3" Cut="3.2735070586204529e-01" cType="0" res="3.0978385359048843e-02" rms="3.5294553637504578e-01" purity="1.8478873372077942e-01" nType="0">
          <Node pos="l" depth="2" NCoef="0" IVar="-1" Cut="0.0000000000000000e+00" cType="1" res="2.8300965204834938e-02" rms="4.2576214671134949e-01" purity="3.2055214047431946e-01" nType="-99"/>
          <Node pos="r" depth="2" NCoef="0" IVar="-1" Cut="0.0000000000000000e+00" cType="1" res="1.9242450362071395e-03" rms="2.9931202530860901e-01" purity="1.0596616566181183e-01" nType="-99"/>
        </Node>
      </Node>
    </BinaryTree>
    <BinaryTree type="DecisionTree" boostWeight="1.0000000000000000e+00" itree="92">
      <Node pos="s" depth="0" NCoef="0" IVar="2" Cut="6.2191516160964966e-01" cType="1" res="-7.7129207056714222e-06" rms="3.2709121704101562e-01" purity="5.9855979681015015e-01" nType="0">
        <Node pos="l" depth="1" NCoef="0" IVar="-1" Cut="0.0000000000000000e+00" cType="1" res="2.4355759378522635e-03" rms="3.0139806866645813e-01" purity="7.7853226661682129e-01" nType="-99"/>
        <Node pos="r" depth="1" NCoef="0" IVar="0" Cut="1.2493752874433994e-03" cType="1" res="-6.6444878466427326e-03" rms="3.5833996534347534e-01" purity="3.5898122191429138e-01" nType="0">
          <Node pos="l" depth="2" NCoef="0" IVar="-1" Cut="0.0000000000000000e+00" cType="1" res="-2.4991346523165703e-02" rms="3.9222574234008789e-01" purity="7.9345601797103882e-01" nType="-99"/>
          <Node pos="r" depth="2" NCoef="0" IVar="-1" Cut="0.0000000000000000e+00" cType="1" res="-1.6534042079001665e-03" rms="3.5653835535049438e-01" purity="3.3919924497604370e-01" nType="-99"/>
        </Node>
      </Node>
    </BinaryTree>
    <BinaryTree type="DecisionTree" boostWeight="1.0000000000000000e+00" itree="93">
      <Node pos="s" depth="0" NCoef="0" IVar="1" Cut="1.5117441117763519e-01" cType="1" res="-4.8982669795805123e-06" rms="3.2707342505455017e-01" purity="5.9855979681015015e-01" nType="0">
        <Node pos="l" depth="1" NCoef="0" IVar="-1" Cut="0.0000000000000000e+00" cType="1" res="1.6301580471917987e-03" rms="3.1521493196487427e-01" purity="7.1074360609054565e-01" nType="-99"/>
        <Node pos="r" depth="1" NCoef="0" IVar="0" Cut="1.0119940340518951e-01" cType="1" res="-9.1631449759006500e-03" rms="3.5552495718002319e-01" purity="3.1079334020614624e-01" nType="0">
          <Node pos="l" depth="2" NCoef="0" IVar="-1" Cut="0.0000000000000000e+00" cType="1" res="-1.0114869102835655e-02" rms="4.2064258456230164e-01" purity="6.9305467605590820e-01" nType="-99"/>
          <Node pos="r" depth="2" NCoef="0" IVar="-1" Cut="0.0000000000000000e+00" cType="1" res="1.5058502322062850e-03" rms="3.1917020678520203e-01" purity="1.2876960635185242e-01" nType="-99"/>
        </Node>
      </Node>
    </BinaryTree>
    <BinaryTree type="DecisionTree" boostWeight="1.0000000000000000e+00" itree="94">
      <Node pos="s" depth="0" NCoef="0" IVar="0" Cut="3.5982009768486023e-01" cType="1" res="-3.1826921258470975e-06" rms="3.2703098654747009e-01" purity="5.9855979681015015e-01" nType="0">
        <Node pos="l" depth="1" NCoef="0" IVar="-1" Cut="0.0000000000000000e+00" cType="1" res="1.2770727043971419e-03" rms="3.4163814783096313e-01" purity="7.5500905513763428e-01" nType="-99"/>
        <Node pos="r" depth="1" NCoef="0" IVar="3" Cut="3.2511705160140991e-01" cType="0" res="-1.0344942100346088e-02" rms="2.7309942245483398e-01" purity="8.2368396222591400e-02" nType="0">
          <Node pos="l" depth="2" NCoef="0" IVar="-1" Cut="0.0000000000000000e+00" cType="1" res="2.4569693952798843e-02" rms="3.7456807494163513e-01" purity="1.7090068757534027e-01" nType="-99"/>
          <Node pos="r" depth="2" NCoef="0" IVar="-1" Cut="0.0000000000000000e+00" cType="1" res="-1.0936035774648190e-02" rms="2.5735017657279968e-01" purity="7.1796283125877380e-02" nType="-99"/>
        </Node>
      </Node>
    </BinaryTree>
    <BinaryTree type="DecisionTree" boostWeight="1.0000000000000000e+00" itree="95">
      <Node pos="s" depth="0" NCoef="0" IVar="0" Cut="2.3213393688201904e+00" cType="1" res="-8.3433869804139249e-06" rms="3.2699388265609741e-01" purity="5.9855979681015015e-01" nType="0">
        <Node pos="l" depth="1" NCoef="0" IVar="-1" Cut="0.0000000000000000e+00" cType="1" res="-2.6398876798339188e-04" rms="3.2635980844497681e-01" purity="6.0334169864654541e-01" nType="-99"/>
        <Node pos="r" depth="1" NCoef="0" IVar="3" Cut="2.6138693094253540e-01" cType="0" res="5.2264012396335602e-02" rms="3.7534832954406738e-01" purity="1.7465753853321075e-01" nType="0">
          <Node pos="l" depth="2" NCoef="0" IVar="-1" Cut="0.0000000000000000e+00" cType="1" res="7.8907042741775513e-02" rms="4.6517926454544067e-01" purity="3.3636364340782166e-01" nType="-99"/>
          <Node pos="r" depth="2" NCoef="0" IVar="-1" Cut="0.0000000000000000e+00" cType="1" res="9.4827283173799515e-03" rms="3.4309726953506470e-01" purity="1.3713079690933228e-01" nType="-99"/>
        </Node>
      </Node>
    </BinaryTree>
    <BinaryTree type="DecisionTree" boostWeight="1.0000000000000000e+00" itree="96">
      <Node pos="s" depth="0" NCoef="0" IVar="1" Cut="6.2343829870223999e-01" cType="1" res="-9.9290200523682870e-06" rms="3.2696604728698730e-01" purity="5.9855979681015015e-01" nType="0">
        <Node pos="l" depth="1" NCoef="0" IVar="-1" Cut="0.0000000000000000e+00" cType="1" res="6.0684711206704378e-04" rms="3.2662779092788696e-01" purity="6.2812834978103638e-01" nType="-99"/>
        <Node pos="r" depth="1" NCoef="0" IVar="0" Cut="6.3718140125274658e-02" cType="1" res="-2.2152291610836983e-02" rms="3.3153334259986877e-01" purity="1.2666018307209015e-01" nType="0">
          <Node pos="l" depth="2" NCoef="0" IVar="-1" Cut="0.0000000000000000e+00" cType="1" res="-4.2582426220178604e-02" rms="4.3676897883415222e-01" purity="2.6436781883239746e-01" nType="-99"/>
          <Node pos="r" depth="2" NCoef="0" IVar="-1" Cut="0.0000000000000000e+00" cType="1" res="7.4733019573614001e-04" rms="3.0778223276138306e-01" purity="1.0916392505168915e-01" nType="-99"/>
        </Node>
      </Node>
    </BinaryTree>
    <BinaryTree type="DecisionTree" boostWeight="1.0000000000000000e+00" itree="97">
      <Node pos="s" depth="0" NCoef="0" IVar="0" Cut="2.9985006898641586e-02" cType="1" res="-9.3176986410981044e-06" rms="3.2688319683074951e-01" purity="5.9855979681015015e-01" nType="0">
        <Node pos="l" depth="1" NCoef="0" IVar="-1" Cut="0.0000000000000000e+00" cType="1" res="4.0268488228321075e-03" rms="2.7190920710563660e-01" purity="9.1013705730438232e-01" nType="-99"/>
        <Node pos="r" depth="1" NCoef="0" IVar="3" Cut="2.3605006933212280e-01" cType="0" res="-4.7626285813748837e-03" rms="3.6097839474678040e-01" purity="3.7605997920036316e-01" nType="0">
          <Node pos="l" depth="2" NCoef="0" IVar="-1" Cut="0.0000000000000000e+00" cType="1" res="4.0709585300646722e-04" rms="3.8049310445785522e-01" purity="4.2555958032608032e-01" nType="-99"/>
          <Node pos="r" depth="2" NCoef="0" IVar="-1" Cut="0.0000000000000000e+00" cType="1" res="-7.5098401866853237e-03" rms="3.1511336565017700e-01" purity="2.7078214287757874e-01" nType="-99"/>
        </Node>
      </Node>
    </BinaryTree>
    <BinaryTree type="DecisionTree" boostWeight="1.0000000000000000e+00" itree="98">
      <Node pos="s" depth="0" NCoef="0" IVar="3" Cut="4.0102532505989075e-01" cType="0" res="-8.1969219536404125e-06" rms="3.2687023282051086e-01" purity="5.9855979681015015e-01" nType="0">
        <Node pos="l" depth="1" NCoef="0" IVar="-1" Cut="0.0000000000000000e+00" cType="1" res="-6.8119675852358341e-03" rms="3.5528308153152466e-01" purity="8.1284058094024658e-01" nType="-99"/>
        <Node pos="r" depth="1" NCoef="0" IVar="0" Cut="1.6116940975189209e-01" cType="1" res="1.9590051379054785e-03" rms="3.2304975390434265e-01" purity="5.7149004936218262e-01" nType="0">
          <Node pos="l" depth="2" NCoef="0" IVar="-1" Cut="0.0000000000000000e+00" cType="1" res="3.7208029534667730e-03" rms="3.2062631845474243e-01" purity="8.4829145669937134e-01" nType="-99"/>
          <Node pos="r" depth="2" NCoef="0" IVar="-1" Cut="0.0000000000000000e+00" cType="1" res="-3.5400728229433298e-03" rms="3.2655438780784607e-01" purity="1.3842758536338806e-01" nType="-99"/>
        </Node>
      </Node>
    </BinaryTree>
    <BinaryTree type="DecisionTree" boostWeight="1.0000000000000000e+00" itree="99">
      <Node pos="s" depth="0" NCoef="0" IVar="1" Cut="1.9977511167526245e+00" cType="1" res="-6.4096998357854318e-06" rms="3.2685109972953796e-01" purity="5.9855979681015015e-01" nType="0">
        <Node pos="l" depth="1" NCoef="0" IVar="1" Cut="6.9770276546478271e-01" cType="1" res="-3.3662939677014947e-04" rms="3.2639697194099426e-01" purity="5.9991949796676636e-01" nType="0">
          <Node pos="l" depth="2" NCoef="0" IVar="-1" Cut="0.0000000000000000e+00" cType="1" res="4.7254457604140043e-04" rms="3.2675799727439880e-01" purity="6.2276458740234375e-01" nType="-99"/>
          <Node pos="r" depth="2" NCoef="0" IVar="-1" Cut="0.0000000000000000e+00" cType="1" res="-1.4163196086883545e-02" rms="3.1713756918907166e-01" purity="1.1329627782106400e-01" nType="-99"/>
        </Node>
        <Node pos="r" depth="1" NCoef="0" IVar="-1" Cut="0.0000000000000000e+00" cType="1" res="4.0342912077903748e-02" rms="4.2349258065223694e-01" purity="2.2916667163372040e-01" nType="-99"/>
      </Node>
    </BinaryTree>
    <BinaryTree type="DecisionTree" boostWeight="1.0000000000000000e+00" itree="100">
      <Node pos="s" depth="0" NCoef="0" IVar="0" Cut="2.3213393688201904e+00" cType="1" res="-7.7110425991122611e-06" rms="3.2681873440742493e-01" purity="5.9855979681015015e-01" nType="0">
        <Node pos="l" depth="1" NCoef="0" IVar="-1" Cut="0.0000000000000000e+00" cType="1" res="-2.4629259132780135e-04" rms="3.2621023058891296e-01" purity="6.0334169864654541e-01" nType="-99"/>
        <Node pos="r" depth="1" NCoef="0" IVar="3" Cut="2.6138693094253540e-01" cType="0" res="4.8467312008142471e-02" rms="3.7371125817298889e-01" purity="1.7465753853321075e-01" nType="0">
          <Node pos="l" depth="2" NCoef="0" IVar="-1" Cut="0.0000000000000000e+00" cType="1" res="6.3805915415287018e-02" rms="4.6451166272163391e-01" purity="3.3636364340782166e-01" nType="-99"/>
          <Node pos="r" depth="2" NCoef="0" IVar="-1" Cut="0.0000000000000000e+00" cType="1" res="9.4363139942288399e-03" rms="3.4286868572235107e-01" purity="1.3713079690933228e-01" nType="-99"/>
        </Node>
      </Node>
    </BinaryTree>
    <BinaryTree type="DecisionTree" boostWeight="1.0000000000000000e+00" itree="101">
      <Node pos="s" depth="0" NCoef="0" IVar="2" Cut="5.3574621677398682e-01" cType="1" res="-8.6227819338091649e-06" rms="3.2679629325866699e-01" purity="5.9855979681015015e-01" nType="0">
        <Node pos="l" depth="1" NCoef="0" IVar="-1" Cut="0.0000000000000000e+00" cType="1" res="2.3769449908286333e-03" rms="2.9674336314201355e-01" purity="7.9944181442260742e-01" nType="-99"/>
        <Node pos="r" depth="1" NCoef="0" IVar="0" Cut="1.2493752874433994e-03" cType="1" res="-5.3732930682599545e-03" rms="3.5804891586303711e-01" purity="3.6854180693626404e-01" nType="0">
          <Node pos="l" depth="2" NCoef="0" IVar="-1" Cut="0.0000000000000000e+00" cType="1" res="-2.1221391856670380e-02" rms="3.9197838306427002e-01" purity="7.9348933696746826e-01" nType="-99"/>
          <Node pos="r" depth="2" NCoef="0" IVar="-1" Cut="0.0000000000000000e+00" cType="1" res="-1.3274941593408585e-03" rms="3.5642290115356445e-01" purity="3.5070866346359253e-01" nType="-99"/>
        </Node>
      </Node>
    </BinaryTree>
    <BinaryTree type="DecisionTree" boostWeight="1.0000000000000000e+00" itree="102">
      <Node pos="s" depth="0" NCoef="0" IVar="2" Cut="2.2741115093231201e+00" cType="1" res="-6.1977593759365845e-06" rms="3.2678347826004028e-01" purity="5.9855979681015015e-01" nType="0">
        <Node pos="l" depth="1" NCoef="0" IVar="-1" Cut="0.0000000000000000e+00" cType="1" res="-4.2216107249259949e-04" rms="3.2584109902381897e-01" purity="6.1308050155639648e-01" nType="-99"/>
        <Node pos="r" depth="1" NCoef="0" IVar="3" Cut="2.9580724239349365e-01" cType="0" res="2.6909928768873215e-02" rms="3.5151481628417969e-01" purity="1.8478873372077942e-01" nType="0">
          <Node pos="l" depth="2" NCoef="0" IVar="-1" Cut="0.0000000000000000e+00" cType="1" res="2.1632244810461998e-02" rms="3.9422279596328735e-01" purity="2.5636008381843567e-01" nType="-99"/>
          <Node pos="r" depth="2" NCoef="0" IVar="-1" Cut="0.0000000000000000e+00" cType="1" res="-6.0178176499903202e-03" rms="2.7910816669464111e-01" purity="8.7649405002593994e-02" nType="-99"/>
        </Node>
      </Node>
    </BinaryTree>
    <BinaryTree type="DecisionTree" boostWeight="1.0000000000000000e+00" itree="103">
      <Node pos="s" depth="0" NCoef="0" IVar="0" Cut="2.4987505748867989e-02" cType="1" res="-6.7809437496180180e-06" rms="3.2676103711128235e-01" purity="5.9855979681015015e-01" nType="0">
        <Node pos="l" depth="1" NCoef="0" IVar="-1" Cut="0.0000000000000000e+00" cType="1" res="3.7862979806959629e-03" rms="2.7007409930229187e-01" purity="9.1135811805725098e-01" nType="-99"/>
        <Node pos="r" depth="1" NCoef="0" IVar="2" Cut="2.3228156566619873e-01" cType="1" res="-4.0273270569741726e-03" rms="3.5894146561622620e-01" purity="3.9417004585266113e-01" nType="0">
          <Node pos="l" depth="2" NCoef="0" IVar="-1" Cut="0.0000000000000000e+00" cType="1" res="-1.1111741885542870e-02" rms="3.6507266759872437e-01" purity="5.3963083028793335e-01" nType="-99"/>
          <Node pos="r" depth="2" NCoef="0" IVar="-1" Cut="0.0000000000000000e+00" cType="1" res="-5.6136143393814564e-04" rms="3.5824680328369141e-01" purity="3.8026365637779236e-01" nType="-99"/>
        </Node>
      </Node>
    </BinaryTree>
    <BinaryTree type="DecisionTree" boostWeight="1.0000000000000000e+00" itree="104">
      <Node pos="s" depth="0" NCoef="0" IVar="3" Cut="4.0552282333374023e-01" cType="0" res="-5.1472161430865526e-06" rms="3.2674446702003479e-01" purity="5.9855979681015015e-01" nType="0">
        <Node pos="l" depth="1" NCoef="0" IVar="-1" Cut="0.0000000000000000e+00" cType="1" res="-6.3303811475634575e-03" rms="3.5269904136657715e-01" purity="8.1676059961318970e-01" nType="-99"/>
        <Node pos="r" depth="1" NCoef="0" IVar="0" Cut="3.2608696818351746e-01" cType="1" res="1.6938825137913227e-03" rms="3.2351815700531006e-01" purity="5.7294088602066040e-01" nType="0">
          <Node pos="l" depth="2" NCoef="0" IVar="-1" Cut="0.0000000000000000e+00" cType="1" res="2.4420288391411304e-03" rms="3.4010410308837891e-01" purity="7.5969082117080688e-01" nType="-99"/>
          <Node pos="r" depth="2" NCoef="0" IVar="-1" Cut="0.0000000000000000e+00" cType="1" res="-5.7027256116271019e-03" rms="2.7511420845985413e-01" purity="8.4291778504848480e-02" nType="-99"/>
        </Node>
      </Node>
    </BinaryTree>
    <BinaryTree type="DecisionTree" boostWeight="1.0000000000000000e+00" itree="105">
      <Node pos="s" depth="0" NCoef="0" IVar="1" Cut="1.9977511167526245e+00" cType="1" res="-4.8540887291892432e-06" rms="3.2672739028930664e-01" purity="5.9855979681015015e-01" nType="0">
        <Node pos="l" depth="1" NCoef="0" IVar="1" Cut="6.9770276546478271e-01" cType="1" res="-2.9869447462260723e-04" rms="3.2628053426742554e-01" purity="5.9991949796676636e-01" nType="0">
          <Node pos="l" depth="2" NCoef="0" IVar="-1" Cut="0.0000000000000000e+00" cType="1" res="4.2506944737397134e-04" rms="3.2667002081871033e-01" purity="6.2276458740234375e-01" nType="-99"/>
          <Node pos="r" depth="2" NCoef="0" IVar="-1" Cut="0.0000000000000000e+00" cType="1" res="-1.2914824299514294e-02" rms="3.1669145822525024e-01" purity="1.1329627782106400e-01" nType="-99"/>
        </Node>
        <Node pos="r" depth="1" NCoef="0" IVar="-1" Cut="0.0000000000000000e+00" cType="1" res="3.4063082188367844e-02" rms="4.2382726073265076e-01" purity="2.2916667163372040e-01" nType="-99"/>
      </Node>
    </BinaryTree>
    <BinaryTree type="DecisionTree" boostWeight="1.0000000000000000e+00" itree="106">
      <Node pos="s" depth="0" NCoef="0" IVar="0" Cut="2.3213393688201904e+00" cType="1" res="-5.8798741520149633e-06" rms="3.2670047879219055e-01" purity="5.9855979681015015e-01" nType="0">
        <Node pos="l" depth="1" NCoef="0" IVar="-1" Cut="0.0000000000000000e+00" cType="1" res="-2.3021828383207321e-04" rms="3.2611367106437683e-01" purity="6.0334169864654541e-01" nType="-99"/>
        <Node pos="r" depth="1" NCoef="0" IVar="3" Cut="2.6138693094253540e-01" cType="0" res="4.5232135802507401e-02" rms="3.7231999635696411e-01" purity="1.7465753853321075e-01" nType="0">
          <Node pos="l" depth="2" NCoef="0" IVar="-1" Cut="0.0000000000000000e+00" cType="1" res="5.3246669471263885e-02" rms="4.6350073814392090e-01" purity="3.3636364340782166e-01" nType="-99"/>
          <Node pos="r" depth="2" NCoef="0" IVar="-1" Cut="0.0000000000000000e+00" cType="1" res="9.4399526715278625e-03" rms="3.4268724918365479e-01" purity="1.3713079690933228e-01" nType="-99"/>
        </Node>
      </Node>
    </BinaryTree>
    <BinaryTree type="DecisionTree" boostWeight="1.0000000000000000e+00" itree="107">
      <Node pos="s" depth="0" NCoef="0" IVar="1" Cut="5.1224388182163239e-02" cType="1" res="-6.5177919168490916e-06" rms="3.2668209075927734e-01" purity="5.9855979681015015e-01" nType="0">
        <Node pos="l" depth="1" NCoef="0" IVar="-1" Cut="0.0000000000000000e+00" cType="1" res="2.1599072497338057e-03" rms="3.0467063188552856e-01" purity="7.4832278490066528e-01" nType="-99"/>
        <Node pos="r" depth="1" NCoef="0" IVar="0" Cut="1.3868066668510437e-01" cType="1" res="-5.0519923679530621e-03" rms="3.4948238730430603e-01" purity="4.3189796805381775e-01" nType="0">
          <Node pos="l" depth="2" NCoef="0" IVar="-1" Cut="0.0000000000000000e+00" cType="1" res="-5.8231833390891552e-03" rms="3.7904733419418335e-01" purity="7.6522624492645264e-01" nType="-99"/>
          <Node pos="r" depth="2" NCoef="0" IVar="-1" Cut="0.0000000000000000e+00" cType="1" res="2.6045017875730991e-03" rms="3.2010936737060547e-01" purity="1.3099899888038635e-01" nType="-99"/>
        </Node>
      </Node>
    </BinaryTree>
    <BinaryTree type="DecisionTree" boostWeight="1.0000000000000000e+00" itree="108">
      <Node pos="s" depth="0" NCoef="0" IVar="0" Cut="2.9985006898641586e-02" cType="1" res="-4.9887194109032862e-06" rms="3.2664790749549866e-01" purity="5.9855979681015015e-01" nType="0">
        <Node pos="l" depth="1" NCoef="0" IVar="-1" Cut="0.0000000000000000e+00" cType="1" res="3.4039418678730726e-03" rms="2.7172023057937622e-01" purity="9.1013705730438232e-01" nType="-99"/>
        <Node pos="r" depth="1" NCoef="0" IVar="2" Cut="2.8473225235939026e-01" cType="1" res="-3.9685172960162163e-03" rms="3.6073774099349976e-01" purity="3.7605997920036316e-01" nType="0">
          <Node pos="l" depth="2" NCoef="0" IVar="-1" Cut="0.0000000000000000e+00" cType="1" res="-8.9541645720601082e-03" rms="3.7012854218482971e-01" purity="5.3420013189315796e-01" nType="-99"/>
          <Node pos="r" depth="2" NCoef="0" IVar="-1" Cut="0.0000000000000000e+00" cType="1" res="-4.3205538531765342e-04" rms="3.5939398407936096e-01" purity="3.5534161329269409e-01" nType="-99"/>
        </Node>
      </Node>
    </BinaryTree>
    <BinaryTree type="DecisionTree" boostWeight="1.0000000000000000e+00" itree="109">
      <Node pos="s" depth="0" NCoef="0" IVar="0" Cut="4.7851073741912842e-01" cType="1" res="-3.6834469483437715e-06" rms="3.2663446664810181e-01" purity="5.9855979681015015e-01" nType="0">
        <Node pos="l" depth="1" NCoef="0" IVar="-1" Cut="0.0000000000000000e+00" cType="1" res="9.1045995941385627e-04" rms="3.3941435813903809e-01" purity="7.1715843677520752e-01" nType="-99"/>
        <Node pos="r" depth="1" NCoef="0" IVar="1" Cut="1.2868565320968628e-01" cType="0" res="-9.6407923847436905e-03" rms="2.6283904910087585e-01" purity="7.6184578239917755e-02" nType="0">
          <Node pos="l" depth="2" NCoef="0" IVar="-1" Cut="0.0000000000000000e+00" cType="1" res="4.4131642207503319e-03" rms="2.7292612195014954e-01" purity="8.3585098385810852e-02" nType="-99"/>
          <Node pos="r" depth="2" NCoef="0" IVar="-1" Cut="0.0000000000000000e+00" cType="1" res="-1.9660988822579384e-02" rms="2.4372613430023193e-01" purity="6.4360417425632477e-02" nType="-99"/>
        </Node>
      </Node>
    </BinaryTree>
    <BinaryTree type="DecisionTree" boostWeight="1.0000000000000000e+00" itree="110">
      <Node pos="s" depth="0" NCoef="0" IVar="3" Cut="4.0102532505989075e-01" cType="0" res="-7.3938094828918111e-06" rms="3.2660904526710510e-01" purity="5.9855979681015015e-01" nType="0">
        <Node pos="l" depth="1" NCoef="0" IVar="-1" Cut="0.0000000000000000e+00" cType="1" res="-5.6322435848414898e-03" rms="3.5496088862419128e-01" purity="8.1284058094024658e-01" nType="-99"/>
        <Node pos="r" depth="1" NCoef="0" IVar="0" Cut="6.2468767166137695e-02" cType="1" res="1.6347200144082308e-03" rms="3.2281306385993958e-01" purity="5.7149004936218262e-01" nType="0">
          <Node pos="l" depth="2" NCoef="0" IVar="-1" Cut="0.0000000000000000e+00" cType="1" res="5.2488530054688454e-03" rms="2.7239221334457397e-01" purity="9.0922057628631592e-01" nType="-99"/>
          <Node pos="r" depth="2" NCoef="0" IVar="-1" Cut="0.0000000000000000e+00" cType="1" res="-1.7281461041420698e-03" rms="3.6121830344200134e-01" purity="2.7489089965820312e-01" nType="-99"/>
        </Node>
      </Node>
    </BinaryTree>
    <BinaryTree type="DecisionTree" boostWeight="1.0000000000000000e+00" itree="111">
      <Node pos="s" depth="0" NCoef="0" IVar="2" Cut="2.2741115093231201e+00" cType="1" res="-4.8915976549324114e-06" rms="3.2659870386123657e-01" purity="5.9855979681015015e-01" nType="0">
        <Node pos="l" depth="1" NCoef="0" IVar="-1" Cut="0.0000000000000000e+00" cType="1" res="-3.9493132499046624e-04" rms="3.2568603754043579e-01" purity="6.1308050155639648e-01" nType="-99"/>
        <Node pos="r" depth="1" NCoef="0" IVar="3" Cut="3.4367170929908752e-01" cType="0" res="2.5013398379087448e-02" rms="3.5068860650062561e-01" purity="1.8478873372077942e-01" nType="0">
          <Node pos="l" depth="2" NCoef="0" IVar="-1" Cut="0.0000000000000000e+00" cType="1" res="2.4362908676266670e-02" rms="4.5182251930236816e-01" purity="3.8425925374031067e-01" nType="-99"/>
          <Node pos="r" depth="2" NCoef="0" IVar="-1" Cut="0.0000000000000000e+00" cType="1" res="4.3799728155136108e-03" rms="3.0939978361129761e-01" purity="1.2062546610832214e-01" nType="-99"/>
        </Node>
      </Node>
    </BinaryTree>
    <BinaryTree type="DecisionTree" boostWeight="1.0000000000000000e+00" itree="112">
      <Node pos="s" depth="0" NCoef="0" IVar="0" Cut="1.6604198217391968e+00" cType="1" res="-4.9493205551698338e-06" rms="3.2658267021179199e-01" purity="5.9855979681015015e-01" nType="0">
        <Node pos="l" depth="1" NCoef="0" IVar="-1" Cut="0.0000000000000000e+00" cType="1" res="-3.2637099502608180e-04" rms="3.2623884081840515e-01" purity="6.1094874143600464e-01" nType="-99"/>
        <Node pos="r" depth="1" NCoef="0" IVar="3" Cut="2.7140808105468750e-01" cType="0" res="2.7036162093281746e-02" rms="3.3801266551017761e-01" purity="1.3785557448863983e-01" nType="0">
          <Node pos="l" depth="2" NCoef="0" IVar="-1" Cut="0.0000000000000000e+00" cType="1" res="6.5846852958202362e-02" rms="4.5294925570487976e-01" purity="3.0841121077537537e-01" nType="-99"/>
          <Node pos="r" depth="2" NCoef="0" IVar="-1" Cut="0.0000000000000000e+00" cType="1" res="1.2227575061842799e-03" rms="3.0578851699829102e-01" purity="1.0630942136049271e-01" nType="-99"/>
        </Node>
      </Node>
    </BinaryTree>
    <BinaryTree type="DecisionTree" boostWeight="1.0000000000000000e+00" itree="113">
      <Node pos="s" depth="0" NCoef="0" IVar="1" Cut="5.1224388182163239e-02" cType="1" res="-7.3867804530891590e-06" rms="3.2654765248298645e-01" purity="5.9855979681015015e-01" nType="0">
        <Node pos="l" depth="1" NCoef="0" IVar="-1" Cut="0.0000000000000000e+00" cType="1" res="2.0289372187107801e-03" rms="3.0456146597862244e-01" purity="7.4832278490066528e-01" nType="-99"/>
        <Node pos="r" depth="1" NCoef="0" IVar="0" Cut="1.3868066668510437e-01" cType="1" res="-4.7130417078733444e-03" rms="3.4933182597160339e-01" purity="4.3189796805381775e-01" nType="0">
          <Node pos="l" depth="2" NCoef="0" IVar="-1" Cut="0.0000000000000000e+00" cType="1" res="-5.4215285927057266e-03" rms="3.7897917628288269e-01" purity="7.6522624492645264e-01" nType="-99"/>
          <Node pos="r" depth="2" NCoef="0" IVar="-1" Cut="0.0000000000000000e+00" cType="1" res="2.4184731300920248e-03" rms="3.1991565227508545e-01" purity="1.3099899888038635e-01" nType="-99"/>
        </Node>
      </Node>
    </BinaryTree>
    <BinaryTree type="DecisionTree" boostWeight="1.0000000000000000e+00" itree="114">
      <Node pos="s" depth="0" NCoef="0" IVar="2" Cut="6.2566167116165161e-01" cType="1" res="-5.8904201978293713e-06" rms="3.2651758193969727e-01" purity="5.9855979681015015e-01" nType="0">
        <Node pos="l" depth="1" NCoef="0" IVar="-1" Cut="0.0000000000000000e+00" cType="1" res="1.9085168605670333e-03" rms="3.0119821429252625e-01" purity="7.7746289968490601e-01" nType="-99"/>
        <Node pos="r" depth="1" NCoef="0" IVar="1" Cut="1.2493752874433994e-03" cType="1" res="-5.1459199748933315e-03" rms="3.5761553049087524e-01" purity="3.5855808854103088e-01" nType="0">
          <Node pos="l" depth="2" NCoef="0" IVar="-1" Cut="0.0000000000000000e+00" cType="1" res="-6.7943637259304523e-03" rms="3.6644870042800903e-01" purity="5.0821065902709961e-01" nType="-99"/>
          <Node pos="r" depth="2" NCoef="0" IVar="-1" Cut="0.0000000000000000e+00" cType="1" res="5.3769146325066686e-04" rms="3.5327476263046265e-01" purity="2.8944098949432373e-01" nType="-99"/>
        </Node>
      </Node>
    </BinaryTree>
    <BinaryTree type="DecisionTree" boostWeight="1.0000000000000000e+00" itree="115">
      <Node pos="s" depth="0" NCoef="0" IVar="1" Cut="3.6356821656227112e-01" cType="1" res="-5.0553067012515385e-06" rms="3.2650879025459290e-01" purity="5.9855979681015015e-01" nType="0">
        <Node pos="l" depth="1" NCoef="0" IVar="-1" Cut="0.0000000000000000e+00" cType="1" res="7.5605267193168402e-04" rms="3.2409352064132690e-01" purity="6.5953534841537476e-01" nType="-99"/>
        <Node pos="r" depth="1" NCoef="0" IVar="0" Cut="5.3723137825727463e-02" cType="1" res="-1.1534446850419044e-02" rms="3.4232562780380249e-01" purity="1.8214446306228638e-01" nType="0">
          <Node pos="l" depth="2" NCoef="0" IVar="-1" Cut="0.0000000000000000e+00" cType="1" res="-1.9889919087290764e-02" rms="4.6775192022323608e-01" purity="5.1425760984420776e-01" nType="-99"/>
          <Node pos="r" depth="2" NCoef="0" IVar="-1" Cut="0.0000000000000000e+00" cType="1" res="1.1043227277696133e-03" rms="3.1262075901031494e-01" purity="1.2257495522499084e-01" nType="-99"/>
        </Node>
      </Node>
    </BinaryTree>
    <BinaryTree type="DecisionTree" boostWeight="1.0000000000000000e+00" itree="116">
      <Node pos="s" depth="0" NCoef="0" IVar="0" Cut="4.7851073741912842e-01" cType="1" res="-3.9610190469829831e-06" rms="3.2646262645721436e-01" purity="5.9855979681015015e-01" nType="0">
        <Node pos="l" depth="1" NCoef="0" IVar="-1" Cut="0.0000000000000000e+00" cType="1" res="8.8160752784460783e-04" rms="3.3929654955863953e-01" purity="7.1715843677520752e-01" nType="-99"/>
        <Node pos="r" depth="1" NCoef="0" IVar="3" Cut="3.2511705160140991e-01" cType="0" res="-9.3206334859132767e-03" rms="2.6236888766288757e-01" purity="7.6184578239917755e-02" nType="0">
          <Node pos="l" depth="2" NCoef="0" IVar="-1" Cut="0.0000000000000000e+00" cType="1" res="2.5258125737309456e-02" rms="3.7030467391014099e-01" purity="1.6941176354885101e-01" nType="-99"/>
          <Node pos="r" depth="2" NCoef="0" IVar="-1" Cut="0.0000000000000000e+00" cType="1" res="-1.0113567113876343e-02" rms="2.4874973297119141e-01" purity="6.7217379808425903e-02" nType="-99"/>
        </Node>
      </Node>
    </BinaryTree>
    <BinaryTree type="DecisionTree" boostWeight="1.0000000000000000e+00" itree="117">
      <Node pos="s" depth="0" NCoef="0" IVar="0" Cut="1.6604198217391968e+00" cType="1" res="-7.2440598160028458e-06" rms="3.2643958926200867e-01" purity="5.9855979681015015e-01" nType="0">
        <Node pos="l" depth="1" NCoef="0" IVar="-1" Cut="0.0000000000000000e+00" cType="1" res="-3.0528940260410309e-04" rms="3.2613337039947510e-01" purity="6.1094874143600464e-01" nType="-99"/>
        <Node pos="r" depth="1" NCoef="0" IVar="3" Cut="2.7140808105468750e-01" cType="0" res="2.5173611938953400e-02" rms="3.3666455745697021e-01" purity="1.3785557448863983e-01" nType="0">
          <Node pos="l" depth="2" NCoef="0" IVar="-1" Cut="0.0000000000000000e+00" cType="1" res="5.3939208388328552e-02" rms="4.5165830850601196e-01" purity="3.0841121077537537e-01" nType="-99"/>
          <Node pos="r" depth="2" NCoef="0" IVar="-1" Cut="0.0000000000000000e+00" cType="1" res="1.7733608838170767e-03" rms="3.0577567219734192e-01" purity="1.0630942136049271e-01" nType="-99"/>
        </Node>
      </Node>
    </BinaryTree>
    <BinaryTree type="DecisionTree" boostWeight="1.0000000000000000e+00" itree="118">
      <Node pos="s" depth="0" NCoef="0" IVar="0" Cut="4.7851073741912842e-01" cType="1" res="-8.5383444456965663e-06" rms="3.2641187310218811e-01" purity="5.9855979681015015e-01" nType="0">
        <Node pos="l" depth="1" NCoef="0" IVar="-1" Cut="0.0000000000000000e+00" cType="1" res="8.2424836000427604e-04" rms="3.3929827809333801e-01" purity="7.1715843677520752e-01" nType="-99"/>
        <Node pos="r" depth="1" NCoef="0" IVar="1" Cut="3.2108944654464722e-01" cType="0" res="-8.7375678122043610e-03" rms="2.6204231381416321e-01" purity="7.6184578239917755e-02" nType="0">
          <Node pos="l" depth="2" NCoef="0" IVar="-1" Cut="0.0000000000000000e+00" cType="1" res="9.7593329846858978e-03" rms="2.8420689702033997e-01" purity="9.2200480401515961e-02" nType="-99"/>
          <Node pos="r" depth="2" NCoef="0" IVar="-1" Cut="0.0000000000000000e+00" cType="1" res="-1.4223930425941944e-02" rms="2.4609057605266571e-01" purity="6.6151782870292664e-02" nType="-99"/>
        </Node>
      </Node>
    </BinaryTree>
    <BinaryTree type="DecisionTree" boostWeight="1.0000000000000000e+00" itree="119">
      <Node pos="s" depth="0" NCoef="0" IVar="1" Cut="6.2343829870223999e-01" cType="1" res="-1.1431180610088632e-05" rms="3.2639098167419434e-01" purity="5.9855979681015015e-01" nType="0">
        <Node pos="l" depth="1" NCoef="0" IVar="-1" Cut="0.0000000000000000e+00" cType="1" res="4.7833216376602650e-04" rms="3.2626903057098389e-01" purity="6.2812834978103638e-01" nType="-99"/>
        <Node pos="r" depth="1" NCoef="0" IVar="0" Cut="2.5237381458282471e-01" cType="1" res="-1.7268426716327667e-02" rms="3.2784914970397949e-01" purity="1.2666018307209015e-01" nType="0">
          <Node pos="l" depth="2" NCoef="0" IVar="-1" Cut="0.0000000000000000e+00" cType="1" res="-2.7663480490446091e-02" rms="3.9243450760841370e-01" purity="2.0024569332599640e-01" nType="-99"/>
          <Node pos="r" depth="2" NCoef="0" IVar="-1" Cut="0.0000000000000000e+00" cType="1" res="1.0247010737657547e-02" rms="2.9449576139450073e-01" purity="1.0030796378850937e-01" nType="-99"/>
        </Node>
      </Node>
    </BinaryTree>
    <BinaryTree type="DecisionTree" boostWeight="1.0000000000000000e+00" itree="120">
      <Node pos="s" depth="0" NCoef="0" IVar="1" Cut="5.1224388182163239e-02" cType="1" res="-1.2389383300615009e-05" rms="3.2632860541343689e-01" purity="5.9855979681015015e-01" nType="0">
        <Node pos="l" depth="1" NCoef="0" IVar="-1" Cut="0.0000000000000000e+00" cType="1" res="1.8608582904562354e-03" rms="3.0448505282402039e-01" purity="7.4832278490066528e-01" nType="-99"/>
        <Node pos="r" depth="1" NCoef="0" IVar="0" Cut="1.3868066668510437e-01" cType="1" res="-4.3055471032857895e-03" rms="3.4898337721824646e-01" purity="4.3189796805381775e-01" nType="0">
          <Node pos="l" depth="2" NCoef="0" IVar="-1" Cut="0.0000000000000000e+00" cType="1" res="-4.8057730309665203e-03" rms="3.7864094972610474e-01" purity="7.6522624492645264e-01" nType="-99"/>
          <Node pos="r" depth="2" NCoef="0" IVar="-1" Cut="0.0000000000000000e+00" cType="1" res="2.0222449675202370e-03" rms="3.1962448358535767e-01" purity="1.3099899888038635e-01" nType="-99"/>
        </Node>
      </Node>
    </BinaryTree>
    <BinaryTree type="DecisionTree" boostWeight="1.0000000000000000e+00" itree="121">
      <Node pos="s" depth="0" NCoef="0" IVar="2" Cut="5.3574621677398682e-01" cType="1" res="-1.0534103239479009e-05" rms="3.2630503177642822e-01" purity="5.9855979681015015e-01" nType="0">
        <Node pos="l" depth="1" NCoef="0" IVar="-1" Cut="0.0000000000000000e+00" cType="1" res="2.0179618149995804e-03" rms="2.9636636376380920e-01" purity="7.9944181442260742e-01" nType="-99"/>
        <Node pos="r" depth="1" NCoef="0" IVar="3" Cut="4.3346104025840759e-01" cType="0" res="-4.5038238167762756e-03" rms="3.5746741294860840e-01" purity="3.6854180693626404e-01" nType="0">
          <Node pos="l" depth="2" NCoef="0" IVar="-1" Cut="0.0000000000000000e+00" cType="1" res="-1.7283126711845398e-02" rms="3.9149594306945801e-01" purity="7.6365548372268677e-01" nType="-99"/>
          <Node pos="r" depth="2" NCoef="0" IVar="-1" Cut="0.0000000000000000e+00" cType="1" res="-1.1139953276142478e-03" rms="3.5592076182365417e-01" purity="3.5250478982925415e-01" nType="-99"/>
        </Node>
      </Node>
    </BinaryTree>
    <BinaryTree type="DecisionTree" boostWeight="1.0000000000000000e+00" itree="122">
      <Node pos="s" depth="0" NCoef="0" IVar="0" Cut="2.4987505748867989e-02" cType="1" res="-8.5256806414690800e-06" rms="3.2629495859146118e-01" purity="5.9855979681015015e-01" nType="0">
        <Node pos="l" depth="1" NCoef="0" IVar="-1" Cut="0.0000000000000000e+00" cType="1" res="3.1588396523147821e-03" rms="2.6967936754226685e-01" purity="9.1135811805725098e-01" nType="-99"/>
        <Node pos="r" depth="1" NCoef="0" IVar="3" Cut="2.1103321015834808e-01" cType="0" res="-3.3038638066500425e-03" rms="3.5845276713371277e-01" purity="3.9417004585266113e-01" nType="0">
          <Node pos="l" depth="2" NCoef="0" IVar="-1" Cut="0.0000000000000000e+00" cType="1" res="2.2062282369006425e-04" rms="3.7014049291610718e-01" purity="4.2476937174797058e-01" nType="-99"/>
          <Node pos="r" depth="2" NCoef="0" IVar="-1" Cut="0.0000000000000000e+00" cType="1" res="-7.3794615454971790e-03" rms="3.1487333774566650e-01" purity="2.8956180810928345e-01" nType="-99"/>
        </Node>
      </Node>
    </BinaryTree>
    <BinaryTree type="DecisionTree" boostWeight="1.0000000000000000e+00" itree="123">
      <Node pos="s" depth="0" NCoef="0" IVar="3" Cut="4.0102532505989075e-01" cType="0" res="-7.5853063208342064e-06" rms="3.2628664374351501e-01" purity="5.9855979681015015e-01" nType="0">
        <Node pos="l" depth="1" NCoef="0" IVar="-1" Cut="0.0000000000000000e+00" cType="1" res="-4.7680661082267761e-03" rms="3.5446801781654358e-01" purity="8.1284058094024658e-01" nType="-99"/>
        <Node pos="r" depth="1" NCoef="0" IVar="0" Cut="1.6116940975189209e-01" cType="1" res="1.3888661051169038e-03" rms="3.2252448797225952e-01" purity="5.7149004936218262e-01" nType="0">
          <Node pos="l" depth="2" NCoef="0" IVar="-1" Cut="0.0000000000000000e+00" cType="1" res="2.9416377656161785e-03" rms="3.2028007507324219e-01" purity="8.4829145669937134e-01" nType="-99"/>
          <Node pos="r" depth="2" NCoef="0" IVar="-1" Cut="0.0000000000000000e+00" cType="1" res="-2.9279438313096762e-03" rms="3.2584568858146667e-01" purity="1.3842758536338806e-01" nType="-99"/>
        </Node>
      </Node>
    </BinaryTree>
    <BinaryTree type="DecisionTree" boostWeight="1.0000000000000000e+00" itree="124">
      <Node pos="s" depth="0" NCoef="0" IVar="1" Cut="1.9977511167526245e+00" cType="1" res="-6.3582010625395924e-06" rms="3.2627671957015991e-01" purity="5.9855979681015015e-01" nType="0">
        <Node pos="l" depth="1" NCoef="0" IVar="1" Cut="6.9770276546478271e-01" cType="1" res="-2.4558513541705906e-04" rms="3.2584217190742493e-01" purity="5.9991949796676636e-01" nType="0">
          <Node pos="l" depth="2" NCoef="0" IVar="-1" Cut="0.0000000000000000e+00" cType="1" res="3.7125314702279866e-04" rms="3.2636955380439758e-01" purity="6.2276458740234375e-01" nType="-99"/>
          <Node pos="r" depth="2" NCoef="0" IVar="-1" Cut="0.0000000000000000e+00" cType="1" res="-1.1094148270785809e-02" rms="3.1352674961090088e-01" purity="1.1329627782106400e-01" nType="-99"/>
        </Node>
        <Node pos="r" depth="1" NCoef="0" IVar="-1" Cut="0.0000000000000000e+00" cType="1" res="2.5621538981795311e-02" rms="4.2332580685615540e-01" purity="2.2916667163372040e-01" nType="-99"/>
      </Node>
    </BinaryTree>
    <BinaryTree type="DecisionTree" boostWeight="1.0000000000000000e+00" itree="125">
      <Node pos="s" depth="0" NCoef="0" IVar="2" Cut="2.7124493122100830e+00" cType="1" res="-6.7625846895680297e-06" rms="3.2625865936279297e-01" purity="5.9855979681015015e-01" nType="0">
        <Node pos="l" depth="1" NCoef="0" IVar="-1" Cut="0.0000000000000000e+00" cType="1" res="-2.1780334645882249e-04" rms="3.2571512460708618e-01" purity="6.0511964559555054e-01" nType="-99"/>
        <Node pos="r" depth="1" NCoef="0" IVar="3" Cut="3.4811067581176758e-01" cType="0" res="2.9719248414039612e-02" rms="3.5724860429763794e-01" purity="1.8984280526638031e-01" nType="0">
          <Node pos="l" depth="2" NCoef="0" IVar="-1" Cut="0.0000000000000000e+00" cType="1" res="3.7459239363670349e-02" rms="4.5302808284759521e-01" purity="4.1968911886215210e-01" nType="-99"/>
          <Node pos="r" depth="2" NCoef="0" IVar="-1" Cut="0.0000000000000000e+00" cType="1" res="1.0786092607304454e-03" rms="3.1740838289260864e-01" purity="1.1987381428480148e-01" nType="-99"/>
        </Node>
      </Node>
    </BinaryTree>
    <BinaryTree type="DecisionTree" boostWeight="1.0000000000000000e+00" itree="126">
      <Node pos="s" depth="0" NCoef="0" IVar="0" Cut="1.6604198217391968e+00" cType="1" res="-6.6364818849251606e-06" rms="3.2624086737632751e-01" purity="5.9855979681015015e-01" nType="0">
        <Node pos="l" depth="1" NCoef="0" IVar="-1" Cut="0.0000000000000000e+00" cType="1" res="-2.7486044564284384e-04" rms="3.2596692442893982e-01" purity="6.1094874143600464e-01" nType="-99"/>
        <Node pos="r" depth="1" NCoef="0" IVar="3" Cut="2.7140808105468750e-01" cType="0" res="2.2531218826770782e-02" rms="3.3549275994300842e-01" purity="1.3785557448863983e-01" nType="0">
          <Node pos="l" depth="2" NCoef="0" IVar="-1" Cut="0.0000000000000000e+00" cType="1" res="4.4437799602746964e-02" rms="4.5126911997795105e-01" purity="3.0841121077537537e-01" nType="-99"/>
          <Node pos="r" depth="2" NCoef="0" IVar="-1" Cut="0.0000000000000000e+00" cType="1" res="1.7406083643436432e-03" rms="3.0547121167182922e-01" purity="1.0630942136049271e-01" nType="-99"/>
        </Node>
      </Node>
    </BinaryTree>
    <BinaryTree type="DecisionTree" boostWeight="1.0000000000000000e+00" itree="127">
      <Node pos="s" depth="0" NCoef="0" IVar="0" Cut="4.7851073741912842e-01" cType="1" res="-7.3579049058025703e-06" rms="3.2621952891349792e-01" purity="5.9855979681015015e-01" nType="0">
        <Node pos="l" depth="1" NCoef="0" IVar="-1" Cut="0.0000000000000000e+00" cType="1" res="7.5111730257049203e-04" rms="3.3914273977279663e-01" purity="7.1715843677520752e-01" nType="-99"/>
        <Node pos="r" depth="1" NCoef="0" IVar="3" Cut="3.6300662159919739e-01" cType="0" res="-7.9243145883083344e-03" rms="2.6166591048240662e-01" purity="7.6184578239917755e-02" nType="0">
          <Node pos="l" depth="2" NCoef="0" IVar="-1" Cut="0.0000000000000000e+00" cType="1" res="4.5752849429845810e-02" rms="4.1867801547050476e-01" purity="2.2689075767993927e-01" nType="-99"/>
          <Node pos="r" depth="2" NCoef="0" IVar="-1" Cut="0.0000000000000000e+00" cType="1" res="-7.0692310109734535e-03" rms="2.5588503479957581e-01" purity="7.2388611733913422e-02" nType="-99"/>
        </Node>
      </Node>
    </BinaryTree>
    <BinaryTree type="DecisionTree" boostWeight="1.0000000000000000e+00" itree="128">
      <Node pos="s" depth="0" NCoef="0" IVar="3" Cut="3.9003148674964905e-01" cType="0" res="-9.2396085165091790e-06" rms="3.2620391249656677e-01" purity="5.9855979681015015e-01" nType="0">
        <Node pos="l" depth="1" NCoef="0" IVar="-1" Cut="0.0000000000000000e+00" cType="1" res="-4.0005133487284184e-03" rms="3.5764721035957336e-01" purity="8.0126231908798218e-01" nType="-99"/>
        <Node pos="r" depth="1" NCoef="0" IVar="0" Cut="1.6116940975189209e-01" cType="1" res="1.4151579234749079e-03" rms="3.2121112942695618e-01" purity="5.6823521852493286e-01" nType="0">
          <Node pos="l" depth="2" NCoef="0" IVar="-1" Cut="0.0000000000000000e+00" cType="1" res="2.8766733594238758e-03" rms="3.1907269358634949e-01" purity="8.4953922033309937e-01" nType="-99"/>
          <Node pos="r" depth="2" NCoef="0" IVar="-1" Cut="0.0000000000000000e+00" cType="1" res="-2.7247536927461624e-03" rms="3.2432037591934204e-01" purity="1.3699315488338470e-01" nType="-99"/>
        </Node>
      </Node>
    </BinaryTree>
    <BinaryTree type="DecisionTree" boostWeight="1.0000000000000000e+00" itree="129">
      <Node pos="s" depth="0" NCoef="0" IVar="1" Cut="1.7341328859329224e+00" cType="1" res="-7.8993989518494345e-06" rms="3.2619491219520569e-01" purity="5.9855979681015015e-01" nType="0">
        <Node pos="l" depth="1" NCoef="0" IVar="-1" Cut="0.0000000000000000e+00" cType="1" res="-1.3024192594457418e-04" rms="3.2568731904029846e-01" purity="6.0092604160308838e-01" nType="-99"/>
        <Node pos="r" depth="1" NCoef="0" IVar="0" Cut="6.6591703891754150e-01" cType="0" res="4.7726675868034363e-02" rms="4.0048831701278687e-01" purity="1.9607843458652496e-01" nType="0">
          <Node pos="l" depth="2" NCoef="0" IVar="-1" Cut="0.0000000000000000e+00" cType="1" res="3.9508774876594543e-02" rms="4.0642082691192627e-01" purity="2.1287128329277039e-01" nType="-99"/>
          <Node pos="r" depth="2" NCoef="0" IVar="-1" Cut="0.0000000000000000e+00" cType="1" res="-8.8962744921445847e-03" rms="3.7866431474685669e-01" purity="1.6346153616905212e-01" nType="-99"/>
        </Node>
      </Node>
    </BinaryTree>
    <BinaryTree type="DecisionTree" boostWeight="1.0000000000000000e+00" itree="130">
      <Node pos="s" depth="0" NCoef="0" IVar="1" Cut="2.6361820101737976e-01" cType="1" res="-8.0215786510962062e-06" rms="3.2618612051010132e-01" purity="5.9855979681015015e-01" nType="0">
        <Node pos="l" depth="1" NCoef="0" IVar="-1" Cut="0.0000000000000000e+00" cType="1" res="7.6072133379057050e-04" rms="3.2091605663299561e-01" purity="6.8005305528640747e-01" nType="-99"/>
        <Node pos="r" depth="1" NCoef="0" IVar="0" Cut="5.2473764866590500e-02" cType="1" res="-7.6191187836229801e-03" rms="3.4915649890899658e-01" purity="2.2617021203041077e-01" nType="0">
          <Node pos="l" depth="2" NCoef="0" IVar="-1" Cut="0.0000000000000000e+00" cType="1" res="-1.4208825305104256e-02" rms="4.5223224163055420e-01" purity="6.1607646942138672e-01" nType="-99"/>
          <Node pos="r" depth="2" NCoef="0" IVar="-1" Cut="0.0000000000000000e+00" cType="1" res="1.8548193620517850e-03" rms="3.1928846240043640e-01" purity="1.3515286147594452e-01" nType="-99"/>
        </Node>
      </Node>
    </BinaryTree>
    <BinaryTree type="DecisionTree" boostWeight="1.0000000000000000e+00" itree="131">
      <Node pos="s" depth="0" NCoef="0" IVar="0" Cut="2.4987505748867989e-02" cType="1" res="-6.4561190811218694e-06" rms="3.2615125179290771e-01" purity="5.9855979681015015e-01" nType="0">
        <Node pos="l" depth="1" NCoef="0" IVar="-1" Cut="0.0000000000000000e+00" cType="1" res="2.8748398181051016e-03" rms="2.6954779028892517e-01" purity="9.1135811805725098e-01" nType="-99"/>
        <Node pos="r" depth="1" NCoef="0" IVar="2" Cut="2.3228156566619873e-01" cType="1" res="-2.9814271256327629e-03" rms="3.5830822587013245e-01" purity="3.9417004585266113e-01" nType="0">
          <Node pos="l" depth="2" NCoef="0" IVar="-1" Cut="0.0000000000000000e+00" cType="1" res="-9.3380920588970184e-03" rms="3.6456191539764404e-01" purity="5.3963083028793335e-01" nType="-99"/>
          <Node pos="r" depth="2" NCoef="0" IVar="-1" Cut="0.0000000000000000e+00" cType="1" res="-3.1579396454617381e-04" rms="3.5763037204742432e-01" purity="3.8026365637779236e-01" nType="-99"/>
        </Node>
      </Node>
    </BinaryTree>
    <BinaryTree type="DecisionTree" boostWeight="1.0000000000000000e+00" itree="132">
      <Node pos="s" depth="0" NCoef="0" IVar="0" Cut="1.6604198217391968e+00" cType="1" res="-5.2376854000613093e-06" rms="3.2613965868949890e-01" purity="5.9855979681015015e-01" nType="0">
        <Node pos="l" depth="1" NCoef="0" IVar="-1" Cut="0.0000000000000000e+00" cType="1" res="-2.5697989622130990e-04" rms="3.2588553428649902e-01" purity="6.1094874143600464e-01" nType="-99"/>
        <Node pos="r" depth="1" NCoef="0" IVar="3" Cut="2.7140808105468750e-01" cType="0" res="2.1021712571382523e-02" rms="3.3477538824081421e-01" purity="1.3785557448863983e-01" nType="0">
          <Node pos="l" depth="2" NCoef="0" IVar="-1" Cut="0.0000000000000000e+00" cType="1" res="3.8144797086715698e-02" rms="4.5149236917495728e-01" purity="3.0841121077537537e-01" nType="-99"/>
          <Node pos="r" depth="2" NCoef="0" IVar="-1" Cut="0.0000000000000000e+00" cType="1" res="2.0496076904237270e-03" rms="3.0526709556579590e-01" purity="1.0630942136049271e-01" nType="-99"/>
        </Node>
      </Node>
    </BinaryTree>
    <BinaryTree type="DecisionTree" boostWeight="1.0000000000000000e+00" itree="133">
      <Node pos="s" depth="0" NCoef="0" IVar="2" Cut="6.2566167116165161e-01" cType="1" res="-5.7398688113607932e-06" rms="3.2612252235412598e-01" purity="5.9855979681015015e-01" nType="0">
        <Node pos="l" depth="1" NCoef="0" IVar="-1" Cut="0.0000000000000000e+00" cType="1" res="1.5243527013808489e-03" rms="3.0087947845458984e-01" purity="7.7746289968490601e-01" nType="-99"/>
        <Node pos="r" depth="1" NCoef="0" IVar="1" Cut="1.2493752874433994e-03" cType="1" res="-4.0518301539123058e-03" rms="3.5715559124946594e-01" purity="3.5855808854103088e-01" nType="0">
          <Node pos="l" depth="2" NCoef="0" IVar="-1" Cut="0.0000000000000000e+00" cType="1" res="-6.0976063832640648e-03" rms="3.6624133586883545e-01" purity="5.0821065902709961e-01" nType="-99"/>
          <Node pos="r" depth="2" NCoef="0" IVar="-1" Cut="0.0000000000000000e+00" cType="1" res="7.9979200381785631e-04" rms="3.5271942615509033e-01" purity="2.8944098949432373e-01" nType="-99"/>
        </Node>
      </Node>
    </BinaryTree>
    <BinaryTree type="DecisionTree" boostWeight="1.0000000000000000e+00" itree="134">
      <Node pos="s" depth="0" NCoef="0" IVar="1" Cut="4.4977512210607529e-02" cType="1" res="-5.0027497309201863e-06" rms="3.2611539959907532e-01" purity="5.9855979681015015e-01" nType="0">
        <Node pos="l" depth="1" NCoef="0" IVar="-1" Cut="0.0000000000000000e+00" cType="1" res="1.7275302670896053e-03" rms="3.0368825793266296e-01" purity="7.4969816207885742e-01" nType="-99"/>
        <Node pos="r" depth="1" NCoef="0" IVar="0" Cut="1.3868066668510437e-01" cType="1" res="-3.6230592522770166e-03" rms="3.4757366776466370e-01" purity="4.4359767436981201e-01" nType="0">
          <Node pos="l" depth="2" NCoef="0" IVar="-1" Cut="0.0000000000000000e+00" cType="1" res="-4.4382987543940544e-03" rms="3.7361848354339600e-01" purity="7.7346742153167725e-01" nType="-99"/>
          <Node pos="r" depth="2" NCoef="0" IVar="-1" Cut="0.0000000000000000e+00" cType="1" res="2.2036801092326641e-03" rms="3.2094722986221313e-01" purity="1.3338838517665863e-01" nType="-99"/>
        </Node>
      </Node>
    </BinaryTree>
    <BinaryTree type="DecisionTree" boostWeight="1.0000000000000000e+00" itree="135">
      <Node pos="s" depth="0" NCoef="0" IVar="0" Cut="4.7851073741912842e-01" cType="1" res="-3.9959904825082049e-06" rms="3.2609358429908752e-01" purity="5.9855979681015015e-01" nType="0">
        <Node pos="l" depth="1" NCoef="0" IVar="-1" Cut="0.0000000000000000e+00" cType="1" res="7.1601232048124075e-04" rms="3.3904775977134705e-01" purity="7.1715843677520752e-01" nType="-99"/>
        <Node pos="r" depth="1" NCoef="0" IVar="3" Cut="3.2511705160140991e-01" cType="0" res="-7.5204437598586082e-03" rms="2.6137408614158630e-01" purity="7.6184578239917755e-02" nType="0">
          <Node pos="l" depth="2" NCoef="0" IVar="-1" Cut="0.0000000000000000e+00" cType="1" res="1.9893329590559006e-02" rms="3.6756041646003723e-01" purity="1.6941176354885101e-01" nType="-99"/>
          <Node pos="r" depth="2" NCoef="0" IVar="-1" Cut="0.0000000000000000e+00" cType="1" res="-8.5219116881489754e-03" rms="2.4824279546737671e-01" purity="6.7217379808425903e-02" nType="-99"/>
        </Node>
      </Node>
    </BinaryTree>
    <BinaryTree type="DecisionTree" boostWeight="1.0000000000000000e+00" itree="136">
      <Node pos="s" depth="0" NCoef="0" IVar="1" Cut="6.2343829870223999e-01" cType="1" res="-6.0387656048987992e-06" rms="3.2607805728912354e-01" purity="5.9855979681015015e-01" nType="0">
        <Node pos="l" depth="1" NCoef="0" IVar="-1" Cut="0.0000000000000000e+00" cType="1" res="3.7798233097419143e-04" rms="3.2607269287109375e-01" purity="6.2812834978103638e-01" nType="-99"/>
        <Node pos="r" depth="1" NCoef="0" IVar="0" Cut="5.7471264153718948e-02" cType="1" res="-1.3492720201611519e-02" rms="3.2586741447448730e-01" purity="1.2666018307209015e-01" nType="0">
          <Node pos="l" depth="2" NCoef="0" IVar="-1" Cut="0.0000000000000000e+00" cType="1" res="-3.2014645636081696e-02" rms="4.3492195010185242e-01" purity="2.6443767547607422e-01" nType="-99"/>
          <Node pos="r" depth="2" NCoef="0" IVar="-1" Cut="0.0000000000000000e+00" cType="1" res="1.6081930371001363e-03" rms="3.0620244145393372e-01" purity="1.1022479832172394e-01" nType="-99"/>
        </Node>
      </Node>
    </BinaryTree>
    <BinaryTree type="DecisionTree" boostWeight="1.0000000000000000e+00" itree="137">
      <Node pos="s" depth="0" NCoef="0" IVar="0" Cut="2.4987505748867989e-02" cType="1" res="-5.9568160395429004e-06" rms="3.2603612542152405e-01" purity="5.9855979681015015e-01" nType="0">
        <Node pos="l" depth="1" NCoef="0" IVar="-1" Cut="0.0000000000000000e+00" cType="1" res="2.6521049439907074e-03" rms="2.6943373680114746e-01" purity="9.1135811805725098e-01" nType="-99"/>
        <Node pos="r" depth="1" NCoef="0" IVar="3" Cut="1.2632270343601704e-02" cType="1" res="-2.7333796024322510e-03" rms="3.5819602012634277e-01" purity="3.9417004585266113e-01" nType="0">
          <Node pos="l" depth="2" NCoef="0" IVar="-1" Cut="0.0000000000000000e+00" cType="1" res="2.8201326727867126e-02" rms="4.0786087512969971e-01" purity="4.9635037779808044e-01" nType="-99"/>
          <Node pos="r" depth="2" NCoef="0" IVar="-1" Cut="0.0000000000000000e+00" cType="1" res="-1.2036323314532638e-03" rms="3.5790461301803589e-01" purity="3.9372602105140686e-01" nType="-99"/>
        </Node>
      </Node>
    </BinaryTree>
    <BinaryTree type="DecisionTree" boostWeight="1.0000000000000000e+00" itree="138">
      <Node pos="s" depth="0" NCoef="0" IVar="3" Cut="3.9003148674964905e-01" cType="0" res="-5.1470178732415661e-06" rms="3.2602927088737488e-01" purity="5.9855979681015015e-01" nType="0">
        <Node pos="l" depth="1" NCoef="0" IVar="-1" Cut="0.0000000000000000e+00" cType="1" res="-3.6813588812947273e-03" rms="3.5739412903785706e-01" purity="8.0126231908798218e-01" nType="-99"/>
        <Node pos="r" depth="1" NCoef="0" IVar="0" Cut="1.6116940975189209e-01" cType="1" res="1.3054747832939029e-03" rms="3.2105311751365662e-01" purity="5.6823521852493286e-01" nType="0">
          <Node pos="l" depth="2" NCoef="0" IVar="-1" Cut="0.0000000000000000e+00" cType="1" res="2.6591159403324127e-03" rms="3.1892159581184387e-01" purity="8.4953922033309937e-01" nType="-99"/>
          <Node pos="r" depth="2" NCoef="0" IVar="-1" Cut="0.0000000000000000e+00" cType="1" res="-2.5073909200727940e-03" rms="3.2417413592338562e-01" purity="1.3699315488338470e-01" nType="-99"/>
        </Node>
      </Node>
    </BinaryTree>
    <BinaryTree type="DecisionTree" boostWeight="1.0000000000000000e+00" itree="139">
      <Node pos="s" depth="0" NCoef="0" IVar="0" Cut="1.2918540239334106e+00" cType="1" res="-4.2806263991224114e-06" rms="3.2602196931838989e-01" purity="5.9855979681015015e-01" nType="0">
        <Node pos="l" depth="1" NCoef="0" IVar="-1" Cut="0.0000000000000000e+00" cType="1" res="-3.3458866528235376e-04" rms="3.2675677537918091e-01" purity="6.2105977535247803e-01" nType="-99"/>
        <Node pos="r" depth="1" NCoef="0" IVar="3" Cut="3.2409140467643738e-01" cType="0" res="1.5955856069922447e-02" rms="3.0935764312744141e-01" purity="1.1440860480070114e-01" nType="0">
          <Node pos="l" depth="2" NCoef="0" IVar="-1" Cut="0.0000000000000000e+00" cType="1" res="6.9781683385372162e-02" rms="4.6934422850608826e-01" purity="4.0000000596046448e-01" nType="-99"/>
          <Node pos="r" depth="2" NCoef="0" IVar="-1" Cut="0.0000000000000000e+00" cType="1" res="4.5171999372541904e-03" rms="2.9742354154586792e-01" purity="1.0157303512096405e-01" nType="-99"/>
        </Node>
      </Node>
    </BinaryTree>
    <BinaryTree type="DecisionTree" boostWeight="1.0000000000000000e+00" itree="140">
      <Node pos="s" depth="0" NCoef="0" IVar="0" Cut="4.7851073741912842e-01" cType="1" res="-5.3735084293293767e-06" rms="3.2599467039108276e-01" purity="5.9855979681015015e-01" nType="0">
        <Node pos="l" depth="1" NCoef="0" IVar="-1" Cut="0.0000000000000000e+00" cType="1" res="6.3725427025929093e-04" rms="3.3898413181304932e-01" purity="7.1715843677520752e-01" nType="-99"/>
        <Node pos="r" depth="1" NCoef="0" IVar="1" Cut="1.2868565320968628e-01" cType="0" res="-6.6805016249418259e-03" rms="2.6109868288040161e-01" purity="7.6184578239917755e-02" nType="0">
          <Node pos="l" depth="2" NCoef="0" IVar="-1" Cut="0.0000000000000000e+00" cType="1" res="3.8436998147517443e-03" rms="2.7114433050155640e-01" purity="8.3585098385810852e-02" nType="-99"/>
          <Node pos="r" depth="2" NCoef="0" IVar="-1" Cut="0.0000000000000000e+00" cType="1" res="-1.5965996310114861e-02" rms="2.4294157326221466e-01" purity="6.4360417425632477e-02" nType="-99"/>
        </Node>
      </Node>
    </BinaryTree>
    <BinaryTree type="DecisionTree" boostWeight="1.0000000000000000e+00" itree="141">
      <Node pos="s" depth="0" NCoef="0" IVar="1" Cut="1.0619690269231796e-01" cType="1" res="-7.3827868618536741e-06" rms="3.2598012685775757e-01" purity="5.9855979681015015e-01" nType="0">
        <Node pos="l" depth="1" NCoef="0" IVar="-1" Cut="0.0000000000000000e+00" cType="1" res="1.1437183711677790e-03" rms="3.1084364652633667e-01" purity="7.2658789157867432e-01" nType="-99"/>
        <Node pos="r" depth="1" NCoef="0" IVar="0" Cut="5.7471264153718948e-02" cType="1" res="-4.4662761501967907e-03" rms="3.5251277685165405e-01" purity="3.5905027389526367e-01" nType="0">
          <Node pos="l" depth="2" NCoef="0" IVar="-1" Cut="0.0000000000000000e+00" cType="1" res="-7.6857958920300007e-03" rms="3.8115093111991882e-01" purity="7.7893775701522827e-01" nType="-99"/>
          <Node pos="r" depth="2" NCoef="0" IVar="-1" Cut="0.0000000000000000e+00" cType="1" res="1.2232915032655001e-03" rms="3.3927857875823975e-01" purity="1.7961962521076202e-01" nType="-99"/>
        </Node>
      </Node>
    </BinaryTree>
    <BinaryTree type="DecisionTree" boostWeight="1.0000000000000000e+00" itree="142">
      <Node pos="s" depth="0" NCoef="0" IVar="0" Cut="2.4987505748867989e-02" cType="1" res="-5.7649153859529179e-06" rms="3.2595929503440857e-01" purity="5.9855979681015015e-01" nType="0">
        <Node pos="l" depth="1" NCoef="0" IVar="-1" Cut="0.0000000000000000e+00" cType="1" res="2.4849900510162115e-03" rms="2.6939058303833008e-01" purity="9.1135811805725098e-01" nType="-99"/>
        <Node pos="r" depth="1" NCoef="0" IVar="2" Cut="2.3228156566619873e-01" cType="1" res="-2.5508189573884010e-03" rms="3.5810497403144836e-01" purity="3.9417004585266113e-01" nType="0">
          <Node pos="l" depth="2" NCoef="0" IVar="-1" Cut="0.0000000000000000e+00" cType="1" res="-8.7527912110090256e-03" rms="3.6425825953483582e-01" purity="5.3963083028793335e-01" nType="-99"/>
          <Node pos="r" depth="2" NCoef="0" IVar="-1" Cut="0.0000000000000000e+00" cType="1" res="-1.9451729895081371e-04" rms="3.5744434595108032e-01" purity="3.8026365637779236e-01" nType="-99"/>
        </Node>
      </Node>
    </BinaryTree>
    <BinaryTree type="DecisionTree" boostWeight="1.0000000000000000e+00" itree="143">
      <Node pos="s" depth="0" NCoef="0" IVar="3" Cut="4.0552282333374023e-01" cType="0" res="-4.7379348870890681e-06" rms="3.2594886422157288e-01" purity="5.9855979681015015e-01" nType="0">
        <Node pos="l" depth="1" NCoef="0" IVar="-1" Cut="0.0000000000000000e+00" cType="1" res="-3.9684120565652847e-03" rms="3.5159268975257874e-01" purity="8.1676059961318970e-01" nType="-99"/>
        <Node pos="r" depth="1" NCoef="0" IVar="0" Cut="6.2468767166137695e-02" cType="1" res="1.0745109757408500e-03" rms="3.2278725504875183e-01" purity="5.7294088602066040e-01" nType="0">
          <Node pos="l" depth="2" NCoef="0" IVar="-1" Cut="0.0000000000000000e+00" cType="1" res="3.7278726231306791e-03" rms="2.7284094691276550e-01" purity="9.0846252441406250e-01" nType="-99"/>
          <Node pos="r" depth="2" NCoef="0" IVar="-1" Cut="0.0000000000000000e+00" cType="1" res="-1.2505339691415429e-03" rms="3.6119768023490906e-01" purity="2.7616444230079651e-01" nType="-99"/>
        </Node>
      </Node>
    </BinaryTree>
    <BinaryTree type="DecisionTree" boostWeight="1.0000000000000000e+00" itree="144">
      <Node pos="s" depth="0" NCoef="0" IVar="2" Cut="2.2741115093231201e+00" cType="1" res="-3.4101456094504101e-06" rms="3.2594516873359680e-01" purity="5.9855979681015015e-01" nType="0">
        <Node pos="l" depth="1" NCoef="0" IVar="-1" Cut="0.0000000000000000e+00" cType="1" res="-2.6965848519466817e-04" rms="3.2515677809715271e-01" purity="6.1308050155639648e-01" nType="-99"/>
        <Node pos="r" depth="1" NCoef="0" IVar="0" Cut="4.2603698372840881e-01" cType="1" res="1.6800496727228165e-02" rms="3.4723973274230957e-01" purity="1.8478873372077942e-01" nType="0">
          <Node pos="l" depth="2" NCoef="0" IVar="-1" Cut="0.0000000000000000e+00" cType="1" res="1.9449165090918541e-02" rms="4.5523008704185486e-01" purity="4.3116882443428040e-01" nType="-99"/>
          <Node pos="r" depth="2" NCoef="0" IVar="-1" Cut="0.0000000000000000e+00" cType="1" res="1.3874374562874436e-03" rms="3.0928269028663635e-01" purity="1.1654676496982574e-01" nType="-99"/>
        </Node>
      </Node>
    </BinaryTree>
    <BinaryTree type="DecisionTree" boostWeight="1.0000000000000000e+00" itree="145">
      <Node pos="s" depth="0" NCoef="0" IVar="1" Cut="1.7341328859329224e+00" cType="1" res="-3.2901523354667006e-06" rms="3.2593446969985962e-01" purity="5.9855979681015015e-01" nType="0">
        <Node pos="l" depth="1" NCoef="0" IVar="-1" Cut="0.0000000000000000e+00" cType="1" res="-1.1034694034606218e-04" rms="3.2543835043907166e-01" purity="6.0092604160308838e-01" nType="-99"/>
        <Node pos="r" depth="1" NCoef="0" IVar="0" Cut="6.6591703891754150e-01" cType="0" res="4.0757238864898682e-02" rms="3.9941272139549255e-01" purity="1.9607843458652496e-01" nType="0">
          <Node pos="l" depth="2" NCoef="0" IVar="-1" Cut="0.0000000000000000e+00" cType="1" res="3.1073236837983131e-02" rms="4.0737184882164001e-01" purity="2.1287128329277039e-01" nType="-99"/>
          <Node pos="r" depth="2" NCoef="0" IVar="-1" Cut="0.0000000000000000e+00" cType="1" res="-6.9851381704211235e-03" rms="3.7652242183685303e-01" purity="1.6346153616905212e-01" nType="-99"/>
        </Node>
      </Node>
    </BinaryTree>
    <BinaryTree type="DecisionTree" boostWeight="1.0000000000000000e+00" itree="146">
      <Node pos="s" depth="0" NCoef="0" IVar="1" Cut="6.2343829870223999e-01" cType="1" res="-3.5332031984580681e-06" rms="3.2592868804931641e-01" purity="5.9855979681015015e-01" nType="0">
        <Node pos="l" depth="1" NCoef="0" IVar="-1" Cut="0.0000000000000000e+00" cType="1" res="3.6079320125281811e-04" rms="3.2597693800926208e-01" purity="6.2812834978103638e-01" nType="-99"/>
        <Node pos="r" depth="1" NCoef="0" IVar="0" Cut="3.2108944654464722e-01" cType="1" res="-1.2768412940204144e-02" rms="3.2489103078842163e-01" purity="1.2666018307209015e-01" nType="0">
          <Node pos="l" depth="2" NCoef="0" IVar="-1" Cut="0.0000000000000000e+00" cType="1" res="-2.1963650360703468e-02" rms="3.7597870826721191e-01" purity="1.8276220560073853e-01" nType="-99"/>
          <Node pos="r" depth="2" NCoef="0" IVar="-1" Cut="0.0000000000000000e+00" cType="1" res="1.1174080893397331e-02" rms="2.9414817690849304e-01" purity="1.0122410207986832e-01" nType="-99"/>
        </Node>
      </Node>
    </BinaryTree>
    <BinaryTree type="DecisionTree" boostWeight="1.0000000000000000e+00" itree="147">
      <Node pos="s" depth="0" NCoef="0" IVar="0" Cut="4.7851073741912842e-01" cType="1" res="-5.0720641411317047e-06" rms="3.2588756084442139e-01" purity="5.9855979681015015e-01" nType="0">
        <Node pos="l" depth="1" NCoef="0" IVar="-1" Cut="0.0000000000000000e+00" cType="1" res="6.1685492983087897e-04" rms="3.3888876438140869e-01" purity="7.1715843677520752e-01" nType="-99"/>
        <Node pos="r" depth="1" NCoef="0" IVar="3" Cut="3.6422887444496155e-01" cType="0" res="-6.4499666914343834e-03" rms="2.6092830300331116e-01" purity="7.6184578239917755e-02" nType="0">
          <Node pos="l" depth="2" NCoef="0" IVar="-1" Cut="0.0000000000000000e+00" cType="1" res="3.6717962473630905e-02" rms="4.1893082857131958e-01" purity="2.2907489538192749e-01" nType="-99"/>
          <Node pos="r" depth="2" NCoef="0" IVar="-1" Cut="0.0000000000000000e+00" cType="1" res="-5.9184832498431206e-03" rms="2.5551563501358032e-01" purity="7.2515852749347687e-02" nType="-99"/>
        </Node>
      </Node>
    </BinaryTree>
    <BinaryTree type="DecisionTree" boostWeight="1.0000000000000000e+00" itree="148">
      <Node pos="s" depth="0" NCoef="0" IVar="0" Cut="1.2918540239334106e+00" cType="1" res="-6.2893000176700298e-06" rms="3.2587674260139465e-01" purity="5.9855979681015015e-01" nType="0">
        <Node pos="l" depth="1" NCoef="0" IVar="-1" Cut="0.0000000000000000e+00" cType="1" res="-2.9845614335499704e-04" rms="3.2664313912391663e-01" purity="6.2105977535247803e-01" nType="-99"/>
        <Node pos="r" depth="1" NCoef="0" IVar="3" Cut="3.2409140467643738e-01" cType="0" res="1.4123086817562580e-02" rms="3.0858707427978516e-01" purity="1.1440860480070114e-01" nType="0">
          <Node pos="l" depth="2" NCoef="0" IVar="-1" Cut="0.0000000000000000e+00" cType="1" res="5.6475505232810974e-02" rms="4.6947988867759705e-01" purity="4.0000000596046448e-01" nType="-99"/>
          <Node pos="r" depth="2" NCoef="0" IVar="-1" Cut="0.0000000000000000e+00" cType="1" res="4.0197242051362991e-03" rms="2.9721987247467041e-01" purity="1.0157303512096405e-01" nType="-99"/>
        </Node>
      </Node>
    </BinaryTree>
    <BinaryTree type="DecisionTree" boostWeight="1.0000000000000000e+00" itree="149">
      <Node pos="s" depth="0" NCoef="0" IVar="3" Cut="3.6754408478736877e-01" cType="0" res="-6.6538946157379542e-06" rms="3.2585597038269043e-01" purity="5.9855979681015015e-01" nType="0">
        <Node pos="l" depth="1" NCoef="0" IVar="-1" Cut="0.0000000000000000e+00" cType="1" res="-2.6004973333328962e-03" rms="3.6438620090484619e-01" purity="7.6851749420166016e-01" nType="-99"/>
        <Node pos="r" depth="1" NCoef="0" IVar="0" Cut="2.2738631069660187e-01" cType="1" res="1.3811307726427913e-03" rms="3.1705826520919800e-01" purity="5.6248408555984497e-01" nType="0">
          <Node pos="l" depth="2" NCoef="0" IVar="-1" Cut="0.0000000000000000e+00" cType="1" res="2.4695114698261023e-03" rms="3.2886359095573425e-01" purity="8.1339389085769653e-01" nType="-99"/>
          <Node pos="r" depth="2" NCoef="0" IVar="-1" Cut="0.0000000000000000e+00" cType="1" res="-3.4918626770377159e-03" rms="2.9396918416023254e-01" purity="1.0138642787933350e-01" nType="-99"/>
        </Node>
      </Node>
    </BinaryTree>
    <BinaryTree type="DecisionTree" boostWeight="1.0000000000000000e+00" itree="150">
      <Node pos="s" depth="0" NCoef="0" IVar="0" Cut="1.2981009483337402e+00" cType="1" res="-6.0323263824102469e-06" rms="3.2584801316261292e-01" purity="5.9855979681015015e-01" nType="0">
        <Node pos="l" depth="1" NCoef="0" IVar="-1" Cut="0.0000000000000000e+00" cType="1" res="-2.8042116900905967e-04" rms="3.2661527395248413e-01" purity="6.2081432342529297e-01" nType="-99"/>
        <Node pos="r" depth="1" NCoef="0" IVar="3" Cut="3.1920313835144043e-01" cType="0" res="1.3380401767790318e-02" rms="3.0839079618453979e-01" purity="1.1468288302421570e-01" nType="0">
          <Node pos="l" depth="2" NCoef="0" IVar="-1" Cut="0.0000000000000000e+00" cType="1" res="4.9461964517831802e-02" rms="4.7015398740768433e-01" purity="3.9252337813377380e-01" nType="-99"/>
          <Node pos="r" depth="2" NCoef="0" IVar="-1" Cut="0.0000000000000000e+00" cType="1" res="3.7073148414492607e-03" rms="2.9642876982688904e-01" purity="1.0113894939422607e-01" nType="-99"/>
        </Node>
      </Node>
    </BinaryTree>
    <BinaryTree type="DecisionTree" boostWeight="1.0000000000000000e+00" itree="151">
      <Node pos="s" depth="0" NCoef="0" IVar="1" Cut="6.9840079545974731e-01" cType="1" res="-6.2234262259153184e-06" rms="3.2583057880401611e-01" purity="5.9855979681015015e-01" nType="0">
        <Node pos="l" depth="1" NCoef="0" IVar="-1" Cut="0.0000000000000000e+00" cType="1" res="2.9967905720695853e-04" rms="3.2605594396591187e-01" purity="6.2272709608078003e-01" nType="-99"/>
        <Node pos="r" depth="1" NCoef="0" IVar="0" Cut="2.1114443242549896e-01" cType="1" res="-1.3138742186129093e-02" rms="3.2107439637184143e-01" purity="1.2223101407289505e-01" nType="0">
          <Node pos="l" depth="2" NCoef="0" IVar="-1" Cut="0.0000000000000000e+00" cType="1" res="-2.5772133842110634e-02" rms="3.8876128196716309e-01" purity="1.9672131538391113e-01" nType="-99"/>
          <Node pos="r" depth="2" NCoef="0" IVar="-1" Cut="0.0000000000000000e+00" cType="1" res="7.2790500707924366e-03" rms="2.9488524794578552e-01" purity="1.0156644880771637e-01" nType="-99"/>
        </Node>
      </Node>
    </BinaryTree>
    <BinaryTree type="DecisionTree" boostWeight="1.0000000000000000e+00" itree="152">
      <Node pos="s" depth="0" NCoef="0" IVar="0" Cut="4.7851073741912842e-01" cType="1" res="-6.8541726250259671e-06" rms="3.2579520344734192e-01" purity="5.9855979681015015e-01" nType="0">
        <Node pos="l" depth="1" NCoef="0" IVar="-1" Cut="0.0000000000000000e+00" cType="1" res="5.8585865190252662e-04" rms="3.3884182572364807e-01" purity="7.1715843677520752e-01" nType="-99"/>
        <Node pos="r" depth="1" NCoef="0" IVar="1" Cut="3.2108944654464722e-01" cType="0" res="-6.1251451261341572e-03" rms="2.6058286428451538e-01" purity="7.6184578239917755e-02" nType="0">
          <Node pos="l" depth="2" NCoef="0" IVar="-1" Cut="0.0000000000000000e+00" cType="1" res="7.0789544843137264e-03" rms="2.8278353810310364e-01" purity="9.2200480401515961e-02" nType="-99"/>
          <Node pos="r" depth="2" NCoef="0" IVar="-1" Cut="0.0000000000000000e+00" cType="1" res="-1.0973840951919556e-02" rms="2.4509277939796448e-01" purity="6.6151782870292664e-02" nType="-99"/>
        </Node>
      </Node>
    </BinaryTree>
    <BinaryTree type="DecisionTree" boostWeight="1.0000000000000000e+00" itree="153">
      <Node pos="s" depth="0" NCoef="0" IVar="1" Cut="3.6356821656227112e-01" cType="1" res="-8.2425285654608160e-06" rms="3.2578477263450623e-01" purity="5.9855979681015015e-01" nType="0">
        <Node pos="l" depth="1" NCoef="0" IVar="-1" Cut="0.0000000000000000e+00" cType="1" res="5.1433010958135128e-04" rms="3.2369166612625122e-01" purity="6.5953534841537476e-01" nType="-99"/>
        <Node pos="r" depth="1" NCoef="0" IVar="0" Cut="1.2493752874433994e-03" cType="1" res="-7.7070058323442936e-03" rms="3.3963450789451599e-01" purity="1.8214446306228638e-01" nType="0">
          <Node pos="l" depth="2" NCoef="0" IVar="-1" Cut="0.0000000000000000e+00" cType="1" res="-1.7072267830371857e-02" rms="4.6828955411911011e-01" purity="5.2147239446640015e-01" nType="-99"/>
          <Node pos="r" depth="2" NCoef="0" IVar="-1" Cut="0.0000000000000000e+00" cType="1" res="-2.8065437800250947e-04" rms="3.2187384366989136e-01" purity="1.4548467099666595e-01" nType="-99"/>
        </Node>
      </Node>
    </BinaryTree>
    <BinaryTree type="DecisionTree" boostWeight="1.0000000000000000e+00" itree="154">
      <Node pos="s" depth="0" NCoef="0" IVar="2" Cut="5.3574621677398682e-01" cType="1" res="-7.1667768679617438e-06" rms="3.2576456665992737e-01" purity="5.9855979681015015e-01" nType="0">
        <Node pos="l" depth="1" NCoef="0" IVar="-1" Cut="0.0000000000000000e+00" cType="1" res="1.3752840459346771e-03" rms="2.9588839411735535e-01" purity="7.9944181442260742e-01" nType="-99"/>
        <Node pos="r" depth="1" NCoef="0" IVar="0" Cut="1.2493752874433994e-03" cType="1" res="-2.9945489950478077e-03" rms="3.5689243674278259e-01" purity="3.6854180693626404e-01" nType="0">
          <Node pos="l" depth="2" NCoef="0" IVar="-1" Cut="0.0000000000000000e+00" cType="1" res="-1.4345966279506683e-02" rms="3.9188671112060547e-01" purity="7.9348933696746826e-01" nType="-99"/>
          <Node pos="r" depth="2" NCoef="0" IVar="-1" Cut="0.0000000000000000e+00" cType="1" res="-6.1802897835150361e-04" rms="3.5527759790420532e-01" purity="3.5070866346359253e-01" nType="-99"/>
        </Node>
      </Node>
    </BinaryTree>
    <BinaryTree type="DecisionTree" boostWeight="1.0000000000000000e+00" itree="155">
      <Node pos="s" depth="0" NCoef="0" IVar="0" Cut="2.4987505748867989e-02" cType="1" res="-5.7596594160713721e-06" rms="3.2575923204421997e-01" purity="5.9855979681015015e-01" nType="0">
        <Node pos="l" depth="1" NCoef="0" IVar="-1" Cut="0.0000000000000000e+00" cType="1" res="2.2063120268285275e-03" rms="2.6918926835060120e-01" purity="9.1135811805725098e-01" nType="-99"/>
        <Node pos="r" depth="1" NCoef="0" IVar="2" Cut="2.7349281311035156e-01" cType="1" res="-2.2431865800172091e-03" rms="3.5790807008743286e-01" purity="3.9417004585266113e-01" nType="0">
          <Node pos="l" depth="2" NCoef="0" IVar="-1" Cut="0.0000000000000000e+00" cType="1" res="-7.3177292943000793e-03" rms="3.6350604891777039e-01" purity="5.5968904495239258e-01" nType="-99"/>
          <Node pos="r" depth="2" NCoef="0" IVar="-1" Cut="0.0000000000000000e+00" cType="1" res="7.4669646892289165e-06" rms="3.5712015628814697e-01" purity="3.7292423844337463e-01" nType="-99"/>
        </Node>
      </Node>
    </BinaryTree>
    <BinaryTree type="DecisionTree" boostWeight="1.0000000000000000e+00" itree="156">
      <Node pos="s" depth="0" NCoef="0" IVar="1" Cut="4.4977512210607529e-02" cType="1" res="-4.7900430217850953e-06" rms="3.2574921846389771e-01" purity="5.9855979681015015e-01" nType="0">
        <Node pos="l" depth="1" NCoef="0" IVar="-1" Cut="0.0000000000000000e+00" cType="1" res="1.3288853224366903e-03" rms="3.0349007248878479e-01" purity="7.4969816207885742e-01" nType="-99"/>
        <Node pos="r" depth="1" NCoef="0" IVar="0" Cut="1.3993003964424133e-01" cType="1" res="-2.7429817710071802e-03" rms="3.4707120060920715e-01" purity="4.4359767436981201e-01" nType="0">
          <Node pos="l" depth="2" NCoef="0" IVar="-1" Cut="0.0000000000000000e+00" cType="1" res="-3.8881388027220964e-03" rms="3.7333405017852783e-01" purity="7.7268022298812866e-01" nType="-99"/>
          <Node pos="r" depth="2" NCoef="0" IVar="-1" Cut="0.0000000000000000e+00" cType="1" res="2.3573082871735096e-03" rms="3.2011687755584717e-01" purity="1.3283188641071320e-01" nType="-99"/>
        </Node>
      </Node>
    </BinaryTree>
    <BinaryTree type="DecisionTree" boostWeight="1.0000000000000000e+00" itree="157">
      <Node pos="s" depth="0" NCoef="0" IVar="0" Cut="4.7851073741912842e-01" cType="1" res="-4.0074814933177549e-06" rms="3.2573196291923523e-01" purity="5.9855979681015015e-01" nType="0">
        <Node pos="l" depth="1" NCoef="0" IVar="-1" Cut="0.0000000000000000e+00" cType="1" res="5.5364472791552544e-04" rms="3.3878067135810852e-01" purity="7.1715843677520752e-01" nType="-99"/>
        <Node pos="r" depth="1" NCoef="0" IVar="3" Cut="3.7058454751968384e-01" cType="0" res="-5.7720155455172062e-03" rms="2.6051554083824158e-01" purity="7.6184578239917755e-02" nType="0">
          <Node pos="l" depth="2" NCoef="0" IVar="-1" Cut="0.0000000000000000e+00" cType="1" res="3.6841418594121933e-02" rms="4.2481407523155212e-01" purity="2.4260355532169342e-01" nType="-99"/>
          <Node pos="r" depth="2" NCoef="0" IVar="-1" Cut="0.0000000000000000e+00" cType="1" res="-5.1428382284939289e-03" rms="2.5631302595138550e-01" purity="7.3229670524597168e-02" nType="-99"/>
        </Node>
      </Node>
    </BinaryTree>
    <BinaryTree type="DecisionTree" boostWeight="1.0000000000000000e+00" itree="158">
      <Node pos="s" depth="0" NCoef="0" IVar="3" Cut="3.6754408478736877e-01" cType="0" res="-4.9081327233579941e-06" rms="3.2572326064109802e-01" purity="5.9855979681015015e-01" nType="0">
        <Node pos="l" depth="1" NCoef="0" IVar="-1" Cut="0.0000000000000000e+00" cType="1" res="-2.3340138141065836e-03" rms="3.6419418454170227e-01" purity="7.6851749420166016e-01" nType="-99"/>
        <Node pos="r" depth="1" NCoef="0" IVar="0" Cut="1.6116940975189209e-01" cType="1" res="1.2430261122062802e-03" rms="3.1694304943084717e-01" purity="5.6248408555984497e-01" nType="0">
          <Node pos="l" depth="2" NCoef="0" IVar="-1" Cut="0.0000000000000000e+00" cType="1" res="2.6468767318874598e-03" rms="3.1479784846305847e-01" purity="8.5368508100509644e-01" nType="-99"/>
          <Node pos="r" depth="2" NCoef="0" IVar="-1" Cut="0.0000000000000000e+00" cType="1" res="-2.3914291523396969e-03" rms="3.1997451186180115e-01" purity="1.3290920853614807e-01" nType="-99"/>
        </Node>
      </Node>
    </BinaryTree>
    <BinaryTree type="DecisionTree" boostWeight="1.0000000000000000e+00" itree="159">
      <Node pos="s" depth="0" NCoef="0" IVar="2" Cut="1.7608441114425659e+00" cType="1" res="-4.1806029003055301e-06" rms="3.2571712136268616e-01" purity="5.9855979681015015e-01" nType="0">
        <Node pos="l" depth="1" NCoef="0" IVar="-1" Cut="0.0000000000000000e+00" cType="1" res="-3.8125753053463995e-04" rms="3.2406130433082581e-01" purity="6.3296103477478027e-01" nType="-99"/>
        <Node pos="r" depth="1" NCoef="0" IVar="0" Cut="4.2478761076927185e-01" cType="1" res="9.5138093456625938e-03" rms="3.4407335519790649e-01" purity="2.0229555666446686e-01" nType="0">
          <Node pos="l" depth="2" NCoef="0" IVar="-1" Cut="0.0000000000000000e+00" cType="1" res="1.0377045720815659e-02" rms="4.3603572249412537e-01" purity="4.1703376173973083e-01" nType="-99"/>
          <Node pos="r" depth="2" NCoef="0" IVar="-1" Cut="0.0000000000000000e+00" cType="1" res="-1.7613574163988233e-03" rms="2.8852725028991699e-01" purity="9.8581559956073761e-02" nType="-99"/>
        </Node>
      </Node>
    </BinaryTree>
    <BinaryTree type="DecisionTree" boostWeight="1.0000000000000000e+00" itree="160">
      <Node pos="s" depth="0" NCoef="0" IVar="0" Cut="1.2918540239334106e+00" cType="1" res="-3.9600699892616831e-06" rms="3.2570594549179077e-01" purity="5.9855979681015015e-01" nType="0">
        <Node pos="l" depth="1" NCoef="0" IVar="-1" Cut="0.0000000000000000e+00" cType="1" res="-2.6786615489982069e-04" rms="3.2650578022003174e-01" purity="6.2105977535247803e-01" nType="-99"/>
        <Node pos="r" depth="1" NCoef="0" IVar="3" Cut="2.7129822969436646e-01" cType="0" res="1.2644323520362377e-02" rms="3.0772045254707336e-01" purity="1.1440860480070114e-01" nType="0">
          <Node pos="l" depth="2" NCoef="0" IVar="-1" Cut="0.0000000000000000e+00" cType="1" res="2.9959574341773987e-02" rms="4.0811339020729065e-01" purity="2.3696681857109070e-01" nType="-99"/>
          <Node pos="r" depth="2" NCoef="0" IVar="-1" Cut="0.0000000000000000e+00" cType="1" res="-7.1802700404077768e-04" rms="2.7876171469688416e-01" purity="8.7230689823627472e-02" nType="-99"/>
        </Node>
      </Node>
    </BinaryTree>
    <BinaryTree type="DecisionTree" boostWeight="1.0000000000000000e+00" itree="161">
      <Node pos="s" depth="0" NCoef="0" IVar="1" Cut="6.9840079545974731e-01" cType="1" res="-4.6313907660078257e-06" rms="3.2569077610969543e-01" purity="5.9855979681015015e-01" nType="0">
        <Node pos="l" depth="1" NCoef="0" IVar="-1" Cut="0.0000000000000000e+00" cType="1" res="2.6778396568261087e-04" rms="3.2596457004547119e-01" purity="6.2272709608078003e-01" nType="-99"/>
        <Node pos="r" depth="1" NCoef="0" IVar="0" Cut="2.5237381458282471e-01" cType="1" res="-1.1678545735776424e-02" rms="3.2002317905426025e-01" purity="1.2223101407289505e-01" nType="0">
          <Node pos="l" depth="2" NCoef="0" IVar="-1" Cut="0.0000000000000000e+00" cType="1" res="-2.2708658128976822e-02" rms="3.7732619047164917e-01" purity="1.8416801095008850e-01" nType="-99"/>
          <Node pos="r" depth="2" NCoef="0" IVar="-1" Cut="0.0000000000000000e+00" cType="1" res="7.3334784246981144e-03" rms="2.9536008834838867e-01" purity="1.0214772075414658e-01" nType="-99"/>
        </Node>
      </Node>
    </BinaryTree>
    <BinaryTree type="DecisionTree" boostWeight="1.0000000000000000e+00" itree="162">
      <Node pos="s" depth="0" NCoef="0" IVar="2" Cut="5.3574621677398682e-01" cType="1" res="-5.3343660511018243e-06" rms="3.2566314935684204e-01" purity="5.9855979681015015e-01" nType="0">
        <Node pos="l" depth="1" NCoef="0" IVar="-1" Cut="0.0000000000000000e+00" cType="1" res="1.2826896272599697e-03" rms="2.9580920934677124e-01" purity="7.9944181442260742e-01" nType="-99"/>
        <Node pos="r" depth="1" NCoef="0" IVar="1" Cut="1.2493752874433994e-03" cType="1" res="-2.7781759854406118e-03" rms="3.5677230358123779e-01" purity="3.6854180693626404e-01" nType="0">
          <Node pos="l" depth="2" NCoef="0" IVar="-1" Cut="0.0000000000000000e+00" cType="1" res="-4.6820980496704578e-03" rms="3.6523228883743286e-01" purity="5.2107971906661987e-01" nType="-99"/>
          <Node pos="r" depth="2" NCoef="0" IVar="-1" Cut="0.0000000000000000e+00" cType="1" res="8.0326682655140758e-04" rms="3.5264426469802856e-01" purity="2.9716727137565613e-01" nType="-99"/>
        </Node>
      </Node>
    </BinaryTree>
    <BinaryTree type="DecisionTree" boostWeight="1.0000000000000000e+00" itree="163">
      <Node pos="s" depth="0" NCoef="0" IVar="1" Cut="4.4977512210607529e-02" cType="1" res="-4.6747468331886921e-06" rms="3.2565888762474060e-01" purity="5.9855979681015015e-01" nType="0">
        <Node pos="l" depth="1" NCoef="0" IVar="-1" Cut="0.0000000000000000e+00" cType="1" res="1.2629076372832060e-03" rms="3.0342867970466614e-01" purity="7.4969816207885742e-01" nType="-99"/>
        <Node pos="r" depth="1" NCoef="0" IVar="0" Cut="1.5367315709590912e-01" cType="1" res="-2.5970295537263155e-03" rms="3.4695678949356079e-01" purity="4.4359767436981201e-01" nType="0">
          <Node pos="l" depth="2" NCoef="0" IVar="-1" Cut="0.0000000000000000e+00" cType="1" res="-3.5279062576591969e-03" rms="3.7622165679931641e-01" purity="7.6172417402267456e-01" nType="-99"/>
          <Node pos="r" depth="2" NCoef="0" IVar="-1" Cut="0.0000000000000000e+00" cType="1" res="2.3928917944431305e-03" rms="3.1483110785484314e-01" purity="1.2561881542205811e-01" nType="-99"/>
        </Node>
      </Node>
    </BinaryTree>
    <BinaryTree type="DecisionTree" boostWeight="1.0000000000000000e+00" itree="164">
      <Node pos="s" depth="0" NCoef="0" IVar="0" Cut="4.7851073741912842e-01" cType="1" res="-3.9950814425537828e-06" rms="3.2564359903335571e-01" purity="5.9855979681015015e-01" nType="0">
        <Node pos="l" depth="1" NCoef="0" IVar="-1" Cut="0.0000000000000000e+00" cType="1" res="5.2984245121479034e-04" rms="3.3871075510978699e-01" purity="7.1715843677520752e-01" nType="-99"/>
        <Node pos="r" depth="1" NCoef="0" IVar="3" Cut="3.6300662159919739e-01" cType="0" res="-5.5176289752125740e-03" rms="2.6032570004463196e-01" purity="7.6184578239917755e-02" nType="0">
          <Node pos="l" depth="2" NCoef="0" IVar="-1" Cut="0.0000000000000000e+00" cType="1" res="2.6409201323986053e-02" rms="4.1545847058296204e-01" purity="2.2689075767993927e-01" nType="-99"/>
          <Node pos="r" depth="2" NCoef="0" IVar="-1" Cut="0.0000000000000000e+00" cType="1" res="-5.1192501559853554e-03" rms="2.5492450594902039e-01" purity="7.2388611733913422e-02" nType="-99"/>
        </Node>
      </Node>
    </BinaryTree>
    <BinaryTree type="DecisionTree" boostWeight="1.0000000000000000e+00" itree="165">
      <Node pos="s" depth="0" NCoef="0" IVar="1" Cut="1.7341328859329224e+00" cType="1" res="-4.6874397412466351e-06" rms="3.2563665509223938e-01" purity="5.9855979681015015e-01" nType="0">
        <Node pos="l" depth="1" NCoef="0" IVar="-1" Cut="0.0000000000000000e+00" cType="1" res="-9.1579488071147352e-05" rms="3.2515412569046021e-01" purity="6.0092604160308838e-01" nType="-99"/>
        <Node pos="r" depth="1" NCoef="0" IVar="3" Cut="2.3375508189201355e-01" cType="1" res="3.3271841704845428e-02" rms="3.9792016148567200e-01" purity="1.9607843458652496e-01" nType="0">
          <Node pos="l" depth="2" NCoef="0" IVar="-1" Cut="0.0000000000000000e+00" cType="1" res="3.0327253043651581e-02" rms="4.0296798944473267e-01" purity="2.1232876181602478e-01" nType="-99"/>
          <Node pos="r" depth="2" NCoef="0" IVar="-1" Cut="0.0000000000000000e+00" cType="1" res="-7.2457645728718489e-05" rms="3.9026162028312683e-01" purity="1.8125000596046448e-01" nType="-99"/>
        </Node>
      </Node>
    </BinaryTree>
    <BinaryTree type="DecisionTree" boostWeight="1.0000000000000000e+00" itree="166">
      <Node pos="s" depth="0" NCoef="0" IVar="0" Cut="2.4987505748867989e-02" cType="1" res="-4.6093909986666404e-06" rms="3.2563257217407227e-01" purity="5.9855979681015015e-01" nType="0">
        <Node pos="l" depth="1" NCoef="0" IVar="-1" Cut="0.0000000000000000e+00" cType="1" res="2.0379060879349709e-03" rms="2.6911708712577820e-01" purity="9.1135811805725098e-01" nType="-99"/>
        <Node pos="r" depth="1" NCoef="0" IVar="3" Cut="1.2632270343601704e-02" cType="1" res="-2.0599686540663242e-03" rms="3.5775566101074219e-01" purity="3.9417004585266113e-01" nType="0">
          <Node pos="l" depth="2" NCoef="0" IVar="-1" Cut="0.0000000000000000e+00" cType="1" res="2.6770396158099174e-02" rms="4.0680253505706787e-01" purity="4.9635037779808044e-01" nType="-99"/>
          <Node pos="r" depth="2" NCoef="0" IVar="-1" Cut="0.0000000000000000e+00" cType="1" res="-9.4539963174611330e-04" rms="3.5747423768043518e-01" purity="3.9372602105140686e-01" nType="-99"/>
        </Node>
      </Node>
    </BinaryTree>
    <BinaryTree type="DecisionTree" boostWeight="1.0000000000000000e+00" itree="167">
      <Node pos="s" depth="0" NCoef="0" IVar="3" Cut="3.6754408478736877e-01" cType="0" res="-4.0493528103979770e-06" rms="3.2562637329101562e-01" purity="5.9855979681015015e-01" nType="0">
        <Node pos="l" depth="1" NCoef="0" IVar="-1" Cut="0.0000000000000000e+00" cType="1" res="-2.1511300001293421e-03" rms="3.6407598853111267e-01" purity="7.6851749420166016e-01" nType="-99"/>
        <Node pos="r" depth="1" NCoef="0" IVar="0" Cut="1.6116940975189209e-01" cType="1" res="1.1484881397336721e-03" rms="3.1685325503349304e-01" purity="5.6248408555984497e-01" nType="0">
          <Node pos="l" depth="2" NCoef="0" IVar="-1" Cut="0.0000000000000000e+00" cType="1" res="2.4654108565300703e-03" rms="3.1474700570106506e-01" purity="8.5368508100509644e-01" nType="-99"/>
          <Node pos="r" depth="2" NCoef="0" IVar="-1" Cut="0.0000000000000000e+00" cType="1" res="-2.2292563226073980e-03" rms="3.1984290480613708e-01" purity="1.3290920853614807e-01" nType="-99"/>
        </Node>
      </Node>
    </BinaryTree>
    <BinaryTree type="DecisionTree" boostWeight="1.0000000000000000e+00" itree="168">
      <Node pos="s" depth="0" NCoef="0" IVar="3" Cut="2.2637318074703217e-01" cType="1" res="-3.4420311294525163e-06" rms="3.2562127709388733e-01" purity="5.9855979681015015e-01" nType="0">
        <Node pos="l" depth="1" NCoef="0" IVar="-1" Cut="0.0000000000000000e+00" cType="1" res="-1.7760612536221743e-03" rms="2.7550864219665527e-01" purity="6.7512804269790649e-01" nType="-99"/>
        <Node pos="r" depth="1" NCoef="0" IVar="3" Cut="3.1908169388771057e-01" cType="0" res="2.2064761724323034e-03" rms="3.5866695642471313e-01" purity="5.4105490446090698e-01" nType="0">
          <Node pos="l" depth="2" NCoef="0" IVar="-1" Cut="0.0000000000000000e+00" cType="1" res="-1.2115477584302425e-03" rms="3.7405213713645935e-01" purity="6.7848116159439087e-01" nType="-99"/>
          <Node pos="r" depth="2" NCoef="0" IVar="-1" Cut="0.0000000000000000e+00" cType="1" res="3.4135081805288792e-03" rms="3.4042596817016602e-01" purity="3.8646861910820007e-01" nType="-99"/>
        </Node>
      </Node>
    </BinaryTree>
    <BinaryTree type="DecisionTree" boostWeight="1.0000000000000000e+00" itree="169">
      <Node pos="s" depth="0" NCoef="0" IVar="0" Cut="1.2981009483337402e+00" cType="1" res="-3.1222052712109871e-06" rms="3.2560741901397705e-01" purity="5.9855979681015015e-01" nType="0">
        <Node pos="l" depth="1" NCoef="0" IVar="-1" Cut="0.0000000000000000e+00" cType="1" res="-2.4149054661393166e-04" rms="3.2640656828880310e-01" purity="6.2081432342529297e-01" nType="-99"/>
        <Node pos="r" depth="1" NCoef="0" IVar="3" Cut="2.7129822969436646e-01" cType="0" res="1.1504293419420719e-02" rms="3.0749377608299255e-01" purity="1.1468288302421570e-01" nType="0">
          <Node pos="l" depth="2" NCoef="0" IVar="-1" Cut="0.0000000000000000e+00" cType="1" res="2.6558613404631615e-02" rms="4.0961140394210815e-01" purity="2.4029126763343811e-01" nType="-99"/>
          <Node pos="r" depth="2" NCoef="0" IVar="-1" Cut="0.0000000000000000e+00" cType="1" res="-6.5524870296940207e-04" rms="2.7876448631286621e-01" purity="8.7301589548587799e-02" nType="-99"/>
        </Node>
      </Node>
    </BinaryTree>
    <BinaryTree type="DecisionTree" boostWeight="1.0000000000000000e+00" itree="170">
      <Node pos="s" depth="0" NCoef="0" IVar="1" Cut="6.9840079545974731e-01" cType="1" res="-3.6352673760120524e-06" rms="3.2559487223625183e-01" purity="5.9855979681015015e-01" nType="0">
        <Node pos="l" depth="1" NCoef="0" IVar="-1" Cut="0.0000000000000000e+00" cType="1" res="2.5101008941419423e-04" rms="3.2590040564537048e-01" purity="6.2272709608078003e-01" nType="-99"/>
        <Node pos="r" depth="1" NCoef="0" IVar="0" Cut="3.6606696248054504e-01" cType="1" res="-1.0913307778537273e-02" rms="3.1931751966476440e-01" purity="1.2223101407289505e-01" nType="0">
          <Node pos="l" depth="2" NCoef="0" IVar="-1" Cut="0.0000000000000000e+00" cType="1" res="-2.0227886736392975e-02" rms="3.5310122370719910e-01" purity="1.5789473056793213e-01" nType="-99"/>
          <Node pos="r" depth="2" NCoef="0" IVar="-1" Cut="0.0000000000000000e+00" cType="1" res="9.3587040901184082e-03" rms="2.9846286773681641e-01" purity="1.0520163923501968e-01" nType="-99"/>
        </Node>
      </Node>
    </BinaryTree>
    <BinaryTree type="DecisionTree" boostWeight="1.0000000000000000e+00" itree="171">
      <Node pos="s" depth="0" NCoef="0" IVar="0" Cut="4.7851073741912842e-01" cType="1" res="-4.5916999624751043e-06" rms="3.2557046413421631e-01" purity="5.9855979681015015e-01" nType="0">
        <Node pos="l" depth="1" NCoef="0" IVar="-1" Cut="0.0000000000000000e+00" cType="1" res="5.0258601550012827e-04" rms="3.3865517377853394e-01" purity="7.1715843677520752e-01" nType="-99"/>
        <Node pos="r" depth="1" NCoef="0" IVar="1" Cut="6.8715639412403107e-02" cType="0" res="-5.2261501550674438e-03" rms="2.6015710830688477e-01" purity="7.6184578239917755e-02" nType="0">
          <Node pos="l" depth="2" NCoef="0" IVar="-1" Cut="0.0000000000000000e+00" cType="1" res="1.4405291294679046e-03" rms="2.6567760109901428e-01" purity="8.0498047173023224e-02" nType="-99"/>
          <Node pos="r" depth="2" NCoef="0" IVar="-1" Cut="0.0000000000000000e+00" cType="1" res="-1.4508868567645550e-02" rms="2.4497695267200470e-01" purity="6.5467625856399536e-02" nType="-99"/>
        </Node>
      </Node>
    </BinaryTree>
    <BinaryTree type="DecisionTree" boostWeight="1.0000000000000000e+00" itree="172">
      <Node pos="s" depth="0" NCoef="0" IVar="0" Cut="2.4987505748867989e-02" cType="1" res="-5.5926489039848093e-06" rms="3.2556244730949402e-01" purity="5.9855979681015015e-01" nType="0">
        <Node pos="l" depth="1" NCoef="0" IVar="-1" Cut="0.0000000000000000e+00" cType="1" res="1.8902673618867993e-03" rms="2.6908066868782043e-01" purity="9.1135811805725098e-01" nType="-99"/>
        <Node pos="r" depth="1" NCoef="0" IVar="2" Cut="2.9222521185874939e-01" cType="1" res="-1.9060594495385885e-03" rms="3.5767021775245667e-01" purity="3.9417004585266113e-01" nType="0">
          <Node pos="l" depth="2" NCoef="0" IVar="-1" Cut="0.0000000000000000e+00" cType="1" res="-6.5271281637251377e-03" rms="3.6375352740287781e-01" purity="5.6955772638320923e-01" nType="-99"/>
          <Node pos="r" depth="2" NCoef="0" IVar="-1" Cut="0.0000000000000000e+00" cType="1" res="1.5337389777414501e-04" rms="3.5671183466911316e-01" purity="3.6846870183944702e-01" nType="-99"/>
        </Node>
      </Node>
    </BinaryTree>
    <BinaryTree type="DecisionTree" boostWeight="1.0000000000000000e+00" itree="173">
      <Node pos="s" depth="0" NCoef="0" IVar="1" Cut="4.0604698657989502e-01" cType="1" res="-4.7083726713026408e-06" rms="3.2555401325225830e-01" purity="5.9855979681015015e-01" nType="0">
        <Node pos="l" depth="1" NCoef="0" IVar="-1" Cut="0.0000000000000000e+00" cType="1" res="3.7973595317453146e-04" rms="3.2418039441108704e-01" purity="6.5295457839965820e-01" nType="-99"/>
        <Node pos="r" depth="1" NCoef="0" IVar="2" Cut="3.8214063644409180e-01" cType="1" res="-6.5971743315458298e-03" rms="3.3620107173919678e-01" purity="1.6615384817123413e-01" nType="0">
          <Node pos="l" depth="2" NCoef="0" IVar="-1" Cut="0.0000000000000000e+00" cType="1" res="-1.6172379255294800e-02" rms="3.9078310132026672e-01" purity="2.8214615583419800e-01" nType="-99"/>
          <Node pos="r" depth="2" NCoef="0" IVar="-1" Cut="0.0000000000000000e+00" cType="1" res="1.7730412073433399e-03" rms="3.2166483998298645e-01" purity="1.3986161351203918e-01" nType="-99"/>
        </Node>
      </Node>
    </BinaryTree>
    <BinaryTree type="DecisionTree" boostWeight="1.0000000000000000e+00" itree="174">
      <Node pos="s" depth="0" NCoef="0" IVar="2" Cut="5.3574621677398682e-01" cType="1" res="-4.5278716243046802e-06" rms="3.2553210854530334e-01" purity="5.9855979681015015e-01" nType="0">
        <Node pos="l" depth="1" NCoef="0" IVar="-1" Cut="0.0000000000000000e+00" cType="1" res="1.2015354586765170e-03" rms="2.9567092657089233e-01" purity="7.9944181442260742e-01" nType="-99"/>
        <Node pos="r" depth="1" NCoef="0" IVar="0" Cut="5.6221887469291687e-02" cType="1" res="-2.5860478635877371e-03" rms="3.5664966702461243e-01" purity="3.6854180693626404e-01" nType="0">
          <Node pos="l" depth="2" NCoef="0" IVar="-1" Cut="0.0000000000000000e+00" cType="1" res="-7.0876935496926308e-03" rms="3.4886530041694641e-01" purity="8.3921569585800171e-01" nType="-99"/>
          <Node pos="r" depth="2" NCoef="0" IVar="-1" Cut="0.0000000000000000e+00" cType="1" res="1.1793773592216894e-04" rms="3.5824292898178101e-01" purity="2.6688918471336365e-01" nType="-99"/>
        </Node>
      </Node>
    </BinaryTree>
    <BinaryTree type="DecisionTree" boostWeight="1.0000000000000000e+00" itree="175">
      <Node pos="s" depth="0" NCoef="0" IVar="3" Cut="4.9697157740592957e-01" cType="0" res="-3.4025556487904396e-06" rms="3.2552507519721985e-01" purity="5.9855979681015015e-01" nType="0">
        <Node pos="l" depth="1" NCoef="0" IVar="-1" Cut="0.0000000000000000e+00" cType="1" res="-2.4538232013583183e-02" rms="3.4889006614685059e-01" purity="8.3458644151687622e-01" nType="-99"/>
        <Node pos="r" depth="1" NCoef="0" IVar="3" Cut="4.7876596450805664e-01" cType="0" res="1.1428960715420544e-04" rms="3.2545503973960876e-01" purity="5.9795868396759033e-01" nType="0">
          <Node pos="l" depth="2" NCoef="0" IVar="-1" Cut="0.0000000000000000e+00" cType="1" res="1.2500208802521229e-02" rms="2.9364845156669617e-01" purity="8.8946682214736938e-01" nType="-99"/>
          <Node pos="r" depth="2" NCoef="0" IVar="-1" Cut="0.0000000000000000e+00" cType="1" res="-1.2350294855423272e-04" rms="3.2589149475097656e-01" purity="5.9360182285308838e-01" nType="-99"/>
        </Node>
      </Node>
    </BinaryTree>
    <BinaryTree type="DecisionTree" boostWeight="1.0000000000000000e+00" itree="176">
      <Node pos="s" depth="0" NCoef="0" IVar="0" Cut="5.9970013797283173e-02" cType="1" res="-2.5480042040726403e-06" rms="3.2552042603492737e-01" purity="5.9855979681015015e-01" nType="0">
        <Node pos="l" depth="1" NCoef="0" IVar="-1" Cut="0.0000000000000000e+00" cType="1" res="1.3320762664079666e-03" rms="2.8413560986518860e-01" purity="8.9877647161483765e-01" nType="-99"/>
        <Node pos="r" depth="1" NCoef="0" IVar="2" Cut="2.7349281311035156e-01" cType="1" res="-2.3415603209286928e-03" rms="3.6345550417900085e-01" purity="2.8743678331375122e-01" nType="0">
          <Node pos="l" depth="2" NCoef="0" IVar="-1" Cut="0.0000000000000000e+00" cType="1" res="-9.2648398131132126e-03" rms="3.8304728269577026e-01" purity="3.5349717736244202e-01" nType="-99"/>
          <Node pos="r" depth="2" NCoef="0" IVar="-1" Cut="0.0000000000000000e+00" cType="1" res="-1.5975831047398970e-05" rms="3.6155778169631958e-01" purity="2.8151226043701172e-01" nType="-99"/>
        </Node>
      </Node>
    </BinaryTree>
    <BinaryTree type="DecisionTree" boostWeight="1.0000000000000000e+00" itree="177">
      <Node pos="s" depth="0" NCoef="0" IVar="2" Cut="1.7608441114425659e+00" cType="1" res="-2.2601186628889991e-06" rms="3.2551026344299316e-01" purity="5.9855979681015015e-01" nType="0">
        <Node pos="l" depth="1" NCoef="0" IVar="-1" Cut="0.0000000000000000e+00" cType="1" res="-3.1101168133318424e-04" rms="3.2388079166412354e-01" purity="6.3296103477478027e-01" nType="-99"/>
        <Node pos="r" depth="1" NCoef="0" IVar="0" Cut="4.2478761076927185e-01" cType="1" res="7.7415457926690578e-03" rms="3.4362891316413879e-01" purity="2.0229555666446686e-01" nType="0">
          <Node pos="l" depth="2" NCoef="0" IVar="-1" Cut="0.0000000000000000e+00" cType="1" res="9.5454063266515732e-03" rms="4.3590101599693298e-01" purity="4.1703376173973083e-01" nType="-99"/>
          <Node pos="r" depth="2" NCoef="0" IVar="-1" Cut="0.0000000000000000e+00" cType="1" res="-2.4899023119360209e-03" rms="2.8790000081062317e-01" purity="9.8581559956073761e-02" nType="-99"/>
        </Node>
      </Node>
    </BinaryTree>
    <BinaryTree type="DecisionTree" boostWeight="1.0000000000000000e+00" itree="178">
      <Node pos="s" depth="0" NCoef="0" IVar="3" Cut="3.6754408478736877e-01" cType="0" res="-2.2262302081799135e-06" rms="3.2550087571144104e-01" purity="5.9855979681015015e-01" nType="0">
        <Node pos="l" depth="1" NCoef="0" IVar="-1" Cut="0.0000000000000000e+00" cType="1" res="-1.9988778512924910e-03" rms="3.6398443579673767e-01" purity="7.6851749420166016e-01" nType="-99"/>
        <Node pos="r" depth="1" NCoef="0" IVar="0" Cut="2.2738631069660187e-01" cType="1" res="1.0695174569264054e-03" rms="3.1672087311744690e-01" purity="5.6248408555984497e-01" nType="0">
          <Node pos="l" depth="2" NCoef="0" IVar="-1" Cut="0.0000000000000000e+00" cType="1" res="1.9671327900141478e-03" rms="3.2856509089469910e-01" purity="8.1339389085769653e-01" nType="-99"/>
          <Node pos="r" depth="2" NCoef="0" IVar="-1" Cut="0.0000000000000000e+00" cType="1" res="-2.8124721720814705e-03" rms="2.9361072182655334e-01" purity="1.0138642787933350e-01" nType="-99"/>
        </Node>
      </Node>
    </BinaryTree>
    <BinaryTree type="DecisionTree" boostWeight="1.0000000000000000e+00" itree="179">
      <Node pos="s" depth="0" NCoef="0" IVar="1" Cut="2.0239880084991455e+00" cType="1" res="-2.0437521470739739e-06" rms="3.2549634575843811e-01" purity="5.9855979681015015e-01" nType="0">
        <Node pos="l" depth="1" NCoef="0" IVar="1" Cut="6.9781547784805298e-01" cType="1" res="-1.3426647637970746e-04" rms="3.2512396574020386e-01" purity="5.9982752799987793e-01" nType="0">
          <Node pos="l" depth="2" NCoef="0" IVar="-1" Cut="0.0000000000000000e+00" cType="1" res="2.1634959557559341e-04" rms="3.2583436369895935e-01" purity="6.2275207042694092e-01" nType="-99"/>
          <Node pos="r" depth="2" NCoef="0" IVar="-1" Cut="0.0000000000000000e+00" cType="1" res="-6.3998014666140079e-03" rms="3.0940634012222290e-01" purity="1.1399404704570770e-01" nType="-99"/>
        </Node>
        <Node pos="r" depth="1" NCoef="0" IVar="-1" Cut="0.0000000000000000e+00" cType="1" res="1.3471999205648899e-02" rms="4.1842198371887207e-01" purity="2.2905027866363525e-01" nType="-99"/>
      </Node>
    </BinaryTree>
    <BinaryTree type="DecisionTree" boostWeight="1.0000000000000000e+00" itree="180">
      <Node pos="s" depth="0" NCoef="0" IVar="0" Cut="1.2981009483337402e+00" cType="1" res="-2.1747214304923546e-06" rms="3.2549151778221130e-01" purity="5.9855979681015015e-01" nType="0">
        <Node pos="l" depth="1" NCoef="0" IVar="-1" Cut="0.0000000000000000e+00" cType="1" res="-2.2391662059817463e-04" rms="3.2629805803298950e-01" purity="6.2081432342529297e-01" nType="-99"/>
        <Node pos="r" depth="1" NCoef="0" IVar="3" Cut="3.1920313835144043e-01" cType="0" res="1.0638912208378315e-02" rms="3.0723977088928223e-01" purity="1.1468288302421570e-01" nType="0">
          <Node pos="l" depth="2" NCoef="0" IVar="-1" Cut="0.0000000000000000e+00" cType="1" res="3.4984327852725983e-02" rms="4.7015592455863953e-01" purity="3.9252337813377380e-01" nType="-99"/>
          <Node pos="r" depth="2" NCoef="0" IVar="-1" Cut="0.0000000000000000e+00" cType="1" res="3.0404140707105398e-03" rms="2.9592913389205933e-01" purity="1.0113894939422607e-01" nType="-99"/>
        </Node>
      </Node>
    </BinaryTree>
    <BinaryTree type="DecisionTree" boostWeight="1.0000000000000000e+00" itree="181">
      <Node pos="s" depth="0" NCoef="0" IVar="3" Cut="2.3611772060394287e-01" cType="1" res="-2.3426114239555318e-06" rms="3.2548108696937561e-01" purity="5.9855979681015015e-01" nType="0">
        <Node pos="l" depth="1" NCoef="0" IVar="-1" Cut="0.0000000000000000e+00" cType="1" res="-1.4618127606809139e-03" rms="2.7735304832458496e-01" purity="6.5614449977874756e-01" nType="-99"/>
        <Node pos="r" depth="1" NCoef="0" IVar="2" Cut="3.9941069483757019e-01" cType="1" res="2.0205073524266481e-03" rms="3.6044222116470337e-01" purity="5.5094563961029053e-01" nType="0">
          <Node pos="l" depth="2" NCoef="0" IVar="-1" Cut="0.0000000000000000e+00" cType="1" res="6.6802226938307285e-03" rms="3.2577997446060181e-01" purity="8.1983363628387451e-01" nType="-99"/>
          <Node pos="r" depth="2" NCoef="0" IVar="-1" Cut="0.0000000000000000e+00" cType="1" res="-2.1822428971063346e-04" rms="3.6658787727355957e-01" purity="4.9995848536491394e-01" nType="-99"/>
        </Node>
      </Node>
    </BinaryTree>
    <BinaryTree type="DecisionTree" boostWeight="1.0000000000000000e+00" itree="182">
      <Node pos="s" depth="0" NCoef="0" IVar="3" Cut="3.1907123327255249e-01" cType="0" res="-1.6327026060025673e-06" rms="3.2547518610954285e-01" purity="5.9855979681015015e-01" nType="0">
        <Node pos="l" depth="1" NCoef="0" IVar="-1" Cut="0.0000000000000000e+00" cType="1" res="-1.2440719874575734e-03" rms="3.7391564249992371e-01" purity="6.7848116159439087e-01" nType="-99"/>
        <Node pos="r" depth="1" NCoef="0" IVar="0" Cut="2.2738631069660187e-01" cType="1" res="1.4473290648311377e-03" rms="3.0206999182701111e-01" purity="5.6392705440521240e-01" nType="0">
          <Node pos="l" depth="2" NCoef="0" IVar="-1" Cut="0.0000000000000000e+00" cType="1" res="3.1546393875032663e-03" rms="3.1372213363647461e-01" purity="8.3240413665771484e-01" nType="-99"/>
          <Node pos="r" depth="2" NCoef="0" IVar="-1" Cut="0.0000000000000000e+00" cType="1" res="-4.5050787739455700e-03" rms="2.8008624911308289e-01" purity="8.9945487678050995e-02" nType="-99"/>
        </Node>
      </Node>
    </BinaryTree>
    <BinaryTree type="DecisionTree" boostWeight="1.0000000000000000e+00" itree="183">
      <Node pos="s" depth="0" NCoef="0" IVar="2" Cut="1.7608441114425659e+00" cType="1" res="-1.6874394077603938e-06" rms="3.2546544075012207e-01" purity="5.9855979681015015e-01" nType="0">
        <Node pos="l" depth="1" NCoef="0" IVar="-1" Cut="0.0000000000000000e+00" cType="1" res="-3.1331263016909361e-04" rms="3.2384720444679260e-01" purity="6.3296103477478027e-01" nType="-99"/>
        <Node pos="r" depth="1" NCoef="0" IVar="3" Cut="3.0314964056015015e-01" cType="0" res="7.7747786417603493e-03" rms="3.4346085786819458e-01" purity="2.0229555666446686e-01" nType="0">
          <Node pos="l" depth="2" NCoef="0" IVar="-1" Cut="0.0000000000000000e+00" cType="1" res="8.1462636590003967e-03" rms="3.9620107412338257e-01" purity="3.0506154894828796e-01" nType="-99"/>
          <Node pos="r" depth="2" NCoef="0" IVar="-1" Cut="0.0000000000000000e+00" cType="1" res="-5.5315522477030754e-03" rms="2.7275162935256958e-01" purity="8.8989444077014923e-02" nType="-99"/>
        </Node>
      </Node>
    </BinaryTree>
    <BinaryTree type="DecisionTree" boostWeight="1.0000000000000000e+00" itree="184">
      <Node pos="s" depth="0" NCoef="0" IVar="0" Cut="1.2981009483337402e+00" cType="1" res="-1.9199535472580465e-06" rms="3.2545641064643860e-01" purity="5.9855979681015015e-01" nType="0">
        <Node pos="l" depth="1" NCoef="0" IVar="-1" Cut="0.0000000000000000e+00" cType="1" res="-2.2480830375570804e-04" rms="3.2627236843109131e-01" purity="6.2081432342529297e-01" nType="-99"/>
        <Node pos="r" depth="1" NCoef="0" IVar="3" Cut="2.7129822969436646e-01" cType="0" res="1.0664179921150208e-02" rms="3.0698624253273010e-01" purity="1.1468288302421570e-01" nType="0">
          <Node pos="l" depth="2" NCoef="0" IVar="-1" Cut="0.0000000000000000e+00" cType="1" res="2.2040715441107750e-02" rms="4.0907466411590576e-01" purity="2.4029126763343811e-01" nType="-99"/>
          <Node pos="r" depth="2" NCoef="0" IVar="-1" Cut="0.0000000000000000e+00" cType="1" res="3.8957019569352269e-05" rms="2.7870604395866394e-01" purity="8.7301589548587799e-02" nType="-99"/>
        </Node>
      </Node>
    </BinaryTree>
    <BinaryTree type="DecisionTree" boostWeight="1.0000000000000000e+00" itree="185">
      <Node pos="s" depth="0" NCoef="0" IVar="3" Cut="2.1113172173500061e-01" cType="1" res="-2.2896747395861894e-06" rms="3.2544726133346558e-01" purity="5.9855979681015015e-01" nType="0">
        <Node pos="l" depth="1" NCoef="0" IVar="-1" Cut="0.0000000000000000e+00" cType="1" res="-1.6605497803539038e-03" rms="2.7288898825645447e-01" purity="7.0594489574432373e-01" nType="-99"/>
        <Node pos="r" depth="1" NCoef="0" IVar="1" Cut="1.2493752874433994e-03" cType="1" res="1.7307905945926905e-03" rms="3.5560774803161621e-01" purity="5.2839183807373047e-01" nType="0">
          <Node pos="l" depth="2" NCoef="0" IVar="-1" Cut="0.0000000000000000e+00" cType="1" res="-2.0085340365767479e-03" rms="3.4499666094779968e-01" purity="6.7232257127761841e-01" nType="-99"/>
          <Node pos="r" depth="2" NCoef="0" IVar="-1" Cut="0.0000000000000000e+00" cType="1" res="2.1968081127852201e-03" rms="3.6179196834564209e-01" purity="4.4167214632034302e-01" nType="-99"/>
        </Node>
      </Node>
    </BinaryTree>
    <BinaryTree type="DecisionTree" boostWeight="1.0000000000000000e+00" itree="186">
      <Node pos="s" depth="0" NCoef="0" IVar="1" Cut="5.2473764866590500e-02" cType="1" res="-1.9695378341566538e-06" rms="3.2543984055519104e-01" purity="5.9855979681015015e-01" nType="0">
        <Node pos="l" depth="1" NCoef="0" IVar="-1" Cut="0.0000000000000000e+00" cType="1" res="1.1270428076386452e-03" rms="3.0429917573928833e-01" purity="7.4758082628250122e-01" nType="-99"/>
        <Node pos="r" depth="1" NCoef="0" IVar="0" Cut="1.2368815392255783e-01" cType="1" res="-2.5388600770384073e-03" rms="3.4780871868133545e-01" purity="4.2985135316848755e-01" nType="0">
          <Node pos="l" depth="2" NCoef="0" IVar="-1" Cut="0.0000000000000000e+00" cType="1" res="-3.8733666297048330e-03" rms="3.7408232688903809e-01" purity="7.7569425106048584e-01" nType="-99"/>
          <Node pos="r" depth="2" NCoef="0" IVar="-1" Cut="0.0000000000000000e+00" cType="1" res="2.0597383845597506e-03" rms="3.2398360967636108e-01" purity="1.3986223936080933e-01" nType="-99"/>
        </Node>
      </Node>
    </BinaryTree>
    <BinaryTree type="DecisionTree" boostWeight="1.0000000000000000e+00" itree="187">
      <Node pos="s" depth="0" NCoef="0" IVar="0" Cut="4.8725638538599014e-02" cType="1" res="-1.4733566331415204e-06" rms="3.2542595267295837e-01" purity="5.9855979681015015e-01" nType="0">
        <Node pos="l" depth="1" NCoef="0" IVar="-1" Cut="0.0000000000000000e+00" cType="1" res="1.3883735518902540e-03" rms="2.7849414944648743e-01" purity="9.0368217229843140e-01" nType="-99"/>
        <Node pos="r" depth="1" NCoef="0" IVar="2" Cut="2.9597166180610657e-01" cType="1" res="-2.0853804890066385e-03" rms="3.6329603195190430e-01" purity="3.1768158078193665e-01" nType="0">
          <Node pos="l" depth="2" NCoef="0" IVar="-1" Cut="0.0000000000000000e+00" cType="1" res="-8.2876654341816902e-03" rms="3.8494470715522766e-01" purity="4.2141312360763550e-01" nType="-99"/>
          <Node pos="r" depth="2" NCoef="0" IVar="-1" Cut="0.0000000000000000e+00" cType="1" res="1.7737499729264528e-04" rms="3.6067265272140503e-01" purity="3.0592992901802063e-01" nType="-99"/>
        </Node>
      </Node>
    </BinaryTree>
    <BinaryTree type="DecisionTree" boostWeight="1.0000000000000000e+00" itree="188">
      <Node pos="s" depth="0" NCoef="0" IVar="3" Cut="3.1907123327255249e-01" cType="0" res="-1.2000548395008082e-06" rms="3.2541683316230774e-01" purity="5.9855979681015015e-01" nType="0">
        <Node pos="l" depth="1" NCoef="0" IVar="-1" Cut="0.0000000000000000e+00" cType="1" res="-1.2881269212812185e-03" rms="3.7383833527565002e-01" purity="6.7848116159439087e-01" nType="-99"/>
        <Node pos="r" depth="1" NCoef="0" IVar="0" Cut="2.3863068222999573e-01" cType="1" res="1.5021982835605741e-03" rms="3.0202046036720276e-01" purity="5.6392705440521240e-01" nType="0">
          <Node pos="l" depth="2" NCoef="0" IVar="-1" Cut="0.0000000000000000e+00" cType="1" res="3.0061963479965925e-03" rms="3.1467625498771667e-01" purity="8.2678335905075073e-01" nType="-99"/>
          <Node pos="r" depth="2" NCoef="0" IVar="-1" Cut="0.0000000000000000e+00" cType="1" res="-4.3538878671824932e-03" rms="2.7740666270256042e-01" purity="8.7612591683864594e-02" nType="-99"/>
        </Node>
      </Node>
    </BinaryTree>
    <BinaryTree type="DecisionTree" boostWeight="1.0000000000000000e+00" itree="189">
      <Node pos="s" depth="0" NCoef="0" IVar="0" Cut="2.4575212001800537e+00" cType="1" res="-1.2799097248716862e-06" rms="3.2540759444236755e-01" purity="5.9855979681015015e-01" nType="0">
        <Node pos="l" depth="1" NCoef="0" IVar="-1" Cut="0.0000000000000000e+00" cType="1" res="-9.9437274911906570e-05" rms="3.2497560977935791e-01" purity="6.0261505842208862e-01" nType="-99"/>
        <Node pos="r" depth="1" NCoef="0" IVar="1" Cut="1.2168915271759033e+00" cType="0" res="2.2224944084882736e-02" rms="3.6678117513656616e-01" purity="1.7800000309944153e-01" nType="0">
          <Node pos="l" depth="2" NCoef="0" IVar="-1" Cut="0.0000000000000000e+00" cType="1" res="2.4732667952775955e-02" rms="4.3944922089576721e-01" purity="2.5925925374031067e-01" nType="-99"/>
          <Node pos="r" depth="2" NCoef="0" IVar="-1" Cut="0.0000000000000000e+00" cType="1" res="1.9338787533342838e-03" rms="3.3420184254646301e-01" purity="1.4794521033763885e-01" nType="-99"/>
        </Node>
      </Node>
    </BinaryTree>
    <BinaryTree type="DecisionTree" boostWeight="1.0000000000000000e+00" itree="190">
      <Node pos="s" depth="0" NCoef="0" IVar="1" Cut="4.4977512210607529e-02" cType="1" res="-1.4097837492954568e-06" rms="3.2540428638458252e-01" purity="5.9855979681015015e-01" nType="0">
        <Node pos="l" depth="1" NCoef="0" IVar="-1" Cut="0.0000000000000000e+00" cType="1" res="1.0533991735428572e-03" rms="3.0319988727569580e-01" purity="7.4969816207885742e-01" nType="-99"/>
        <Node pos="r" depth="1" NCoef="0" IVar="0" Cut="1.5367315709590912e-01" cType="1" res="-2.1338679362088442e-03" rms="3.4668412804603577e-01" purity="4.4359767436981201e-01" nType="0">
          <Node pos="l" depth="2" NCoef="0" IVar="-1" Cut="0.0000000000000000e+00" cType="1" res="-3.3190601971000433e-03" rms="3.7598145008087158e-01" purity="7.6172417402267456e-01" nType="-99"/>
          <Node pos="r" depth="2" NCoef="0" IVar="-1" Cut="0.0000000000000000e+00" cType="1" res="2.5731546338647604e-03" rms="3.1452378630638123e-01" purity="1.2561881542205811e-01" nType="-99"/>
        </Node>
      </Node>
    </BinaryTree>
    <BinaryTree type="DecisionTree" boostWeight="1.0000000000000000e+00" itree="191">
      <Node pos="s" depth="0" NCoef="0" IVar="2" Cut="5.3574621677398682e-01" cType="1" res="-1.1411857485654764e-06" rms="3.2539042830467224e-01" purity="5.9855979681015015e-01" nType="0">
        <Node pos="l" depth="1" NCoef="0" IVar="-1" Cut="0.0000000000000000e+00" cType="1" res="1.0536982445046306e-03" rms="2.9557695984840393e-01" purity="7.9944181442260742e-01" nType="-99"/>
        <Node pos="r" depth="1" NCoef="0" IVar="1" Cut="1.2493752874433994e-03" cType="1" res="-2.2455239668488503e-03" rms="3.5646578669548035e-01" purity="3.6854180693626404e-01" nType="0">
          <Node pos="l" depth="2" NCoef="0" IVar="-1" Cut="0.0000000000000000e+00" cType="1" res="-4.0314588695764542e-03" rms="3.6496743559837341e-01" purity="5.2107971906661987e-01" nType="-99"/>
          <Node pos="r" depth="2" NCoef="0" IVar="-1" Cut="0.0000000000000000e+00" cType="1" res="7.6498521957546473e-04" rms="3.5234206914901733e-01" purity="2.9716727137565613e-01" nType="-99"/>
        </Node>
      </Node>
    </BinaryTree>
    <BinaryTree type="DecisionTree" boostWeight="1.0000000000000000e+00" itree="192">
      <Node pos="s" depth="0" NCoef="0" IVar="1" Cut="4.4977512210607529e-02" cType="1" res="-9.3732427330905921e-07" rms="3.2538735866546631e-01" purity="5.9855979681015015e-01" nType="0">
        <Node pos="l" depth="1" NCoef="0" IVar="-1" Cut="0.0000000000000000e+00" cType="1" res="1.0543625103309751e-03" rms="3.0319088697433472e-01" purity="7.4969816207885742e-01" nType="-99"/>
        <Node pos="r" depth="1" NCoef="0" IVar="0" Cut="1.5367315709590912e-01" cType="1" res="-2.1324527915567160e-03" rms="3.4666001796722412e-01" purity="4.4359767436981201e-01" nType="0">
          <Node pos="l" depth="2" NCoef="0" IVar="-1" Cut="0.0000000000000000e+00" cType="1" res="-3.0755833722651005e-03" rms="3.7597340345382690e-01" purity="7.6172417402267456e-01" nType="-99"/>
          <Node pos="r" depth="2" NCoef="0" IVar="-1" Cut="0.0000000000000000e+00" cType="1" res="2.2235114593058825e-03" rms="3.1450912356376648e-01" purity="1.2561881542205811e-01" nType="-99"/>
        </Node>
      </Node>
    </BinaryTree>
    <BinaryTree type="DecisionTree" boostWeight="1.0000000000000000e+00" itree="193">
      <Node pos="s" depth="0" NCoef="0" IVar="0" Cut="9.4952523708343506e-02" cType="1" res="-7.0513368655156228e-07" rms="3.2537552714347839e-01" purity="5.9855979681015015e-01" nType="0">
        <Node pos="l" depth="1" NCoef="0" IVar="-1" Cut="0.0000000000000000e+00" cType="1" res="9.7587209893390536e-04" rms="3.0135747790336609e-01" purity="8.8115000724792480e-01" nType="-99"/>
        <Node pos="r" depth="1" NCoef="0" IVar="3" Cut="3.9556342363357544e-01" cType="0" res="-2.4879977572709322e-03" rms="3.5532176494598389e-01" purity="2.1568010747432709e-01" nType="0">
          <Node pos="l" depth="2" NCoef="0" IVar="-1" Cut="0.0000000000000000e+00" cType="1" res="1.2634345330297947e-02" rms="4.7682979702949524e-01" purity="4.4709897041320801e-01" nType="-99"/>
          <Node pos="r" depth="2" NCoef="0" IVar="-1" Cut="0.0000000000000000e+00" cType="1" res="-1.5321795362979174e-03" rms="3.5134235024452209e-01" purity="2.0941513776779175e-01" nType="-99"/>
        </Node>
      </Node>
    </BinaryTree>
    <BinaryTree type="DecisionTree" boostWeight="1.0000000000000000e+00" itree="194">
      <Node pos="s" depth="0" NCoef="0" IVar="3" Cut="4.9622198939323425e-01" cType="0" res="-7.5393501219878090e-07" rms="3.2536971569061279e-01" purity="5.9855979681015015e-01" nType="0">
        <Node pos="l" depth="1" NCoef="0" IVar="-1" Cut="0.0000000000000000e+00" cType="1" res="-1.9869893789291382e-02" rms="3.4530580043792725e-01" purity="8.4177213907241821e-01" nType="-99"/>
        <Node pos="r" depth="1" NCoef="0" IVar="3" Cut="4.7883895039558411e-01" cType="0" res="1.1459800589364022e-04" rms="3.2530075311660767e-01" purity="5.9782356023788452e-01" nType="0">
          <Node pos="l" depth="2" NCoef="0" IVar="-1" Cut="0.0000000000000000e+00" cType="1" res="1.2370548211038113e-02" rms="2.9258361458778381e-01" purity="8.8948786258697510e-01" nType="-99"/>
          <Node pos="r" depth="2" NCoef="0" IVar="-1" Cut="0.0000000000000000e+00" cType="1" res="-1.1485235154395923e-04" rms="3.2573416829109192e-01" purity="5.9361761808395386e-01" nType="-99"/>
        </Node>
      </Node>
    </BinaryTree>
    <BinaryTree type="DecisionTree" boostWeight="1.0000000000000000e+00" itree="195">
      <Node pos="s" depth="0" NCoef="0" IVar="3" Cut="2.1113172173500061e-01" cType="1" res="-2.2504107732856937e-07" rms="3.2536566257476807e-01" purity="5.9855979681015015e-01" nType="0">
        <Node pos="l" depth="1" NCoef="0" IVar="-1" Cut="0.0000000000000000e+00" cType="1" res="-1.5954718692228198e-03" rms="2.7282580733299255e-01" purity="7.0594489574432373e-01" nType="-99"/>
        <Node pos="r" depth="1" NCoef="0" IVar="2" Cut="4.0046989917755127e-01" cType="1" res="1.6621177783235908e-03" rms="3.5551682114601135e-01" purity="5.2839183807373047e-01" nType="0">
          <Node pos="l" depth="2" NCoef="0" IVar="-1" Cut="0.0000000000000000e+00" cType="1" res="5.7050045579671860e-03" rms="3.2527372241020203e-01" purity="8.1602489948272705e-01" nType="-99"/>
          <Node pos="r" depth="2" NCoef="0" IVar="-1" Cut="0.0000000000000000e+00" cType="1" res="-2.3216955014504492e-04" rms="3.6104351282119751e-01" purity="4.7262650728225708e-01" nType="-99"/>
        </Node>
      </Node>
    </BinaryTree>
    <BinaryTree type="DecisionTree" boostWeight="1.0000000000000000e+00" itree="196">
      <Node pos="s" depth="0" NCoef="0" IVar="3" Cut="3.1907123327255249e-01" cType="0" res="2.0332646499809925e-07" rms="3.2536134123802185e-01" purity="5.9855979681015015e-01" nType="0">
        <Node pos="l" depth="1" NCoef="0" IVar="-1" Cut="0.0000000000000000e+00" cType="1" res="-1.1934498324990273e-03" rms="3.7374293804168701e-01" purity="6.7848116159439087e-01" nType="-99"/>
        <Node pos="r" depth="1" NCoef="0" IVar="0" Cut="2.2738631069660187e-01" cType="1" res="1.3946959516033530e-03" rms="3.0198764801025391e-01" purity="5.6392705440521240e-01" nType="0">
          <Node pos="l" depth="2" NCoef="0" IVar="-1" Cut="0.0000000000000000e+00" cType="1" res="2.8718225657939911e-03" rms="3.1366196274757385e-01" purity="8.3240413665771484e-01" nType="-99"/>
          <Node pos="r" depth="2" NCoef="0" IVar="-1" Cut="0.0000000000000000e+00" cType="1" res="-3.9900327101349831e-03" rms="2.8000730276107788e-01" purity="8.9945487678050995e-02" nType="-99"/>
        </Node>
      </Node>
    </BinaryTree>
    <BinaryTree type="DecisionTree" boostWeight="1.0000000000000000e+00" itree="197">
      <Node pos="s" depth="0" NCoef="0" IVar="0" Cut="1.2981009483337402e+00" cType="1" res="3.5851773105832763e-08" rms="3.2535368204116821e-01" purity="5.9855979681015015e-01" nType="0">
        <Node pos="l" depth="1" NCoef="0" IVar="-1" Cut="0.0000000000000000e+00" cType="1" res="-2.0286555809434503e-04" rms="3.2617899775505066e-01" purity="6.2081432342529297e-01" nType="-99"/>
        <Node pos="r" depth="1" NCoef="0" IVar="3" Cut="2.7129822969436646e-01" cType="0" res="9.6425916999578476e-03" rms="3.0670273303985596e-01" purity="1.1468288302421570e-01" nType="0">
          <Node pos="l" depth="2" NCoef="0" IVar="-1" Cut="0.0000000000000000e+00" cType="1" res="1.9088663160800934e-02" rms="4.0902337431907654e-01" purity="2.4029126763343811e-01" nType="-99"/>
          <Node pos="r" depth="2" NCoef="0" IVar="-1" Cut="0.0000000000000000e+00" cType="1" res="1.7727221711538732e-04" rms="2.7859008312225342e-01" purity="8.7301589548587799e-02" nType="-99"/>
        </Node>
      </Node>
    </BinaryTree>
    <BinaryTree type="DecisionTree" boostWeight="1.0000000000000000e+00" itree="198">
      <Node pos="s" depth="0" NCoef="0" IVar="3" Cut="2.3611772060394287e-01" cType="1" res="-3.8870024354764610e-07" rms="3.2534658908843994e-01" purity="5.9855979681015015e-01" nType="0">
        <Node pos="l" depth="1" NCoef="0" IVar="-1" Cut="0.0000000000000000e+00" cType="1" res="-1.3436849694699049e-03" rms="2.7727857232093811e-01" purity="6.5614449977874756e-01" nType="-99"/>
        <Node pos="r" depth="1" NCoef="0" IVar="3" Cut="3.1906113028526306e-01" cType="0" res="1.8442556029185653e-03" rms="3.6026990413665771e-01" purity="5.5094563961029053e-01" nType="0">
          <Node pos="l" depth="2" NCoef="0" IVar="-1" Cut="0.0000000000000000e+00" cType="1" res="-1.0504283709451556e-03" rms="3.7377816438674927e-01" purity="6.7845863103866577e-01" nType="-99"/>
          <Node pos="r" depth="2" NCoef="0" IVar="-1" Cut="0.0000000000000000e+00" cType="1" res="3.1047170050442219e-03" rms="3.4277960658073425e-01" purity="3.9359214901924133e-01" nType="-99"/>
        </Node>
      </Node>
    </BinaryTree>
    <BinaryTree type="DecisionTree" boostWeight="1.0000000000000000e+00" itree="199">
      <Node pos="s" depth="0" NCoef="0" IVar="1" Cut="6.9840079545974731e-01" cType="1" res="-3.7669320818167762e-07" rms="3.2533690333366394e-01" purity="5.9855979681015015e-01" nType="0">
        <Node pos="l" depth="1" NCoef="0" IVar="-1" Cut="0.0000000000000000e+00" cType="1" res="2.0216866687405854e-04" rms="3.2567790150642395e-01" purity="6.2272709608078003e-01" nType="-99"/>
        <Node pos="r" depth="1" NCoef="0" IVar="0" Cut="4.0354824066162109e-01" cType="1" res="-8.6743682622909546e-03" rms="3.1841737031936646e-01" purity="1.2223101407289505e-01" nType="0">
          <Node pos="l" depth="2" NCoef="0" IVar="-1" Cut="0.0000000000000000e+00" cType="1" res="-1.7596459016203880e-02" rms="3.4494036436080933e-01" purity="1.5017065405845642e-01" nType="-99"/>
          <Node pos="r" depth="2" NCoef="0" IVar="-1" Cut="0.0000000000000000e+00" cType="1" res="9.1844871640205383e-03" rms="3.0074846744537354e-01" purity="1.0733778029680252e-01" nType="-99"/>
        </Node>
      </Node>
    </BinaryTree>
    <BinaryTree type="DecisionTree" boostWeight="1.0000000000000000e+00" itree="200">
      <Node pos="s" depth="0" NCoef="0" IVar="0" Cut="6.5842080116271973e-01" cType="1" res="-1.4435653383770841e-06" rms="3.2531866431236267e-01" purity="5.9855979681015015e-01" nType="0">
        <Node pos="l" depth="1" NCoef="0" IVar="-1" Cut="0.0000000000000000e+00" cType="1" res="3.4786094329319894e-04" rms="3.3408495783805847e-01" purity="6.7745697498321533e-01" nType="-99"/>
        <Node pos="r" depth="1" NCoef="0" IVar="1" Cut="5.6221890449523926e-01" cType="0" res="-5.2439370192587376e-03" rms="2.6000005006790161e-01" purity="7.7169016003608704e-02" nType="0">
          <Node pos="l" depth="2" NCoef="0" IVar="-1" Cut="0.0000000000000000e+00" cType="1" res="9.0001951903104782e-03" rms="3.0409607291221619e-01" purity="1.1065573990345001e-01" nType="-99"/>
          <Node pos="r" depth="2" NCoef="0" IVar="-1" Cut="0.0000000000000000e+00" cType="1" res="-8.4042930975556374e-03" rms="2.4333488941192627e-01" purity="6.6112510859966278e-02" nType="-99"/>
        </Node>
      </Node>
    </BinaryTree>
    <BinaryTree type="DecisionTree" boostWeight="1.0000000000000000e+00" itree="201">
      <Node pos="s" depth="0" NCoef="0" IVar="1" Cut="8.0209892988204956e-01" cType="1" res="-2.4186908831325127e-06" rms="3.2531309127807617e-01" purity="5.9855979681015015e-01" nType="0">
        <Node pos="l" depth="1" NCoef="0" IVar="-1" Cut="0.0000000000000000e+00" cType="1" res="1.7799292982090265e-04" rms="3.2556217908859253e-01" purity="6.1697316169738770e-01" nType="-99"/>
        <Node pos="r" depth="1" NCoef="0" IVar="0" Cut="9.3703150749206543e-02" cType="1" res="-1.0081652551889420e-02" rms="3.1862393021583557e-01" purity="1.2133675813674927e-01" nType="0">
          <Node pos="l" depth="2" NCoef="0" IVar="-1" Cut="0.0000000000000000e+00" cType="1" res="-2.7025735005736351e-02" rms="3.9165878295898438e-01" purity="2.0253165066242218e-01" nType="-99"/>
          <Node pos="r" depth="2" NCoef="0" IVar="-1" Cut="0.0000000000000000e+00" cType="1" res="2.3288000375032425e-03" rms="3.0438774824142456e-01" purity="1.1007025837898254e-01" nType="-99"/>
        </Node>
      </Node>
    </BinaryTree>
    <BinaryTree type="DecisionTree" boostWeight="1.0000000000000000e+00" itree="202">
      <Node pos="s" depth="0" NCoef="0" IVar="0" Cut="2.4987505748867989e-02" cType="1" res="-2.6830250590137439e-06" rms="3.2529610395431519e-01" purity="5.9855979681015015e-01" nType="0">
        <Node pos="l" depth="1" NCoef="0" IVar="-1" Cut="0.0000000000000000e+00" cType="1" res="1.5525121707469225e-03" rms="2.6889345049858093e-01" purity="9.1135811805725098e-01" nType="-99"/>
        <Node pos="r" depth="1" NCoef="0" IVar="3" Cut="1.2632270343601704e-02" cType="1" res="-1.5456385444849730e-03" rms="3.5736575722694397e-01" purity="3.9417004585266113e-01" nType="0">
          <Node pos="l" depth="2" NCoef="0" IVar="-1" Cut="0.0000000000000000e+00" cType="1" res="2.7465552091598511e-02" rms="4.0611532330513000e-01" purity="4.9635037779808044e-01" nType="-99"/>
          <Node pos="r" depth="2" NCoef="0" IVar="-1" Cut="0.0000000000000000e+00" cType="1" res="-7.5534585630521178e-04" rms="3.5708513855934143e-01" purity="3.9372602105140686e-01" nType="-99"/>
        </Node>
      </Node>
    </BinaryTree>
    <BinaryTree type="DecisionTree" boostWeight="1.0000000000000000e+00" itree="203">
      <Node pos="s" depth="0" NCoef="0" IVar="3" Cut="2.1113172173500061e-01" cType="1" res="-2.3911482003313722e-06" rms="3.2528954744338989e-01" purity="5.9855979681015015e-01" nType="0">
        <Node pos="l" depth="1" NCoef="0" IVar="-1" Cut="0.0000000000000000e+00" cType="1" res="-1.5126714715734124e-03" rms="2.7274301648139954e-01" purity="7.0594489574432373e-01" nType="-99"/>
        <Node pos="r" depth="1" NCoef="0" IVar="1" Cut="1.2493752874433994e-03" cType="1" res="1.5652873553335667e-03" rms="3.5544422268867493e-01" purity="5.2839183807373047e-01" nType="0">
          <Node pos="l" depth="2" NCoef="0" IVar="-1" Cut="0.0000000000000000e+00" cType="1" res="-1.9474247237667441e-03" rms="3.4488642215728760e-01" purity="6.7232257127761841e-01" nType="-99"/>
          <Node pos="r" depth="2" NCoef="0" IVar="-1" Cut="0.0000000000000000e+00" cType="1" res="2.0523213315755129e-03" rms="3.6160361766815186e-01" purity="4.4167214632034302e-01" nType="-99"/>
        </Node>
      </Node>
    </BinaryTree>
    <BinaryTree type="DecisionTree" boostWeight="1.0000000000000000e+00" itree="204">
      <Node pos="s" depth="0" NCoef="0" IVar="1" Cut="4.4977512210607529e-02" cType="1" res="-2.0714780930575216e-06" rms="3.2528316974639893e-01" purity="5.9855979681015015e-01" nType="0">
        <Node pos="l" depth="1" NCoef="0" IVar="-1" Cut="0.0000000000000000e+00" cType="1" res="1.0108932619914412e-03" rms="3.0312189459800720e-01" purity="7.4969816207885742e-01" nType="-99"/>
        <Node pos="r" depth="1" NCoef="0" IVar="0" Cut="1.5367315709590912e-01" cType="1" res="-2.0382360089570284e-03" rms="3.4652495384216309e-01" purity="4.4359767436981201e-01" nType="0">
          <Node pos="l" depth="2" NCoef="0" IVar="-1" Cut="0.0000000000000000e+00" cType="1" res="-2.9517475049942732e-03" rms="3.7584063410758972e-01" purity="7.6172417402267456e-01" nType="-99"/>
          <Node pos="r" depth="2" NCoef="0" IVar="-1" Cut="0.0000000000000000e+00" cType="1" res="2.1367734298110008e-03" rms="3.1438085436820984e-01" purity="1.2561881542205811e-01" nType="-99"/>
        </Node>
      </Node>
    </BinaryTree>
    <BinaryTree type="DecisionTree" boostWeight="1.0000000000000000e+00" itree="205">
      <Node pos="s" depth="0" NCoef="0" IVar="0" Cut="9.4952523708343506e-02" cType="1" res="-1.7370966816088185e-06" rms="3.2527235150337219e-01" purity="5.9855979681015015e-01" nType="0">
        <Node pos="l" depth="1" NCoef="0" IVar="-1" Cut="0.0000000000000000e+00" cType="1" res="9.0638035908341408e-04" rms="3.0126586556434631e-01" purity="8.8115000724792480e-01" nType="-99"/>
        <Node pos="r" depth="1" NCoef="0" IVar="2" Cut="1.1127036809921265e+00" cType="1" res="-2.3061435203999281e-03" rms="3.5520666837692261e-01" purity="2.1568010747432709e-01" nType="0">
          <Node pos="l" depth="2" NCoef="0" IVar="-1" Cut="0.0000000000000000e+00" cType="1" res="-3.4779843408614397e-03" rms="3.6277347803115845e-01" purity="2.3784834146499634e-01" nType="-99"/>
          <Node pos="r" depth="2" NCoef="0" IVar="-1" Cut="0.0000000000000000e+00" cType="1" res="2.8116081375628710e-03" rms="3.4531798958778381e-01" purity="1.8800565600395203e-01" nType="-99"/>
        </Node>
      </Node>
    </BinaryTree>
    <BinaryTree type="DecisionTree" boostWeight="1.0000000000000000e+00" itree="206">
      <Node pos="s" depth="0" NCoef="0" IVar="0" Cut="6.5217393636703491e-01" cType="1" res="-1.9124834125250345e-06" rms="3.2526001334190369e-01" purity="5.9855979681015015e-01" nType="0">
        <Node pos="l" depth="1" NCoef="0" IVar="-1" Cut="0.0000000000000000e+00" cType="1" res="3.4262464032508433e-04" rms="3.3415094017982483e-01" purity="6.7854863405227661e-01" nType="-99"/>
        <Node pos="r" depth="1" NCoef="0" IVar="0" Cut="9.1815936565399170e-01" cType="0" res="-5.1003838889300823e-03" rms="2.5989493727684021e-01" purity="7.7121928334236145e-02" nType="0">
          <Node pos="l" depth="2" NCoef="0" IVar="-1" Cut="0.0000000000000000e+00" cType="1" res="2.1828678436577320e-03" rms="2.8081473708152771e-01" purity="9.2407710850238800e-02" nType="-99"/>
          <Node pos="r" depth="2" NCoef="0" IVar="-1" Cut="0.0000000000000000e+00" cType="1" res="-1.4365513809025288e-02" rms="2.2112455964088440e-01" purity="5.2334338426589966e-02" nType="-99"/>
        </Node>
      </Node>
    </BinaryTree>
    <BinaryTree type="DecisionTree" boostWeight="1.0000000000000000e+00" itree="207">
      <Node pos="s" depth="0" NCoef="0" IVar="3" Cut="3.9003148674964905e-01" cType="0" res="-2.9193131467764033e-06" rms="3.2525455951690674e-01" purity="5.9855979681015015e-01" nType="0">
        <Node pos="l" depth="1" NCoef="0" IVar="-1" Cut="0.0000000000000000e+00" cType="1" res="-2.1040851715952158e-03" rms="3.5640251636505127e-01" purity="8.0126231908798218e-01" nType="-99"/>
        <Node pos="r" depth="1" NCoef="0" IVar="0" Cut="9.2453770339488983e-02" cType="1" res="7.5435120379552245e-04" rms="3.2032757997512817e-01" purity="5.6823521852493286e-01" nType="0">
          <Node pos="l" depth="2" NCoef="0" IVar="-1" Cut="0.0000000000000000e+00" cType="1" res="2.2745877504348755e-03" rms="2.8968492150306702e-01" purity="8.9180463552474976e-01" nType="-99"/>
          <Node pos="r" depth="2" NCoef="0" IVar="-1" Cut="0.0000000000000000e+00" cType="1" res="-1.1207828065380454e-03" rms="3.5092321038246155e-01" purity="2.1230286359786987e-01" nType="-99"/>
        </Node>
      </Node>
    </BinaryTree>
    <BinaryTree type="DecisionTree" boostWeight="1.0000000000000000e+00" itree="208">
      <Node pos="s" depth="0" NCoef="0" IVar="0" Cut="1.2493752874433994e-03" cType="1" res="-2.3295724531635642e-06" rms="3.2525253295898438e-01" purity="5.9855979681015015e-01" nType="0">
        <Node pos="l" depth="1" NCoef="0" IVar="-1" Cut="0.0000000000000000e+00" cType="1" res="-1.8095001578330994e-03" rms="2.7299490571022034e-01" purity="9.0791207551956177e-01" nType="-99"/>
        <Node pos="r" depth="1" NCoef="0" IVar="0" Cut="1.5932820737361908e-02" cType="1" res="1.3383061159402132e-03" rms="3.4840396046638489e-01" purity="4.4418039917945862e-01" nType="0">
          <Node pos="l" depth="2" NCoef="0" IVar="-1" Cut="0.0000000000000000e+00" cType="1" res="3.4429743885993958e-02" rms="1.8394328653812408e-01" purity="9.5916664600372314e-01" nType="-99"/>
          <Node pos="r" depth="2" NCoef="0" IVar="-1" Cut="0.0000000000000000e+00" cType="1" res="-2.5532866129651666e-04" rms="3.5268375277519226e-01" purity="4.2585620284080505e-01" nType="-99"/>
        </Node>
      </Node>
    </BinaryTree>
    <BinaryTree type="DecisionTree" boostWeight="1.0000000000000000e+00" itree="209">
      <Node pos="s" depth="0" NCoef="0" IVar="1" Cut="6.2343829870223999e-01" cType="1" res="1.3585790838988032e-06" rms="3.2522660493850708e-01" purity="5.9855979681015015e-01" nType="0">
        <Node pos="l" depth="1" NCoef="0" IVar="-1" Cut="0.0000000000000000e+00" cType="1" res="2.1365557040553540e-04" rms="3.2547053694725037e-01" purity="6.2812834978103638e-01" nType="-99"/>
        <Node pos="r" depth="1" NCoef="0" IVar="0" Cut="4.0354824066162109e-01" cType="1" res="-7.3652341961860657e-03" rms="3.2121890783309937e-01" purity="1.2666018307209015e-01" nType="0">
          <Node pos="l" depth="2" NCoef="0" IVar="-1" Cut="0.0000000000000000e+00" cType="1" res="-1.3287135399878025e-02" rms="3.5533732175827026e-01" purity="1.6315789520740509e-01" nType="-99"/>
          <Node pos="r" depth="2" NCoef="0" IVar="-1" Cut="0.0000000000000000e+00" cType="1" res="7.1649057790637016e-03" rms="2.9782423377037048e-01" purity="1.0529018938541412e-01" nType="-99"/>
        </Node>
      </Node>
    </BinaryTree>
    <BinaryTree type="DecisionTree" boostWeight="1.0000000000000000e+00" itree="210">
      <Node pos="s" depth="0" NCoef="0" IVar="0" Cut="6.5842080116271973e-01" cType="1" res="4.0807518075780536e-07" rms="3.2521349191665649e-01" purity="5.9855979681015015e-01" nType="0">
        <Node pos="l" depth="1" NCoef="0" IVar="-1" Cut="0.0000000000000000e+00" cType="1" res="3.1592370942234993e-04" rms="3.3398383855819702e-01" purity="6.7745697498321533e-01" nType="-99"/>
        <Node pos="r" depth="1" NCoef="0" IVar="1" Cut="2.1364317834377289e-01" cType="0" res="-4.7375066205859184e-03" rms="2.5986883044242859e-01" purity="7.7169016003608704e-02" nType="0">
          <Node pos="l" depth="2" NCoef="0" IVar="-1" Cut="0.0000000000000000e+00" cType="1" res="2.9108489397913218e-03" rms="2.7727159857749939e-01" purity="8.9214377105236053e-02" nType="-99"/>
          <Node pos="r" depth="2" NCoef="0" IVar="-1" Cut="0.0000000000000000e+00" cType="1" res="-1.1029216460883617e-02" rms="2.3682470619678497e-01" purity="6.2699936330318451e-02" nType="-99"/>
        </Node>
      </Node>
    </BinaryTree>
    <BinaryTree type="DecisionTree" boostWeight="1.0000000000000000e+00" itree="211">
      <Node pos="s" depth="0" NCoef="0" IVar="3" Cut="4.9622198939323425e-01" cType="0" res="-5.3869945304541034e-07" rms="3.2520994544029236e-01" purity="5.9855979681015015e-01" nType="0">
        <Node pos="l" depth="1" NCoef="0" IVar="-1" Cut="0.0000000000000000e+00" cType="1" res="-1.6840189695358276e-02" rms="3.4509122371673584e-01" purity="8.4177213907241821e-01" nType="-99"/>
        <Node pos="r" depth="1" NCoef="0" IVar="3" Cut="4.7883895039558411e-01" cType="0" res="1.0022032802226022e-04" rms="3.2514274120330811e-01" purity="5.9782356023788452e-01" nType="0">
          <Node pos="l" depth="2" NCoef="0" IVar="-1" Cut="0.0000000000000000e+00" cType="1" res="1.1709850281476974e-02" rms="2.9233098030090332e-01" purity="8.8948786258697510e-01" nType="-99"/>
          <Node pos="r" depth="2" NCoef="0" IVar="-1" Cut="0.0000000000000000e+00" cType="1" res="-1.1101688141934574e-04" rms="3.2557919621467590e-01" purity="5.9361761808395386e-01" nType="-99"/>
        </Node>
      </Node>
    </BinaryTree>
    <BinaryTree type="DecisionTree" boostWeight="1.0000000000000000e+00" itree="212">
      <Node pos="s" depth="0" NCoef="0" IVar="3" Cut="3.6754408478736877e-01" cType="0" res="-1.0700414776465550e-07" rms="3.2520654797554016e-01" purity="5.9855979681015015e-01" nType="0">
        <Node pos="l" depth="1" NCoef="0" IVar="-1" Cut="0.0000000000000000e+00" cType="1" res="-1.5852206852287054e-03" rms="3.6361199617385864e-01" purity="7.6851749420166016e-01" nType="-99"/>
        <Node pos="r" depth="1" NCoef="0" IVar="1" Cut="1.0244877636432648e-01" cType="1" res="8.5203204071149230e-04" rms="3.1644883751869202e-01" purity="5.6248408555984497e-01" nType="0">
          <Node pos="l" depth="2" NCoef="0" IVar="-1" Cut="0.0000000000000000e+00" cType="1" res="1.8739134538918734e-03" rms="3.0310502648353577e-01" purity="7.0291680097579956e-01" nType="-99"/>
          <Node pos="r" depth="2" NCoef="0" IVar="-1" Cut="0.0000000000000000e+00" cType="1" res="-1.7059912206605077e-03" rms="3.3751383423805237e-01" purity="3.2787087559700012e-01" nType="-99"/>
        </Node>
      </Node>
    </BinaryTree>
    <BinaryTree type="DecisionTree" boostWeight="1.0000000000000000e+00" itree="213">
      <Node pos="s" depth="0" NCoef="0" IVar="1" Cut="1.2493752874433994e-03" cType="1" res="-3.6596135011279785e-09" rms="3.2520103454589844e-01" purity="5.9855979681015015e-01" nType="0">
        <Node pos="l" depth="1" NCoef="0" IVar="-1" Cut="0.0000000000000000e+00" cType="1" res="-1.1919384123757482e-03" rms="3.0624669790267944e-01" purity="7.4462652206420898e-01" nType="-99"/>
        <Node pos="r" depth="1" NCoef="0" IVar="1" Cut="4.1235275566577911e-02" cType="1" res="1.5299331862479448e-03" rms="3.3705785870552063e-01" purity="5.0265789031982422e-01" nType="0">
          <Node pos="l" depth="2" NCoef="0" IVar="-1" Cut="0.0000000000000000e+00" cType="1" res="8.6726164445281029e-03" rms="2.8730157017707825e-01" purity="7.6980537176132202e-01" nType="-99"/>
          <Node pos="r" depth="2" NCoef="0" IVar="-1" Cut="0.0000000000000000e+00" cType="1" res="-5.9362227329984307e-04" rms="3.4570822119712830e-01" purity="4.5140853524208069e-01" nType="-99"/>
        </Node>
      </Node>
    </BinaryTree>
    <BinaryTree type="DecisionTree" boostWeight="1.0000000000000000e+00" itree="214">
      <Node pos="s" depth="0" NCoef="0" IVar="3" Cut="2.1113172173500061e-01" cType="1" res="5.2247673920646776e-07" rms="3.2519099116325378e-01" purity="5.9855979681015015e-01" nType="0">
        <Node pos="l" depth="1" NCoef="0" IVar="-1" Cut="0.0000000000000000e+00" cType="1" res="-1.4014637563377619e-03" rms="2.7266475558280945e-01" purity="7.0594489574432373e-01" nType="-99"/>
        <Node pos="r" depth="1" NCoef="0" IVar="1" Cut="1.2493752874433994e-03" cType="1" res="1.4487256994470954e-03" rms="3.5533565282821655e-01" purity="5.2839183807373047e-01" nType="0">
          <Node pos="l" depth="2" NCoef="0" IVar="-1" Cut="0.0000000000000000e+00" cType="1" res="-1.8293518805876374e-03" rms="3.4480896592140198e-01" purity="6.7232257127761841e-01" nType="-99"/>
          <Node pos="r" depth="2" NCoef="0" IVar="-1" Cut="0.0000000000000000e+00" cType="1" res="1.9167277496308088e-03" rms="3.6148384213447571e-01" purity="4.4167214632034302e-01" nType="-99"/>
        </Node>
      </Node>
    </BinaryTree>
    <BinaryTree type="DecisionTree" boostWeight="1.0000000000000000e+00" itree="215">
      <Node pos="s" depth="0" NCoef="0" IVar="3" Cut="3.1907123327255249e-01" cType="0" res="5.4010314443075913e-07" rms="3.2518550753593445e-01" purity="5.9855979681015015e-01" nType="0">
        <Node pos="l" depth="1" NCoef="0" IVar="-1" Cut="0.0000000000000000e+00" cType="1" res="-1.0284989839419723e-03" rms="3.7357312440872192e-01" purity="6.7848116159439087e-01" nType="-99"/>
        <Node pos="r" depth="1" NCoef="0" IVar="0" Cut="1.2743628025054932e-01" cType="1" res="1.2004523305222392e-03" rms="3.0180996656417847e-01" purity="5.6392705440521240e-01" nType="0">
          <Node pos="l" depth="2" NCoef="0" IVar="-1" Cut="0.0000000000000000e+00" cType="1" res="3.3918831031769514e-03" rms="2.8948718309402466e-01" purity="8.8697290420532227e-01" nType="-99"/>
          <Node pos="r" depth="2" NCoef="0" IVar="-1" Cut="0.0000000000000000e+00" cType="1" res="-2.4377980735152960e-03" rms="3.1709834933280945e-01" purity="1.4125007390975952e-01" nType="-99"/>
        </Node>
      </Node>
    </BinaryTree>
    <BinaryTree type="DecisionTree" boostWeight="1.0000000000000000e+00" itree="216">
      <Node pos="s" depth="0" NCoef="0" IVar="0" Cut="1.2493752874433994e-03" cType="1" res="8.0358398690805188e-07" rms="3.2517978549003601e-01" purity="5.9855979681015015e-01" nType="0">
        <Node pos="l" depth="1" NCoef="0" IVar="-1" Cut="0.0000000000000000e+00" cType="1" res="-1.7520587425678968e-03" rms="2.7293974161148071e-01" purity="9.0791207551956177e-01" nType="-99"/>
        <Node pos="r" depth="1" NCoef="0" IVar="0" Cut="1.5932820737361908e-02" cType="1" res="1.2995024444535375e-03" rms="3.4832417964935303e-01" purity="4.4418039917945862e-01" nType="0">
          <Node pos="l" depth="2" NCoef="0" IVar="-1" Cut="0.0000000000000000e+00" cType="1" res="3.2697655260562897e-02" rms="1.8373849987983704e-01" purity="9.5916664600372314e-01" nType="-99"/>
          <Node pos="r" depth="2" NCoef="0" IVar="-1" Cut="0.0000000000000000e+00" cType="1" res="-1.9054645963478833e-04" rms="3.5263770818710327e-01" purity="4.2585620284080505e-01" nType="-99"/>
        </Node>
      </Node>
    </BinaryTree>
    <BinaryTree type="DecisionTree" boostWeight="1.0000000000000000e+00" itree="217">
      <Node pos="s" depth="0" NCoef="0" IVar="3" Cut="2.1113172173500061e-01" cType="1" res="3.7201489249127917e-06" rms="3.2515862584114075e-01" purity="5.9855979681015015e-01" nType="0">
        <Node pos="l" depth="1" NCoef="0" IVar="-1" Cut="0.0000000000000000e+00" cType="1" res="-1.3722620205953717e-03" rms="2.7264469861984253e-01" purity="7.0594489574432373e-01" nType="-99"/>
        <Node pos="r" depth="1" NCoef="0" IVar="3" Cut="2.1229474246501923e-01" cType="0" res="1.4202572638168931e-03" rms="3.5529702901840210e-01" purity="5.2839183807373047e-01" nType="0">
          <Node pos="l" depth="2" NCoef="0" IVar="-1" Cut="0.0000000000000000e+00" cType="1" res="4.4700046419166028e-04" rms="3.5539948940277100e-01" purity="5.2893424034118652e-01" nType="-99"/>
          <Node pos="r" depth="2" NCoef="0" IVar="-1" Cut="0.0000000000000000e+00" cType="1" res="3.5101328045129776e-02" rms="3.2107970118522644e-01" purity="3.9370077848434448e-01" nType="-99"/>
        </Node>
      </Node>
    </BinaryTree>
    <BinaryTree type="DecisionTree" boostWeight="1.0000000000000000e+00" itree="218">
      <Node pos="s" depth="0" NCoef="0" IVar="3" Cut="3.1907123327255249e-01" cType="0" res="3.2722368814575020e-06" rms="3.2515025138854980e-01" purity="5.9855979681015015e-01" nType="0">
        <Node pos="l" depth="1" NCoef="0" IVar="-1" Cut="0.0000000000000000e+00" cType="1" res="-9.9018216133117676e-04" rms="3.7353491783142090e-01" purity="6.7848116159439087e-01" nType="-99"/>
        <Node pos="r" depth="1" NCoef="0" IVar="0" Cut="2.7486255764961243e-01" cType="1" res="1.1593739036470652e-03" rms="3.0177655816078186e-01" purity="5.6392705440521240e-01" nType="0">
          <Node pos="l" depth="2" NCoef="0" IVar="-1" Cut="0.0000000000000000e+00" cType="1" res="2.2897727321833372e-03" rms="3.1717169284820557e-01" purity="8.0648082494735718e-01" nType="-99"/>
          <Node pos="r" depth="2" NCoef="0" IVar="-1" Cut="0.0000000000000000e+00" cType="1" res="-3.9820610545575619e-03" rms="2.6834154129028320e-01" purity="8.0766707658767700e-02" nType="-99"/>
        </Node>
      </Node>
    </BinaryTree>
    <BinaryTree type="DecisionTree" boostWeight="1.0000000000000000e+00" itree="219">
      <Node pos="s" depth="0" NCoef="0" IVar="2" Cut="1.7608441114425659e+00" cType="1" res="2.7075604975834722e-06" rms="3.2514458894729614e-01" purity="5.9855979681015015e-01" nType="0">
        <Node pos="l" depth="1" NCoef="0" IVar="-1" Cut="0.0000000000000000e+00" cType="1" res="-2.5338414707221091e-04" rms="3.2354840636253357e-01" purity="6.3296103477478027e-01" nType="-99"/>
        <Node pos="r" depth="1" NCoef="0" IVar="0" Cut="4.2603698372840881e-01" cType="1" res="6.2798666767776012e-03" rms="3.4293320775032043e-01" purity="2.0229555666446686e-01" nType="0">
          <Node pos="l" depth="2" NCoef="0" IVar="-1" Cut="0.0000000000000000e+00" cType="1" res="8.2712946459650993e-03" rms="4.3513825535774231e-01" purity="4.1593566536903381e-01" nType="-99"/>
          <Node pos="r" depth="2" NCoef="0" IVar="-1" Cut="0.0000000000000000e+00" cType="1" res="-2.5994537863880396e-03" rms="2.8699553012847900e-01" purity="9.8436392843723297e-02" nType="-99"/>
        </Node>
      </Node>
    </BinaryTree>
    <BinaryTree type="DecisionTree" boostWeight="1.0000000000000000e+00" itree="220">
      <Node pos="s" depth="0" NCoef="0" IVar="0" Cut="1.2831084728240967e+00" cType="1" res="2.2795381937612547e-06" rms="3.2513743638992310e-01" purity="5.9855979681015015e-01" nType="0">
        <Node pos="l" depth="1" NCoef="0" IVar="-1" Cut="0.0000000000000000e+00" cType="1" res="-1.8445138994138688e-04" rms="3.2602605223655701e-01" purity="6.2139242887496948e-01" nType="-99"/>
        <Node pos="r" depth="1" NCoef="0" IVar="2" Cut="2.1317453384399414e+00" cType="0" res="8.5559152066707611e-03" rms="3.0553647875785828e-01" purity="1.1380042135715485e-01" nType="0">
          <Node pos="l" depth="2" NCoef="0" IVar="-1" Cut="0.0000000000000000e+00" cType="1" res="-9.9680433049798012e-03" rms="3.0759346485137939e-01" purity="1.2735849618911743e-01" nType="-99"/>
          <Node pos="r" depth="2" NCoef="0" IVar="-1" Cut="0.0000000000000000e+00" cType="1" res="1.2888215482234955e-02" rms="3.0393606424331665e-01" purity="1.0878417640924454e-01" nType="-99"/>
        </Node>
      </Node>
    </BinaryTree>
    <BinaryTree type="DecisionTree" boostWeight="1.0000000000000000e+00" itree="221">
      <Node pos="s" depth="0" NCoef="0" IVar="2" Cut="2.3490409851074219e+00" cType="1" res="1.2030777725158259e-06" rms="3.2512986660003662e-01" purity="5.9855979681015015e-01" nType="0">
        <Node pos="l" depth="1" NCoef="0" IVar="-1" Cut="0.0000000000000000e+00" cType="1" res="-1.4977193495724350e-04" rms="3.2447639107704163e-01" purity="6.1127299070358276e-01" nType="-99"/>
        <Node pos="r" depth="1" NCoef="0" IVar="0" Cut="6.5217393636703491e-01" cType="1" res="1.0525288060307503e-02" rms="3.4556791186332703e-01" purity="1.8461538851261139e-01" nType="0">
          <Node pos="l" depth="2" NCoef="0" IVar="-1" Cut="0.0000000000000000e+00" cType="1" res="1.6528116539120674e-02" rms="4.1657856106758118e-01" purity="3.0981066823005676e-01" nType="-99"/>
          <Node pos="r" depth="2" NCoef="0" IVar="-1" Cut="0.0000000000000000e+00" cType="1" res="-5.7809050194919109e-03" rms="2.9326444864273071e-01" purity="1.1031664907932281e-01" nType="-99"/>
        </Node>
      </Node>
    </BinaryTree>
    <BinaryTree type="DecisionTree" boostWeight="1.0000000000000000e+00" itree="222">
      <Node pos="s" depth="0" NCoef="0" IVar="3" Cut="2.2637318074703217e-01" cType="1" res="6.7888504418078810e-07" rms="3.2512167096138000e-01" purity="5.9855979681015015e-01" nType="0">
        <Node pos="l" depth="1" NCoef="0" IVar="-1" Cut="0.0000000000000000e+00" cType="1" res="-1.2420120183378458e-03" rms="2.7506536245346069e-01" purity="6.7512804269790649e-01" nType="-99"/>
        <Node pos="r" depth="1" NCoef="0" IVar="3" Cut="2.2733871638774872e-01" cType="0" res="1.5109158121049404e-03" rms="3.5813692212104797e-01" purity="5.4105490446090698e-01" nType="0">
          <Node pos="l" depth="2" NCoef="0" IVar="-1" Cut="0.0000000000000000e+00" cType="1" res="4.7935769543983042e-04" rms="3.5802784562110901e-01" purity="5.4178839921951294e-01" nType="-99"/>
          <Node pos="r" depth="2" NCoef="0" IVar="-1" Cut="0.0000000000000000e+00" cType="1" res="3.5598739981651306e-02" rms="3.7792819738388062e-01" purity="3.5593220591545105e-01" nType="-99"/>
        </Node>
      </Node>
    </BinaryTree>
    <BinaryTree type="DecisionTree" boostWeight="1.0000000000000000e+00" itree="223">
      <Node pos="s" depth="0" NCoef="0" IVar="3" Cut="3.1907123327255249e-01" cType="0" res="4.3560856965996209e-07" rms="3.2511636614799500e-01" purity="5.9855979681015015e-01" nType="0">
        <Node pos="l" depth="1" NCoef="0" IVar="-1" Cut="0.0000000000000000e+00" cType="1" res="-9.8764861468225718e-04" rms="3.7351310253143311e-01" purity="6.7848116159439087e-01" nType="-99"/>
        <Node pos="r" depth="1" NCoef="0" IVar="0" Cut="1.2743628025054932e-01" cType="1" res="1.1533151846379042e-03" rms="3.0173596739768982e-01" purity="5.6392705440521240e-01" nType="0">
          <Node pos="l" depth="2" NCoef="0" IVar="-1" Cut="0.0000000000000000e+00" cType="1" res="3.0247285030782223e-03" rms="2.8944680094718933e-01" purity="8.8697290420532227e-01" nType="-99"/>
          <Node pos="r" depth="2" NCoef="0" IVar="-1" Cut="0.0000000000000000e+00" cType="1" res="-2.0806924439966679e-03" rms="3.1701147556304932e-01" purity="1.4125007390975952e-01" nType="-99"/>
        </Node>
      </Node>
    </BinaryTree>
    <BinaryTree type="DecisionTree" boostWeight="1.0000000000000000e+00" itree="224">
      <Node pos="s" depth="0" NCoef="0" IVar="0" Cut="1.2831084728240967e+00" cType="1" res="6.6172827928312472e-07" rms="3.2511228322982788e-01" purity="5.9855979681015015e-01" nType="0">
        <Node pos="l" depth="1" NCoef="0" IVar="-1" Cut="0.0000000000000000e+00" cType="1" res="-1.8089271907228976e-04" rms="3.2600688934326172e-01" purity="6.2139242887496948e-01" nType="-99"/>
        <Node pos="r" depth="1" NCoef="0" IVar="3" Cut="2.7129822969436646e-01" cType="0" res="8.3457343280315399e-03" rms="3.0538186430931091e-01" purity="1.1380042135715485e-01" nType="0">
          <Node pos="l" depth="2" NCoef="0" IVar="-1" Cut="0.0000000000000000e+00" cType="1" res="1.6993664205074310e-02" rms="4.0594774484634399e-01" purity="2.3543123900890350e-01" nType="-99"/>
          <Node pos="r" depth="2" NCoef="0" IVar="-1" Cut="0.0000000000000000e+00" cType="1" res="-1.4740969345439225e-04" rms="2.7734526991844177e-01" purity="8.6708202958106995e-02" nType="-99"/>
        </Node>
      </Node>
    </BinaryTree>
    <BinaryTree type="DecisionTree" boostWeight="1.0000000000000000e+00" itree="225">
      <Node pos="s" depth="0" NCoef="0" IVar="3" Cut="2.3611772060394287e-01" cType="1" res="2.5090861299759126e-07" rms="3.2510641217231750e-01" purity="5.9855979681015015e-01" nType="0">
        <Node pos="l" depth="1" NCoef="0" IVar="-1" Cut="0.0000000000000000e+00" cType="1" res="-1.1786643881350756e-03" rms="2.7703687548637390e-01" purity="6.5614449977874756e-01" nType="-99"/>
        <Node pos="r" depth="1" NCoef="0" IVar="0" Cut="1.5367315709590912e-01" cType="1" res="1.5991011168807745e-03" rms="3.6003002524375916e-01" purity="5.5094563961029053e-01" nType="0">
          <Node pos="l" depth="2" NCoef="0" IVar="-1" Cut="0.0000000000000000e+00" cType="1" res="-1.0903341462835670e-03" rms="3.6148744821548462e-01" purity="8.0334311723709106e-01" nType="-99"/>
          <Node pos="r" depth="2" NCoef="0" IVar="-1" Cut="0.0000000000000000e+00" cType="1" res="3.2401541247963905e-03" rms="3.5777810215950012e-01" purity="1.8022054433822632e-01" nType="-99"/>
        </Node>
      </Node>
    </BinaryTree>
    <BinaryTree type="DecisionTree" boostWeight="1.0000000000000000e+00" itree="226">
      <Node pos="s" depth="0" NCoef="0" IVar="3" Cut="4.7898164391517639e-01" cType="0" res="-1.0146531614907417e-08" rms="3.2509544491767883e-01" purity="5.9855979681015015e-01" nType="0">
        <Node pos="l" depth="1" NCoef="0" IVar="-1" Cut="0.0000000000000000e+00" cType="1" res="6.6394358873367310e-03" rms="3.0327117443084717e-01" purity="8.8071346282958984e-01" nType="-99"/>
        <Node pos="r" depth="1" NCoef="0" IVar="3" Cut="4.7558555006980896e-01" cType="0" res="-2.3369205882772803e-04" rms="3.2545801997184753e-01" purity="5.9364128112792969e-01" nType="0">
          <Node pos="l" depth="2" NCoef="0" IVar="-1" Cut="0.0000000000000000e+00" cType="1" res="-2.3372216150164604e-02" rms="3.9427030086517334e-01" purity="8.0689656734466553e-01" nType="-99"/>
          <Node pos="r" depth="2" NCoef="0" IVar="-1" Cut="0.0000000000000000e+00" cType="1" res="-4.1549308662069961e-05" rms="3.2523161172866821e-01" purity="5.9303867816925049e-01" nType="-99"/>
        </Node>
      </Node>
    </BinaryTree>
    <BinaryTree type="DecisionTree" boostWeight="1.0000000000000000e+00" itree="227">
      <Node pos="s" depth="0" NCoef="0" IVar="1" Cut="1.7341328859329224e+00" cType="1" res="3.1015392210065329e-07" rms="3.2509240508079529e-01" purity="5.9855979681015015e-01" nType="0">
        <Node pos="l" depth="1" NCoef="0" IVar="-1" Cut="0.0000000000000000e+00" cType="1" res="-6.0646536439890042e-05" rms="3.2461398839950562e-01" purity="6.0092604160308838e-01" nType="-99"/>
        <Node pos="r" depth="1" NCoef="0" IVar="3" Cut="2.3375508189201355e-01" cType="1" res="2.2260433062911034e-02" rms="3.9756155014038086e-01" purity="1.9607843458652496e-01" nType="0">
          <Node pos="l" depth="2" NCoef="0" IVar="-1" Cut="0.0000000000000000e+00" cType="1" res="2.4699795991182327e-02" rms="4.0192422270774841e-01" purity="2.1232876181602478e-01" nType="-99"/>
          <Node pos="r" depth="2" NCoef="0" IVar="-1" Cut="0.0000000000000000e+00" cType="1" res="-4.5631681568920612e-03" rms="3.9030092954635620e-01" purity="1.8125000596046448e-01" nType="-99"/>
        </Node>
      </Node>
    </BinaryTree>
    <BinaryTree type="DecisionTree" boostWeight="1.0000000000000000e+00" itree="228">
      <Node pos="s" depth="0" NCoef="0" IVar="1" Cut="8.0209892988204956e-01" cType="1" res="3.7939558161781406e-09" rms="3.2508891820907593e-01" purity="5.9855979681015015e-01" nType="0">
        <Node pos="l" depth="1" NCoef="0" IVar="-1" Cut="0.0000000000000000e+00" cType="1" res="1.5468777564819902e-04" rms="3.2536390423774719e-01" purity="6.1697316169738770e-01" nType="-99"/>
        <Node pos="r" depth="1" NCoef="0" IVar="0" Cut="9.3703150749206543e-02" cType="1" res="-8.6540030315518379e-03" rms="3.1775623559951782e-01" purity="1.2133675813674927e-01" nType="0">
          <Node pos="l" depth="2" NCoef="0" IVar="-1" Cut="0.0000000000000000e+00" cType="1" res="-2.3882914334535599e-02" rms="3.9187678694725037e-01" purity="2.0253165066242218e-01" nType="-99"/>
          <Node pos="r" depth="2" NCoef="0" IVar="-1" Cut="0.0000000000000000e+00" cType="1" res="2.0006112754344940e-03" rms="3.0403366684913635e-01" purity="1.1007025837898254e-01" nType="-99"/>
        </Node>
      </Node>
    </BinaryTree>
    <BinaryTree type="DecisionTree" boostWeight="1.0000000000000000e+00" itree="229">
      <Node pos="s" depth="0" NCoef="0" IVar="3" Cut="4.6349033713340759e-01" cType="0" res="-4.1062975242311950e-07" rms="3.2507637143135071e-01" purity="5.9855979681015015e-01" nType="0">
        <Node pos="l" depth="1" NCoef="0" IVar="-1" Cut="0.0000000000000000e+00" cType="1" res="4.5385453850030899e-03" rms="3.1531617045402527e-01" purity="8.7055212259292603e-01" nType="-99"/>
        <Node pos="r" depth="1" NCoef="0" IVar="3" Cut="4.5490801334381104e-01" cType="0" res="-3.0604019411839545e-04" rms="3.2538056373596191e-01" purity="5.8981943130493164e-01" nType="0">
          <Node pos="l" depth="2" NCoef="0" IVar="-1" Cut="0.0000000000000000e+00" cType="1" res="-1.3696218840777874e-02" rms="3.8391205668449402e-01" purity="8.1149423122406006e-01" nType="-99"/>
          <Node pos="r" depth="2" NCoef="0" IVar="-1" Cut="0.0000000000000000e+00" cType="1" res="-1.7833146557677537e-05" rms="3.2481539249420166e-01" purity="5.8790194988250732e-01" nType="-99"/>
        </Node>
      </Node>
    </BinaryTree>
    <BinaryTree type="DecisionTree" boostWeight="1.0000000000000000e+00" itree="230">
      <Node pos="s" depth="0" NCoef="0" IVar="3" Cut="4.9622198939323425e-01" cType="0" res="-6.5518115377471986e-08" rms="3.2507339119911194e-01" purity="5.9855979681015015e-01" nType="0">
        <Node pos="l" depth="1" NCoef="0" IVar="-1" Cut="0.0000000000000000e+00" cType="1" res="-1.5215363353490829e-02" rms="3.4498262405395508e-01" purity="8.4177213907241821e-01" nType="-99"/>
        <Node pos="r" depth="1" NCoef="0" IVar="3" Cut="4.8900589346885681e-01" cType="0" res="9.2591202701441944e-05" rms="3.2500690221786499e-01" purity="5.9782356023788452e-01" nType="0">
          <Node pos="l" depth="2" NCoef="0" IVar="-1" Cut="0.0000000000000000e+00" cType="1" res="1.6670165583491325e-02" rms="2.6244917511940002e-01" purity="9.0202701091766357e-01" nType="-99"/>
          <Node pos="r" depth="2" NCoef="0" IVar="-1" Cut="0.0000000000000000e+00" cType="1" res="-4.5270895498106256e-05" rms="3.2531937956809998e-01" purity="5.9608864784240723e-01" nType="-99"/>
        </Node>
      </Node>
    </BinaryTree>
    <BinaryTree type="DecisionTree" boostWeight="1.0000000000000000e+00" itree="231">
      <Node pos="s" depth="0" NCoef="0" IVar="2" Cut="5.3574621677398682e-01" cType="1" res="2.4736763748478552e-07" rms="3.2507207989692688e-01" purity="5.9855979681015015e-01" nType="0">
        <Node pos="l" depth="1" NCoef="0" IVar="-1" Cut="0.0000000000000000e+00" cType="1" res="8.2263426156714559e-04" rms="2.9527935385704041e-01" purity="7.9944181442260742e-01" nType="-99"/>
        <Node pos="r" depth="1" NCoef="0" IVar="0" Cut="5.6221887469291687e-02" cType="1" res="-1.7282000044360757e-03" rms="3.5613036155700684e-01" purity="3.6854180693626404e-01" nType="0">
          <Node pos="l" depth="2" NCoef="0" IVar="-1" Cut="0.0000000000000000e+00" cType="1" res="-6.2397923320531845e-03" rms="3.4834420680999756e-01" purity="8.3921569585800171e-01" nType="-99"/>
          <Node pos="r" depth="2" NCoef="0" IVar="-1" Cut="0.0000000000000000e+00" cType="1" res="3.6984914913773537e-04" rms="3.5773313045501709e-01" purity="2.6688918471336365e-01" nType="-99"/>
        </Node>
      </Node>
    </BinaryTree>
    <BinaryTree type="DecisionTree" boostWeight="1.0000000000000000e+00" itree="232">
      <Node pos="s" depth="0" NCoef="0" IVar="3" Cut="2.3611772060394287e-01" cType="1" res="7.1877605023473734e-07" rms="3.2506605982780457e-01" purity="5.9855979681015015e-01" nType="0">
        <Node pos="l" depth="1" NCoef="0" IVar="-1" Cut="0.0000000000000000e+00" cType="1" res="-1.1318193282932043e-03" rms="2.7701175212860107e-01" purity="6.5614449977874756e-01" nType="-99"/>
        <Node pos="r" depth="1" NCoef="0" IVar="0" Cut="1.5367315709590912e-01" cType="1" res="1.5368693275377154e-03" rms="3.5998007655143738e-01" purity="5.5094563961029053e-01" nType="0">
          <Node pos="l" depth="2" NCoef="0" IVar="-1" Cut="0.0000000000000000e+00" cType="1" res="-8.8673189748078585e-04" rms="3.6143341660499573e-01" purity="8.0334311723709106e-01" nType="-99"/>
          <Node pos="r" depth="2" NCoef="0" IVar="-1" Cut="0.0000000000000000e+00" cType="1" res="2.8584676329046488e-03" rms="3.5775908827781677e-01" purity="1.8022054433822632e-01" nType="-99"/>
        </Node>
      </Node>
    </BinaryTree>
    <BinaryTree type="DecisionTree" boostWeight="1.0000000000000000e+00" itree="233">
      <Node pos="s" depth="0" NCoef="0" IVar="2" Cut="5.3574621677398682e-01" cType="1" res="4.6054356062086299e-07" rms="3.2505714893341064e-01" purity="5.9855979681015015e-01" nType="0">
        <Node pos="l" depth="1" NCoef="0" IVar="-1" Cut="0.0000000000000000e+00" cType="1" res="8.2691875286400318e-04" rms="2.9527461528778076e-01" purity="7.9944181442260742e-01" nType="-99"/>
        <Node pos="r" depth="1" NCoef="0" IVar="2" Cut="5.4270935058593750e-01" cType="0" res="-1.7373050795868039e-03" rms="3.5610553622245789e-01" purity="3.6854180693626404e-01" nType="0">
          <Node pos="l" depth="2" NCoef="0" IVar="-1" Cut="0.0000000000000000e+00" cType="1" res="-5.2827800391241908e-04" rms="3.5630515217781067e-01" purity="3.6859238147735596e-01" nType="-99"/>
          <Node pos="r" depth="2" NCoef="0" IVar="-1" Cut="0.0000000000000000e+00" cType="1" res="-2.6970829814672470e-02" rms="3.1150487065315247e-01" purity="3.5971224308013916e-01" nType="-99"/>
        </Node>
      </Node>
    </BinaryTree>
    <BinaryTree type="DecisionTree" boostWeight="1.0000000000000000e+00" itree="234">
      <Node pos="s" depth="0" NCoef="0" IVar="3" Cut="2.1113172173500061e-01" cType="1" res="4.1409418827242916e-07" rms="3.2505246996879578e-01" purity="5.9855979681015015e-01" nType="0">
        <Node pos="l" depth="1" NCoef="0" IVar="-1" Cut="0.0000000000000000e+00" cType="1" res="-1.2566986260935664e-03" rms="2.7260428667068481e-01" purity="7.0594489574432373e-01" nType="-99"/>
        <Node pos="r" depth="1" NCoef="0" IVar="1" Cut="1.2493752874433994e-03" cType="1" res="1.2907511554658413e-03" rms="3.5515788197517395e-01" purity="5.2839183807373047e-01" nType="0">
          <Node pos="l" depth="2" NCoef="0" IVar="-1" Cut="0.0000000000000000e+00" cType="1" res="-1.6562171513214707e-03" rms="3.4468039870262146e-01" purity="6.7232257127761841e-01" nType="-99"/>
          <Node pos="r" depth="2" NCoef="0" IVar="-1" Cut="0.0000000000000000e+00" cType="1" res="1.7235184786841273e-03" rms="3.6128622293472290e-01" purity="4.4167214632034302e-01" nType="-99"/>
        </Node>
      </Node>
    </BinaryTree>
    <BinaryTree type="DecisionTree" boostWeight="1.0000000000000000e+00" itree="235">
      <Node pos="s" depth="0" NCoef="0" IVar="1" Cut="4.4977512210607529e-02" cType="1" res="4.2960573409800418e-07" rms="3.2504805922508240e-01" purity="5.9855979681015015e-01" nType="0">
        <Node pos="l" depth="1" NCoef="0" IVar="-1" Cut="0.0000000000000000e+00" cType="1" res="8.9017749996855855e-04" rms="3.0290952324867249e-01" purity="7.4969816207885742e-01" nType="-99"/>
        <Node pos="r" depth="1" NCoef="0" IVar="0" Cut="1.3868066668510437e-01" cType="1" res="-1.7803468508645892e-03" rms="3.4627121686935425e-01" purity="4.4359767436981201e-01" nType="0">
          <Node pos="l" depth="2" NCoef="0" IVar="-1" Cut="0.0000000000000000e+00" cType="1" res="-2.9127849265933037e-03" rms="3.7235426902770996e-01" purity="7.7346742153167725e-01" nType="-99"/>
          <Node pos="r" depth="2" NCoef="0" IVar="-1" Cut="0.0000000000000000e+00" cType="1" res="2.0005165133625269e-03" rms="3.1969788670539856e-01" purity="1.3338838517665863e-01" nType="-99"/>
        </Node>
      </Node>
    </BinaryTree>
    <BinaryTree type="DecisionTree" boostWeight="1.0000000000000000e+00" itree="236">
      <Node pos="s" depth="0" NCoef="0" IVar="0" Cut="4.8725638538599014e-02" cType="1" res="5.1946284429504885e-07" rms="3.2503801584243774e-01" purity="5.9855979681015015e-01" nType="0">
        <Node pos="l" depth="1" NCoef="0" IVar="-1" Cut="0.0000000000000000e+00" cType="1" res="1.1152700753882527e-03" rms="2.7814170718193054e-01" purity="9.0368217229843140e-01" nType="-99"/>
        <Node pos="r" depth="1" NCoef="0" IVar="2" Cut="2.9597166180610657e-01" cType="1" res="-1.6539045609533787e-03" rms="3.6288195848464966e-01" purity="3.1768158078193665e-01" nType="0">
          <Node pos="l" depth="2" NCoef="0" IVar="-1" Cut="0.0000000000000000e+00" cType="1" res="-7.6121026650071144e-03" rms="3.8462635874748230e-01" purity="4.2141312360763550e-01" nType="-99"/>
          <Node pos="r" depth="2" NCoef="0" IVar="-1" Cut="0.0000000000000000e+00" cType="1" res="2.5956539320759475e-04" rms="3.6026123166084290e-01" purity="3.0592992901802063e-01" nType="-99"/>
        </Node>
      </Node>
    </BinaryTree>
    <BinaryTree type="DecisionTree" boostWeight="1.0000000000000000e+00" itree="237">
      <Node pos="s" depth="0" NCoef="0" IVar="2" Cut="5.3574621677398682e-01" cType="1" res="5.5223222261702176e-07" rms="3.2503032684326172e-01" purity="5.9855979681015015e-01" nType="0">
        <Node pos="l" depth="1" NCoef="0" IVar="-1" Cut="0.0000000000000000e+00" cType="1" res="8.9950085384771228e-04" rms="2.9524806141853333e-01" purity="7.9944181442260742e-01" nType="-99"/>
        <Node pos="r" depth="1" NCoef="0" IVar="1" Cut="1.9115442037582397e-01" cType="1" res="-1.8894014647230506e-03" rms="3.5607677698135376e-01" purity="3.6854180693626404e-01" nType="0">
          <Node pos="l" depth="2" NCoef="0" IVar="-1" Cut="0.0000000000000000e+00" cType="1" res="-2.0365205127745867e-03" rms="3.6684355139732361e-01" purity="4.6667486429214478e-01" nType="-99"/>
          <Node pos="r" depth="2" NCoef="0" IVar="-1" Cut="0.0000000000000000e+00" cType="1" res="2.4990569800138474e-03" rms="3.3334940671920776e-01" purity="1.7199803888797760e-01" nType="-99"/>
        </Node>
      </Node>
    </BinaryTree>
    <BinaryTree type="DecisionTree" boostWeight="1.0000000000000000e+00" itree="238">
      <Node pos="s" depth="0" NCoef="0" IVar="1" Cut="1.8115942180156708e-01" cType="1" res="4.3243801428616280e-07" rms="3.2502672076225281e-01" purity="5.9855979681015015e-01" nType="0">
        <Node pos="l" depth="1" NCoef="0" IVar="-1" Cut="0.0000000000000000e+00" cType="1" res="4.8441876424476504e-04" rms="3.1574460864067078e-01" purity="7.0152926445007324e-01" nType="-99"/>
        <Node pos="r" depth="1" NCoef="0" IVar="0" Cut="5.2473764866590500e-02" cType="1" res="-3.0613897833973169e-03" rms="3.5182058811187744e-01" purity="2.8437668085098267e-01" nType="0">
          <Node pos="l" depth="2" NCoef="0" IVar="-1" Cut="0.0000000000000000e+00" cType="1" res="-7.1179885417222977e-03" rms="4.1651609539985657e-01" purity="7.0685654878616333e-01" nType="-99"/>
          <Node pos="r" depth="2" NCoef="0" IVar="-1" Cut="0.0000000000000000e+00" cType="1" res="1.5126988291740417e-03" rms="3.2932457327842712e-01" purity="1.5559369325637817e-01" nType="-99"/>
        </Node>
      </Node>
    </BinaryTree>
    <BinaryTree type="DecisionTree" boostWeight="1.0000000000000000e+00" itree="239">
      <Node pos="s" depth="0" NCoef="0" IVar="0" Cut="5.9970013797283173e-02" cType="1" res="7.2172730369857163e-07" rms="3.2501477003097534e-01" purity="5.9855979681015015e-01" nType="0">
        <Node pos="l" depth="1" NCoef="0" IVar="-1" Cut="0.0000000000000000e+00" cType="1" res="1.0075649479404092e-03" rms="2.8371331095695496e-01" purity="8.9877647161483765e-01" nType="-99"/>
        <Node pos="r" depth="1" NCoef="0" IVar="3" Cut="5.0529081374406815e-02" cType="1" res="-1.7422647215425968e-03" rms="3.6288195848464966e-01" purity="2.8743678331375122e-01" nType="0">
          <Node pos="l" depth="2" NCoef="0" IVar="-1" Cut="0.0000000000000000e+00" cType="1" res="2.5492038577795029e-02" rms="3.8430801033973694e-01" purity="4.0977442264556885e-01" nType="-99"/>
          <Node pos="r" depth="2" NCoef="0" IVar="-1" Cut="0.0000000000000000e+00" cType="1" res="-9.4562000595033169e-04" rms="3.6256974935531616e-01" purity="2.8615784645080566e-01" nType="-99"/>
        </Node>
      </Node>
    </BinaryTree>
    <BinaryTree type="DecisionTree" boostWeight="1.0000000000000000e+00" itree="240">
      <Node pos="s" depth="0" NCoef="0" IVar="1" Cut="8.0209892988204956e-01" cType="1" res="5.3906842367723584e-07" rms="3.2500651478767395e-01" purity="5.9855979681015015e-01" nType="0">
        <Node pos="l" depth="1" NCoef="0" IVar="-1" Cut="0.0000000000000000e+00" cType="1" res="1.5275851183105260e-04" rms="3.2529512047767639e-01" purity="6.1697316169738770e-01" nType="-99"/>
        <Node pos="r" depth="1" NCoef="0" IVar="0" Cut="1.0494752973318100e-01" cType="1" res="-8.5488082841038704e-03" rms="3.1731575727462769e-01" purity="1.2133675813674927e-01" nType="0">
          <Node pos="l" depth="2" NCoef="0" IVar="-1" Cut="0.0000000000000000e+00" cType="1" res="-2.1160034462809563e-02" rms="3.9068403840065002e-01" purity="2.0000000298023224e-01" nType="-99"/>
          <Node pos="r" depth="2" NCoef="0" IVar="-1" Cut="0.0000000000000000e+00" cType="1" res="1.3577151112258434e-03" rms="3.0345386266708374e-01" purity="1.0973451286554337e-01" nType="-99"/>
        </Node>
      </Node>
    </BinaryTree>
    <BinaryTree type="DecisionTree" boostWeight="1.0000000000000000e+00" itree="241">
      <Node pos="s" depth="0" NCoef="0" IVar="0" Cut="6.5842080116271973e-01" cType="1" res="1.3363798245791259e-07" rms="3.2499682903289795e-01" purity="5.9855979681015015e-01" nType="0">
        <Node pos="l" depth="1" NCoef="0" IVar="-1" Cut="0.0000000000000000e+00" cType="1" res="2.8263963758945465e-04" rms="3.3377099037170410e-01" purity="6.7745697498321533e-01" nType="-99"/>
        <Node pos="r" depth="1" NCoef="0" IVar="0" Cut="9.1796541213989258e-01" cType="0" res="-4.2354408651590347e-03" rms="2.5962337851524353e-01" purity="7.7169016003608704e-02" nType="0">
          <Node pos="l" depth="2" NCoef="0" IVar="-1" Cut="0.0000000000000000e+00" cType="1" res="1.9396039424464107e-03" rms="2.8049924969673157e-01" purity="9.2407710850238800e-02" nType="-99"/>
          <Node pos="r" depth="2" NCoef="0" IVar="-1" Cut="0.0000000000000000e+00" cType="1" res="-1.2997522018849850e-02" rms="2.1977743506431580e-01" purity="5.1670551300048828e-02" nType="-99"/>
        </Node>
      </Node>
    </BinaryTree>
    <BinaryTree type="DecisionTree" boostWeight="1.0000000000000000e+00" itree="242">
      <Node pos="s" depth="0" NCoef="0" IVar="2" Cut="5.3574621677398682e-01" cType="1" res="-7.9981271028373158e-07" rms="3.2499283552169800e-01" purity="5.9855979681015015e-01" nType="0">
        <Node pos="l" depth="1" NCoef="0" IVar="-1" Cut="0.0000000000000000e+00" cType="1" res="7.9106230987235904e-04" rms="2.9519417881965637e-01" purity="7.9944181442260742e-01" nType="-99"/>
        <Node pos="r" depth="1" NCoef="0" IVar="3" Cut="4.3470665812492371e-01" cType="0" res="-1.6613154439255595e-03" rms="3.5605669021606445e-01" purity="3.6854180693626404e-01" nType="0">
          <Node pos="l" depth="2" NCoef="0" IVar="-1" Cut="0.0000000000000000e+00" cType="1" res="-9.6891606226563454e-03" rms="3.9293220639228821e-01" purity="7.6553982496261597e-01" nType="-99"/>
          <Node pos="r" depth="2" NCoef="0" IVar="-1" Cut="0.0000000000000000e+00" cType="1" res="-2.6872172020375729e-04" rms="3.5450306534767151e-01" purity="3.5304385423660278e-01" nType="-99"/>
        </Node>
      </Node>
    </BinaryTree>
    <BinaryTree type="DecisionTree" boostWeight="1.0000000000000000e+00" itree="243">
      <Node pos="s" depth="0" NCoef="0" IVar="3" Cut="2.3611772060394287e-01" cType="1" res="-4.4973634771849902e-07" rms="3.2498967647552490e-01" purity="5.9855979681015015e-01" nType="0">
        <Node pos="l" depth="1" NCoef="0" IVar="-1" Cut="0.0000000000000000e+00" cType="1" res="-1.0552078019827604e-03" rms="2.7692946791648865e-01" purity="6.5614449977874756e-01" nType="-99"/>
        <Node pos="r" depth="1" NCoef="0" IVar="3" Cut="2.3691380023956299e-01" cType="0" res="1.4293328858911991e-03" rms="3.5990738868713379e-01" purity="5.5094563961029053e-01" nType="0">
          <Node pos="l" depth="2" NCoef="0" IVar="-1" Cut="0.0000000000000000e+00" cType="1" res="4.4941631495021284e-04" rms="3.5999169945716858e-01" purity="5.5172657966613770e-01" nType="-99"/>
          <Node pos="r" depth="2" NCoef="0" IVar="-1" Cut="0.0000000000000000e+00" cType="1" res="3.4171361476182938e-02" rms="3.2791090011596680e-01" purity="3.3653846383094788e-01" nType="-99"/>
        </Node>
      </Node>
    </BinaryTree>
    <BinaryTree type="DecisionTree" boostWeight="1.0000000000000000e+00" itree="244">
      <Node pos="s" depth="0" NCoef="0" IVar="0" Cut="2.4987505748867989e-02" cType="1" res="-5.3031499192002229e-07" rms="3.2498267292976379e-01" purity="5.9855979681015015e-01" nType="0">
        <Node pos="l" depth="1" NCoef="0" IVar="-1" Cut="0.0000000000000000e+00" cType="1" res="1.2962553882971406e-03" rms="2.6858237385749817e-01" purity="9.1135811805725098e-01" nType="-99"/>
        <Node pos="r" depth="1" NCoef="0" IVar="3" Cut="1.2632270343601704e-02" cType="1" res="-1.2753218179568648e-03" rms="3.5704964399337769e-01" purity="3.9417004585266113e-01" nType="0">
          <Node pos="l" depth="2" NCoef="0" IVar="-1" Cut="0.0000000000000000e+00" cType="1" res="2.3888733237981796e-02" rms="4.0533021092414856e-01" purity="4.9635037779808044e-01" nType="-99"/>
          <Node pos="r" depth="2" NCoef="0" IVar="-1" Cut="0.0000000000000000e+00" cType="1" res="-6.3198257703334093e-04" rms="3.5678434371948242e-01" purity="3.9372602105140686e-01" nType="-99"/>
        </Node>
      </Node>
    </BinaryTree>
    <BinaryTree type="DecisionTree" boostWeight="1.0000000000000000e+00" itree="245">
      <Node pos="s" depth="0" NCoef="0" IVar="0" Cut="1.2493752874433994e-03" cType="1" res="-4.6138077891555440e-07" rms="3.2497787475585938e-01" purity="5.9855979681015015e-01" nType="0">
        <Node pos="l" depth="1" NCoef="0" IVar="-1" Cut="0.0000000000000000e+00" cType="1" res="-1.5436715912073851e-03" rms="2.7282413840293884e-01" purity="9.0791207551956177e-01" nType="-99"/>
        <Node pos="r" depth="1" NCoef="0" IVar="0" Cut="1.5932820737361908e-02" cType="1" res="1.1422411771491170e-03" rms="3.4808847308158875e-01" purity="4.4418039917945862e-01" nType="0">
          <Node pos="l" depth="2" NCoef="0" IVar="-1" Cut="0.0000000000000000e+00" cType="1" res="3.1147122383117676e-02" rms="1.8348942697048187e-01" purity="9.5916664600372314e-01" nType="-99"/>
          <Node pos="r" depth="2" NCoef="0" IVar="-1" Cut="0.0000000000000000e+00" cType="1" res="-1.8571974942460656e-04" rms="3.5242486000061035e-01" purity="4.2585620284080505e-01" nType="-99"/>
        </Node>
      </Node>
    </BinaryTree>
    <BinaryTree type="DecisionTree" boostWeight="1.0000000000000000e+00" itree="246">
      <Node pos="s" depth="0" NCoef="0" IVar="3" Cut="4.9697157740592957e-01" cType="0" res="2.1823086626682198e-06" rms="3.2496064901351929e-01" purity="5.9855979681015015e-01" nType="0">
        <Node pos="l" depth="1" NCoef="0" IVar="-1" Cut="0.0000000000000000e+00" cType="1" res="-1.4829124324023724e-02" rms="3.4847587347030640e-01" purity="8.3458644151687622e-01" nType="-99"/>
        <Node pos="r" depth="1" NCoef="0" IVar="3" Cut="4.7876596450805664e-01" cType="0" res="8.0460304161533713e-05" rms="3.2489487528800964e-01" purity="5.9795868396759033e-01" nType="0">
          <Node pos="l" depth="2" NCoef="0" IVar="-1" Cut="0.0000000000000000e+00" cType="1" res="9.3689896166324615e-03" rms="2.9293724894523621e-01" purity="8.8946682214736938e-01" nType="-99"/>
          <Node pos="r" depth="2" NCoef="0" IVar="-1" Cut="0.0000000000000000e+00" cType="1" res="-8.9145381934940815e-05" rms="3.2534092664718628e-01" purity="5.9360182285308838e-01" nType="-99"/>
        </Node>
      </Node>
    </BinaryTree>
    <BinaryTree type="DecisionTree" boostWeight="1.0000000000000000e+00" itree="247">
      <Node pos="s" depth="0" NCoef="0" IVar="3" Cut="3.1907123327255249e-01" cType="0" res="2.2111544240033254e-06" rms="3.2495847344398499e-01" purity="5.9855979681015015e-01" nType="0">
        <Node pos="l" depth="1" NCoef="0" IVar="-1" Cut="0.0000000000000000e+00" cType="1" res="-8.7606778834015131e-04" rms="3.7330189347267151e-01" purity="6.7848116159439087e-01" nType="-99"/>
        <Node pos="r" depth="1" NCoef="0" IVar="0" Cut="1.6741628944873810e-01" cType="1" res="1.0284967720508575e-03" rms="3.0160692334175110e-01" purity="5.6392705440521240e-01" nType="0">
          <Node pos="l" depth="2" NCoef="0" IVar="-1" Cut="0.0000000000000000e+00" cType="1" res="2.6709190569818020e-03" rms="3.0165922641754150e-01" purity="8.6572420597076416e-01" nType="-99"/>
          <Node pos="r" depth="2" NCoef="0" IVar="-1" Cut="0.0000000000000000e+00" cType="1" res="-2.6522406842559576e-03" rms="3.0142521858215332e-01" purity="1.1419416218996048e-01" nType="-99"/>
        </Node>
      </Node>
    </BinaryTree>
    <BinaryTree type="DecisionTree" boostWeight="1.0000000000000000e+00" itree="248">
      <Node pos="s" depth="0" NCoef="0" IVar="0" Cut="1.2493752874433994e-03" cType="1" res="2.0684381070168456e-06" rms="3.2495400309562683e-01" purity="5.9855979681015015e-01" nType="0">
        <Node pos="l" depth="1" NCoef="0" IVar="-1" Cut="0.0000000000000000e+00" cType="1" res="-1.5530691016465425e-03" rms="2.7281722426414490e-01" purity="9.0791207551956177e-01" nType="-99"/>
        <Node pos="r" depth="1" NCoef="0" IVar="0" Cut="1.5932820737361908e-02" cType="1" res="1.1526014422997832e-03" rms="3.4805768728256226e-01" purity="4.4418039917945862e-01" nType="0">
          <Node pos="l" depth="2" NCoef="0" IVar="-1" Cut="0.0000000000000000e+00" cType="1" res="2.9449993744492531e-02" rms="1.8341027200222015e-01" purity="9.5916664600372314e-01" nType="-99"/>
          <Node pos="r" depth="2" NCoef="0" IVar="-1" Cut="0.0000000000000000e+00" cType="1" res="-1.1643706238828599e-04" rms="3.5241571068763733e-01" purity="4.2585620284080505e-01" nType="-99"/>
        </Node>
      </Node>
    </BinaryTree>
    <BinaryTree type="DecisionTree" boostWeight="1.0000000000000000e+00" itree="249">
      <Node pos="s" depth="0" NCoef="0" IVar="3" Cut="2.1113172173500061e-01" cType="1" res="4.1091188904829323e-06" rms="3.2493987679481506e-01" purity="5.9855979681015015e-01" nType="0">
        <Node pos="l" depth="1" NCoef="0" IVar="-1" Cut="0.0000000000000000e+00" cType="1" res="-1.2116077123209834e-03" rms="2.7247518301010132e-01" purity="7.0594489574432373e-01" nType="-99"/>
        <Node pos="r" depth="1" NCoef="0" IVar="3" Cut="2.1229474246501923e-01" cType="0" res="1.2459696736186743e-03" rms="3.5505267977714539e-01" purity="5.2839183807373047e-01" nType="0">
          <Node pos="l" depth="2" NCoef="0" IVar="-1" Cut="0.0000000000000000e+00" cType="1" res="3.8842312642373145e-04" rms="3.5516533255577087e-01" purity="5.2893424034118652e-01" nType="-99"/>
          <Node pos="r" depth="2" NCoef="0" IVar="-1" Cut="0.0000000000000000e+00" cType="1" res="3.1818605959415436e-02" rms="3.1938278675079346e-01" purity="3.9370077848434448e-01" nType="-99"/>
        </Node>
      </Node>
    </BinaryTree>
    <BinaryTree type="DecisionTree" boostWeight="1.0000000000000000e+00" itree="250">
      <Node pos="s" depth="0" NCoef="0" IVar="1" Cut="1.5704647302627563e+00" cType="1" res="3.6299916246207431e-06" rms="3.2493296265602112e-01" purity="5.9855979681015015e-01" nType="0">
        <Node pos="l" depth="1" NCoef="0" IVar="-1" Cut="0.0000000000000000e+00" cType="1" res="-5.9815753047587350e-05" rms="3.2445028424263000e-01" purity="6.0177844762802124e-01" nType="-99"/>
        <Node pos="r" depth="1" NCoef="0" IVar="3" Cut="2.7439603209495544e-01" cType="1" res="1.7269752919673920e-02" rms="3.8235798478126526e-01" purity="1.7839196324348450e-01" nType="0">
          <Node pos="l" depth="2" NCoef="0" IVar="-1" Cut="0.0000000000000000e+00" cType="1" res="2.1156735718250275e-02" rms="3.8507500290870667e-01" purity="1.9117647409439087e-01" nType="-99"/>
          <Node pos="r" depth="2" NCoef="0" IVar="-1" Cut="0.0000000000000000e+00" cType="1" res="-1.8341254442930222e-02" rms="3.6722281575202942e-01" purity="1.5079365670681000e-01" nType="-99"/>
        </Node>
      </Node>
    </BinaryTree>
    <BinaryTree type="DecisionTree" boostWeight="1.0000000000000000e+00" itree="251">
      <Node pos="s" depth="0" NCoef="0" IVar="1" Cut="8.0209892988204956e-01" cType="1" res="2.8066779123037122e-06" rms="3.2492589950561523e-01" purity="5.9855979681015015e-01" nType="0">
        <Node pos="l" depth="1" NCoef="0" IVar="-1" Cut="0.0000000000000000e+00" cType="1" res="1.3890149421058595e-04" rms="3.2522580027580261e-01" purity="6.1697316169738770e-01" nType="-99"/>
        <Node pos="r" depth="1" NCoef="0" IVar="0" Cut="1.9165416955947876e+00" cType="0" res="-7.6858126558363438e-03" rms="3.1695723533630371e-01" purity="1.2133675813674927e-01" nType="0">
          <Node pos="l" depth="2" NCoef="0" IVar="-1" Cut="0.0000000000000000e+00" cType="1" res="1.8599960952997208e-02" rms="4.1376933455467224e-01" purity="2.2222222387790680e-01" nType="-99"/>
          <Node pos="r" depth="2" NCoef="0" IVar="-1" Cut="0.0000000000000000e+00" cType="1" res="-1.0314079932868481e-02" rms="2.8985992074012756e-01" purity="9.9121704697608948e-02" nType="-99"/>
        </Node>
      </Node>
    </BinaryTree>
    <BinaryTree type="DecisionTree" boostWeight="1.0000000000000000e+00" itree="252">
      <Node pos="s" depth="0" NCoef="0" IVar="3" Cut="4.6349033713340759e-01" cType="0" res="1.7425288660888327e-06" rms="3.2491743564605713e-01" purity="5.9855979681015015e-01" nType="0">
        <Node pos="l" depth="1" NCoef="0" IVar="-1" Cut="0.0000000000000000e+00" cType="1" res="4.0228981524705887e-03" rms="3.1510630249977112e-01" purity="8.7055212259292603e-01" nType="-99"/>
        <Node pos="r" depth="1" NCoef="0" IVar="3" Cut="4.5745584368705750e-01" cType="0" res="-2.6638319832272828e-04" rms="3.2522425055503845e-01" purity="5.8981943130493164e-01" nType="0">
          <Node pos="l" depth="2" NCoef="0" IVar="-1" Cut="0.0000000000000000e+00" cType="1" res="-1.3975501991808414e-02" rms="3.7884393334388733e-01" purity="8.1578946113586426e-01" nType="-99"/>
          <Node pos="r" depth="2" NCoef="0" IVar="-1" Cut="0.0000000000000000e+00" cType="1" res="-3.3570075174793601e-05" rms="3.2486444711685181e-01" purity="5.8845698833465576e-01" nType="-99"/>
        </Node>
      </Node>
    </BinaryTree>
    <BinaryTree type="DecisionTree" boostWeight="1.0000000000000000e+00" itree="253">
      <Node pos="s" depth="0" NCoef="0" IVar="3" Cut="3.1907123327255249e-01" cType="0" res="1.8029791135631967e-06" rms="3.2491466403007507e-01" purity="5.9855979681015015e-01" nType="0">
        <Node pos="l" depth="1" NCoef="0" IVar="-1" Cut="0.0000000000000000e+00" cType="1" res="-8.3191780140623450e-04" rms="3.7326234579086304e-01" purity="6.7848116159439087e-01" nType="-99"/>
        <Node pos="r" depth="1" NCoef="0" IVar="0" Cut="3.3358320593833923e-01" cType="1" res="9.7558245761319995e-04" rms="3.0156105756759644e-01" purity="5.6392705440521240e-01" nType="0">
          <Node pos="l" depth="2" NCoef="0" IVar="-1" Cut="0.0000000000000000e+00" cType="1" res="1.9162856042385101e-03" rms="3.1911176443099976e-01" purity="7.7932256460189819e-01" nType="-99"/>
          <Node pos="r" depth="2" NCoef="0" IVar="-1" Cut="0.0000000000000000e+00" cType="1" res="-4.2674597352743149e-03" rms="2.5696405768394470e-01" purity="7.2826869785785675e-02" nType="-99"/>
        </Node>
      </Node>
    </BinaryTree>
    <BinaryTree type="DecisionTree" boostWeight="1.0000000000000000e+00" itree="254">
      <Node pos="s" depth="0" NCoef="0" IVar="3" Cut="2.3611772060394287e-01" cType="1" res="1.3074671869617305e-06" rms="3.2490989565849304e-01" purity="5.9855979681015015e-01" nType="0">
        <Node pos="l" depth="1" NCoef="0" IVar="-1" Cut="0.0000000000000000e+00" cType="1" res="-1.0499391937628388e-03" rms="2.7684065699577332e-01" purity="6.5614449977874756e-01" nType="-99"/>
        <Node pos="r" depth="1" NCoef="0" IVar="0" Cut="1.5367315709590912e-01" cType="1" res="1.4185770414769650e-03" rms="3.5983240604400635e-01" purity="5.5094563961029053e-01" nType="0">
          <Node pos="l" depth="2" NCoef="0" IVar="-1" Cut="0.0000000000000000e+00" cType="1" res="-9.2264264822006226e-04" rms="3.6126610636711121e-01" purity="8.0334311723709106e-01" nType="-99"/>
          <Node pos="r" depth="2" NCoef="0" IVar="-1" Cut="0.0000000000000000e+00" cType="1" res="2.7943400200456381e-03" rms="3.5764169692993164e-01" purity="1.8022054433822632e-01" nType="-99"/>
        </Node>
      </Node>
    </BinaryTree>
    <BinaryTree type="DecisionTree" boostWeight="1.0000000000000000e+00" itree="255">
      <Node pos="s" depth="0" NCoef="0" IVar="1" Cut="1.2493752874433994e-03" cType="1" res="1.0011997346737189e-06" rms="3.2490143179893494e-01" purity="5.9855979681015015e-01" nType="0">
        <Node pos="l" depth="1" NCoef="0" IVar="-1" Cut="0.0000000000000000e+00" cType="1" res="-9.3851628480479121e-04" rms="3.0604746937751770e-01" purity="7.4462652206420898e-01" nType="-99"/>
        <Node pos="r" depth="1" NCoef="0" IVar="1" Cut="4.1235275566577911e-02" cType="1" res="1.2013161322101951e-03" rms="3.3670118451118469e-01" purity="5.0265789031982422e-01" nType="0">
          <Node pos="l" depth="2" NCoef="0" IVar="-1" Cut="0.0000000000000000e+00" cType="1" res="7.5183464214205742e-03" rms="2.8700914978981018e-01" purity="7.6980537176132202e-01" nType="-99"/>
          <Node pos="r" depth="2" NCoef="0" IVar="-1" Cut="0.0000000000000000e+00" cType="1" res="-5.6221929844468832e-04" rms="3.4536033868789673e-01" purity="4.5140853524208069e-01" nType="-99"/>
        </Node>
      </Node>
    </BinaryTree>
    <BinaryTree type="DecisionTree" boostWeight="1.0000000000000000e+00" itree="256">
      <Node pos="s" depth="0" NCoef="0" IVar="3" Cut="4.6274074912071228e-01" cType="0" res="1.2845464425481623e-06" rms="3.2489439845085144e-01" purity="5.9855979681015015e-01" nType="0">
        <Node pos="l" depth="1" NCoef="0" IVar="-1" Cut="0.0000000000000000e+00" cType="1" res="3.7805500905960798e-03" rms="3.1629097461700439e-01" purity="8.7013763189315796e-01" nType="-99"/>
        <Node pos="r" depth="1" NCoef="0" IVar="3" Cut="4.5991063117980957e-01" cType="0" res="-2.5720309349708259e-04" rms="3.2517096400260925e-01" purity="5.8960598707199097e-01" nType="0">
          <Node pos="l" depth="2" NCoef="0" IVar="-1" Cut="0.0000000000000000e+00" cType="1" res="-1.8695896491408348e-02" rms="3.8253176212310791e-01" purity="8.0000001192092896e-01" nType="-99"/>
          <Node pos="r" depth="2" NCoef="0" IVar="-1" Cut="0.0000000000000000e+00" cType="1" res="-5.6559405493317172e-05" rms="3.2497021555900574e-01" purity="5.8896058797836304e-01" nType="-99"/>
        </Node>
      </Node>
    </BinaryTree>
    <BinaryTree type="DecisionTree" boostWeight="1.0000000000000000e+00" itree="257">
      <Node pos="s" depth="0" NCoef="0" IVar="3" Cut="4.9622198939323425e-01" cType="0" res="1.3708630604014616e-06" rms="3.2489183545112610e-01" purity="5.9855979681015015e-01" nType="0">
        <Node pos="l" depth="1" NCoef="0" IVar="-1" Cut="0.0000000000000000e+00" cType="1" res="-1.2931851670145988e-02" rms="3.4482482075691223e-01" purity="8.4177213907241821e-01" nType="-99"/>
        <Node pos="r" depth="1" NCoef="0" IVar="3" Cut="4.8900589346885681e-01" cType="0" res="8.1980469985865057e-05" rms="3.2482632994651794e-01" purity="5.9782356023788452e-01" nType="0">
          <Node pos="l" depth="2" NCoef="0" IVar="-1" Cut="0.0000000000000000e+00" cType="1" res="1.4240979216992855e-02" rms="2.6258194446563721e-01" purity="9.0202701091766357e-01" nType="-99"/>
          <Node pos="r" depth="2" NCoef="0" IVar="-1" Cut="0.0000000000000000e+00" cType="1" res="-3.4200351365143433e-05" rms="3.2514059543609619e-01" purity="5.9608864784240723e-01" nType="-99"/>
        </Node>
      </Node>
    </BinaryTree>
    <BinaryTree type="DecisionTree" boostWeight="1.0000000000000000e+00" itree="258">
      <Node pos="s" depth="0" NCoef="0" IVar="0" Cut="1.2493752874433994e-03" cType="1" res="1.4530156704495312e-06" rms="3.2489117980003357e-01" purity="5.9855979681015015e-01" nType="0">
        <Node pos="l" depth="1" NCoef="0" IVar="-1" Cut="0.0000000000000000e+00" cType="1" res="-1.3523239176720381e-03" rms="2.7277401089668274e-01" purity="9.0791207551956177e-01" nType="-99"/>
        <Node pos="r" depth="1" NCoef="0" IVar="0" Cut="1.5932820737361908e-02" cType="1" res="1.0053399018943310e-03" rms="3.4798806905746460e-01" purity="4.4418039917945862e-01" nType="0">
          <Node pos="l" depth="2" NCoef="0" IVar="-1" Cut="0.0000000000000000e+00" cType="1" res="2.7873080223798752e-02" rms="1.8329985439777374e-01" purity="9.5916664600372314e-01" nType="-99"/>
          <Node pos="r" depth="2" NCoef="0" IVar="-1" Cut="0.0000000000000000e+00" cType="1" res="-1.2048934149788693e-04" rms="3.5236215591430664e-01" purity="4.2585620284080505e-01" nType="-99"/>
        </Node>
      </Node>
    </BinaryTree>
    <BinaryTree type="DecisionTree" boostWeight="1.0000000000000000e+00" itree="259">
      <Node pos="s" depth="0" NCoef="0" IVar="3" Cut="3.1907123327255249e-01" cType="0" res="3.2392233606515219e-06" rms="3.2487982511520386e-01" purity="5.9855979681015015e-01" nType="0">
        <Node pos="l" depth="1" NCoef="0" IVar="-1" Cut="0.0000000000000000e+00" cType="1" res="-7.8798335744068027e-04" rms="3.7320309877395630e-01" purity="6.7848116159439087e-01" nType="-99"/>
        <Node pos="r" depth="1" NCoef="0" IVar="0" Cut="1.2743628025054932e-01" cType="1" res="9.2704303096979856e-04" rms="3.0153954029083252e-01" purity="5.6392705440521240e-01" nType="0">
          <Node pos="l" depth="2" NCoef="0" IVar="-1" Cut="0.0000000000000000e+00" cType="1" res="2.7625411748886108e-03" rms="2.8928110003471375e-01" purity="8.8697290420532227e-01" nType="-99"/>
          <Node pos="r" depth="2" NCoef="0" IVar="-1" Cut="0.0000000000000000e+00" cType="1" res="-2.0227371715009212e-03" rms="3.1678858399391174e-01" purity="1.4125007390975952e-01" nType="-99"/>
        </Node>
      </Node>
    </BinaryTree>
    <BinaryTree type="DecisionTree" boostWeight="1.0000000000000000e+00" itree="260">
      <Node pos="s" depth="0" NCoef="0" IVar="3" Cut="2.3611772060394287e-01" cType="1" res="3.1172935450740624e-06" rms="3.2487645745277405e-01" purity="5.9855979681015015e-01" nType="0">
        <Node pos="l" depth="1" NCoef="0" IVar="-1" Cut="0.0000000000000000e+00" cType="1" res="-1.0116698686033487e-03" rms="2.7681750059127808e-01" purity="6.5614449977874756e-01" nType="-99"/>
        <Node pos="r" depth="1" NCoef="0" IVar="0" Cut="1.5367315709590912e-01" cType="1" res="1.3666949234902859e-03" rms="3.5979238152503967e-01" purity="5.5094563961029053e-01" nType="0">
          <Node pos="l" depth="2" NCoef="0" IVar="-1" Cut="0.0000000000000000e+00" cType="1" res="-8.8887556921690702e-04" rms="3.6121004819869995e-01" purity="8.0334311723709106e-01" nType="-99"/>
          <Node pos="r" depth="2" NCoef="0" IVar="-1" Cut="0.0000000000000000e+00" cType="1" res="2.6892493478953838e-03" rms="3.5763087868690491e-01" purity="1.8022054433822632e-01" nType="-99"/>
        </Node>
      </Node>
    </BinaryTree>
    <BinaryTree type="DecisionTree" boostWeight="1.0000000000000000e+00" itree="261">
      <Node pos="s" depth="0" NCoef="0" IVar="0" Cut="1.2831084728240967e+00" cType="1" res="2.6437639917276101e-06" rms="3.2486850023269653e-01" purity="5.9855979681015015e-01" nType="0">
        <Node pos="l" depth="1" NCoef="0" IVar="-1" Cut="0.0000000000000000e+00" cType="1" res="-1.3895964366383851e-04" rms="3.2577571272850037e-01" purity="6.2139242887496948e-01" nType="-99"/>
        <Node pos="r" depth="1" NCoef="0" IVar="2" Cut="2.1317453384399414e+00" cType="0" res="6.4516151323914528e-03" rms="3.0489981174468994e-01" purity="1.1380042135715485e-01" nType="0">
          <Node pos="l" depth="2" NCoef="0" IVar="-1" Cut="0.0000000000000000e+00" cType="1" res="-1.0602694004774094e-02" rms="3.0716270208358765e-01" purity="1.2735849618911743e-01" nType="-99"/>
          <Node pos="r" depth="2" NCoef="0" IVar="-1" Cut="0.0000000000000000e+00" cType="1" res="1.1205587536096573e-02" rms="3.0324950814247131e-01" purity="1.0878417640924454e-01" nType="-99"/>
        </Node>
      </Node>
    </BinaryTree>
    <BinaryTree type="DecisionTree" boostWeight="1.0000000000000000e+00" itree="262">
      <Node pos="s" depth="0" NCoef="0" IVar="2" Cut="2.3490409851074219e+00" cType="1" res="1.6719119457775378e-06" rms="3.2486191391944885e-01" purity="5.9855979681015015e-01" nType="0">
        <Node pos="l" depth="1" NCoef="0" IVar="-1" Cut="0.0000000000000000e+00" cType="1" res="-1.1517999519128352e-04" rms="3.2422190904617310e-01" purity="6.1127299070358276e-01" nType="-99"/>
        <Node pos="r" depth="1" NCoef="0" IVar="0" Cut="6.5217393636703491e-01" cType="1" res="8.1023937091231346e-03" rms="3.4495493769645691e-01" purity="1.8461538851261139e-01" nType="0">
          <Node pos="l" depth="2" NCoef="0" IVar="-1" Cut="0.0000000000000000e+00" cType="1" res="1.4102843590080738e-02" rms="4.1618382930755615e-01" purity="3.0981066823005676e-01" nType="-99"/>
          <Node pos="r" depth="2" NCoef="0" IVar="-1" Cut="0.0000000000000000e+00" cType="1" res="-5.8982386253774166e-03" rms="2.9287135601043701e-01" purity="1.1031664907932281e-01" nType="-99"/>
        </Node>
      </Node>
    </BinaryTree>
    <BinaryTree type="DecisionTree" boostWeight="1.0000000000000000e+00" itree="263">
      <Node pos="s" depth="0" NCoef="0" IVar="1" Cut="1.5704647302627563e+00" cType="1" res="1.1861339999086340e-06" rms="3.2485574483871460e-01" purity="5.9855979681015015e-01" nType="0">
        <Node pos="l" depth="1" NCoef="0" IVar="-1" Cut="0.0000000000000000e+00" cType="1" res="-5.7179724535671994e-05" rms="3.2438206672668457e-01" purity="6.0177844762802124e-01" nType="-99"/>
        <Node pos="r" depth="1" NCoef="0" IVar="3" Cut="2.7439603209495544e-01" cType="1" res="1.6194110736250877e-02" rms="3.8132923841476440e-01" purity="1.7839196324348450e-01" nType="0">
          <Node pos="l" depth="2" NCoef="0" IVar="-1" Cut="0.0000000000000000e+00" cType="1" res="1.8709786236286163e-02" rms="3.8464152812957764e-01" purity="1.9117647409439087e-01" nType="-99"/>
          <Node pos="r" depth="2" NCoef="0" IVar="-1" Cut="0.0000000000000000e+00" cType="1" res="-1.6416953876614571e-02" rms="3.6679723858833313e-01" purity="1.5079365670681000e-01" nType="-99"/>
        </Node>
      </Node>
    </BinaryTree>
    <BinaryTree type="DecisionTree" boostWeight="1.0000000000000000e+00" itree="264">
      <Node pos="s" depth="0" NCoef="0" IVar="3" Cut="2.1113172173500061e-01" cType="1" res="7.0581324962404324e-07" rms="3.2484999299049377e-01" purity="5.9855979681015015e-01" nType="0">
        <Node pos="l" depth="1" NCoef="0" IVar="-1" Cut="0.0000000000000000e+00" cType="1" res="-1.1189742945134640e-03" rms="2.7242538332939148e-01" purity="7.0594489574432373e-01" nType="-99"/>
        <Node pos="r" depth="1" NCoef="0" IVar="1" Cut="1.2493752874433994e-03" cType="1" res="1.1428752914071083e-03" rms="3.5494247078895569e-01" purity="5.2839183807373047e-01" nType="0">
          <Node pos="l" depth="2" NCoef="0" IVar="-1" Cut="0.0000000000000000e+00" cType="1" res="-1.5109295491129160e-03" rms="3.4455025196075439e-01" purity="6.7232257127761841e-01" nType="-99"/>
          <Node pos="r" depth="2" NCoef="0" IVar="-1" Cut="0.0000000000000000e+00" cType="1" res="1.5513306716457009e-03" rms="3.6102861166000366e-01" purity="4.4167214632034302e-01" nType="-99"/>
        </Node>
      </Node>
    </BinaryTree>
    <BinaryTree type="DecisionTree" boostWeight="1.0000000000000000e+00" itree="265">
      <Node pos="s" depth="0" NCoef="0" IVar="1" Cut="4.4977512210607529e-02" cType="1" res="6.8069317649133154e-07" rms="3.2484647631645203e-01" purity="5.9855979681015015e-01" nType="0">
        <Node pos="l" depth="1" NCoef="0" IVar="-1" Cut="0.0000000000000000e+00" cType="1" res="7.6641637133434415e-04" rms="3.0275902152061462e-01" purity="7.4969816207885742e-01" nType="-99"/>
        <Node pos="r" depth="1" NCoef="0" IVar="0" Cut="2.1239380538463593e-01" cType="1" res="-1.5233714366331697e-03" rms="3.4602540731430054e-01" purity="4.4359767436981201e-01" nType="0">
          <Node pos="l" depth="2" NCoef="0" IVar="-1" Cut="0.0000000000000000e+00" cType="1" res="-2.2701919078826904e-03" rms="3.8260704278945923e-01" purity="7.2045725584030151e-01" nType="-99"/>
          <Node pos="r" depth="2" NCoef="0" IVar="-1" Cut="0.0000000000000000e+00" cType="1" res="2.7955481782555580e-03" rms="2.9474130272865295e-01" purity="1.0301095992326736e-01" nType="-99"/>
        </Node>
      </Node>
    </BinaryTree>
    <BinaryTree type="DecisionTree" boostWeight="1.0000000000000000e+00" itree="266">
      <Node pos="s" depth="0" NCoef="0" IVar="2" Cut="5.3574621677398682e-01" cType="1" res="5.3440004421645426e-07" rms="3.2483789324760437e-01" purity="5.9855979681015015e-01" nType="0">
        <Node pos="l" depth="1" NCoef="0" IVar="-1" Cut="0.0000000000000000e+00" cType="1" res="7.2671333327889442e-04" rms="2.9506239295005798e-01" purity="7.9944181442260742e-01" nType="-99"/>
        <Node pos="r" depth="1" NCoef="0" IVar="0" Cut="5.6221887469291687e-02" cType="1" res="-1.5181283233687282e-03" rms="3.5587966442108154e-01" purity="3.6854180693626404e-01" nType="0">
          <Node pos="l" depth="2" NCoef="0" IVar="-1" Cut="0.0000000000000000e+00" cType="1" res="-5.2632340230047703e-03" rms="3.4800088405609131e-01" purity="8.3921569585800171e-01" nType="-99"/>
          <Node pos="r" depth="2" NCoef="0" IVar="-1" Cut="0.0000000000000000e+00" cType="1" res="2.9117529629729688e-04" rms="3.5751786828041077e-01" purity="2.6688918471336365e-01" nType="-99"/>
        </Node>
      </Node>
    </BinaryTree>
    <BinaryTree type="DecisionTree" boostWeight="1.0000000000000000e+00" itree="267">
      <Node pos="s" depth="0" NCoef="0" IVar="0" Cut="8.1209398806095123e-02" cType="1" res="8.3563162434074911e-07" rms="3.2483357191085815e-01" purity="5.9855979681015015e-01" nType="0">
        <Node pos="l" depth="1" NCoef="0" IVar="-1" Cut="0.0000000000000000e+00" cType="1" res="7.5624469900503755e-04" rms="2.9454359412193298e-01" purity="8.8828647136688232e-01" nType="-99"/>
        <Node pos="r" depth="1" NCoef="0" IVar="3" Cut="2.4769158335402608e-04" cType="1" res="-1.6664415597915649e-03" rms="3.5879358649253845e-01" purity="2.3995554447174072e-01" nType="0">
          <Node pos="l" depth="2" NCoef="0" IVar="-1" Cut="0.0000000000000000e+00" cType="1" res="2.6458125561475754e-02" rms="4.0514054894447327e-01" purity="4.8412698507308960e-01" nType="-99"/>
          <Node pos="r" depth="2" NCoef="0" IVar="-1" Cut="0.0000000000000000e+00" cType="1" res="-8.3154666936025023e-04" rms="3.5846006870269775e-01" purity="2.3863343894481659e-01" nType="-99"/>
        </Node>
      </Node>
    </BinaryTree>
    <BinaryTree type="DecisionTree" boostWeight="1.0000000000000000e+00" itree="268">
      <Node pos="s" depth="0" NCoef="0" IVar="3" Cut="2.4386337399482727e-01" cType="1" res="6.8928414975744090e-07" rms="3.2482770085334778e-01" purity="5.9855979681015015e-01" nType="0">
        <Node pos="l" depth="1" NCoef="0" IVar="-1" Cut="0.0000000000000000e+00" cType="1" res="-9.1292045544832945e-04" rms="2.7829113602638245e-01" purity="6.4105153083801270e-01" nType="-99"/>
        <Node pos="r" depth="1" NCoef="0" IVar="0" Cut="1.0069965124130249e+00" cType="1" res="1.3550542062148452e-03" rms="3.6152642965316772e-01" purity="5.6042045354843140e-01" nType="0">
          <Node pos="l" depth="2" NCoef="0" IVar="-1" Cut="0.0000000000000000e+00" cType="1" res="9.3563532573170960e-05" rms="3.6286813020706177e-01" purity="5.8233833312988281e-01" nType="-99"/>
          <Node pos="r" depth="2" NCoef="0" IVar="-1" Cut="0.0000000000000000e+00" cType="1" res="1.1541635729372501e-02" rms="3.3421775698661804e-01" purity="1.4254546165466309e-01" nType="-99"/>
        </Node>
      </Node>
    </BinaryTree>
    <BinaryTree type="DecisionTree" boostWeight="1.0000000000000000e+00" itree="269">
      <Node pos="s" depth="0" NCoef="0" IVar="0" Cut="6.5842080116271973e-01" cType="1" res="1.7147378628123988e-07" rms="3.2482144236564636e-01" purity="5.9855979681015015e-01" nType="0">
        <Node pos="l" depth="1" NCoef="0" IVar="-1" Cut="0.0000000000000000e+00" cType="1" res="2.5420030578970909e-04" rms="3.3361309766769409e-01" purity="6.7745697498321533e-01" nType="-99"/>
        <Node pos="r" depth="1" NCoef="0" IVar="3" Cut="3.3753409981727600e-01" cType="0" res="-3.8016524631530046e-03" rms="2.5930207967758179e-01" purity="7.7169016003608704e-02" nType="0">
          <Node pos="l" depth="2" NCoef="0" IVar="-1" Cut="0.0000000000000000e+00" cType="1" res="1.4759284444153309e-02" rms="3.8018190860748291e-01" purity="2.1269841492176056e-01" nType="-99"/>
          <Node pos="r" depth="2" NCoef="0" IVar="-1" Cut="0.0000000000000000e+00" cType="1" res="-4.2304592207074165e-03" rms="2.5187170505523682e-01" purity="7.0667073130607605e-02" nType="-99"/>
        </Node>
      </Node>
    </BinaryTree>
    <BinaryTree type="DecisionTree" boostWeight="1.0000000000000000e+00" itree="270">
      <Node pos="s" depth="0" NCoef="0" IVar="1" Cut="8.0209892988204956e-01" cType="1" res="-2.9178491445236432e-07" rms="3.2481709122657776e-01" purity="5.9855979681015015e-01" nType="0">
        <Node pos="l" depth="1" NCoef="0" IVar="-1" Cut="0.0000000000000000e+00" cType="1" res="1.2707075802609324e-04" rms="3.2512938976287842e-01" purity="6.1697316169738770e-01" nType="-99"/>
        <Node pos="r" depth="1" NCoef="0" IVar="0" Cut="4.0229883790016174e-01" cType="1" res="-7.1110655553638935e-03" rms="3.1653317809104919e-01" purity="1.2133675813674927e-01" nType="0">
          <Node pos="l" depth="2" NCoef="0" IVar="-1" Cut="0.0000000000000000e+00" cType="1" res="-1.5401811338961124e-02" rms="3.3205947279930115e-01" purity="1.3722397387027740e-01" nType="-99"/>
          <Node pos="r" depth="2" NCoef="0" IVar="-1" Cut="0.0000000000000000e+00" cType="1" res="5.7862661778926849e-03" rms="3.0728077888488770e-01" purity="1.1365369707345963e-01" nType="-99"/>
        </Node>
      </Node>
    </BinaryTree>
    <BinaryTree type="DecisionTree" boostWeight="1.0000000000000000e+00" itree="271">
      <Node pos="s" depth="0" NCoef="0" IVar="0" Cut="6.5842080116271973e-01" cType="1" res="-8.1505572779860813e-07" rms="3.2480913400650024e-01" purity="5.9855979681015015e-01" nType="0">
        <Node pos="l" depth="1" NCoef="0" IVar="-1" Cut="0.0000000000000000e+00" cType="1" res="2.4037374532781541e-04" rms="3.3360582590103149e-01" purity="6.7745697498321533e-01" nType="-99"/>
        <Node pos="r" depth="1" NCoef="0" IVar="3" Cut="3.3753409981727600e-01" cType="0" res="-3.6007398739457130e-03" rms="2.5924995541572571e-01" purity="7.7169016003608704e-02" nType="0">
          <Node pos="l" depth="2" NCoef="0" IVar="-1" Cut="0.0000000000000000e+00" cType="1" res="1.2955669313669205e-02" rms="3.8003635406494141e-01" purity="2.1269841492176056e-01" nType="-99"/>
          <Node pos="r" depth="2" NCoef="0" IVar="-1" Cut="0.0000000000000000e+00" cType="1" res="-3.9548231288790703e-03" rms="2.5186043977737427e-01" purity="7.0667073130607605e-02" nType="-99"/>
        </Node>
      </Node>
    </BinaryTree>
    <BinaryTree type="DecisionTree" boostWeight="1.0000000000000000e+00" itree="272">
      <Node pos="s" depth="0" NCoef="0" IVar="3" Cut="3.1907123327255249e-01" cType="0" res="-1.1030602991013438e-06" rms="3.2480564713478088e-01" purity="5.9855979681015015e-01" nType="0">
        <Node pos="l" depth="1" NCoef="0" IVar="-1" Cut="0.0000000000000000e+00" cType="1" res="-7.6915358658879995e-04" rms="3.7311148643493652e-01" purity="6.7848116159439087e-01" nType="-99"/>
        <Node pos="r" depth="1" NCoef="0" IVar="0" Cut="1.6741628944873810e-01" cType="1" res="9.0165069559589028e-04" rms="3.0147436261177063e-01" purity="5.6392705440521240e-01" nType="0">
          <Node pos="l" depth="2" NCoef="0" IVar="-1" Cut="0.0000000000000000e+00" cType="1" res="2.3718771990388632e-03" rms="3.0157765746116638e-01" purity="8.6572420597076416e-01" nType="-99"/>
          <Node pos="r" depth="2" NCoef="0" IVar="-1" Cut="0.0000000000000000e+00" cType="1" res="-2.3670212831348181e-03" rms="3.0123898386955261e-01" purity="1.1419416218996048e-01" nType="-99"/>
        </Node>
      </Node>
    </BinaryTree>
    <BinaryTree type="DecisionTree" boostWeight="1.0000000000000000e+00" itree="273">
      <Node pos="s" depth="0" NCoef="0" IVar="2" Cut="2.7349281311035156e-01" cType="1" res="-9.3200600304044201e-07" rms="3.2480239868164062e-01" purity="5.9855979681015015e-01" nType="0">
        <Node pos="l" depth="1" NCoef="0" IVar="-1" Cut="0.0000000000000000e+00" cType="1" res="-1.3184397248551250e-03" rms="2.7432391047477722e-01" purity="8.5204869508743286e-01" nType="-99"/>
        <Node pos="r" depth="1" NCoef="0" IVar="1" Cut="1.2493752874433994e-03" cType="1" res="1.0219254763796926e-03" rms="3.4738594293594360e-01" purity="4.7129535675048828e-01" nType="0">
          <Node pos="l" depth="2" NCoef="0" IVar="-1" Cut="0.0000000000000000e+00" cType="1" res="-1.5232795849442482e-03" rms="3.4395575523376465e-01" purity="6.2992125749588013e-01" nType="-99"/>
          <Node pos="r" depth="2" NCoef="0" IVar="-1" Cut="0.0000000000000000e+00" cType="1" res="1.4700888423249125e-03" rms="3.4921959042549133e-01" purity="3.8458466529846191e-01" nType="-99"/>
        </Node>
      </Node>
    </BinaryTree>
    <BinaryTree type="DecisionTree" boostWeight="1.0000000000000000e+00" itree="274">
      <Node pos="s" depth="0" NCoef="0" IVar="1" Cut="4.4977512210607529e-02" cType="1" res="-7.8632996292071766e-07" rms="3.2479718327522278e-01" purity="5.9855979681015015e-01" nType="0">
        <Node pos="l" depth="1" NCoef="0" IVar="-1" Cut="0.0000000000000000e+00" cType="1" res="7.4837775900959969e-04" rms="3.0272454023361206e-01" purity="7.4969816207885742e-01" nType="-99"/>
        <Node pos="r" depth="1" NCoef="0" IVar="0" Cut="1.3868066668510437e-01" cType="1" res="-1.4873450854793191e-03" rms="3.4596291184425354e-01" purity="4.4359767436981201e-01" nType="0">
          <Node pos="l" depth="2" NCoef="0" IVar="-1" Cut="0.0000000000000000e+00" cType="1" res="-2.5905396323651075e-03" rms="3.7205120921134949e-01" purity="7.7346742153167725e-01" nType="-99"/>
          <Node pos="r" depth="2" NCoef="0" IVar="-1" Cut="0.0000000000000000e+00" cType="1" res="1.8680623034015298e-03" rms="3.1940212845802307e-01" purity="1.3338838517665863e-01" nType="-99"/>
        </Node>
      </Node>
    </BinaryTree>
    <BinaryTree type="DecisionTree" boostWeight="1.0000000000000000e+00" itree="275">
      <Node pos="s" depth="0" NCoef="0" IVar="0" Cut="5.9970013797283173e-02" cType="1" res="-6.1547262930616853e-07" rms="3.2478892803192139e-01" purity="5.9855979681015015e-01" nType="0">
        <Node pos="l" depth="1" NCoef="0" IVar="-1" Cut="0.0000000000000000e+00" cType="1" res="8.4230379434302449e-04" rms="2.8351905941963196e-01" purity="8.9877647161483765e-01" nType="-99"/>
        <Node pos="r" depth="1" NCoef="0" IVar="3" Cut="5.0529081374406815e-02" cType="1" res="-1.4506061561405659e-03" rms="3.6263003945350647e-01" purity="2.8743678331375122e-01" nType="0">
          <Node pos="l" depth="2" NCoef="0" IVar="-1" Cut="0.0000000000000000e+00" cType="1" res="2.0508250221610069e-02" rms="3.8317462801933289e-01" purity="4.0977442264556885e-01" nType="-99"/>
          <Node pos="r" depth="2" NCoef="0" IVar="-1" Cut="0.0000000000000000e+00" cType="1" res="-7.8328367089852691e-04" rms="3.6235567927360535e-01" purity="2.8615784645080566e-01" nType="-99"/>
        </Node>
      </Node>
    </BinaryTree>
    <BinaryTree type="DecisionTree" boostWeight="1.0000000000000000e+00" itree="276">
      <Node pos="s" depth="0" NCoef="0" IVar="3" Cut="4.6274074912071228e-01" cType="0" res="-6.1558864672406344e-07" rms="3.2478407025337219e-01" purity="5.9855979681015015e-01" nType="0">
        <Node pos="l" depth="1" NCoef="0" IVar="-1" Cut="0.0000000000000000e+00" cType="1" res="3.6480647977441549e-03" rms="3.1620186567306519e-01" purity="8.7013763189315796e-01" nType="-99"/>
        <Node pos="r" depth="1" NCoef="0" IVar="3" Cut="4.5991063117980957e-01" cType="0" res="-2.4949063663370907e-04" rms="3.2506018877029419e-01" purity="5.8960598707199097e-01" nType="0">
          <Node pos="l" depth="2" NCoef="0" IVar="-1" Cut="0.0000000000000000e+00" cType="1" res="-1.5872925519943237e-02" rms="3.8252785801887512e-01" purity="8.0000001192092896e-01" nType="-99"/>
          <Node pos="r" depth="2" NCoef="0" IVar="-1" Cut="0.0000000000000000e+00" cType="1" res="-6.0956299421377480e-05" rms="3.2486122846603394e-01" purity="5.8896058797836304e-01" nType="-99"/>
        </Node>
      </Node>
    </BinaryTree>
    <BinaryTree type="DecisionTree" boostWeight="1.0000000000000000e+00" itree="277">
      <Node pos="s" depth="0" NCoef="0" IVar="3" Cut="2.1113172173500061e-01" cType="1" res="-3.8543547020708502e-07" rms="3.2478201389312744e-01" purity="5.9855979681015015e-01" nType="0">
        <Node pos="l" depth="1" NCoef="0" IVar="-1" Cut="0.0000000000000000e+00" cType="1" res="-1.0677274549379945e-03" rms="2.7235764265060425e-01" purity="7.0594489574432373e-01" nType="-99"/>
        <Node pos="r" depth="1" NCoef="0" IVar="3" Cut="2.1229474246501923e-01" cType="0" res="1.0863422648981214e-03" rms="3.5487401485443115e-01" purity="5.2839183807373047e-01" nType="0">
          <Node pos="l" depth="2" NCoef="0" IVar="-1" Cut="0.0000000000000000e+00" cType="1" res="3.3490065834484994e-04" rms="3.5499623417854309e-01" purity="5.2893424034118652e-01" nType="-99"/>
          <Node pos="r" depth="2" NCoef="0" IVar="-1" Cut="0.0000000000000000e+00" cType="1" res="2.8672406449913979e-02" rms="3.1773054599761963e-01" purity="3.9370077848434448e-01" nType="-99"/>
        </Node>
      </Node>
    </BinaryTree>
    <BinaryTree type="DecisionTree" boostWeight="1.0000000000000000e+00" itree="278">
      <Node pos="s" depth="0" NCoef="0" IVar="3" Cut="4.9622198939323425e-01" cType="0" res="-4.0644252408128523e-07" rms="3.2477626204490662e-01" purity="5.9855979681015015e-01" nType="0">
        <Node pos="l" depth="1" NCoef="0" IVar="-1" Cut="0.0000000000000000e+00" cType="1" res="-1.1610977351665497e-02" rms="3.4480413794517517e-01" purity="8.4177213907241821e-01" nType="-99"/>
        <Node pos="r" depth="1" NCoef="0" IVar="3" Cut="4.7883895039558411e-01" cType="0" res="7.3033923399634659e-05" rms="3.2471102476119995e-01" purity="5.9782356023788452e-01" nType="0">
          <Node pos="l" depth="2" NCoef="0" IVar="-1" Cut="0.0000000000000000e+00" cType="1" res="8.0617861822247505e-03" rms="2.9185950756072998e-01" purity="8.8948786258697510e-01" nType="-99"/>
          <Node pos="r" depth="2" NCoef="0" IVar="-1" Cut="0.0000000000000000e+00" cType="1" res="-6.8580207880586386e-05" rms="3.2515519857406616e-01" purity="5.9361761808395386e-01" nType="-99"/>
        </Node>
      </Node>
    </BinaryTree>
    <BinaryTree type="DecisionTree" boostWeight="1.0000000000000000e+00" itree="279">
      <Node pos="s" depth="0" NCoef="0" IVar="3" Cut="3.1907123327255249e-01" cType="0" res="-1.8960791692279599e-07" rms="3.2477477192878723e-01" purity="5.9855979681015015e-01" nType="0">
        <Node pos="l" depth="1" NCoef="0" IVar="-1" Cut="0.0000000000000000e+00" cType="1" res="-7.5131538324058056e-04" rms="3.7307718396186829e-01" purity="6.7848116159439087e-01" nType="-99"/>
        <Node pos="r" depth="1" NCoef="0" IVar="1" Cut="1.0244877636432648e-01" cType="1" res="8.8218110613524914e-04" rms="3.0144527554512024e-01" purity="5.6392705440521240e-01" nType="0">
          <Node pos="l" depth="2" NCoef="0" IVar="-1" Cut="0.0000000000000000e+00" cType="1" res="2.4174810387194157e-03" rms="2.8660663962364197e-01" purity="7.1154356002807617e-01" nType="-99"/>
          <Node pos="r" depth="2" NCoef="0" IVar="-1" Cut="0.0000000000000000e+00" cType="1" res="-2.2373022511601448e-03" rms="3.2429641485214233e-01" purity="3.2117000222206116e-01" nType="-99"/>
        </Node>
      </Node>
    </BinaryTree>
    <BinaryTree type="DecisionTree" boostWeight="1.0000000000000000e+00" itree="280">
      <Node pos="s" depth="0" NCoef="0" IVar="1" Cut="1.2493752874433994e-03" cType="1" res="-1.0058134591872658e-07" rms="3.2476860284805298e-01" purity="5.9855979681015015e-01" nType="0">
        <Node pos="l" depth="1" NCoef="0" IVar="-1" Cut="0.0000000000000000e+00" cType="1" res="-8.6663512047380209e-04" rms="3.0598026514053345e-01" purity="7.4462652206420898e-01" nType="-99"/>
        <Node pos="r" depth="1" NCoef="0" IVar="1" Cut="4.1235275566577911e-02" cType="1" res="1.1052112095057964e-03" rms="3.3652979135513306e-01" purity="5.0265789031982422e-01" nType="0">
          <Node pos="l" depth="2" NCoef="0" IVar="-1" Cut="0.0000000000000000e+00" cType="1" res="6.3533913344144821e-03" rms="2.8688177466392517e-01" purity="7.6980537176132202e-01" nType="-99"/>
          <Node pos="r" depth="2" NCoef="0" IVar="-1" Cut="0.0000000000000000e+00" cType="1" res="-4.1921474621631205e-04" rms="3.4519946575164795e-01" purity="4.5140853524208069e-01" nType="-99"/>
        </Node>
      </Node>
    </BinaryTree>
    <BinaryTree type="DecisionTree" boostWeight="1.0000000000000000e+00" itree="281">
      <Node pos="s" depth="0" NCoef="0" IVar="2" Cut="2.7349281311035156e-01" cType="1" res="1.8250278799314401e-07" rms="3.2476395368576050e-01" purity="5.9855979681015015e-01" nType="0">
        <Node pos="l" depth="1" NCoef="0" IVar="-1" Cut="0.0000000000000000e+00" cType="1" res="-1.1915883515030146e-03" rms="2.7427038550376892e-01" purity="8.5204869508743286e-01" nType="-99"/>
        <Node pos="r" depth="1" NCoef="0" IVar="1" Cut="1.2493752874433994e-03" cType="1" res="9.2608260456472635e-04" rms="3.4735402464866638e-01" purity="4.7129535675048828e-01" nType="0">
          <Node pos="l" depth="2" NCoef="0" IVar="-1" Cut="0.0000000000000000e+00" cType="1" res="-1.4321075286716223e-03" rms="3.4393852949142456e-01" purity="6.2992125749588013e-01" nType="-99"/>
          <Node pos="r" depth="2" NCoef="0" IVar="-1" Cut="0.0000000000000000e+00" cType="1" res="1.3602729886770248e-03" rms="3.4918323159217834e-01" purity="3.8458466529846191e-01" nType="-99"/>
        </Node>
      </Node>
    </BinaryTree>
    <BinaryTree type="DecisionTree" boostWeight="1.0000000000000000e+00" itree="282">
      <Node pos="s" depth="0" NCoef="0" IVar="0" Cut="8.1209398806095123e-02" cType="1" res="2.0785005006018764e-07" rms="3.2475945353507996e-01" purity="5.9855979681015015e-01" nType="0">
        <Node pos="l" depth="1" NCoef="0" IVar="-1" Cut="0.0000000000000000e+00" cType="1" res="6.8639114033430815e-04" rms="2.9450163245201111e-01" purity="8.8828647136688232e-01" nType="-99"/>
        <Node pos="r" depth="1" NCoef="0" IVar="2" Cut="1.0078022480010986e+00" cType="1" res="-1.5104959020391107e-03" rms="3.5868731141090393e-01" purity="2.3995554447174072e-01" nType="0">
          <Node pos="l" depth="2" NCoef="0" IVar="-1" Cut="0.0000000000000000e+00" cType="1" res="-2.7418979443609715e-03" rms="3.6902254819869995e-01" purity="2.7468353509902954e-01" nType="-99"/>
          <Node pos="r" depth="2" NCoef="0" IVar="-1" Cut="0.0000000000000000e+00" cType="1" res="1.9599124789237976e-03" rms="3.4764859080314636e-01" purity="2.0431318879127502e-01" nType="-99"/>
        </Node>
      </Node>
    </BinaryTree>
    <BinaryTree type="DecisionTree" boostWeight="1.0000000000000000e+00" itree="283">
      <Node pos="s" depth="0" NCoef="0" IVar="2" Cut="9.1039389371871948e-01" cType="1" res="2.2330537419179564e-08" rms="3.2475045323371887e-01" purity="5.9855979681015015e-01" nType="0">
        <Node pos="l" depth="1" NCoef="0" IVar="-1" Cut="0.0000000000000000e+00" cType="1" res="4.3365519377402961e-04" rms="3.1252875924110413e-01" purity="7.2329342365264893e-01" nType="-99"/>
        <Node pos="r" depth="1" NCoef="0" IVar="0" Cut="5.4972514510154724e-02" cType="1" res="-2.1530590020120144e-03" rms="3.5304889082908630e-01" purity="2.9128077626228333e-01" nType="0">
          <Node pos="l" depth="2" NCoef="0" IVar="-1" Cut="0.0000000000000000e+00" cType="1" res="-1.5785053372383118e-02" rms="3.7712556123733521e-01" purity="8.0066442489624023e-01" nType="-99"/>
          <Node pos="r" depth="2" NCoef="0" IVar="-1" Cut="0.0000000000000000e+00" cType="1" res="7.5028219725936651e-04" rms="3.5005342960357666e-01" purity="2.3495702445507050e-01" nType="-99"/>
        </Node>
      </Node>
    </BinaryTree>
    <BinaryTree type="DecisionTree" boostWeight="1.0000000000000000e+00" itree="284">
      <Node pos="s" depth="0" NCoef="0" IVar="0" Cut="5.9970013797283173e-02" cType="1" res="1.0943372217298020e-06" rms="3.2473501563072205e-01" purity="5.9855979681015015e-01" nType="0">
        <Node pos="l" depth="1" NCoef="0" IVar="-1" Cut="0.0000000000000000e+00" cType="1" res="8.2492007641121745e-04" rms="2.8346413373947144e-01" purity="8.9877647161483765e-01" nType="-99"/>
        <Node pos="r" depth="1" NCoef="0" IVar="2" Cut="3.5591530799865723e-01" cType="1" res="-1.4160745777189732e-03" rms="3.6257642507553101e-01" purity="2.8743678331375122e-01" nType="0">
          <Node pos="l" depth="2" NCoef="0" IVar="-1" Cut="0.0000000000000000e+00" cType="1" res="-5.7556731626391411e-03" rms="3.8527983427047729e-01" purity="3.8368213176727295e-01" nType="-99"/>
          <Node pos="r" depth="2" NCoef="0" IVar="-1" Cut="0.0000000000000000e+00" cType="1" res="3.3516192343086004e-04" rms="3.5905849933624268e-01" purity="2.7327889204025269e-01" nType="-99"/>
        </Node>
      </Node>
    </BinaryTree>
    <BinaryTree type="DecisionTree" boostWeight="1.0000000000000000e+00" itree="285">
      <Node pos="s" depth="0" NCoef="0" IVar="0" Cut="1.2493752874433994e-03" cType="1" res="1.0004262094298610e-06" rms="3.2472863793373108e-01" purity="5.9855979681015015e-01" nType="0">
        <Node pos="l" depth="1" NCoef="0" IVar="-1" Cut="0.0000000000000000e+00" cType="1" res="-1.2481303419917822e-03" rms="2.7270478010177612e-01" purity="9.0791207551956177e-01" nType="-99"/>
        <Node pos="r" depth="1" NCoef="0" IVar="0" Cut="1.5932820737361908e-02" cType="1" res="9.2683575348928571e-04" rms="3.4778830409049988e-01" purity="4.4418039917945862e-01" nType="0">
          <Node pos="l" depth="2" NCoef="0" IVar="-1" Cut="0.0000000000000000e+00" cType="1" res="2.6368299499154091e-02" rms="1.8325249850749969e-01" purity="9.5916664600372314e-01" nType="-99"/>
          <Node pos="r" depth="2" NCoef="0" IVar="-1" Cut="0.0000000000000000e+00" cType="1" res="-1.0229252802673727e-04" rms="3.5217157006263733e-01" purity="4.2585620284080505e-01" nType="-99"/>
        </Node>
      </Node>
    </BinaryTree>
    <BinaryTree type="DecisionTree" boostWeight="1.0000000000000000e+00" itree="286">
      <Node pos="s" depth="0" NCoef="0" IVar="3" Cut="3.1907123327255249e-01" cType="0" res="2.5661863674031338e-06" rms="3.2471939921379089e-01" purity="5.9855979681015015e-01" nType="0">
        <Node pos="l" depth="1" NCoef="0" IVar="-1" Cut="0.0000000000000000e+00" cType="1" res="-7.3470838833600283e-04" rms="3.7298968434333801e-01" purity="6.7848116159439087e-01" nType="-99"/>
        <Node pos="r" depth="1" NCoef="0" IVar="0" Cut="2.7486255764961243e-01" cType="1" res="8.6740060942247510e-04" rms="3.0140683054924011e-01" purity="5.6392705440521240e-01" nType="0">
          <Node pos="l" depth="2" NCoef="0" IVar="-1" Cut="0.0000000000000000e+00" cType="1" res="1.8609273247420788e-03" rms="3.1681311130523682e-01" purity="8.0648082494735718e-01" nType="-99"/>
          <Node pos="r" depth="2" NCoef="0" IVar="-1" Cut="0.0000000000000000e+00" cType="1" res="-3.3757153432816267e-03" rms="2.6799041032791138e-01" purity="8.0766707658767700e-02" nType="-99"/>
        </Node>
      </Node>
    </BinaryTree>
    <BinaryTree type="DecisionTree" boostWeight="1.0000000000000000e+00" itree="287">
      <Node pos="s" depth="0" NCoef="0" IVar="2" Cut="2.7349281311035156e-01" cType="1" res="2.1258736069285078e-06" rms="3.2471570372581482e-01" purity="5.9855979681015015e-01" nType="0">
        <Node pos="l" depth="1" NCoef="0" IVar="-1" Cut="0.0000000000000000e+00" cType="1" res="-1.1894644703716040e-03" rms="2.7424180507659912e-01" purity="8.5204869508743286e-01" nType="-99"/>
        <Node pos="r" depth="1" NCoef="0" IVar="2" Cut="5.3703647851943970e-01" cType="1" res="9.2432455858215690e-04" rms="3.4729757905006409e-01" purity="4.7129535675048828e-01" nType="0">
          <Node pos="l" depth="2" NCoef="0" IVar="-1" Cut="0.0000000000000000e+00" cType="1" res="2.5418074801564217e-03" rms="3.2645553350448608e-01" purity="7.1043837070465088e-01" nType="-99"/>
          <Node pos="r" depth="2" NCoef="0" IVar="-1" Cut="0.0000000000000000e+00" cType="1" res="-4.5632585533894598e-04" rms="3.5585296154022217e-01" purity="3.6860236525535583e-01" nType="-99"/>
        </Node>
      </Node>
    </BinaryTree>
    <BinaryTree type="DecisionTree" boostWeight="1.0000000000000000e+00" itree="288">
      <Node pos="s" depth="0" NCoef="0" IVar="0" Cut="2.4575212001800537e+00" cType="1" res="2.0502213828876847e-06" rms="3.2471179962158203e-01" purity="5.9855979681015015e-01" nType="0">
        <Node pos="l" depth="1" NCoef="0" IVar="-1" Cut="0.0000000000000000e+00" cType="1" res="-5.7720906625036150e-05" rms="3.2429268956184387e-01" purity="6.0261505842208862e-01" nType="-99"/>
        <Node pos="r" depth="1" NCoef="0" IVar="2" Cut="1.3151835203170776e+00" cType="1" res="1.3046038337051868e-02" rms="3.6534172296524048e-01" purity="1.7800000309944153e-01" nType="0">
          <Node pos="l" depth="2" NCoef="0" IVar="-1" Cut="0.0000000000000000e+00" cType="1" res="2.6064202189445496e-02" rms="3.7853899598121643e-01" purity="1.8633539974689484e-01" nType="-99"/>
          <Node pos="r" depth="2" NCoef="0" IVar="-1" Cut="0.0000000000000000e+00" cType="1" res="-2.9853160958737135e-03" rms="3.5697978734970093e-01" purity="1.7404130101203918e-01" nType="-99"/>
        </Node>
      </Node>
    </BinaryTree>
    <BinaryTree type="DecisionTree" boostWeight="1.0000000000000000e+00" itree="289">
      <Node pos="s" depth="0" NCoef="0" IVar="3" Cut="4.9447298049926758e-01" cType="0" res="1.5055437643241021e-06" rms="3.2470771670341492e-01" purity="5.9855979681015015e-01" nType="0">
        <Node pos="l" depth="1" NCoef="0" IVar="-1" Cut="0.0000000000000000e+00" cType="1" res="-9.3531012535095215e-03" rms="3.3036747574806213e-01" purity="8.5217392444610596e-01" nType="-99"/>
        <Node pos="r" depth="1" NCoef="0" IVar="3" Cut="4.8897045850753784e-01" cType="0" res="8.5506275354418904e-05" rms="3.2468006014823914e-01" purity="5.9744071960449219e-01" nType="0">
          <Node pos="l" depth="2" NCoef="0" IVar="-1" Cut="0.0000000000000000e+00" cType="1" res="1.8784482032060623e-02" rms="2.4815626442432404e-01" purity="9.1189426183700562e-01" nType="-99"/>
          <Node pos="r" depth="2" NCoef="0" IVar="-1" Cut="0.0000000000000000e+00" cType="1" res="-3.1261391995940357e-05" rms="3.2496696710586548e-01" purity="5.9606528282165527e-01" nType="-99"/>
        </Node>
      </Node>
    </BinaryTree>
    <BinaryTree type="DecisionTree" boostWeight="1.0000000000000000e+00" itree="290">
      <Node pos="s" depth="0" NCoef="0" IVar="0" Cut="1.2493752874433994e-03" cType="1" res="1.5989587609510636e-06" rms="3.2470640540122986e-01" purity="5.9855979681015015e-01" nType="0">
        <Node pos="l" depth="1" NCoef="0" IVar="-1" Cut="0.0000000000000000e+00" cType="1" res="-1.2050563236698508e-03" rms="2.7270063757896423e-01" purity="9.0791207551956177e-01" nType="-99"/>
        <Node pos="r" depth="1" NCoef="0" IVar="0" Cut="1.2195507064461708e-02" cType="1" res="8.9632795425131917e-04" rms="3.4775903820991516e-01" purity="4.4418039917945862e-01" nType="0">
          <Node pos="l" depth="2" NCoef="0" IVar="-1" Cut="0.0000000000000000e+00" cType="1" res="4.1545670479536057e-02" rms="1.2228999286890030e-01" purity="9.8249453306198120e-01" nType="-99"/>
          <Node pos="r" depth="2" NCoef="0" IVar="-1" Cut="0.0000000000000000e+00" cType="1" res="9.6107360150199383e-05" rms="3.4972640872001648e-01" purity="4.3704304099082947e-01" nType="-99"/>
        </Node>
      </Node>
    </BinaryTree>
    <BinaryTree type="DecisionTree" boostWeight="1.0000000000000000e+00" itree="291">
      <Node pos="s" depth="0" NCoef="0" IVar="3" Cut="3.1907123327255249e-01" cType="0" res="2.9572104267572286e-06" rms="3.2469788193702698e-01" purity="5.9855979681015015e-01" nType="0">
        <Node pos="l" depth="1" NCoef="0" IVar="-1" Cut="0.0000000000000000e+00" cType="1" res="-7.1122078225016594e-04" rms="3.7296646833419800e-01" purity="6.7848116159439087e-01" nType="-99"/>
        <Node pos="r" depth="1" NCoef="0" IVar="0" Cut="1.2743628025054932e-01" cType="1" res="8.3984341472387314e-04" rms="3.0138632655143738e-01" purity="5.6392705440521240e-01" nType="0">
          <Node pos="l" depth="2" NCoef="0" IVar="-1" Cut="0.0000000000000000e+00" cType="1" res="2.4997272994369268e-03" rms="2.8917145729064941e-01" purity="8.8697290420532227e-01" nType="-99"/>
          <Node pos="r" depth="2" NCoef="0" IVar="-1" Cut="0.0000000000000000e+00" cType="1" res="-1.8200775375589728e-03" rms="3.1659737229347229e-01" purity="1.4125007390975952e-01" nType="-99"/>
        </Node>
      </Node>
    </BinaryTree>
    <BinaryTree type="DecisionTree" boostWeight="1.0000000000000000e+00" itree="292">
      <Node pos="s" depth="0" NCoef="0" IVar="2" Cut="2.9222521185874939e-01" cType="1" res="2.8264530556043610e-06" rms="3.2469525933265686e-01" purity="5.9855979681015015e-01" nType="0">
        <Node pos="l" depth="1" NCoef="0" IVar="-1" Cut="0.0000000000000000e+00" cType="1" res="-1.1934549547731876e-03" rms="2.7634432911872864e-01" purity="8.4798938035964966e-01" nType="-99"/>
        <Node pos="r" depth="1" NCoef="0" IVar="2" Cut="4.0024894475936890e-01" cType="1" res="9.9025794770568609e-04" rms="3.4754177927970886e-01" purity="4.6671533584594727e-01" nType="0">
          <Node pos="l" depth="2" NCoef="0" IVar="-1" Cut="0.0000000000000000e+00" cType="1" res="4.2205280624330044e-03" rms="3.2191529870033264e-01" purity="7.2032874822616577e-01" nType="-99"/>
          <Node pos="r" depth="2" NCoef="0" IVar="-1" Cut="0.0000000000000000e+00" cType="1" res="-7.7503515058197081e-05" rms="3.5089972615242004e-01" purity="4.3187329173088074e-01" nType="-99"/>
        </Node>
      </Node>
    </BinaryTree>
    <BinaryTree type="DecisionTree" boostWeight="1.0000000000000000e+00" itree="293">
      <Node pos="s" depth="0" NCoef="0" IVar="1" Cut="1.5704647302627563e+00" cType="1" res="2.6952270673064049e-06" rms="3.2469215989112854e-01" purity="5.9855979681015015e-01" nType="0">
        <Node pos="l" depth="1" NCoef="0" IVar="-1" Cut="0.0000000000000000e+00" cType="1" res="-5.0539169023977593e-05" rms="3.2422450184822083e-01" purity="6.0177844762802124e-01" nType="-99"/>
        <Node pos="r" depth="1" NCoef="0" IVar="3" Cut="2.7439603209495544e-01" cType="1" res="1.4485915191471577e-02" rms="3.8056626915931702e-01" purity="1.7839196324348450e-01" nType="0">
          <Node pos="l" depth="2" NCoef="0" IVar="-1" Cut="0.0000000000000000e+00" cType="1" res="1.6707563772797585e-02" rms="3.8403749465942383e-01" purity="1.9117647409439087e-01" nType="-99"/>
          <Node pos="r" depth="2" NCoef="0" IVar="-1" Cut="0.0000000000000000e+00" cType="1" res="-1.5579327940940857e-02" rms="3.6676314473152161e-01" purity="1.5079365670681000e-01" nType="-99"/>
        </Node>
      </Node>
    </BinaryTree>
    <BinaryTree type="DecisionTree" boostWeight="1.0000000000000000e+00" itree="294">
      <Node pos="s" depth="0" NCoef="0" IVar="3" Cut="4.6274074912071228e-01" cType="0" res="2.1271280274959281e-06" rms="3.2468721270561218e-01" purity="5.9855979681015015e-01" nType="0">
        <Node pos="l" depth="1" NCoef="0" IVar="-1" Cut="0.0000000000000000e+00" cType="1" res="3.3799319062381983e-03" rms="3.1610721349716187e-01" purity="8.7013763189315796e-01" nType="-99"/>
        <Node pos="r" depth="1" NCoef="0" IVar="3" Cut="4.5736712217330933e-01" cType="0" res="-2.2737856488674879e-04" rms="3.2496368885040283e-01" purity="5.8960598707199097e-01" nType="0">
          <Node pos="l" depth="2" NCoef="0" IVar="-1" Cut="0.0000000000000000e+00" cType="1" res="-1.0203917510807514e-02" rms="3.7941709160804749e-01" purity="8.1132078170776367e-01" nType="-99"/>
          <Node pos="r" depth="2" NCoef="0" IVar="-1" Cut="0.0000000000000000e+00" cType="1" res="-4.4751057430403307e-05" rms="3.2464826107025146e-01" purity="5.8844065666198730e-01" nType="-99"/>
        </Node>
      </Node>
    </BinaryTree>
    <BinaryTree type="DecisionTree" boostWeight="1.0000000000000000e+00" itree="295">
      <Node pos="s" depth="0" NCoef="0" IVar="3" Cut="3.1907123327255249e-01" cType="0" res="2.0432862584129907e-06" rms="3.2468548417091370e-01" purity="5.9855979681015015e-01" nType="0">
        <Node pos="l" depth="1" NCoef="0" IVar="-1" Cut="0.0000000000000000e+00" cType="1" res="-6.8475957959890366e-04" rms="3.7295237183570862e-01" purity="6.7848116159439087e-01" nType="-99"/>
        <Node pos="r" depth="1" NCoef="0" IVar="1" Cut="1.0244877636432648e-01" cType="1" res="8.0716895172372460e-04" rms="3.0137503147125244e-01" purity="5.6392705440521240e-01" nType="0">
          <Node pos="l" depth="2" NCoef="0" IVar="-1" Cut="0.0000000000000000e+00" cType="1" res="2.1840878762304783e-03" rms="2.8653389215469360e-01" purity="7.1154356002807617e-01" nType="-99"/>
          <Node pos="r" depth="2" NCoef="0" IVar="-1" Cut="0.0000000000000000e+00" cType="1" res="-2.0002310629934072e-03" rms="3.2424521446228027e-01" purity="3.2117000222206116e-01" nType="-99"/>
        </Node>
      </Node>
    </BinaryTree>
    <BinaryTree type="DecisionTree" boostWeight="1.0000000000000000e+00" itree="296">
      <Node pos="s" depth="0" NCoef="0" IVar="2" Cut="2.9222521185874939e-01" cType="1" res="1.8970088149217190e-06" rms="3.2468032836914062e-01" purity="5.9855979681015015e-01" nType="0">
        <Node pos="l" depth="1" NCoef="0" IVar="-1" Cut="0.0000000000000000e+00" cType="1" res="-1.1283546919003129e-03" rms="2.7633774280548096e-01" purity="8.4798938035964966e-01" nType="-99"/>
        <Node pos="r" depth="1" NCoef="0" IVar="1" Cut="1.2493752874433994e-03" cType="1" res="9.3511794693768024e-04" rms="3.4752365946769714e-01" purity="4.6671533584594727e-01" nType="0">
          <Node pos="l" depth="2" NCoef="0" IVar="-1" Cut="0.0000000000000000e+00" cType="1" res="-1.3286002213135362e-03" rms="3.4460604190826416e-01" purity="6.2564313411712646e-01" nType="-99"/>
          <Node pos="r" depth="2" NCoef="0" IVar="-1" Cut="0.0000000000000000e+00" cType="1" res="1.3100045034661889e-03" rms="3.4907603263854980e-01" purity="3.8045045733451843e-01" nType="-99"/>
        </Node>
      </Node>
    </BinaryTree>
    <BinaryTree type="DecisionTree" boostWeight="1.0000000000000000e+00" itree="297">
      <Node pos="s" depth="0" NCoef="0" IVar="0" Cut="1.2981009483337402e+00" cType="1" res="1.7439298289900762e-06" rms="3.2467645406723022e-01" purity="5.9855979681015015e-01" nType="0">
        <Node pos="l" depth="1" NCoef="0" IVar="-1" Cut="0.0000000000000000e+00" cType="1" res="-1.2042419984936714e-04" rms="3.2554751634597778e-01" purity="6.2081432342529297e-01" nType="-99"/>
        <Node pos="r" depth="1" NCoef="0" IVar="2" Cut="2.1317453384399414e+00" cType="0" res="5.6954678148031235e-03" rms="3.0506733059883118e-01" purity="1.1468288302421570e-01" nType="0">
          <Node pos="l" depth="2" NCoef="0" IVar="-1" Cut="0.0000000000000000e+00" cType="1" res="-9.7788162529468536e-03" rms="3.0716603994369507e-01" purity="1.2816455960273743e-01" nType="-99"/>
          <Node pos="r" depth="2" NCoef="0" IVar="-1" Cut="0.0000000000000000e+00" cType="1" res="1.0011556558310986e-02" rms="3.0358648300170898e-01" purity="1.0958083719015121e-01" nType="-99"/>
        </Node>
      </Node>
    </BinaryTree>
    <BinaryTree type="DecisionTree" boostWeight="1.0000000000000000e+00" itree="298">
      <Node pos="s" depth="0" NCoef="0" IVar="2" Cut="2.7124493122100830e+00" cType="1" res="1.0072478744405089e-06" rms="3.2467111945152283e-01" purity="5.9855979681015015e-01" nType="0">
        <Node pos="l" depth="1" NCoef="0" IVar="-1" Cut="0.0000000000000000e+00" cType="1" res="-7.3672410508152097e-05" rms="3.2422354817390442e-01" purity="6.0511964559555054e-01" nType="-99"/>
        <Node pos="r" depth="1" NCoef="0" IVar="3" Cut="3.6418318748474121e-01" cType="0" res="9.8930140957236290e-03" rms="3.5129281878471375e-01" purity="1.8984280526638031e-01" nType="0">
          <Node pos="l" depth="2" NCoef="0" IVar="-1" Cut="0.0000000000000000e+00" cType="1" res="2.8460744768381119e-02" rms="4.7119274735450745e-01" purity="5.0458717346191406e-01" nType="-99"/>
          <Node pos="r" depth="2" NCoef="0" IVar="-1" Cut="0.0000000000000000e+00" cType="1" res="-1.9800181034952402e-03" rms="3.2693439722061157e-01" purity="1.4206127822399139e-01" nType="-99"/>
        </Node>
      </Node>
    </BinaryTree>
    <BinaryTree type="DecisionTree" boostWeight="1.0000000000000000e+00" itree="299">
      <Node pos="s" depth="0" NCoef="0" IVar="3" Cut="2.2637318074703217e-01" cType="1" res="7.8154573657229776e-07" rms="3.2466354966163635e-01" purity="5.9855979681015015e-01" nType="0">
        <Node pos="l" depth="1" NCoef="0" IVar="-1" Cut="0.0000000000000000e+00" cType="1" res="-8.5650995606556535e-04" rms="2.7465111017227173e-01" purity="6.7512804269790649e-01" nType="-99"/>
        <Node pos="r" depth="1" NCoef="0" IVar="3" Cut="2.2733871638774872e-01" cType="0" res="1.0274989763274789e-03" rms="3.5765162110328674e-01" purity="5.4105490446090698e-01" nType="0">
          <Node pos="l" depth="2" NCoef="0" IVar="-1" Cut="0.0000000000000000e+00" cType="1" res="2.9899427318014205e-04" rms="3.5754618048667908e-01" purity="5.4178839921951294e-01" nType="-99"/>
          <Node pos="r" depth="2" NCoef="0" IVar="-1" Cut="0.0000000000000000e+00" cType="1" res="3.2576285302639008e-02" rms="3.7757498025894165e-01" purity="3.5593220591545105e-01" nType="-99"/>
        </Node>
      </Node>
    </BinaryTree>
    <BinaryTree type="DecisionTree" boostWeight="1.0000000000000000e+00" itree="300">
      <Node pos="s" depth="0" NCoef="0" IVar="3" Cut="3.1907123327255249e-01" cType="0" res="5.3836885172131588e-07" rms="3.2465970516204834e-01" purity="5.9855979681015015e-01" nType="0">
        <Node pos="l" depth="1" NCoef="0" IVar="-1" Cut="0.0000000000000000e+00" cType="1" res="-6.7710073199123144e-04" rms="3.7292462587356567e-01" purity="6.7848116159439087e-01" nType="-99"/>
        <Node pos="r" depth="1" NCoef="0" IVar="0" Cut="3.3358320593833923e-01" cType="1" res="7.9646060476079583e-04" rms="3.0135017633438110e-01" purity="5.6392705440521240e-01" nType="0">
          <Node pos="l" depth="2" NCoef="0" IVar="-1" Cut="0.0000000000000000e+00" cType="1" res="1.5947826905176044e-03" rms="3.1891286373138428e-01" purity="7.7932256460189819e-01" nType="-99"/>
          <Node pos="r" depth="2" NCoef="0" IVar="-1" Cut="0.0000000000000000e+00" cType="1" res="-3.5981677938252687e-03" rms="2.5675901770591736e-01" purity="7.2826869785785675e-02" nType="-99"/>
        </Node>
      </Node>
    </BinaryTree>
    <BinaryTree type="DecisionTree" boostWeight="1.0000000000000000e+00" itree="301">
      <Node pos="s" depth="0" NCoef="0" IVar="2" Cut="1.7608441114425659e+00" cType="1" res="2.6002575737038569e-07" rms="3.2465657591819763e-01" purity="5.9855979681015015e-01" nType="0">
        <Node pos="l" depth="1" NCoef="0" IVar="-1" Cut="0.0000000000000000e+00" cType="1" res="-1.7258997831959277e-04" rms="3.2311978936195374e-01" purity="6.3296103477478027e-01" nType="-99"/>
        <Node pos="r" depth="1" NCoef="0" IVar="0" Cut="1.7116442322731018e-01" cType="1" res="4.2327735573053360e-03" rms="3.4183254837989807e-01" purity="2.0229555666446686e-01" nType="0">
          <Node pos="l" depth="2" NCoef="0" IVar="-1" Cut="0.0000000000000000e+00" cType="1" res="-8.8040279224514961e-03" rms="4.3669715523719788e-01" purity="6.3561075925827026e-01" nType="-99"/>
          <Node pos="r" depth="2" NCoef="0" IVar="-1" Cut="0.0000000000000000e+00" cType="1" res="4.2525324970483780e-03" rms="3.2710903882980347e-01" purity="1.4571505784988403e-01" nType="-99"/>
        </Node>
      </Node>
    </BinaryTree>
    <BinaryTree type="DecisionTree" boostWeight="1.0000000000000000e+00" itree="302">
      <Node pos="s" depth="0" NCoef="0" IVar="2" Cut="2.9222521185874939e-01" cType="1" res="1.3671824206085148e-07" rms="3.2464817166328430e-01" purity="5.9855979681015015e-01" nType="0">
        <Node pos="l" depth="1" NCoef="0" IVar="-1" Cut="0.0000000000000000e+00" cType="1" res="-1.0597265791147947e-03" rms="2.7633646130561829e-01" purity="8.4798938035964966e-01" nType="-99"/>
        <Node pos="r" depth="1" NCoef="0" IVar="2" Cut="4.0024894475936890e-01" cType="1" res="8.7615271331742406e-04" rms="3.4747868776321411e-01" purity="4.6671533584594727e-01" nType="0">
          <Node pos="l" depth="2" NCoef="0" IVar="-1" Cut="0.0000000000000000e+00" cType="1" res="3.8370885886251926e-03" rms="3.2191970944404602e-01" purity="7.2032874822616577e-01" nType="-99"/>
          <Node pos="r" depth="2" NCoef="0" IVar="-1" Cut="0.0000000000000000e+00" cType="1" res="-8.0196427006740123e-05" rms="3.5083097219467163e-01" purity="4.3187329173088074e-01" nType="-99"/>
        </Node>
      </Node>
    </BinaryTree>
    <BinaryTree type="DecisionTree" boostWeight="1.0000000000000000e+00" itree="303">
      <Node pos="s" depth="0" NCoef="0" IVar="3" Cut="4.6099174022674561e-01" cType="0" res="2.4605895987406257e-07" rms="3.2464572787284851e-01" purity="5.9855979681015015e-01" nType="0">
        <Node pos="l" depth="1" NCoef="0" IVar="-1" Cut="0.0000000000000000e+00" cType="1" res="3.0472758226096630e-03" rms="3.1862184405326843e-01" purity="8.6783891916275024e-01" nType="-99"/>
        <Node pos="r" depth="1" NCoef="0" IVar="3" Cut="4.5749187469482422e-01" cType="0" res="-2.2130816068965942e-04" rms="3.2485139369964600e-01" purity="5.8917593955993652e-01" nType="0">
          <Node pos="l" depth="2" NCoef="0" IVar="-1" Cut="0.0000000000000000e+00" cType="1" res="-1.6188882291316986e-02" rms="3.9161285758018494e-01" purity="7.9881656169891357e-01" nType="-99"/>
          <Node pos="r" depth="2" NCoef="0" IVar="-1" Cut="0.0000000000000000e+00" cType="1" res="-4.1825765947578475e-05" rms="3.2459655404090881e-01" purity="5.8847326040267944e-01" nType="-99"/>
        </Node>
      </Node>
    </BinaryTree>
    <BinaryTree type="DecisionTree" boostWeight="1.0000000000000000e+00" itree="304">
      <Node pos="s" depth="0" NCoef="0" IVar="3" Cut="4.9447298049926758e-01" cType="0" res="3.9131731455199770e-07" rms="3.2464346289634705e-01" purity="5.9855979681015015e-01" nType="0">
        <Node pos="l" depth="1" NCoef="0" IVar="-1" Cut="0.0000000000000000e+00" cType="1" res="-8.6358804255723953e-03" rms="3.3031550049781799e-01" purity="8.5217392444610596e-01" nType="-99"/>
        <Node pos="r" depth="1" NCoef="0" IVar="3" Cut="4.8897045850753784e-01" cType="0" res="7.8646582551300526e-05" rms="3.2461607456207275e-01" purity="5.9744071960449219e-01" nType="0">
          <Node pos="l" depth="2" NCoef="0" IVar="-1" Cut="0.0000000000000000e+00" cType="1" res="1.7090726643800735e-02" rms="2.4844136834144592e-01" purity="9.1189426183700562e-01" nType="-99"/>
          <Node pos="r" depth="2" NCoef="0" IVar="-1" Cut="0.0000000000000000e+00" cType="1" res="-2.6204728783341125e-05" rms="3.2490360736846924e-01" purity="5.9606528282165527e-01" nType="-99"/>
        </Node>
      </Node>
    </BinaryTree>
    <BinaryTree type="DecisionTree" boostWeight="1.0000000000000000e+00" itree="305">
      <Node pos="s" depth="0" NCoef="0" IVar="1" Cut="1.5704647302627563e+00" cType="1" res="5.5241639529413078e-07" rms="3.2464250922203064e-01" purity="5.9855979681015015e-01" nType="0">
        <Node pos="l" depth="1" NCoef="0" IVar="-1" Cut="0.0000000000000000e+00" cType="1" res="-4.7553985496051610e-05" rms="3.2418027520179749e-01" purity="6.0177844762802124e-01" nType="-99"/>
        <Node pos="r" depth="1" NCoef="0" IVar="3" Cut="2.7439603209495544e-01" cType="1" res="1.3368199579417706e-02" rms="3.7995016574859619e-01" purity="1.7839196324348450e-01" nType="0">
          <Node pos="l" depth="2" NCoef="0" IVar="-1" Cut="0.0000000000000000e+00" cType="1" res="1.4912748709321022e-02" rms="3.8393545150756836e-01" purity="1.9117647409439087e-01" nType="-99"/>
          <Node pos="r" depth="2" NCoef="0" IVar="-1" Cut="0.0000000000000000e+00" cType="1" res="-1.4150907285511494e-02" rms="3.6614271998405457e-01" purity="1.5079365670681000e-01" nType="-99"/>
        </Node>
      </Node>
    </BinaryTree>
    <BinaryTree type="DecisionTree" boostWeight="1.0000000000000000e+00" itree="306">
      <Node pos="s" depth="0" NCoef="0" IVar="1" Cut="8.0209892988204956e-01" cType="1" res="2.5651712576291175e-07" rms="3.2463836669921875e-01" purity="5.9855979681015015e-01" nType="0">
        <Node pos="l" depth="1" NCoef="0" IVar="-1" Cut="0.0000000000000000e+00" cType="1" res="1.0793108231155202e-04" rms="3.2496422529220581e-01" purity="6.1697316169738770e-01" nType="-99"/>
        <Node pos="r" depth="1" NCoef="0" IVar="0" Cut="9.3703150749206543e-02" cType="1" res="-6.0020596720278263e-03" rms="3.1601661443710327e-01" purity="1.2133675813674927e-01" nType="0">
          <Node pos="l" depth="2" NCoef="0" IVar="-1" Cut="0.0000000000000000e+00" cType="1" res="-1.7485028132796288e-02" rms="3.9192500710487366e-01" purity="2.0253165066242218e-01" nType="-99"/>
          <Node pos="r" depth="2" NCoef="0" IVar="-1" Cut="0.0000000000000000e+00" cType="1" res="1.3273387448862195e-03" rms="3.0303376913070679e-01" purity="1.1007025837898254e-01" nType="-99"/>
        </Node>
      </Node>
    </BinaryTree>
    <BinaryTree type="DecisionTree" boostWeight="1.0000000000000000e+00" itree="307">
      <Node pos="s" depth="0" NCoef="0" IVar="3" Cut="3.1907123327255249e-01" cType="0" res="-5.2780162462795488e-09" rms="3.2463255524635315e-01" purity="5.9855979681015015e-01" nType="0">
        <Node pos="l" depth="1" NCoef="0" IVar="-1" Cut="0.0000000000000000e+00" cType="1" res="-6.3924776623025537e-04" rms="3.7287873029708862e-01" purity="6.7848116159439087e-01" nType="-99"/>
        <Node pos="r" depth="1" NCoef="0" IVar="0" Cut="1.2743628025054932e-01" cType="1" res="7.5128069147467613e-04" rms="3.0133324861526489e-01" purity="5.6392705440521240e-01" nType="0">
          <Node pos="l" depth="2" NCoef="0" IVar="-1" Cut="0.0000000000000000e+00" cType="1" res="2.3282365873456001e-03" rms="2.8913575410842896e-01" purity="8.8697290420532227e-01" nType="-99"/>
          <Node pos="r" depth="2" NCoef="0" IVar="-1" Cut="0.0000000000000000e+00" cType="1" res="-1.7258869484066963e-03" rms="3.1653076410293579e-01" purity="1.4125007390975952e-01" nType="-99"/>
        </Node>
      </Node>
    </BinaryTree>
    <BinaryTree type="DecisionTree" boostWeight="1.0000000000000000e+00" itree="308">
      <Node pos="s" depth="0" NCoef="0" IVar="2" Cut="2.9222521185874939e-01" cType="1" res="1.3428585532437864e-07" rms="3.2463043928146362e-01" purity="5.9855979681015015e-01" nType="0">
        <Node pos="l" depth="1" NCoef="0" IVar="-1" Cut="0.0000000000000000e+00" cType="1" res="-1.1164591414853930e-03" rms="2.7633064985275269e-01" purity="8.4798938035964966e-01" nType="-99"/>
        <Node pos="r" depth="1" NCoef="0" IVar="1" Cut="1.2493752874433994e-03" cType="1" res="9.2120689805597067e-04" rms="3.4745547175407410e-01" purity="4.6671533584594727e-01" nType="0">
          <Node pos="l" depth="2" NCoef="0" IVar="-1" Cut="0.0000000000000000e+00" cType="1" res="-1.1770656565204263e-03" rms="3.4456434845924377e-01" purity="6.2564313411712646e-01" nType="-99"/>
          <Node pos="r" depth="2" NCoef="0" IVar="-1" Cut="0.0000000000000000e+00" cType="1" res="1.2198211625218391e-03" rms="3.4899735450744629e-01" purity="3.8045045733451843e-01" nType="-99"/>
        </Node>
      </Node>
    </BinaryTree>
    <BinaryTree type="DecisionTree" boostWeight="1.0000000000000000e+00" itree="309">
      <Node pos="s" depth="0" NCoef="0" IVar="1" Cut="4.4977512210607529e-02" cType="1" res="1.5574042322441528e-07" rms="3.2462698221206665e-01" purity="5.9855979681015015e-01" nType="0">
        <Node pos="l" depth="1" NCoef="0" IVar="-1" Cut="0.0000000000000000e+00" cType="1" res="6.2076072208583355e-04" rms="3.0257898569107056e-01" purity="7.4969816207885742e-01" nType="-99"/>
        <Node pos="r" depth="1" NCoef="0" IVar="0" Cut="2.1239380538463593e-01" cType="1" res="-1.2258278438821435e-03" rms="3.4577187895774841e-01" purity="4.4359767436981201e-01" nType="0">
          <Node pos="l" depth="2" NCoef="0" IVar="-1" Cut="0.0000000000000000e+00" cType="1" res="-2.1072621457278728e-03" rms="3.8234999775886536e-01" purity="7.2045725584030151e-01" nType="-99"/>
          <Node pos="r" depth="2" NCoef="0" IVar="-1" Cut="0.0000000000000000e+00" cType="1" res="2.8428423684090376e-03" rms="2.9449677467346191e-01" purity="1.0301095992326736e-01" nType="-99"/>
        </Node>
      </Node>
    </BinaryTree>
    <BinaryTree type="DecisionTree" boostWeight="1.0000000000000000e+00" itree="310">
      <Node pos="s" depth="0" NCoef="0" IVar="0" Cut="6.5842080116271973e-01" cType="1" res="3.1443530446040313e-08" rms="3.2461908459663391e-01" purity="5.9855979681015015e-01" nType="0">
        <Node pos="l" depth="1" NCoef="0" IVar="-1" Cut="0.0000000000000000e+00" cType="1" res="2.0831247093155980e-04" rms="3.3342301845550537e-01" purity="6.7745697498321533e-01" nType="-99"/>
        <Node pos="r" depth="1" NCoef="0" IVar="1" Cut="2.1364317834377289e-01" cType="0" res="-3.1038022134453058e-03" rms="2.5900018215179443e-01" purity="7.7169016003608704e-02" nType="0">
          <Node pos="l" depth="2" NCoef="0" IVar="-1" Cut="0.0000000000000000e+00" cType="1" res="2.7563287876546383e-03" rms="2.7621698379516602e-01" purity="8.9214377105236053e-02" nType="-99"/>
          <Node pos="r" depth="2" NCoef="0" IVar="-1" Cut="0.0000000000000000e+00" cType="1" res="-8.7124314159154892e-03" rms="2.3638062179088593e-01" purity="6.2699936330318451e-02" nType="-99"/>
        </Node>
      </Node>
    </BinaryTree>
    <BinaryTree type="DecisionTree" boostWeight="1.0000000000000000e+00" itree="311">
      <Node pos="s" depth="0" NCoef="0" IVar="1" Cut="8.0209892988204956e-01" cType="1" res="-5.3200011507215095e-07" rms="3.2461702823638916e-01" purity="5.9855979681015015e-01" nType="0">
        <Node pos="l" depth="1" NCoef="0" IVar="-1" Cut="0.0000000000000000e+00" cType="1" res="1.0690090857679024e-04" rms="3.2494968175888062e-01" purity="6.1697316169738770e-01" nType="-99"/>
        <Node pos="r" depth="1" NCoef="0" IVar="0" Cut="1.9165416955947876e+00" cType="0" res="-5.9637208469212055e-03" rms="3.1581464409828186e-01" purity="1.2133675813674927e-01" nType="0">
          <Node pos="l" depth="2" NCoef="0" IVar="-1" Cut="0.0000000000000000e+00" cType="1" res="1.4486703090369701e-02" rms="4.1244876384735107e-01" purity="2.2222222387790680e-01" nType="-99"/>
          <Node pos="r" depth="2" NCoef="0" IVar="-1" Cut="0.0000000000000000e+00" cType="1" res="-8.4077017381787300e-03" rms="2.8927260637283325e-01" purity="9.9121704697608948e-02" nType="-99"/>
        </Node>
      </Node>
    </BinaryTree>
    <BinaryTree type="DecisionTree" boostWeight="1.0000000000000000e+00" itree="312">
      <Node pos="s" depth="0" NCoef="0" IVar="3" Cut="2.4386337399482727e-01" cType="1" res="-9.7952920441457536e-07" rms="3.2461193203926086e-01" purity="5.9855979681015015e-01" nType="0">
        <Node pos="l" depth="1" NCoef="0" IVar="-1" Cut="0.0000000000000000e+00" cType="1" res="-7.4834492988884449e-04" rms="2.7809280157089233e-01" purity="6.4105153083801270e-01" nType="-99"/>
        <Node pos="r" depth="1" NCoef="0" IVar="0" Cut="1.0069965124130249e+00" cType="1" res="1.0991336312144995e-03" rms="3.6129739880561829e-01" purity="5.6042045354843140e-01" nType="0">
          <Node pos="l" depth="2" NCoef="0" IVar="-1" Cut="0.0000000000000000e+00" cType="1" res="2.2666583390673622e-05" rms="3.6267244815826416e-01" purity="5.8233833312988281e-01" nType="-99"/>
          <Node pos="r" depth="2" NCoef="0" IVar="-1" Cut="0.0000000000000000e+00" cType="1" res="1.0669223032891750e-02" rms="3.3338087797164917e-01" purity="1.4254546165466309e-01" nType="-99"/>
        </Node>
      </Node>
    </BinaryTree>
    <BinaryTree type="DecisionTree" boostWeight="1.0000000000000000e+00" itree="313">
      <Node pos="s" depth="0" NCoef="0" IVar="0" Cut="6.5842080116271973e-01" cType="1" res="-1.2658840660151327e-06" rms="3.2460659742355347e-01" purity="5.9855979681015015e-01" nType="0">
        <Node pos="l" depth="1" NCoef="0" IVar="-1" Cut="0.0000000000000000e+00" cType="1" res="2.1862630092073232e-04" rms="3.3341968059539795e-01" purity="6.7745697498321533e-01" nType="-99"/>
        <Node pos="r" depth="1" NCoef="0" IVar="2" Cut="9.1414034366607666e-01" cType="0" res="-3.2667643390595913e-03" rms="2.5890713930130005e-01" purity="7.7169016003608704e-02" nType="0">
          <Node pos="l" depth="2" NCoef="0" IVar="-1" Cut="0.0000000000000000e+00" cType="1" res="-5.3841639310121536e-03" rms="2.5968962907791138e-01" purity="7.9158939421176910e-02" nType="-99"/>
          <Node pos="r" depth="2" NCoef="0" IVar="-1" Cut="0.0000000000000000e+00" cType="1" res="7.1857948787510395e-03" rms="2.5664660334587097e-01" purity="7.2413794696331024e-02" nType="-99"/>
        </Node>
      </Node>
    </BinaryTree>
    <BinaryTree type="DecisionTree" boostWeight="1.0000000000000000e+00" itree="314">
      <Node pos="s" depth="0" NCoef="0" IVar="0" Cut="6.5842080116271973e-01" cType="1" res="-1.6527404795851908e-06" rms="3.2460561394691467e-01" purity="5.9855979681015015e-01" nType="0">
        <Node pos="l" depth="1" NCoef="0" IVar="-1" Cut="0.0000000000000000e+00" cType="1" res="1.9678402168210596e-04" rms="3.3341991901397705e-01" purity="6.7745697498321533e-01" nType="-99"/>
        <Node pos="r" depth="1" NCoef="0" IVar="0" Cut="8.9587765932083130e-01" cType="0" res="-2.9440110083669424e-03" rms="2.5890028476715088e-01" purity="7.7169016003608704e-02" nType="0">
          <Node pos="l" depth="2" NCoef="0" IVar="-1" Cut="0.0000000000000000e+00" cType="1" res="1.5619465848430991e-03" rms="2.7773916721343994e-01" purity="9.0929351747035980e-02" nType="-99"/>
          <Node pos="r" depth="2" NCoef="0" IVar="-1" Cut="0.0000000000000000e+00" cType="1" res="-1.0854871943593025e-02" rms="2.1892361342906952e-01" purity="5.1378447562456131e-02" nType="-99"/>
        </Node>
      </Node>
    </BinaryTree>
    <BinaryTree type="DecisionTree" boostWeight="1.0000000000000000e+00" itree="315">
      <Node pos="s" depth="0" NCoef="0" IVar="3" Cut="3.1907123327255249e-01" cType="0" res="-2.0580437194439583e-06" rms="3.2460328936576843e-01" purity="5.9855979681015015e-01" nType="0">
        <Node pos="l" depth="1" NCoef="0" IVar="-1" Cut="0.0000000000000000e+00" cType="1" res="-6.2058429466560483e-04" rms="3.7285956740379333e-01" purity="6.7848116159439087e-01" nType="-99"/>
        <Node pos="r" depth="1" NCoef="0" IVar="3" Cut="3.1842893362045288e-01" cType="0" res="7.2650623042136431e-04" rms="3.0129849910736084e-01" purity="5.6392705440521240e-01" nType="0">
          <Node pos="l" depth="2" NCoef="0" IVar="-1" Cut="0.0000000000000000e+00" cType="1" res="2.3938894271850586e-02" rms="4.0055945515632629e-01" purity="6.4285713434219360e-01" nType="-99"/>
          <Node pos="r" depth="2" NCoef="0" IVar="-1" Cut="0.0000000000000000e+00" cType="1" res="2.7325234259478748e-04" rms="3.0091899633407593e-01" purity="5.6368428468704224e-01" nType="-99"/>
        </Node>
      </Node>
    </BinaryTree>
    <BinaryTree type="DecisionTree" boostWeight="1.0000000000000000e+00" itree="316">
      <Node pos="s" depth="0" NCoef="0" IVar="3" Cut="2.3611772060394287e-01" cType="1" res="-1.8057559145745472e-06" rms="3.2459923624992371e-01" purity="5.9855979681015015e-01" nType="0">
        <Node pos="l" depth="1" NCoef="0" IVar="-1" Cut="0.0000000000000000e+00" cType="1" res="-7.6801638351753354e-04" rms="2.7657142281532288e-01" purity="6.5614449977874756e-01" nType="-99"/>
        <Node pos="r" depth="1" NCoef="0" IVar="3" Cut="2.3691380023956299e-01" cType="0" res="1.0240215342491865e-03" rms="3.5949414968490601e-01" purity="5.5094563961029053e-01" nType="0">
          <Node pos="l" depth="2" NCoef="0" IVar="-1" Cut="0.0000000000000000e+00" cType="1" res="3.0364899430423975e-04" rms="3.5958805680274963e-01" purity="5.5172657966613770e-01" nType="-99"/>
          <Node pos="r" depth="2" NCoef="0" IVar="-1" Cut="0.0000000000000000e+00" cType="1" res="3.0715724453330040e-02" rms="3.2603934407234192e-01" purity="3.3653846383094788e-01" nType="-99"/>
        </Node>
      </Node>
    </BinaryTree>
    <BinaryTree type="DecisionTree" boostWeight="1.0000000000000000e+00" itree="317">
      <Node pos="s" depth="0" NCoef="0" IVar="0" Cut="2.4987505748867989e-02" cType="1" res="-1.7332705510852975e-06" rms="3.2459375262260437e-01" purity="5.9855979681015015e-01" nType="0">
        <Node pos="l" depth="1" NCoef="0" IVar="-1" Cut="0.0000000000000000e+00" cType="1" res="9.4433804042637348e-04" rms="2.6824614405632019e-01" purity="9.1135811805725098e-01" nType="-99"/>
        <Node pos="r" depth="1" NCoef="0" IVar="2" Cut="2.9222521185874939e-01" cType="1" res="-9.2154828598722816e-04" rms="3.5663235187530518e-01" purity="3.9417004585266113e-01" nType="0">
          <Node pos="l" depth="2" NCoef="0" IVar="-1" Cut="0.0000000000000000e+00" cType="1" res="-4.8592486418783665e-03" rms="3.6273747682571411e-01" purity="5.6955772638320923e-01" nType="-99"/>
          <Node pos="r" depth="2" NCoef="0" IVar="-1" Cut="0.0000000000000000e+00" cType="1" res="3.0884935404174030e-04" rms="3.5569658875465393e-01" purity="3.6846870183944702e-01" nType="-99"/>
        </Node>
      </Node>
    </BinaryTree>
    <BinaryTree type="DecisionTree" boostWeight="1.0000000000000000e+00" itree="318">
      <Node pos="s" depth="0" NCoef="0" IVar="3" Cut="3.1907123327255249e-01" cType="0" res="-1.4341046608024044e-06" rms="3.2458928227424622e-01" purity="5.9855979681015015e-01" nType="0">
        <Node pos="l" depth="1" NCoef="0" IVar="-1" Cut="0.0000000000000000e+00" cType="1" res="-6.3811446307227015e-04" rms="3.7285962700843811e-01" purity="6.7848116159439087e-01" nType="-99"/>
        <Node pos="r" depth="1" NCoef="0" IVar="0" Cut="1.6741628944873810e-01" cType="1" res="7.4782647425308824e-04" rms="3.0127668380737305e-01" purity="5.6392705440521240e-01" nType="0">
          <Node pos="l" depth="2" NCoef="0" IVar="-1" Cut="0.0000000000000000e+00" cType="1" res="2.0068667363375425e-03" rms="3.0140951275825500e-01" purity="8.6572420597076416e-01" nType="-99"/>
          <Node pos="r" depth="2" NCoef="0" IVar="-1" Cut="0.0000000000000000e+00" cType="1" res="-2.0138819236308336e-03" rms="3.0102089047431946e-01" purity="1.1419416218996048e-01" nType="-99"/>
        </Node>
      </Node>
    </BinaryTree>
    <BinaryTree type="DecisionTree" boostWeight="1.0000000000000000e+00" itree="319">
      <Node pos="s" depth="0" NCoef="0" IVar="0" Cut="1.2493752874433994e-03" cType="1" res="-1.2499808690336067e-06" rms="3.2458719611167908e-01" purity="5.9855979681015015e-01" nType="0">
        <Node pos="l" depth="1" NCoef="0" IVar="-1" Cut="0.0000000000000000e+00" cType="1" res="-1.1738663306459785e-03" rms="2.7265352010726929e-01" purity="9.0791207551956177e-01" nType="-99"/>
        <Node pos="r" depth="1" NCoef="0" IVar="0" Cut="1.5932820737361908e-02" cType="1" res="8.6763291619718075e-04" rms="3.4761080145835876e-01" purity="4.4418039917945862e-01" nType="0">
          <Node pos="l" depth="2" NCoef="0" IVar="-1" Cut="0.0000000000000000e+00" cType="1" res="2.3674860596656799e-02" rms="1.8295127153396606e-01" purity="9.5916664600372314e-01" nType="-99"/>
          <Node pos="r" depth="2" NCoef="0" IVar="-1" Cut="0.0000000000000000e+00" cType="1" res="-4.6356035454664379e-05" rms="3.5201361775398254e-01" purity="4.2585620284080505e-01" nType="-99"/>
        </Node>
      </Node>
    </BinaryTree>
    <BinaryTree type="DecisionTree" boostWeight="1.0000000000000000e+00" itree="320">
      <Node pos="s" depth="0" NCoef="0" IVar="2" Cut="1.7608441114425659e+00" cType="1" res="1.4325385677693703e-07" rms="3.2458084821701050e-01" purity="5.9855979681015015e-01" nType="0">
        <Node pos="l" depth="1" NCoef="0" IVar="-1" Cut="0.0000000000000000e+00" cType="1" res="-1.5774740313645452e-04" rms="3.2305508852005005e-01" purity="6.3296103477478027e-01" nType="-99"/>
        <Node pos="r" depth="1" NCoef="0" IVar="0" Cut="4.2478761076927185e-01" cType="1" res="3.8593157660216093e-03" rms="3.4164127707481384e-01" purity="2.0229555666446686e-01" nType="0">
          <Node pos="l" depth="2" NCoef="0" IVar="-1" Cut="0.0000000000000000e+00" cType="1" res="6.5051773563027382e-03" rms="4.3434205651283264e-01" purity="4.1703376173973083e-01" nType="-99"/>
          <Node pos="r" depth="2" NCoef="0" IVar="-1" Cut="0.0000000000000000e+00" cType="1" res="-3.0436585657298565e-03" rms="2.8585821390151978e-01" purity="9.8581559956073761e-02" nType="-99"/>
        </Node>
      </Node>
    </BinaryTree>
    <BinaryTree type="DecisionTree" boostWeight="1.0000000000000000e+00" itree="321">
      <Node pos="s" depth="0" NCoef="0" IVar="3" Cut="4.6274074912071228e-01" cType="0" res="-6.5530925130730111e-10" rms="3.2457637786865234e-01" purity="5.9855979681015015e-01" nType="0">
        <Node pos="l" depth="1" NCoef="0" IVar="-1" Cut="0.0000000000000000e+00" cType="1" res="2.9957497026771307e-03" rms="3.1602305173873901e-01" purity="8.7013763189315796e-01" nType="-99"/>
        <Node pos="r" depth="1" NCoef="0" IVar="3" Cut="4.5991063117980957e-01" cType="0" res="-2.0227633649483323e-04" rms="3.2485255599021912e-01" purity="5.8960598707199097e-01" nType="0">
          <Node pos="l" depth="2" NCoef="0" IVar="-1" Cut="0.0000000000000000e+00" cType="1" res="-1.1002451181411743e-02" rms="3.8236191868782043e-01" purity="8.0000001192092896e-01" nType="-99"/>
          <Node pos="r" depth="2" NCoef="0" IVar="-1" Cut="0.0000000000000000e+00" cType="1" res="-5.4224070481723174e-05" rms="3.2465672492980957e-01" purity="5.8896058797836304e-01" nType="-99"/>
        </Node>
      </Node>
    </BinaryTree>
    <BinaryTree type="DecisionTree" boostWeight="1.0000000000000000e+00" itree="322">
      <Node pos="s" depth="0" NCoef="0" IVar="3" Cut="3.1907123327255249e-01" cType="0" res="9.2338765966815117e-08" rms="3.2457518577575684e-01" purity="5.9855979681015015e-01" nType="0">
        <Node pos="l" depth="1" NCoef="0" IVar="-1" Cut="0.0000000000000000e+00" cType="1" res="-6.2695477390661836e-04" rms="3.7283667922019958e-01" purity="6.7848116159439087e-01" nType="-99"/>
        <Node pos="r" depth="1" NCoef="0" IVar="1" Cut="8.9955024421215057e-02" cType="1" res="7.3682487709447742e-04" rms="3.0126732587814331e-01" purity="5.6392705440521240e-01" nType="0">
          <Node pos="l" depth="2" NCoef="0" IVar="-1" Cut="0.0000000000000000e+00" cType="1" res="2.0963717252016068e-03" rms="2.8542116284370422e-01" purity="7.1707069873809814e-01" nType="-99"/>
          <Node pos="r" depth="2" NCoef="0" IVar="-1" Cut="0.0000000000000000e+00" cType="1" res="-1.7481920076534152e-03" rms="3.2350385189056396e-01" purity="3.3454146981239319e-01" nType="-99"/>
        </Node>
      </Node>
    </BinaryTree>
    <BinaryTree type="DecisionTree" boostWeight="1.0000000000000000e+00" itree="323">
      <Node pos="s" depth="0" NCoef="0" IVar="1" Cut="1.2493752874433994e-03" cType="1" res="1.4287653016253898e-07" rms="3.2457122206687927e-01" purity="5.9855979681015015e-01" nType="0">
        <Node pos="l" depth="1" NCoef="0" IVar="-1" Cut="0.0000000000000000e+00" cType="1" res="-7.2733452543616295e-04" rms="3.0583271384239197e-01" purity="7.4462652206420898e-01" nType="-99"/>
        <Node pos="r" depth="1" NCoef="0" IVar="1" Cut="4.1235275566577911e-02" cType="1" res="9.2303409473970532e-04" rms="3.3630374073982239e-01" purity="5.0265789031982422e-01" nType="0">
          <Node pos="l" depth="2" NCoef="0" IVar="-1" Cut="0.0000000000000000e+00" cType="1" res="5.2812839858233929e-03" rms="2.8667649626731873e-01" purity="7.6980537176132202e-01" nType="-99"/>
          <Node pos="r" depth="2" NCoef="0" IVar="-1" Cut="0.0000000000000000e+00" cType="1" res="-3.3704756060615182e-04" rms="3.4498256444931030e-01" purity="4.5140853524208069e-01" nType="-99"/>
        </Node>
      </Node>
    </BinaryTree>
    <BinaryTree type="DecisionTree" boostWeight="1.0000000000000000e+00" itree="324">
      <Node pos="s" depth="0" NCoef="0" IVar="0" Cut="1.2493752874433994e-03" cType="1" res="3.1453885185328545e-07" rms="3.2456839084625244e-01" purity="5.9855979681015015e-01" nType="0">
        <Node pos="l" depth="1" NCoef="0" IVar="-1" Cut="0.0000000000000000e+00" cType="1" res="-1.0722281876951456e-03" rms="2.7263340353965759e-01" purity="9.0791207551956177e-01" nType="-99"/>
        <Node pos="r" depth="1" NCoef="0" IVar="0" Cut="2.4653216823935509e-02" cType="1" res="7.9546554479748011e-04" rms="3.4759289026260376e-01" purity="4.4418039917945862e-01" nType="0">
          <Node pos="l" depth="2" NCoef="0" IVar="-1" Cut="0.0000000000000000e+00" cType="1" res="1.0914342477917671e-02" rms="2.4153338372707367e-01" purity="9.3065577745437622e-01" nType="-99"/>
          <Node pos="r" depth="2" NCoef="0" IVar="-1" Cut="0.0000000000000000e+00" cType="1" res="-2.8441954054869711e-04" rms="3.5646820068359375e-01" purity="3.9533051848411560e-01" nType="-99"/>
        </Node>
      </Node>
    </BinaryTree>
    <BinaryTree type="DecisionTree" boostWeight="1.0000000000000000e+00" itree="325">
      <Node pos="s" depth="0" NCoef="0" IVar="3" Cut="4.6099174022674561e-01" cType="0" res="1.1343572623445652e-06" rms="3.2456433773040771e-01" purity="5.9855979681015015e-01" nType="0">
        <Node pos="l" depth="1" NCoef="0" IVar="-1" Cut="0.0000000000000000e+00" cType="1" res="2.8287363238632679e-03" rms="3.1855729222297668e-01" purity="8.6783891916275024e-01" nType="-99"/>
        <Node pos="r" depth="1" NCoef="0" IVar="3" Cut="4.5749187469482422e-01" cType="0" res="-2.0365168165881187e-04" rms="3.2476976513862610e-01" purity="5.8917593955993652e-01" nType="0">
          <Node pos="l" depth="2" NCoef="0" IVar="-1" Cut="0.0000000000000000e+00" cType="1" res="-1.3442941009998322e-02" rms="3.9136818051338196e-01" purity="7.9881656169891357e-01" nType="-99"/>
          <Node pos="r" depth="2" NCoef="0" IVar="-1" Cut="0.0000000000000000e+00" cType="1" res="-4.2687654058681801e-05" rms="3.2451775670051575e-01" purity="5.8847326040267944e-01" nType="-99"/>
        </Node>
      </Node>
    </BinaryTree>
    <BinaryTree type="DecisionTree" boostWeight="1.0000000000000000e+00" itree="326">
      <Node pos="s" depth="0" NCoef="0" IVar="2" Cut="2.0455763339996338e+00" cType="1" res="1.1462389011285268e-06" rms="3.2456260919570923e-01" purity="5.9855979681015015e-01" nType="0">
        <Node pos="l" depth="1" NCoef="0" IVar="-1" Cut="0.0000000000000000e+00" cType="1" res="-1.1752654245356098e-04" rms="3.2374143600463867e-01" purity="6.2023001909255981e-01" nType="-99"/>
        <Node pos="r" depth="1" NCoef="0" IVar="3" Cut="2.4936562776565552e-01" cType="0" res="4.7799483872950077e-03" rms="3.3976274728775024e-01" purity="1.8654434382915497e-01" nType="0">
          <Node pos="l" depth="2" NCoef="0" IVar="-1" Cut="0.0000000000000000e+00" cType="1" res="4.6064900234341621e-03" rms="3.5463729500770569e-01" purity="2.0850111544132233e-01" nType="-99"/>
          <Node pos="r" depth="2" NCoef="0" IVar="-1" Cut="0.0000000000000000e+00" cType="1" res="-2.0390139892697334e-02" rms="2.3065420985221863e-01" purity="5.7742781937122345e-02" nType="-99"/>
        </Node>
      </Node>
    </BinaryTree>
    <BinaryTree type="DecisionTree" boostWeight="1.0000000000000000e+00" itree="327">
      <Node pos="s" depth="0" NCoef="0" IVar="3" Cut="3.1907123327255249e-01" cType="0" res="5.5145409305623616e-07" rms="3.2455694675445557e-01" purity="5.9855979681015015e-01" nType="0">
        <Node pos="l" depth="1" NCoef="0" IVar="-1" Cut="0.0000000000000000e+00" cType="1" res="-6.1512907268479466e-04" rms="3.7280830740928650e-01" purity="6.7848116159439087e-01" nType="-99"/>
        <Node pos="r" depth="1" NCoef="0" IVar="3" Cut="3.1842893362045288e-01" cType="0" res="7.2339578764513135e-04" rms="3.0125451087951660e-01" purity="5.6392705440521240e-01" nType="0">
          <Node pos="l" depth="2" NCoef="0" IVar="-1" Cut="0.0000000000000000e+00" cType="1" res="2.1488131955265999e-02" rms="4.0057846903800964e-01" purity="6.4285713434219360e-01" nType="-99"/>
          <Node pos="r" depth="2" NCoef="0" IVar="-1" Cut="0.0000000000000000e+00" cType="1" res="2.8493793797679245e-04" rms="3.0087971687316895e-01" purity="5.6368428468704224e-01" nType="-99"/>
        </Node>
      </Node>
    </BinaryTree>
    <BinaryTree type="DecisionTree" boostWeight="1.0000000000000000e+00" itree="328">
      <Node pos="s" depth="0" NCoef="0" IVar="1" Cut="1.5704647302627563e+00" cType="1" res="5.3585495152219664e-07" rms="3.2455354928970337e-01" purity="5.9855979681015015e-01" nType="0">
        <Node pos="l" depth="1" NCoef="0" IVar="-1" Cut="0.0000000000000000e+00" cType="1" res="-4.4073167373426259e-05" rms="3.2409721612930298e-01" purity="6.0177844762802124e-01" nType="-99"/>
        <Node pos="r" depth="1" NCoef="0" IVar="3" Cut="2.7439603209495544e-01" cType="1" res="1.2354768812656403e-02" rms="3.7923887372016907e-01" purity="1.7839196324348450e-01" nType="0">
          <Node pos="l" depth="2" NCoef="0" IVar="-1" Cut="0.0000000000000000e+00" cType="1" res="1.3356233946979046e-02" rms="3.8334795832633972e-01" purity="1.9117647409439087e-01" nType="-99"/>
          <Node pos="r" depth="2" NCoef="0" IVar="-1" Cut="0.0000000000000000e+00" cType="1" res="-1.2945989146828651e-02" rms="3.6609569191932678e-01" purity="1.5079365670681000e-01" nType="-99"/>
        </Node>
      </Node>
    </BinaryTree>
    <BinaryTree type="DecisionTree" boostWeight="1.0000000000000000e+00" itree="329">
      <Node pos="s" depth="0" NCoef="0" IVar="3" Cut="4.9447298049926758e-01" cType="0" res="2.8774897486982809e-07" rms="3.2455009222030640e-01" purity="5.9855979681015015e-01" nType="0">
        <Node pos="l" depth="1" NCoef="0" IVar="-1" Cut="0.0000000000000000e+00" cType="1" res="-7.8369108960032463e-03" rms="3.3022177219390869e-01" purity="8.5217392444610596e-01" nType="-99"/>
        <Node pos="r" depth="1" NCoef="0" IVar="3" Cut="4.8897045850753784e-01" cType="0" res="7.1932176069822162e-05" rms="3.2452306151390076e-01" purity="5.9744071960449219e-01" nType="0">
          <Node pos="l" depth="2" NCoef="0" IVar="-1" Cut="0.0000000000000000e+00" cType="1" res="1.5647858381271362e-02" rms="2.4851585924625397e-01" purity="9.1189426183700562e-01" nType="-99"/>
          <Node pos="r" depth="2" NCoef="0" IVar="-1" Cut="0.0000000000000000e+00" cType="1" res="-2.2626350983045995e-05" rms="3.2481133937835693e-01" purity="5.9606528282165527e-01" nType="-99"/>
        </Node>
      </Node>
    </BinaryTree>
    <BinaryTree type="DecisionTree" boostWeight="1.0000000000000000e+00" itree="330">
      <Node pos="s" depth="0" NCoef="0" IVar="2" Cut="2.9222521185874939e-01" cType="1" res="4.2408697709106491e-07" rms="3.2454940676689148e-01" purity="5.9855979681015015e-01" nType="0">
        <Node pos="l" depth="1" NCoef="0" IVar="-1" Cut="0.0000000000000000e+00" cType="1" res="-9.4567844644188881e-04" rms="2.7628421783447266e-01" purity="8.4798938035964966e-01" nType="-99"/>
        <Node pos="r" depth="1" NCoef="0" IVar="3" Cut="1.0626529902219772e-01" cType="0" res="7.7969179255887866e-04" rms="3.4736028313636780e-01" purity="4.6671533584594727e-01" nType="0">
          <Node pos="l" depth="2" NCoef="0" IVar="-1" Cut="0.0000000000000000e+00" cType="1" res="2.5881978217512369e-04" rms="3.4739685058593750e-01" purity="4.6767204999923706e-01" nType="-99"/>
          <Node pos="r" depth="2" NCoef="0" IVar="-1" Cut="0.0000000000000000e+00" cType="1" res="3.2267134636640549e-02" rms="3.3087486028671265e-01" purity="1.4000000059604645e-01" nType="-99"/>
        </Node>
      </Node>
    </BinaryTree>
    <BinaryTree type="DecisionTree" boostWeight="1.0000000000000000e+00" itree="331">
      <Node pos="s" depth="0" NCoef="0" IVar="3" Cut="3.1907123327255249e-01" cType="0" res="1.6374413291941892e-07" rms="3.2454532384872437e-01" purity="5.9855979681015015e-01" nType="0">
        <Node pos="l" depth="1" NCoef="0" IVar="-1" Cut="0.0000000000000000e+00" cType="1" res="-5.7294010184705257e-04" rms="3.7280288338661194e-01" purity="6.7848116159439087e-01" nType="-99"/>
        <Node pos="r" depth="1" NCoef="0" IVar="0" Cut="1.2743628025054932e-01" cType="1" res="6.7333743209019303e-04" rms="3.0123981833457947e-01" purity="5.6392705440521240e-01" nType="0">
          <Node pos="l" depth="2" NCoef="0" IVar="-1" Cut="0.0000000000000000e+00" cType="1" res="2.0917176734656096e-03" rms="2.8908604383468628e-01" purity="8.8697290420532227e-01" nType="-99"/>
          <Node pos="r" depth="2" NCoef="0" IVar="-1" Cut="0.0000000000000000e+00" cType="1" res="-1.5475015388801694e-03" rms="3.1639546155929565e-01" purity="1.4125007390975952e-01" nType="-99"/>
        </Node>
      </Node>
    </BinaryTree>
    <BinaryTree type="DecisionTree" boostWeight="1.0000000000000000e+00" itree="332">
      <Node pos="s" depth="0" NCoef="0" IVar="2" Cut="2.9222521185874939e-01" cType="1" res="2.5995967689596000e-07" rms="3.2454380393028259e-01" purity="5.9855979681015015e-01" nType="0">
        <Node pos="l" depth="1" NCoef="0" IVar="-1" Cut="0.0000000000000000e+00" cType="1" res="-1.0193553753197193e-03" rms="2.7628546953201294e-01" purity="8.4798938035964966e-01" nType="-99"/>
        <Node pos="r" depth="1" NCoef="0" IVar="1" Cut="8.7456274777650833e-03" cType="1" res="8.3873677067458630e-04" rms="3.4735131263732910e-01" purity="4.6671533584594727e-01" nType="0">
          <Node pos="l" depth="2" NCoef="0" IVar="-1" Cut="0.0000000000000000e+00" cType="1" res="-1.0990091832354665e-03" rms="3.4403955936431885e-01" purity="6.2599533796310425e-01" nType="-99"/>
          <Node pos="r" depth="2" NCoef="0" IVar="-1" Cut="0.0000000000000000e+00" cType="1" res="1.1644484475255013e-03" rms="3.4920865297317505e-01" purity="3.7594535946846008e-01" nType="-99"/>
        </Node>
      </Node>
    </BinaryTree>
    <BinaryTree type="DecisionTree" boostWeight="1.0000000000000000e+00" itree="333">
      <Node pos="s" depth="0" NCoef="0" IVar="2" Cut="2.9222521185874939e-01" cType="1" res="2.6141722742067941e-07" rms="3.2454076409339905e-01" purity="5.9855979681015015e-01" nType="0">
        <Node pos="l" depth="1" NCoef="0" IVar="-1" Cut="0.0000000000000000e+00" cType="1" res="-9.1631349641829729e-04" rms="2.7628144621849060e-01" purity="8.4798938035964966e-01" nType="-99"/>
        <Node pos="r" depth="1" NCoef="0" IVar="2" Cut="4.8665931820869446e-01" cType="1" res="7.5485766865313053e-04" rms="3.4734925627708435e-01" purity="4.6671533584594727e-01" nType="0">
          <Node pos="l" depth="2" NCoef="0" IVar="-1" Cut="0.0000000000000000e+00" cType="1" res="2.2978154011070728e-03" rms="3.2372066378593445e-01" purity="7.2724020481109619e-01" nType="-99"/>
          <Node pos="r" depth="2" NCoef="0" IVar="-1" Cut="0.0000000000000000e+00" cType="1" res="-2.6255819830112159e-04" rms="3.5465541481971741e-01" purity="3.8231086730957031e-01" nType="-99"/>
        </Node>
      </Node>
    </BinaryTree>
    <BinaryTree type="DecisionTree" boostWeight="1.0000000000000000e+00" itree="334">
      <Node pos="s" depth="0" NCoef="0" IVar="3" Cut="3.1907123327255249e-01" cType="0" res="3.2864508625607414e-07" rms="3.2453882694244385e-01" purity="5.9855979681015015e-01" nType="0">
        <Node pos="l" depth="1" NCoef="0" IVar="-1" Cut="0.0000000000000000e+00" cType="1" res="-5.8774708304554224e-04" rms="3.7279453873634338e-01" purity="6.7848116159439087e-01" nType="-99"/>
        <Node pos="r" depth="1" NCoef="0" IVar="0" Cut="3.3358320593833923e-01" cType="1" res="6.9082411937415600e-04" rms="3.0123412609100342e-01" purity="5.6392705440521240e-01" nType="0">
          <Node pos="l" depth="2" NCoef="0" IVar="-1" Cut="0.0000000000000000e+00" cType="1" res="1.3603771803900599e-03" rms="3.1881350278854370e-01" purity="7.7932256460189819e-01" nType="-99"/>
          <Node pos="r" depth="2" NCoef="0" IVar="-1" Cut="0.0000000000000000e+00" cType="1" res="-3.0530788935720921e-03" rms="2.5662165880203247e-01" purity="7.2826869785785675e-02" nType="-99"/>
        </Node>
      </Node>
    </BinaryTree>
    <BinaryTree type="DecisionTree" boostWeight="1.0000000000000000e+00" itree="335">
      <Node pos="s" depth="0" NCoef="0" IVar="0" Cut="1.0319839715957642e+00" cType="1" res="1.3780649510408693e-07" rms="3.2453662157058716e-01" purity="5.9855979681015015e-01" nType="0">
        <Node pos="l" depth="1" NCoef="0" IVar="-1" Cut="0.0000000000000000e+00" cType="1" res="-1.4327667304314673e-04" rms="3.2708916068077087e-01" purity="6.3455986976623535e-01" nType="-99"/>
        <Node pos="r" depth="1" NCoef="0" IVar="3" Cut="2.7276471257209778e-01" cType="0" res="4.3250434100627899e-03" rms="2.8671860694885254e-01" purity="9.8663635551929474e-02" nType="0">
          <Node pos="l" depth="2" NCoef="0" IVar="-1" Cut="0.0000000000000000e+00" cType="1" res="1.3690393418073654e-02" rms="3.6667603254318237e-01" purity="1.8270571529865265e-01" nType="-99"/>
          <Node pos="r" depth="2" NCoef="0" IVar="-1" Cut="0.0000000000000000e+00" cType="1" res="-1.8239855999127030e-03" rms="2.6190221309661865e-01" purity="7.7142857015132904e-02" nType="-99"/>
        </Node>
      </Node>
    </BinaryTree>
    <BinaryTree type="DecisionTree" boostWeight="1.0000000000000000e+00" itree="336">
      <Node pos="s" depth="0" NCoef="0" IVar="0" Cut="1.2493752874433994e-03" cType="1" res="-2.4531581743758579e-07" rms="3.2453191280364990e-01" purity="5.9855979681015015e-01" nType="0">
        <Node pos="l" depth="1" NCoef="0" IVar="-1" Cut="0.0000000000000000e+00" cType="1" res="-1.0104975663125515e-03" rms="2.7262309193611145e-01" purity="9.0791207551956177e-01" nType="-99"/>
        <Node pos="r" depth="1" NCoef="0" IVar="0" Cut="1.2195507064461708e-02" cType="1" res="7.4953748844563961e-04" rms="3.4754619002342224e-01" purity="4.4418039917945862e-01" nType="0">
          <Node pos="l" depth="2" NCoef="0" IVar="-1" Cut="0.0000000000000000e+00" cType="1" res="3.8904044777154922e-02" rms="1.2178473174571991e-01" purity="9.8249453306198120e-01" nType="-99"/>
          <Node pos="r" depth="2" NCoef="0" IVar="-1" Cut="0.0000000000000000e+00" cType="1" res="8.5312414739746600e-05" rms="3.4952980279922485e-01" purity="4.3704304099082947e-01" nType="-99"/>
        </Node>
      </Node>
    </BinaryTree>
    <BinaryTree type="DecisionTree" boostWeight="1.0000000000000000e+00" itree="337">
      <Node pos="s" depth="0" NCoef="0" IVar="0" Cut="1.0319839715957642e+00" cType="1" res="9.6483586276008282e-07" rms="3.2452622056007385e-01" purity="5.9855979681015015e-01" nType="0">
        <Node pos="l" depth="1" NCoef="0" IVar="-1" Cut="0.0000000000000000e+00" cType="1" res="-1.2787866580765694e-04" rms="3.2708302140235901e-01" purity="6.3455986976623535e-01" nType="-99"/>
        <Node pos="r" depth="1" NCoef="0" IVar="3" Cut="3.3777850866317749e-01" cType="0" res="3.8732409011572599e-03" rms="2.8664740920066833e-01" purity="9.8663635551929474e-02" nType="0">
          <Node pos="l" depth="2" NCoef="0" IVar="-1" Cut="0.0000000000000000e+00" cType="1" res="2.1340999752283096e-02" rms="4.3349942564964294e-01" purity="3.5087719559669495e-01" nType="-99"/>
          <Node pos="r" depth="2" NCoef="0" IVar="-1" Cut="0.0000000000000000e+00" cType="1" res="9.7265711519867182e-04" rms="2.8009268641471863e-01" purity="9.0214513242244720e-02" nType="-99"/>
        </Node>
      </Node>
    </BinaryTree>
    <BinaryTree type="DecisionTree" boostWeight="1.0000000000000000e+00" itree="338">
      <Node pos="s" depth="0" NCoef="0" IVar="3" Cut="4.6099174022674561e-01" cType="0" res="7.3440543246761081e-07" rms="3.2452106475830078e-01" purity="5.9855979681015015e-01" nType="0">
        <Node pos="l" depth="1" NCoef="0" IVar="-1" Cut="0.0000000000000000e+00" cType="1" res="2.6557140517979860e-03" rms="3.1849867105484009e-01" purity="8.6783891916275024e-01" nType="-99"/>
        <Node pos="r" depth="1" NCoef="0" IVar="3" Cut="4.5749187469482422e-01" cType="0" res="-1.9112754671368748e-04" rms="3.2472723722457886e-01" purity="5.8917593955993652e-01" nType="0">
          <Node pos="l" depth="2" NCoef="0" IVar="-1" Cut="0.0000000000000000e+00" cType="1" res="-1.1723434552550316e-02" rms="3.9122784137725830e-01" purity="7.9881656169891357e-01" nType="-99"/>
          <Node pos="r" depth="2" NCoef="0" IVar="-1" Cut="0.0000000000000000e+00" cType="1" res="-4.2765073885675520e-05" rms="3.2447683811187744e-01" purity="5.8847326040267944e-01" nType="-99"/>
        </Node>
      </Node>
    </BinaryTree>
    <BinaryTree type="DecisionTree" boostWeight="1.0000000000000000e+00" itree="339">
      <Node pos="s" depth="0" NCoef="0" IVar="2" Cut="2.9222521185874939e-01" cType="1" res="7.6085825639893301e-07" rms="3.2451963424682617e-01" purity="5.9855979681015015e-01" nType="0">
        <Node pos="l" depth="1" NCoef="0" IVar="-1" Cut="0.0000000000000000e+00" cType="1" res="-8.8488025357946754e-04" rms="2.7627614140510559e-01" purity="8.4798938035964966e-01" nType="-99"/>
        <Node pos="r" depth="1" NCoef="0" IVar="3" Cut="1.0626529902219772e-01" cType="0" res="7.2984374128282070e-04" rms="3.4732145071029663e-01" purity="4.6671533584594727e-01" nType="0">
          <Node pos="l" depth="2" NCoef="0" IVar="-1" Cut="0.0000000000000000e+00" cType="1" res="2.4447764735668898e-04" rms="3.4736141562461853e-01" purity="4.6767204999923706e-01" nType="-99"/>
          <Node pos="r" depth="2" NCoef="0" IVar="-1" Cut="0.0000000000000000e+00" cType="1" res="2.7892336249351501e-02" rms="3.3030319213867188e-01" purity="1.4000000059604645e-01" nType="-99"/>
        </Node>
      </Node>
    </BinaryTree>
    <BinaryTree type="DecisionTree" boostWeight="1.0000000000000000e+00" itree="340">
      <Node pos="s" depth="0" NCoef="0" IVar="3" Cut="3.1907123327255249e-01" cType="0" res="5.2022318186573102e-07" rms="3.2451608777046204e-01" purity="5.9855979681015015e-01" nType="0">
        <Node pos="l" depth="1" NCoef="0" IVar="-1" Cut="0.0000000000000000e+00" cType="1" res="-5.7883374392986298e-04" rms="3.7275719642639160e-01" purity="6.7848116159439087e-01" nType="-99"/>
        <Node pos="r" depth="1" NCoef="0" IVar="1" Cut="1.0244877636432648e-01" cType="1" res="6.8090186687186360e-04" rms="3.0121913552284241e-01" purity="5.6392705440521240e-01" nType="0">
          <Node pos="l" depth="2" NCoef="0" IVar="-1" Cut="0.0000000000000000e+00" cType="1" res="1.8269697902724147e-03" rms="2.8640252351760864e-01" purity="7.1154356002807617e-01" nType="-99"/>
          <Node pos="r" depth="2" NCoef="0" IVar="-1" Cut="0.0000000000000000e+00" cType="1" res="-1.6499686753377318e-03" rms="3.2407292723655701e-01" purity="3.2117000222206116e-01" nType="-99"/>
        </Node>
      </Node>
    </BinaryTree>
    <BinaryTree type="DecisionTree" boostWeight="1.0000000000000000e+00" itree="341">
      <Node pos="s" depth="0" NCoef="0" IVar="2" Cut="1.7608441114425659e+00" cType="1" res="5.1015962299061357e-07" rms="3.2451254129409790e-01" purity="5.9855979681015015e-01" nType="0">
        <Node pos="l" depth="1" NCoef="0" IVar="-1" Cut="0.0000000000000000e+00" cType="1" res="-1.3952127483207732e-04" rms="3.2300397753715515e-01" purity="6.3296103477478027e-01" nType="-99"/>
        <Node pos="r" depth="1" NCoef="0" IVar="0" Cut="1.7116442322731018e-01" cType="1" res="3.4115458838641644e-03" rms="3.4139069914817810e-01" purity="2.0229555666446686e-01" nType="0">
          <Node pos="l" depth="2" NCoef="0" IVar="-1" Cut="0.0000000000000000e+00" cType="1" res="-8.3597404882311821e-03" rms="4.3663200736045837e-01" purity="6.3561075925827026e-01" nType="-99"/>
          <Node pos="r" depth="2" NCoef="0" IVar="-1" Cut="0.0000000000000000e+00" cType="1" res="3.7123926449567080e-03" rms="3.2663798332214355e-01" purity="1.4571505784988403e-01" nType="-99"/>
        </Node>
      </Node>
    </BinaryTree>
    <BinaryTree type="DecisionTree" boostWeight="1.0000000000000000e+00" itree="342">
      <Node pos="s" depth="0" NCoef="0" IVar="3" Cut="4.4250208139419556e-01" cType="0" res="3.9498104342783336e-07" rms="3.2450547814369202e-01" purity="5.9855979681015015e-01" nType="0">
        <Node pos="l" depth="1" NCoef="0" IVar="-1" Cut="0.0000000000000000e+00" cType="1" res="1.9104602979496121e-03" rms="3.2818540930747986e-01" purity="8.5277384519577026e-01" nType="-99"/>
        <Node pos="r" depth="1" NCoef="0" IVar="3" Cut="4.3739905953407288e-01" cType="0" res="-2.3773242719471455e-04" rms="3.2429370284080505e-01" purity="5.8413064479827881e-01" nType="0">
          <Node pos="l" depth="2" NCoef="0" IVar="-1" Cut="0.0000000000000000e+00" cType="1" res="-1.2904943898320198e-02" rms="3.8528516888618469e-01" purity="7.7852350473403931e-01" nType="-99"/>
          <Node pos="r" depth="2" NCoef="0" IVar="-1" Cut="0.0000000000000000e+00" cType="1" res="-1.9832956240861677e-05" rms="3.2387986779212952e-01" purity="5.8295428752899170e-01" nType="-99"/>
        </Node>
      </Node>
    </BinaryTree>
    <BinaryTree type="DecisionTree" boostWeight="1.0000000000000000e+00" itree="343">
      <Node pos="s" depth="0" NCoef="0" IVar="3" Cut="4.8672732710838318e-01" cType="0" res="5.1075181772830547e-07" rms="3.2450333237648010e-01" purity="5.9855979681015015e-01" nType="0">
        <Node pos="l" depth="1" NCoef="0" IVar="-1" Cut="0.0000000000000000e+00" cType="1" res="-5.1406035199761391e-03" rms="3.1095546483993530e-01" purity="8.6452764272689819e-01" nType="-99"/>
        <Node pos="r" depth="1" NCoef="0" IVar="3" Cut="4.8136416077613831e-01" cType="0" res="1.0673164069885388e-04" rms="3.2464534044265747e-01" purity="5.9567892551422119e-01" nType="0">
          <Node pos="l" depth="2" NCoef="0" IVar="-1" Cut="0.0000000000000000e+00" cType="1" res="2.0435588434338570e-02" rms="2.8354036808013916e-01" purity="9.1363638639450073e-01" nType="-99"/>
          <Node pos="r" depth="2" NCoef="0" IVar="-1" Cut="0.0000000000000000e+00" cType="1" res="-2.7749198125093244e-05" rms="3.2479956746101379e-01" purity="5.9432262182235718e-01" nType="-99"/>
        </Node>
      </Node>
    </BinaryTree>
    <BinaryTree type="DecisionTree" boostWeight="1.0000000000000000e+00" itree="344">
      <Node pos="s" depth="0" NCoef="0" IVar="2" Cut="3.0308997631072998e+00" cType="1" res="7.1799058787291870e-07" rms="3.2449945807456970e-01" purity="5.9855979681015015e-01" nType="0">
        <Node pos="l" depth="1" NCoef="0" IVar="-1" Cut="0.0000000000000000e+00" cType="1" res="4.5363329263636842e-05" rms="3.2434055209159851e-01" purity="6.0254877805709839e-01" nType="-99"/>
        <Node pos="r" depth="1" NCoef="0" IVar="0" Cut="7.6633840799331665e-01" cType="1" res="-1.0247712954878807e-02" rms="3.4087848663330078e-01" purity="1.7283950746059418e-01" nType="0">
          <Node pos="l" depth="2" NCoef="0" IVar="-1" Cut="0.0000000000000000e+00" cType="1" res="1.4608644880354404e-02" rms="3.9458891749382019e-01" purity="2.5748503208160400e-01" nType="-99"/>
          <Node pos="r" depth="2" NCoef="0" IVar="-1" Cut="0.0000000000000000e+00" cType="1" res="-1.5334160998463631e-02" rms="3.0561265349388123e-01" purity="1.2852664291858673e-01" nType="-99"/>
        </Node>
      </Node>
    </BinaryTree>
    <BinaryTree type="DecisionTree" boostWeight="1.0000000000000000e+00" itree="345">
      <Node pos="s" depth="0" NCoef="0" IVar="1" Cut="1.2493752874433994e-03" cType="1" res="3.6270569125917973e-07" rms="3.2449537515640259e-01" purity="5.9855979681015015e-01" nType="0">
        <Node pos="l" depth="1" NCoef="0" IVar="-1" Cut="0.0000000000000000e+00" cType="1" res="-6.3195114489644766e-04" rms="3.0577573180198669e-01" purity="7.4462652206420898e-01" nType="-99"/>
        <Node pos="r" depth="1" NCoef="0" IVar="1" Cut="4.1235275566577911e-02" cType="1" res="8.0217816866934299e-04" rms="3.3621725440025330e-01" purity="5.0265789031982422e-01" nType="0">
          <Node pos="l" depth="2" NCoef="0" IVar="-1" Cut="0.0000000000000000e+00" cType="1" res="4.6405526809394360e-03" rms="2.8657680749893188e-01" purity="7.6980537176132202e-01" nType="-99"/>
          <Node pos="r" depth="2" NCoef="0" IVar="-1" Cut="0.0000000000000000e+00" cType="1" res="-2.9740232275798917e-04" rms="3.4490418434143066e-01" purity="4.5140853524208069e-01" nType="-99"/>
        </Node>
      </Node>
    </BinaryTree>
    <BinaryTree type="DecisionTree" boostWeight="1.0000000000000000e+00" itree="346">
      <Node pos="s" depth="0" NCoef="0" IVar="1" Cut="1.5704647302627563e+00" cType="1" res="4.6900481720513199e-07" rms="3.2449337840080261e-01" purity="5.9855979681015015e-01" nType="0">
        <Node pos="l" depth="1" NCoef="0" IVar="-1" Cut="0.0000000000000000e+00" cType="1" res="-3.9685291994828731e-05" rms="3.2403850555419922e-01" purity="6.0177844762802124e-01" nType="-99"/>
        <Node pos="r" depth="1" NCoef="0" IVar="3" Cut="2.7439603209495544e-01" cType="1" res="1.1113130487501621e-02" rms="3.7905088067054749e-01" purity="1.7839196324348450e-01" nType="0">
          <Node pos="l" depth="2" NCoef="0" IVar="-1" Cut="0.0000000000000000e+00" cType="1" res="1.2158533558249474e-02" rms="3.8319188356399536e-01" purity="1.9117647409439087e-01" nType="-99"/>
          <Node pos="r" depth="2" NCoef="0" IVar="-1" Cut="0.0000000000000000e+00" cType="1" res="-1.2412047944962978e-02" rms="3.6635613441467285e-01" purity="1.5079365670681000e-01" nType="-99"/>
        </Node>
      </Node>
    </BinaryTree>
    <BinaryTree type="DecisionTree" boostWeight="1.0000000000000000e+00" itree="347">
      <Node pos="s" depth="0" NCoef="0" IVar="1" Cut="8.0209892988204956e-01" cType="1" res="2.5598978936614003e-07" rms="3.2449030876159668e-01" purity="5.9855979681015015e-01" nType="0">
        <Node pos="l" depth="1" NCoef="0" IVar="-1" Cut="0.0000000000000000e+00" cType="1" res="8.9210174337495118e-05" rms="3.2483568787574768e-01" purity="6.1697316169738770e-01" nType="-99"/>
        <Node pos="r" depth="1" NCoef="0" IVar="0" Cut="6.1219388246536255e-01" cType="0" res="-4.9412338994443417e-03" rms="3.1536680459976196e-01" purity="1.2133675813674927e-01" nType="0">
          <Node pos="l" depth="2" NCoef="0" IVar="-1" Cut="0.0000000000000000e+00" cType="1" res="6.8214284256100655e-03" rms="3.1930312514305115e-01" purity="1.2511499226093292e-01" nType="-99"/>
          <Node pos="r" depth="2" NCoef="0" IVar="-1" Cut="0.0000000000000000e+00" cType="1" res="-1.1820858344435692e-02" rms="3.0888804793357849e-01" purity="1.1655011773109436e-01" nType="-99"/>
        </Node>
      </Node>
    </BinaryTree>
    <BinaryTree type="DecisionTree" boostWeight="1.0000000000000000e+00" itree="348">
      <Node pos="s" depth="0" NCoef="0" IVar="1" Cut="1.3018491268157959e+00" cType="1" res="-2.1875524680581293e-07" rms="3.2448512315750122e-01" purity="5.9855979681015015e-01" nType="0">
        <Node pos="l" depth="1" NCoef="0" IVar="-1" Cut="0.0000000000000000e+00" cType="1" res="5.0799950258806348e-05" rms="3.2422980666160583e-01" purity="6.0432100296020508e-01" nType="-99"/>
        <Node pos="r" depth="1" NCoef="0" IVar="0" Cut="2.1614192426204681e-01" cType="0" res="-8.5988938808441162e-03" rms="3.4399071335792542e-01" purity="1.4241960644721985e-01" nType="0">
          <Node pos="l" depth="2" NCoef="0" IVar="-1" Cut="0.0000000000000000e+00" cType="1" res="4.4758776202797890e-03" rms="3.4265595674514771e-01" purity="1.4545454084873199e-01" nType="-99"/>
          <Node pos="r" depth="2" NCoef="0" IVar="-1" Cut="0.0000000000000000e+00" cType="1" res="-3.0987445265054703e-02" rms="3.3471223711967468e-01" purity="1.2621359527111053e-01" nType="-99"/>
        </Node>
      </Node>
    </BinaryTree>
    <BinaryTree type="DecisionTree" boostWeight="1.0000000000000000e+00" itree="349">
      <Node pos="s" depth="0" NCoef="0" IVar="0" Cut="6.5842080116271973e-01" cType="1" res="-5.4535962590307463e-07" rms="3.2447758316993713e-01" purity="5.9855979681015015e-01" nType="0">
        <Node pos="l" depth="1" NCoef="0" IVar="-1" Cut="0.0000000000000000e+00" cType="1" res="1.6683377907611430e-04" rms="3.3330747485160828e-01" purity="6.7745697498321533e-01" nType="-99"/>
        <Node pos="r" depth="1" NCoef="0" IVar="1" Cut="2.1364317834377289e-01" cType="0" res="-2.4813816417008638e-03" rms="2.5864142179489136e-01" purity="7.7169016003608704e-02" nType="0">
          <Node pos="l" depth="2" NCoef="0" IVar="-1" Cut="0.0000000000000000e+00" cType="1" res="2.5922202039510012e-03" rms="2.7585265040397644e-01" purity="8.9214377105236053e-02" nType="-99"/>
          <Node pos="r" depth="2" NCoef="0" IVar="-1" Cut="0.0000000000000000e+00" cType="1" res="-7.6419892720878124e-03" rms="2.3609282076358795e-01" purity="6.2699936330318451e-02" nType="-99"/>
        </Node>
      </Node>
    </BinaryTree>
    <BinaryTree type="DecisionTree" boostWeight="1.0000000000000000e+00" itree="350">
      <Node pos="s" depth="0" NCoef="0" IVar="3" Cut="2.1462975442409515e-01" cType="1" res="-9.2099207904539071e-07" rms="3.2447615265846252e-01" purity="5.9855979681015015e-01" nType="0">
        <Node pos="l" depth="1" NCoef="0" IVar="-1" Cut="0.0000000000000000e+00" cType="1" res="-7.4954057345166802e-04" rms="2.7273482084274292e-01" purity="6.9912135601043701e-01" nType="-99"/>
        <Node pos="r" depth="1" NCoef="0" IVar="3" Cut="2.1648526191711426e-01" cType="0" res="7.8114547068253160e-04" rms="3.5506361722946167e-01" purity="5.3091150522232056e-01" nType="0">
          <Node pos="l" depth="2" NCoef="0" IVar="-1" Cut="0.0000000000000000e+00" cType="1" res="1.6375261475332081e-04" rms="3.5544803738594055e-01" purity="5.3187930583953857e-01" nType="-99"/>
          <Node pos="r" depth="2" NCoef="0" IVar="-1" Cut="0.0000000000000000e+00" cType="1" res="2.5339206680655479e-02" rms="2.8865495324134827e-01" purity="3.8967135548591614e-01" nType="-99"/>
        </Node>
      </Node>
    </BinaryTree>
    <BinaryTree type="DecisionTree" boostWeight="1.0000000000000000e+00" itree="351">
      <Node pos="s" depth="0" NCoef="0" IVar="3" Cut="4.8397886753082275e-01" cType="0" res="-9.2786137884104392e-07" rms="3.2447063922882080e-01" purity="5.9855979681015015e-01" nType="0">
        <Node pos="l" depth="1" NCoef="0" IVar="-1" Cut="0.0000000000000000e+00" cType="1" res="-4.3565710075199604e-03" rms="3.1500300765037537e-01" purity="8.6547082662582397e-01" nType="-99"/>
        <Node pos="r" depth="1" NCoef="0" IVar="3" Cut="4.8131686449050903e-01" cType="0" res="1.0697505786083639e-04" rms="3.2458996772766113e-01" purity="5.9510499238967896e-01" nType="0">
          <Node pos="l" depth="2" NCoef="0" IVar="-1" Cut="0.0000000000000000e+00" cType="1" res="3.6487873643636703e-02" rms="2.2968615591526031e-01" purity="9.4736844301223755e-01" nType="-99"/>
          <Node pos="r" depth="2" NCoef="0" IVar="-1" Cut="0.0000000000000000e+00" cType="1" res="-1.8587434169603512e-05" rms="3.2475402951240540e-01" purity="5.9432625770568848e-01" nType="-99"/>
        </Node>
      </Node>
    </BinaryTree>
    <BinaryTree type="DecisionTree" boostWeight="1.0000000000000000e+00" itree="352">
      <Node pos="s" depth="0" NCoef="0" IVar="3" Cut="3.1907123327255249e-01" cType="0" res="-4.4911720920026710e-07" rms="3.2446607947349548e-01" purity="5.9855979681015015e-01" nType="0">
        <Node pos="l" depth="1" NCoef="0" IVar="-1" Cut="0.0000000000000000e+00" cType="1" res="-5.3269928321242332e-04" rms="3.7268817424774170e-01" purity="6.7848116159439087e-01" nType="-99"/>
        <Node pos="r" depth="1" NCoef="0" IVar="0" Cut="1.2743628025054932e-01" cType="1" res="6.2520441133528948e-04" rms="3.0117931962013245e-01" purity="5.6392705440521240e-01" nType="0">
          <Node pos="l" depth="2" NCoef="0" IVar="-1" Cut="0.0000000000000000e+00" cType="1" res="1.9640005193650723e-03" rms="2.8902605175971985e-01" purity="8.8697290420532227e-01" nType="-99"/>
          <Node pos="r" depth="2" NCoef="0" IVar="-1" Cut="0.0000000000000000e+00" cType="1" res="-1.4590629143640399e-03" rms="3.1633928418159485e-01" purity="1.4125007390975952e-01" nType="-99"/>
        </Node>
      </Node>
    </BinaryTree>
    <BinaryTree type="DecisionTree" boostWeight="1.0000000000000000e+00" itree="353">
      <Node pos="s" depth="0" NCoef="0" IVar="2" Cut="2.9222521185874939e-01" cType="1" res="-3.0580724796891445e-07" rms="3.2446479797363281e-01" purity="5.9855979681015015e-01" nType="0">
        <Node pos="l" depth="1" NCoef="0" IVar="-1" Cut="0.0000000000000000e+00" cType="1" res="-9.2962762573733926e-04" rms="2.7625238895416260e-01" purity="8.4798938035964966e-01" nType="-99"/>
        <Node pos="r" depth="1" NCoef="0" IVar="0" Cut="1.2493752874433994e-03" cType="1" res="7.6306570554152131e-04" rms="3.4725293517112732e-01" purity="4.6671533584594727e-01" nType="0">
          <Node pos="l" depth="2" NCoef="0" IVar="-1" Cut="0.0000000000000000e+00" cType="1" res="-2.5361785665154457e-03" rms="3.3310317993164062e-01" purity="8.5355651378631592e-01" nType="-99"/>
          <Node pos="r" depth="2" NCoef="0" IVar="-1" Cut="0.0000000000000000e+00" cType="1" res="6.9052178878337145e-04" rms="3.4935545921325684e-01" purity="4.0758693218231201e-01" nType="-99"/>
        </Node>
      </Node>
    </BinaryTree>
    <BinaryTree type="DecisionTree" boostWeight="1.0000000000000000e+00" itree="354">
      <Node pos="s" depth="0" NCoef="0" IVar="3" Cut="4.4250208139419556e-01" cType="0" res="-1.7812514840898075e-07" rms="3.2446166872978210e-01" purity="5.9855979681015015e-01" nType="0">
        <Node pos="l" depth="1" NCoef="0" IVar="-1" Cut="0.0000000000000000e+00" cType="1" res="1.9286371534690261e-03" rms="3.2799118757247925e-01" purity="8.5277384519577026e-01" nType="-99"/>
        <Node pos="r" depth="1" NCoef="0" IVar="3" Cut="4.3739905953407288e-01" cType="0" res="-2.4042134464252740e-04" rms="3.2425853610038757e-01" purity="5.8413064479827881e-01" nType="0">
          <Node pos="l" depth="2" NCoef="0" IVar="-1" Cut="0.0000000000000000e+00" cType="1" res="-1.1195562779903412e-02" rms="3.8523530960083008e-01" purity="7.7852350473403931e-01" nType="-99"/>
          <Node pos="r" depth="2" NCoef="0" IVar="-1" Cut="0.0000000000000000e+00" cType="1" res="-3.2103347621159628e-05" rms="3.2384696602821350e-01" purity="5.8295428752899170e-01" nType="-99"/>
        </Node>
      </Node>
    </BinaryTree>
    <BinaryTree type="DecisionTree" boostWeight="1.0000000000000000e+00" itree="355">
      <Node pos="s" depth="0" NCoef="0" IVar="3" Cut="2.4386337399482727e-01" cType="1" res="-3.5492544014914529e-08" rms="3.2445994019508362e-01" purity="5.9855979681015015e-01" nType="0">
        <Node pos="l" depth="1" NCoef="0" IVar="-1" Cut="0.0000000000000000e+00" cType="1" res="-6.1677687335759401e-04" rms="2.7795058488845825e-01" purity="6.4105153083801270e-01" nType="-99"/>
        <Node pos="r" depth="1" NCoef="0" IVar="0" Cut="1.5367315709590912e-01" cType="1" res="9.0174633078277111e-04" rms="3.6113771796226501e-01" purity="5.6042045354843140e-01" nType="0">
          <Node pos="l" depth="2" NCoef="0" IVar="-1" Cut="0.0000000000000000e+00" cType="1" res="-1.0188337182626128e-03" rms="3.6098143458366394e-01" purity="8.0359488725662231e-01" nType="-99"/>
          <Node pos="r" depth="2" NCoef="0" IVar="-1" Cut="0.0000000000000000e+00" cType="1" res="2.4779718369245529e-03" rms="3.6131051182746887e-01" purity="1.8489487469196320e-01" nType="-99"/>
        </Node>
      </Node>
    </BinaryTree>
    <BinaryTree type="DecisionTree" boostWeight="1.0000000000000000e+00" itree="356">
      <Node pos="s" depth="0" NCoef="0" IVar="0" Cut="4.8725638538599014e-02" cType="1" res="-1.5151694299220253e-07" rms="3.2445371150970459e-01" purity="5.9855979681015015e-01" nType="0">
        <Node pos="l" depth="1" NCoef="0" IVar="-1" Cut="0.0000000000000000e+00" cType="1" res="6.6253496333956718e-04" rms="2.7764382958412170e-01" purity="9.0368217229843140e-01" nType="-99"/>
        <Node pos="r" depth="1" NCoef="0" IVar="3" Cut="1.6347642987966537e-02" cType="1" res="-9.6782122272998095e-04" rms="3.6223331093788147e-01" purity="3.1768158078193665e-01" nType="0">
          <Node pos="l" depth="2" NCoef="0" IVar="-1" Cut="0.0000000000000000e+00" cType="1" res="2.2141521796584129e-02" rms="4.0473863482475281e-01" purity="4.9275362491607666e-01" nType="-99"/>
          <Node pos="r" depth="2" NCoef="0" IVar="-1" Cut="0.0000000000000000e+00" cType="1" res="-5.1286944653838873e-04" rms="3.6196359992027283e-01" purity="3.1679078936576843e-01" nType="-99"/>
        </Node>
      </Node>
    </BinaryTree>
    <BinaryTree type="DecisionTree" boostWeight="1.0000000000000000e+00" itree="357">
      <Node pos="s" depth="0" NCoef="0" IVar="2" Cut="3.0308997631072998e+00" cType="1" res="-1.6203618713461765e-07" rms="3.2444977760314941e-01" purity="5.9855979681015015e-01" nType="0">
        <Node pos="l" depth="1" NCoef="0" IVar="-1" Cut="0.0000000000000000e+00" cType="1" res="4.3585117964539677e-05" rms="3.2429403066635132e-01" purity="6.0254877805709839e-01" nType="-99"/>
        <Node pos="r" depth="1" NCoef="0" IVar="3" Cut="3.4792906045913696e-01" cType="0" res="-9.9342456087470055e-03" rms="3.4051650762557983e-01" purity="1.7283950746059418e-01" nType="0">
          <Node pos="l" depth="2" NCoef="0" IVar="-1" Cut="0.0000000000000000e+00" cType="1" res="1.4627105556428432e-02" rms="4.2695114016532898e-01" purity="3.7735849618911743e-01" nType="-99"/>
          <Node pos="r" depth="2" NCoef="0" IVar="-1" Cut="0.0000000000000000e+00" cType="1" res="-1.2460052035748959e-02" rms="3.0979967117309570e-01" purity="1.1578947305679321e-01" nType="-99"/>
        </Node>
      </Node>
    </BinaryTree>
    <BinaryTree type="DecisionTree" boostWeight="1.0000000000000000e+00" itree="358">
      <Node pos="s" depth="0" NCoef="0" IVar="3" Cut="4.2751049995422363e-01" cType="0" res="-3.5105247775391035e-07" rms="3.2444521784782410e-01" purity="5.9855979681015015e-01" nType="0">
        <Node pos="l" depth="1" NCoef="0" IVar="-1" Cut="0.0000000000000000e+00" cType="1" res="1.5109877567738295e-03" rms="3.3584070205688477e-01" purity="8.4197926521301270e-01" nType="-99"/>
        <Node pos="r" depth="1" NCoef="0" IVar="3" Cut="4.2622524499893188e-01" cType="0" res="-2.6656381669454277e-04" rms="3.2354548573493958e-01" purity="5.7973045110702515e-01" nType="0">
          <Node pos="l" depth="2" NCoef="0" IVar="-1" Cut="0.0000000000000000e+00" cType="1" res="-4.0070045739412308e-02" rms="4.1402858495712280e-01" purity="6.8000000715255737e-01" nType="-99"/>
          <Node pos="r" depth="2" NCoef="0" IVar="-1" Cut="0.0000000000000000e+00" cType="1" res="-2.4728304197196849e-05" rms="3.2329830527305603e-01" purity="5.7952368259429932e-01" nType="-99"/>
        </Node>
      </Node>
    </BinaryTree>
    <BinaryTree type="DecisionTree" boostWeight="1.0000000000000000e+00" itree="359">
      <Node pos="s" depth="0" NCoef="0" IVar="2" Cut="2.9222521185874939e-01" cType="1" res="8.5820111905832164e-08" rms="3.2443788647651672e-01" purity="5.9855979681015015e-01" nType="0">
        <Node pos="l" depth="1" NCoef="0" IVar="-1" Cut="0.0000000000000000e+00" cType="1" res="-8.4360077744349837e-04" rms="2.7622824907302856e-01" purity="8.4798938035964966e-01" nType="-99"/>
        <Node pos="r" depth="1" NCoef="0" IVar="1" Cut="8.7456274777650833e-03" cType="1" res="6.9381057983264327e-04" rms="3.4722506999969482e-01" purity="4.6671533584594727e-01" nType="0">
          <Node pos="l" depth="2" NCoef="0" IVar="-1" Cut="0.0000000000000000e+00" cType="1" res="-1.0194174246862531e-03" rms="3.4395068883895874e-01" purity="6.2599533796310425e-01" nType="-99"/>
          <Node pos="r" depth="2" NCoef="0" IVar="-1" Cut="0.0000000000000000e+00" cType="1" res="1.0269619524478912e-03" rms="3.4906432032585144e-01" purity="3.7594535946846008e-01" nType="-99"/>
        </Node>
      </Node>
    </BinaryTree>
    <BinaryTree type="DecisionTree" boostWeight="1.0000000000000000e+00" itree="360">
      <Node pos="s" depth="0" NCoef="0" IVar="0" Cut="4.8725638538599014e-02" cType="1" res="9.7614716310090444e-08" rms="3.2443553209304810e-01" purity="5.9855979681015015e-01" nType="0">
        <Node pos="l" depth="1" NCoef="0" IVar="-1" Cut="0.0000000000000000e+00" cType="1" res="6.1888131313025951e-04" rms="2.7763360738754272e-01" purity="9.0368217229843140e-01" nType="-99"/>
        <Node pos="r" depth="1" NCoef="0" IVar="2" Cut="3.4092938899993896e-01" cType="1" res="-9.0316665591672063e-04" rms="3.6220955848693848e-01" purity="3.1768158078193665e-01" nType="0">
          <Node pos="l" depth="2" NCoef="0" IVar="-1" Cut="0.0000000000000000e+00" cType="1" res="-5.1829554140567780e-03" rms="3.8358563184738159e-01" purity="4.3992137908935547e-01" nType="-99"/>
          <Node pos="r" depth="2" NCoef="0" IVar="-1" Cut="0.0000000000000000e+00" cType="1" res="4.6097807353362441e-04" rms="3.5883924365043640e-01" purity="2.9930797219276428e-01" nType="-99"/>
        </Node>
      </Node>
    </BinaryTree>
    <BinaryTree type="DecisionTree" boostWeight="1.0000000000000000e+00" itree="361">
      <Node pos="s" depth="0" NCoef="0" IVar="2" Cut="5.3574621677398682e-01" cType="1" res="1.2354908562883793e-07" rms="3.2443097233772278e-01" purity="5.9855979681015015e-01" nType="0">
        <Node pos="l" depth="1" NCoef="0" IVar="-1" Cut="0.0000000000000000e+00" cType="1" res="5.0786003703251481e-04" rms="2.9473683238029480e-01" purity="7.9944181442260742e-01" nType="-99"/>
        <Node pos="r" depth="1" NCoef="0" IVar="2" Cut="5.4270935058593750e-01" cType="0" res="-1.0468550026416779e-03" rms="3.5539513826370239e-01" purity="3.6854180693626404e-01" nType="0">
          <Node pos="l" depth="2" NCoef="0" IVar="-1" Cut="0.0000000000000000e+00" cType="1" res="-2.6561931008473039e-04" rms="3.5559850931167603e-01" purity="3.6859238147735596e-01" nType="-99"/>
          <Node pos="r" depth="2" NCoef="0" IVar="-1" Cut="0.0000000000000000e+00" cType="1" res="-2.5736331939697266e-02" rms="3.1095272302627563e-01" purity="3.5971224308013916e-01" nType="-99"/>
        </Node>
      </Node>
    </BinaryTree>
    <BinaryTree type="DecisionTree" boostWeight="1.0000000000000000e+00" itree="362">
      <Node pos="s" depth="0" NCoef="0" IVar="3" Cut="3.1907123327255249e-01" cType="0" res="9.6477933198002574e-08" rms="3.2442665100097656e-01" purity="5.9855979681015015e-01" nType="0">
        <Node pos="l" depth="1" NCoef="0" IVar="-1" Cut="0.0000000000000000e+00" cType="1" res="-5.4235698189586401e-04" rms="3.7263283133506775e-01" purity="6.7848116159439087e-01" nType="-99"/>
        <Node pos="r" depth="1" NCoef="0" IVar="0" Cut="1.6741628944873810e-01" cType="1" res="6.3819694332778454e-04" rms="3.0114802718162537e-01" purity="5.6392705440521240e-01" nType="0">
          <Node pos="l" depth="2" NCoef="0" IVar="-1" Cut="0.0000000000000000e+00" cType="1" res="1.6877015586942434e-03" rms="3.0129364132881165e-01" purity="8.6572420597076416e-01" nType="-99"/>
          <Node pos="r" depth="2" NCoef="0" IVar="-1" Cut="0.0000000000000000e+00" cType="1" res="-1.6770673682913184e-03" rms="3.0089095234870911e-01" purity="1.1419416218996048e-01" nType="-99"/>
        </Node>
      </Node>
    </BinaryTree>
    <BinaryTree type="DecisionTree" boostWeight="1.0000000000000000e+00" itree="363">
      <Node pos="s" depth="0" NCoef="0" IVar="0" Cut="1.2493752874433994e-03" cType="1" res="1.1817083844789522e-07" rms="3.2442536950111389e-01" purity="5.9855979681015015e-01" nType="0">
        <Node pos="l" depth="1" NCoef="0" IVar="-1" Cut="0.0000000000000000e+00" cType="1" res="-9.5899030566215515e-04" rms="2.7253788709640503e-01" purity="9.0791207551956177e-01" nType="-99"/>
        <Node pos="r" depth="1" NCoef="0" IVar="0" Cut="1.2195507064461708e-02" cType="1" res="7.1130372816696763e-04" rms="3.4743061661720276e-01" purity="4.4418039917945862e-01" nType="0">
          <Node pos="l" depth="2" NCoef="0" IVar="-1" Cut="0.0000000000000000e+00" cType="1" res="3.7483379244804382e-02" rms="1.2162964791059494e-01" purity="9.8249453306198120e-01" nType="-99"/>
          <Node pos="r" depth="2" NCoef="0" IVar="-1" Cut="0.0000000000000000e+00" cType="1" res="9.1718851763289422e-05" rms="3.4942010045051575e-01" purity="4.3704304099082947e-01" nType="-99"/>
        </Node>
      </Node>
    </BinaryTree>
    <BinaryTree type="DecisionTree" boostWeight="1.0000000000000000e+00" itree="364">
      <Node pos="s" depth="0" NCoef="0" IVar="0" Cut="1.0319839715957642e+00" cType="1" res="1.1463099554021028e-06" rms="3.2442072033882141e-01" purity="5.9855979681015015e-01" nType="0">
        <Node pos="l" depth="1" NCoef="0" IVar="-1" Cut="0.0000000000000000e+00" cType="1" res="-1.1605837062234059e-04" rms="3.2698452472686768e-01" purity="6.3455986976623535e-01" nType="-99"/>
        <Node pos="r" depth="1" NCoef="0" IVar="3" Cut="2.7276471257209778e-01" cType="0" res="3.5150456242263317e-03" rms="2.8643482923507690e-01" purity="9.8663635551929474e-02" nType="0">
          <Node pos="l" depth="2" NCoef="0" IVar="-1" Cut="0.0000000000000000e+00" cType="1" res="1.1794466525316238e-02" rms="3.6616456508636475e-01" purity="1.8270571529865265e-01" nType="-99"/>
          <Node pos="r" depth="2" NCoef="0" IVar="-1" Cut="0.0000000000000000e+00" cType="1" res="-1.8432053038850427e-03" rms="2.6179185509681702e-01" purity="7.7142857015132904e-02" nType="-99"/>
        </Node>
      </Node>
    </BinaryTree>
    <BinaryTree type="DecisionTree" boostWeight="1.0000000000000000e+00" itree="365">
      <Node pos="s" depth="0" NCoef="0" IVar="2" Cut="3.0308997631072998e+00" cType="1" res="7.5163529800192919e-07" rms="3.2441714406013489e-01" purity="5.9855979681015015e-01" nType="0">
        <Node pos="l" depth="1" NCoef="0" IVar="-1" Cut="0.0000000000000000e+00" cType="1" res="4.4211104977875948e-05" rms="3.2426548004150391e-01" purity="6.0254877805709839e-01" nType="-99"/>
        <Node pos="r" depth="1" NCoef="0" IVar="0" Cut="7.6633840799331665e-01" cType="1" res="-9.9688423797488213e-03" rms="3.4006851911544800e-01" purity="1.7283950746059418e-01" nType="0">
          <Node pos="l" depth="2" NCoef="0" IVar="-1" Cut="0.0000000000000000e+00" cType="1" res="1.2610134668648243e-02" rms="3.9378538727760315e-01" purity="2.5748503208160400e-01" nType="-99"/>
          <Node pos="r" depth="2" NCoef="0" IVar="-1" Cut="0.0000000000000000e+00" cType="1" res="-1.4299991540610790e-02" rms="3.0548441410064697e-01" purity="1.2852664291858673e-01" nType="-99"/>
        </Node>
      </Node>
    </BinaryTree>
    <BinaryTree type="DecisionTree" boostWeight="1.0000000000000000e+00" itree="366">
      <Node pos="s" depth="0" NCoef="0" IVar="2" Cut="3.7989275455474854e+00" cType="1" res="4.4489311790130159e-07" rms="3.2441389560699463e-01" purity="5.9855979681015015e-01" nType="0">
        <Node pos="l" depth="1" NCoef="0" IVar="2" Cut="3.4397087097167969e+00" cType="1" res="-4.6940978791099042e-05" rms="3.2422748208045959e-01" purity="5.9950596094131470e-01" nType="0">
          <Node pos="l" depth="2" NCoef="0" IVar="-1" Cut="0.0000000000000000e+00" cType="1" res="1.9083005099673755e-05" rms="3.2423120737075806e-01" purity="6.0032230615615845e-01" nType="-99"/>
          <Node pos="r" depth="2" NCoef="0" IVar="-1" Cut="0.0000000000000000e+00" cType="1" res="-1.5759250149130821e-02" rms="3.1912192702293396e-01" purity="1.7821782827377319e-01" nType="-99"/>
        </Node>
        <Node pos="r" depth="1" NCoef="0" IVar="-1" Cut="0.0000000000000000e+00" cType="1" res="6.7821303382515907e-03" rms="3.9125886559486389e-01" purity="2.2137404978275299e-01" nType="-99"/>
      </Node>
    </BinaryTree>
    <BinaryTree type="DecisionTree" boostWeight="1.0000000000000000e+00" itree="367">
      <Node pos="s" depth="0" NCoef="0" IVar="3" Cut="4.1251888871192932e-01" cType="0" res="3.2406970262854884e-07" rms="3.2441273331642151e-01" purity="5.9855979681015015e-01" nType="0">
        <Node pos="l" depth="1" NCoef="0" IVar="-1" Cut="0.0000000000000000e+00" cType="1" res="1.2417477555572987e-03" rms="3.4232389926910400e-01" purity="8.2630831003189087e-01" nType="-99"/>
        <Node pos="r" depth="1" NCoef="0" IVar="3" Cut="4.1106268763542175e-01" cType="0" res="-3.0180660542100668e-04" rms="3.2250037789344788e-01" purity="5.7498472929000854e-01" nType="0">
          <Node pos="l" depth="2" NCoef="0" IVar="-1" Cut="0.0000000000000000e+00" cType="1" res="-3.3300504088401794e-02" rms="4.0387332439422607e-01" purity="6.6972476243972778e-01" nType="-99"/>
          <Node pos="r" depth="2" NCoef="0" IVar="-1" Cut="0.0000000000000000e+00" cType="1" res="-4.7953166358638555e-05" rms="3.2226207852363586e-01" purity="5.7476657629013062e-01" nType="-99"/>
        </Node>
      </Node>
    </BinaryTree>
    <BinaryTree type="DecisionTree" boostWeight="1.0000000000000000e+00" itree="368">
      <Node pos="s" depth="0" NCoef="0" IVar="0" Cut="1.2493752874433994e-03" cType="1" res="5.5384873576258542e-07" rms="3.2440644502639771e-01" purity="5.9855979681015015e-01" nType="0">
        <Node pos="l" depth="1" NCoef="0" IVar="-1" Cut="0.0000000000000000e+00" cType="1" res="-8.8128272909671068e-04" rms="2.7252393960952759e-01" purity="9.0791207551956177e-01" nType="-99"/>
        <Node pos="r" depth="1" NCoef="0" IVar="0" Cut="2.4653216823935509e-02" cType="1" res="6.5509363776072860e-04" rms="3.4740993380546570e-01" purity="4.4418039917945862e-01" nType="0">
          <Node pos="l" depth="2" NCoef="0" IVar="-1" Cut="0.0000000000000000e+00" cType="1" res="9.2456899583339691e-03" rms="2.4138966202735901e-01" purity="9.3065577745437622e-01" nType="-99"/>
          <Node pos="r" depth="2" NCoef="0" IVar="-1" Cut="0.0000000000000000e+00" cType="1" res="-2.3246821365319192e-04" rms="3.5629335045814514e-01" purity="3.9533051848411560e-01" nType="-99"/>
        </Node>
      </Node>
    </BinaryTree>
    <BinaryTree type="DecisionTree" boostWeight="1.0000000000000000e+00" itree="369">
      <Node pos="s" depth="0" NCoef="0" IVar="3" Cut="3.1907123327255249e-01" cType="0" res="1.0922032060989295e-06" rms="3.2440406084060669e-01" purity="5.9855979681015015e-01" nType="0">
        <Node pos="l" depth="1" NCoef="0" IVar="-1" Cut="0.0000000000000000e+00" cType="1" res="-5.2835192764177918e-04" rms="3.7258604168891907e-01" purity="6.7848116159439087e-01" nType="-99"/>
        <Node pos="r" depth="1" NCoef="0" IVar="1" Cut="2.8610694408416748e-01" cType="1" res="6.2295247334986925e-04" rms="3.0113834142684937e-01" purity="5.6392705440521240e-01" nType="0">
          <Node pos="l" depth="2" NCoef="0" IVar="-1" Cut="0.0000000000000000e+00" cType="1" res="1.1047946754842997e-03" rms="2.9686659574508667e-01" purity="6.5109157562255859e-01" nType="-99"/>
          <Node pos="r" depth="2" NCoef="0" IVar="-1" Cut="0.0000000000000000e+00" cType="1" res="-2.7153645642101765e-03" rms="3.1907120347023010e-01" purity="1.8282100558280945e-01" nType="-99"/>
        </Node>
      </Node>
    </BinaryTree>
    <BinaryTree type="DecisionTree" boostWeight="1.0000000000000000e+00" itree="370">
      <Node pos="s" depth="0" NCoef="0" IVar="0" Cut="1.0319839715957642e+00" cType="1" res="9.3080439000914339e-07" rms="3.2440081238746643e-01" purity="5.9855979681015015e-01" nType="0">
        <Node pos="l" depth="1" NCoef="0" IVar="-1" Cut="0.0000000000000000e+00" cType="1" res="-1.2112945114495233e-04" rms="3.2696861028671265e-01" purity="6.3455986976623535e-01" nType="-99"/>
        <Node pos="r" depth="1" NCoef="0" IVar="1" Cut="1.8215892314910889e+00" cType="0" res="3.6623398773372173e-03" rms="2.8634944558143616e-01" purity="9.8663635551929474e-02" nType="0">
          <Node pos="l" depth="2" NCoef="0" IVar="-1" Cut="0.0000000000000000e+00" cType="1" res="-1.5889357775449753e-02" rms="3.8039964437484741e-01" purity="1.8620689213275909e-01" nType="-99"/>
          <Node pos="r" depth="2" NCoef="0" IVar="-1" Cut="0.0000000000000000e+00" cType="1" res="3.9418605156242847e-03" rms="2.8134918212890625e-01" purity="9.4899170100688934e-02" nType="-99"/>
        </Node>
      </Node>
    </BinaryTree>
    <BinaryTree type="DecisionTree" boostWeight="1.0000000000000000e+00" itree="371">
      <Node pos="s" depth="0" NCoef="0" IVar="1" Cut="1.5704647302627563e+00" cType="1" res="6.1345099311438389e-07" rms="3.2439649105072021e-01" purity="5.9855979681015015e-01" nType="0">
        <Node pos="l" depth="1" NCoef="0" IVar="-1" Cut="0.0000000000000000e+00" cType="1" res="-4.4030082790413871e-05" rms="3.2394945621490479e-01" purity="6.0177844762802124e-01" nType="-99"/>
        <Node pos="r" depth="1" NCoef="0" IVar="0" Cut="1.4305347204208374e+00" cType="0" res="1.2320747599005699e-02" rms="3.7804239988327026e-01" purity="1.7839196324348450e-01" nType="0">
          <Node pos="l" depth="2" NCoef="0" IVar="-1" Cut="0.0000000000000000e+00" cType="1" res="-7.3203998617827892e-03" rms="3.9499834179878235e-01" purity="2.0238095521926880e-01" nType="-99"/>
          <Node pos="r" depth="2" NCoef="0" IVar="-1" Cut="0.0000000000000000e+00" cType="1" res="1.8978228792548180e-02" rms="3.6293214559555054e-01" purity="1.6086956858634949e-01" nType="-99"/>
        </Node>
      </Node>
    </BinaryTree>
    <BinaryTree type="DecisionTree" boostWeight="1.0000000000000000e+00" itree="372">
      <Node pos="s" depth="0" NCoef="0" IVar="1" Cut="1.7341328859329224e+00" cType="1" res="3.0383426974367467e-07" rms="3.2439437508583069e-01" purity="5.9855979681015015e-01" nType="0">
        <Node pos="l" depth="1" NCoef="0" IVar="-1" Cut="0.0000000000000000e+00" cType="1" res="-3.4875214623752981e-05" rms="3.2395115494728088e-01" purity="6.0092604160308838e-01" nType="-99"/>
        <Node pos="r" depth="1" NCoef="0" IVar="0" Cut="1.4305347204208374e+00" cType="0" res="1.2682333588600159e-02" rms="3.9235970377922058e-01" purity="1.9607843458652496e-01" nType="0">
          <Node pos="l" depth="2" NCoef="0" IVar="-1" Cut="0.0000000000000000e+00" cType="1" res="-1.1722500436007977e-02" rms="3.9290434122085571e-01" purity="2.0000000298023224e-01" nType="-99"/>
          <Node pos="r" depth="2" NCoef="0" IVar="-1" Cut="0.0000000000000000e+00" cType="1" res="2.5358635932207108e-02" rms="3.8653919100761414e-01" purity="1.9277107715606689e-01" nType="-99"/>
        </Node>
      </Node>
    </BinaryTree>
    <BinaryTree type="DecisionTree" boostWeight="1.0000000000000000e+00" itree="373">
      <Node pos="s" depth="0" NCoef="0" IVar="0" Cut="2.4575212001800537e+00" cType="1" res="-8.5265376981169538e-08" rms="3.2439008355140686e-01" purity="5.9855979681015015e-01" nType="0">
        <Node pos="l" depth="1" NCoef="0" IVar="-1" Cut="0.0000000000000000e+00" cType="1" res="-4.7427754907403141e-05" rms="3.2398879528045654e-01" purity="6.0261505842208862e-01" nType="-99"/>
        <Node pos="r" depth="1" NCoef="0" IVar="2" Cut="1.3615382909774780e+00" cType="1" res="1.0462072677910328e-02" rms="3.6345767974853516e-01" purity="1.7800000309944153e-01" nType="0">
          <Node pos="l" depth="2" NCoef="0" IVar="-1" Cut="0.0000000000000000e+00" cType="1" res="1.9665911793708801e-02" rms="3.7506237626075745e-01" purity="1.8343195319175720e-01" nType="-99"/>
          <Node pos="r" depth="2" NCoef="0" IVar="-1" Cut="0.0000000000000000e+00" cType="1" res="-2.7859497349709272e-03" rms="3.5605710744857788e-01" purity="1.7522658407688141e-01" nType="-99"/>
        </Node>
      </Node>
    </BinaryTree>
    <BinaryTree type="DecisionTree" boostWeight="1.0000000000000000e+00" itree="374">
      <Node pos="s" depth="0" NCoef="0" IVar="2" Cut="2.7124493122100830e+00" cType="1" res="-2.8446655164771073e-07" rms="3.2438731193542480e-01" purity="5.9855979681015015e-01" nType="0">
        <Node pos="l" depth="1" NCoef="0" IVar="-1" Cut="0.0000000000000000e+00" cType="1" res="-5.6877619499573484e-05" rms="3.2397329807281494e-01" purity="6.0511964559555054e-01" nType="-99"/>
        <Node pos="r" depth="1" NCoef="0" IVar="3" Cut="3.6418318748474121e-01" cType="0" res="7.5253788381814957e-03" rms="3.4913286566734314e-01" purity="1.8984280526638031e-01" nType="0">
          <Node pos="l" depth="2" NCoef="0" IVar="-1" Cut="0.0000000000000000e+00" cType="1" res="2.2914040833711624e-02" rms="4.6732217073440552e-01" purity="5.0458717346191406e-01" nType="-99"/>
          <Node pos="r" depth="2" NCoef="0" IVar="-1" Cut="0.0000000000000000e+00" cType="1" res="-1.9803415052592754e-03" rms="3.2583817839622498e-01" purity="1.4206127822399139e-01" nType="-99"/>
        </Node>
      </Node>
    </BinaryTree>
    <BinaryTree type="DecisionTree" boostWeight="1.0000000000000000e+00" itree="375">
      <Node pos="s" depth="0" NCoef="0" IVar="0" Cut="1.6604198217391968e+00" cType="1" res="-3.3148214129141707e-07" rms="3.2438194751739502e-01" purity="5.9855979681015015e-01" nType="0">
        <Node pos="l" depth="1" NCoef="0" IVar="-1" Cut="0.0000000000000000e+00" cType="1" res="-7.3289935244247317e-05" rms="3.2429045438766479e-01" purity="6.1094874143600464e-01" nType="-99"/>
        <Node pos="r" depth="1" NCoef="0" IVar="3" Cut="1.6719566285610199e-01" cType="1" res="5.8019608259201050e-03" rms="3.2771351933479309e-01" purity="1.3785557448863983e-01" nType="0">
          <Node pos="l" depth="2" NCoef="0" IVar="-1" Cut="0.0000000000000000e+00" cType="1" res="2.1871080622076988e-02" rms="3.4799188375473022e-01" purity="1.4556962251663208e-01" nType="-99"/>
          <Node pos="r" depth="2" NCoef="0" IVar="-1" Cut="0.0000000000000000e+00" cType="1" res="-2.0598699338734150e-03" rms="3.2066881656646729e-01" purity="1.3554503023624420e-01" nType="-99"/>
        </Node>
      </Node>
    </BinaryTree>
    <BinaryTree type="DecisionTree" boostWeight="1.0000000000000000e+00" itree="376">
      <Node pos="s" depth="0" NCoef="0" IVar="2" Cut="2.9222521185874939e-01" cType="1" res="-7.1682325142319314e-07" rms="3.2437887787818909e-01" purity="5.9855979681015015e-01" nType="0">
        <Node pos="l" depth="1" NCoef="0" IVar="-1" Cut="0.0000000000000000e+00" cType="1" res="-8.3116709720343351e-04" rms="2.7620783448219299e-01" purity="8.4798938035964966e-01" nType="-99"/>
        <Node pos="r" depth="1" NCoef="0" IVar="2" Cut="4.7225758433341980e-01" cType="1" res="6.8076909519731998e-04" rms="3.4714940190315247e-01" purity="4.6671533584594727e-01" nType="0">
          <Node pos="l" depth="2" NCoef="0" IVar="-1" Cut="0.0000000000000000e+00" cType="1" res="2.2331450600177050e-03" rms="3.2324582338333130e-01" purity="7.2633367776870728e-01" nType="-99"/>
          <Node pos="r" depth="2" NCoef="0" IVar="-1" Cut="0.0000000000000000e+00" cType="1" res="-2.2313500812742859e-04" rms="3.5371309518814087e-01" purity="3.9207577705383301e-01" nType="-99"/>
        </Node>
      </Node>
    </BinaryTree>
    <BinaryTree type="DecisionTree" boostWeight="1.0000000000000000e+00" itree="377">
      <Node pos="s" depth="0" NCoef="0" IVar="2" Cut="1.7608441114425659e+00" cType="1" res="-5.6593893305034726e-07" rms="3.2437741756439209e-01" purity="5.9855979681015015e-01" nType="0">
        <Node pos="l" depth="1" NCoef="0" IVar="-1" Cut="0.0000000000000000e+00" cType="1" res="-1.2847525067627430e-04" rms="3.2290288805961609e-01" purity="6.3296103477478027e-01" nType="-99"/>
        <Node pos="r" depth="1" NCoef="0" IVar="0" Cut="4.2478761076927185e-01" cType="1" res="3.1233858317136765e-03" rms="3.4088718891143799e-01" purity="2.0229555666446686e-01" nType="0">
          <Node pos="l" depth="2" NCoef="0" IVar="-1" Cut="0.0000000000000000e+00" cType="1" res="5.7120663113892078e-03" rms="4.3379196524620056e-01" purity="4.1703376173973083e-01" nType="-99"/>
          <Node pos="r" depth="2" NCoef="0" IVar="-1" Cut="0.0000000000000000e+00" cType="1" res="-2.9436540789902210e-03" rms="2.8501299023628235e-01" purity="9.8581559956073761e-02" nType="-99"/>
        </Node>
      </Node>
    </BinaryTree>
    <BinaryTree type="DecisionTree" boostWeight="1.0000000000000000e+00" itree="378">
      <Node pos="s" depth="0" NCoef="0" IVar="3" Cut="3.1907123327255249e-01" cType="0" res="-6.1862573375037755e-07" rms="3.2437402009963989e-01" purity="5.9855979681015015e-01" nType="0">
        <Node pos="l" depth="1" NCoef="0" IVar="-1" Cut="0.0000000000000000e+00" cType="1" res="-5.3468614351004362e-04" rms="3.7254694104194641e-01" purity="6.7848116159439087e-01" nType="-99"/>
        <Node pos="r" depth="1" NCoef="0" IVar="3" Cut="3.1842893362045288e-01" cType="0" res="6.2802928732708097e-04" rms="3.0111286044120789e-01" purity="5.6392705440521240e-01" nType="0">
          <Node pos="l" depth="2" NCoef="0" IVar="-1" Cut="0.0000000000000000e+00" cType="1" res="1.8931027501821518e-02" rms="4.0071946382522583e-01" purity="6.4285713434219360e-01" nType="-99"/>
          <Node pos="r" depth="2" NCoef="0" IVar="-1" Cut="0.0000000000000000e+00" cType="1" res="2.4821422994136810e-04" rms="3.0074140429496765e-01" purity="5.6368428468704224e-01" nType="-99"/>
        </Node>
      </Node>
    </BinaryTree>
    <BinaryTree type="DecisionTree" boostWeight="1.0000000000000000e+00" itree="379">
      <Node pos="s" depth="0" NCoef="0" IVar="2" Cut="3.7989275455474854e+00" cType="1" res="-5.2588916332751978e-07" rms="3.2437136769294739e-01" purity="5.9855979681015015e-01" nType="0">
        <Node pos="l" depth="1" NCoef="0" IVar="2" Cut="3.4397087097167969e+00" cType="1" res="-4.7424826334463432e-05" rms="3.2418891787528992e-01" purity="5.9950596094131470e-01" nType="0">
          <Node pos="l" depth="2" NCoef="0" IVar="-1" Cut="0.0000000000000000e+00" cType="1" res="1.4946856026654132e-05" rms="3.2419398427009583e-01" purity="6.0032230615615845e-01" nType="-99"/>
          <Node pos="r" depth="2" NCoef="0" IVar="-1" Cut="0.0000000000000000e+00" cType="1" res="-1.4480524696409702e-02" rms="3.1895262002944946e-01" purity="1.7821782827377319e-01" nType="-99"/>
        </Node>
        <Node pos="r" depth="1" NCoef="0" IVar="-1" Cut="0.0000000000000000e+00" cType="1" res="6.6968067549169064e-03" rms="3.8991269469261169e-01" purity="2.2137404978275299e-01" nType="-99"/>
      </Node>
    </BinaryTree>
    <BinaryTree type="DecisionTree" boostWeight="1.0000000000000000e+00" itree="380">
      <Node pos="s" depth="0" NCoef="0" IVar="2" Cut="3.2781672477722168e+00" cType="1" res="-5.3997695204088814e-07" rms="3.2437038421630859e-01" purity="5.9855979681015015e-01" nType="0">
        <Node pos="l" depth="1" NCoef="0" IVar="-1" Cut="0.0000000000000000e+00" cType="1" res="-3.4688444429775700e-05" rms="3.2408049702644348e-01" purity="6.0073769092559814e-01" nType="-99"/>
        <Node pos="r" depth="1" NCoef="0" IVar="0" Cut="7.6633840799331665e-01" cType="1" res="1.2810426764190197e-02" rms="3.7133345007896423e-01" purity="2.1812079846858978e-01" nType="0">
          <Node pos="l" depth="2" NCoef="0" IVar="-1" Cut="0.0000000000000000e+00" cType="1" res="2.3684917017817497e-02" rms="4.1492375731468201e-01" purity="3.1372550129890442e-01" nType="-99"/>
          <Node pos="r" depth="2" NCoef="0" IVar="-1" Cut="0.0000000000000000e+00" cType="1" res="-6.8642622791230679e-03" rms="3.4248656034469604e-01" purity="1.6836734116077423e-01" nType="-99"/>
        </Node>
      </Node>
    </BinaryTree>
    <BinaryTree type="DecisionTree" boostWeight="1.0000000000000000e+00" itree="381">
      <Node pos="s" depth="0" NCoef="0" IVar="0" Cut="1.2981009483337402e+00" cType="1" res="-6.5111100866488414e-07" rms="3.2436648011207581e-01" purity="5.9855979681015015e-01" nType="0">
        <Node pos="l" depth="1" NCoef="0" IVar="-1" Cut="0.0000000000000000e+00" cType="1" res="-9.5437295385636389e-05" rms="3.2528585195541382e-01" purity="6.2081432342529297e-01" nType="-99"/>
        <Node pos="r" depth="1" NCoef="0" IVar="1" Cut="1.8215892314910889e+00" cType="0" res="4.4411052949726582e-03" rms="3.0365526676177979e-01" purity="1.1468288302421570e-01" nType="0">
          <Node pos="l" depth="2" NCoef="0" IVar="-1" Cut="0.0000000000000000e+00" cType="1" res="-1.7273647710680962e-02" rms="3.7397307157516479e-01" purity="1.8461538851261139e-01" nType="-99"/>
          <Node pos="r" depth="2" NCoef="0" IVar="-1" Cut="0.0000000000000000e+00" cType="1" res="4.7235488891601562e-03" rms="2.9850301146507263e-01" purity="1.1049723625183105e-01" nType="-99"/>
        </Node>
      </Node>
    </BinaryTree>
    <BinaryTree type="DecisionTree" boostWeight="1.0000000000000000e+00" itree="382">
      <Node pos="s" depth="0" NCoef="0" IVar="1" Cut="2.1589205265045166e+00" cType="1" res="-8.1787084127427079e-07" rms="3.2436212897300720e-01" purity="5.9855979681015015e-01" nType="0">
        <Node pos="l" depth="1" NCoef="0" IVar="1" Cut="1.4127805233001709e+00" cType="1" res="-5.6795463024172932e-05" rms="3.2406529784202576e-01" purity="5.9953266382217407e-01" nType="0">
          <Node pos="l" depth="2" NCoef="0" IVar="-1" Cut="0.0000000000000000e+00" cType="1" res="3.0285124012152664e-05" rms="3.2409849762916565e-01" purity="6.0298997163772583e-01" nType="-99"/>
          <Node pos="r" depth="2" NCoef="0" IVar="-1" Cut="0.0000000000000000e+00" cType="1" res="-7.7411336824297905e-03" rms="3.1898167729377747e-01" purity="1.2032085657119751e-01" nType="-99"/>
        </Node>
        <Node pos="r" depth="1" NCoef="0" IVar="-1" Cut="0.0000000000000000e+00" cType="1" res="6.6311671398580074e-03" rms="4.2019045352935791e-01" purity="2.3571428656578064e-01" nType="-99"/>
      </Node>
    </BinaryTree>
    <BinaryTree type="DecisionTree" boostWeight="1.0000000000000000e+00" itree="383">
      <Node pos="s" depth="0" NCoef="0" IVar="1" Cut="1.5704647302627563e+00" cType="1" res="-8.1476463265062193e-07" rms="3.2436117529869080e-01" purity="5.9855979681015015e-01" nType="0">
        <Node pos="l" depth="1" NCoef="0" IVar="-1" Cut="0.0000000000000000e+00" cType="1" res="-4.3594423914328218e-05" rms="3.2392513751983643e-01" purity="6.0177844762802124e-01" nType="-99"/>
        <Node pos="r" depth="1" NCoef="0" IVar="3" Cut="2.7439603209495544e-01" cType="1" res="1.2017467990517616e-02" rms="3.7678247690200806e-01" purity="1.7839196324348450e-01" nType="0">
          <Node pos="l" depth="2" NCoef="0" IVar="-1" Cut="0.0000000000000000e+00" cType="1" res="1.1882454156875610e-02" rms="3.8185128569602966e-01" purity="1.9117647409439087e-01" nType="-99"/>
          <Node pos="r" depth="2" NCoef="0" IVar="-1" Cut="0.0000000000000000e+00" cType="1" res="-1.0862112045288086e-02" rms="3.6245736479759216e-01" purity="1.5079365670681000e-01" nType="-99"/>
        </Node>
      </Node>
    </BinaryTree>
    <BinaryTree type="DecisionTree" boostWeight="1.0000000000000000e+00" itree="384">
      <Node pos="s" depth="0" NCoef="0" IVar="1" Cut="1.7341328859329224e+00" cType="1" res="-8.8582112311996752e-07" rms="3.2435834407806396e-01" purity="5.9855979681015015e-01" nType="0">
        <Node pos="l" depth="1" NCoef="0" IVar="-1" Cut="0.0000000000000000e+00" cType="1" res="-3.4453860280336812e-05" rms="3.2392659783363342e-01" purity="6.0092604160308838e-01" nType="-99"/>
        <Node pos="r" depth="1" NCoef="0" IVar="0" Cut="1.4305347204208374e+00" cType="0" res="1.2332028709352016e-02" rms="3.9071875810623169e-01" purity="1.9607843458652496e-01" nType="0">
          <Node pos="l" depth="2" NCoef="0" IVar="-1" Cut="0.0000000000000000e+00" cType="1" res="-1.0032869875431061e-02" rms="3.9102193713188171e-01" purity="2.0000000298023224e-01" nType="-99"/>
          <Node pos="r" depth="2" NCoef="0" IVar="-1" Cut="0.0000000000000000e+00" cType="1" res="2.2049862891435623e-02" rms="3.8633638620376587e-01" purity="1.9277107715606689e-01" nType="-99"/>
        </Node>
      </Node>
    </BinaryTree>
    <BinaryTree type="DecisionTree" boostWeight="1.0000000000000000e+00" itree="385">
      <Node pos="s" depth="0" NCoef="0" IVar="3" Cut="4.1251888871192932e-01" cType="0" res="-1.0703301995818038e-06" rms="3.2435503602027893e-01" purity="5.9855979681015015e-01" nType="0">
        <Node pos="l" depth="1" NCoef="0" IVar="-1" Cut="0.0000000000000000e+00" cType="1" res="1.2265047989785671e-03" rms="3.4231486916542053e-01" purity="8.2630831003189087e-01" nType="-99"/>
        <Node pos="r" depth="1" NCoef="0" IVar="3" Cut="4.1106268763542175e-01" cType="0" res="-2.9963516863062978e-04" rms="3.2243734598159790e-01" purity="5.7498472929000854e-01" nType="0">
          <Node pos="l" depth="2" NCoef="0" IVar="-1" Cut="0.0000000000000000e+00" cType="1" res="-2.9106741771101952e-02" rms="4.0337896347045898e-01" purity="6.6972476243972778e-01" nType="-99"/>
          <Node pos="r" depth="2" NCoef="0" IVar="-1" Cut="0.0000000000000000e+00" cType="1" res="-5.6676246458664536e-05" rms="3.2220560312271118e-01" purity="5.7476657629013062e-01" nType="-99"/>
        </Node>
      </Node>
    </BinaryTree>
    <BinaryTree type="DecisionTree" boostWeight="1.0000000000000000e+00" itree="386">
      <Node pos="s" depth="0" NCoef="0" IVar="0" Cut="2.4575212001800537e+00" cType="1" res="-7.5663848519980093e-07" rms="3.2434991002082825e-01" purity="5.9855979681015015e-01" nType="0">
        <Node pos="l" depth="1" NCoef="0" IVar="-1" Cut="0.0000000000000000e+00" cType="1" res="-4.2427531298017129e-05" rms="3.2395482063293457e-01" purity="6.0261505842208862e-01" nType="-99"/>
        <Node pos="r" depth="1" NCoef="0" IVar="2" Cut="1.3151835203170776e+00" cType="1" res="9.2908646911382675e-03" rms="3.6287483572959900e-01" purity="1.7800000309944153e-01" nType="0">
          <Node pos="l" depth="2" NCoef="0" IVar="-1" Cut="0.0000000000000000e+00" cType="1" res="1.5955079346895218e-02" rms="3.7726023793220520e-01" purity="1.8633539974689484e-01" nType="-99"/>
          <Node pos="r" depth="2" NCoef="0" IVar="-1" Cut="0.0000000000000000e+00" cType="1" res="-1.8327552825212479e-03" rms="3.5496622323989868e-01" purity="1.7404130101203918e-01" nType="-99"/>
        </Node>
      </Node>
    </BinaryTree>
    <BinaryTree type="DecisionTree" boostWeight="1.0000000000000000e+00" itree="387">
      <Node pos="s" depth="0" NCoef="0" IVar="2" Cut="2.7124493122100830e+00" cType="1" res="-8.1370933457947103e-07" rms="3.2434794306755066e-01" purity="5.9855979681015015e-01" nType="0">
        <Node pos="l" depth="1" NCoef="0" IVar="-1" Cut="0.0000000000000000e+00" cType="1" res="-5.3425199439516291e-05" rms="3.2394891977310181e-01" purity="6.0511964559555054e-01" nType="-99"/>
        <Node pos="r" depth="1" NCoef="0" IVar="3" Cut="3.6418318748474121e-01" cType="0" res="7.0374207571148872e-03" rms="3.4823766350746155e-01" purity="1.8984280526638031e-01" nType="0">
          <Node pos="l" depth="2" NCoef="0" IVar="-1" Cut="0.0000000000000000e+00" cType="1" res="1.9789701327681541e-02" rms="4.6649074554443359e-01" purity="5.0458717346191406e-01" nType="-99"/>
          <Node pos="r" depth="2" NCoef="0" IVar="-1" Cut="0.0000000000000000e+00" cType="1" res="-1.4761413913220167e-03" rms="3.2533299922943115e-01" purity="1.4206127822399139e-01" nType="-99"/>
        </Node>
      </Node>
    </BinaryTree>
    <BinaryTree type="DecisionTree" boostWeight="1.0000000000000000e+00" itree="388">
      <Node pos="s" depth="0" NCoef="0" IVar="2" Cut="3.0308997631072998e+00" cType="1" res="-7.8332885777854244e-07" rms="3.2434377074241638e-01" purity="5.9855979681015015e-01" nType="0">
        <Node pos="l" depth="1" NCoef="0" IVar="-1" Cut="0.0000000000000000e+00" cType="1" res="3.9566559280501679e-05" rms="3.2421106100082397e-01" purity="6.0254877805709839e-01" nType="-99"/>
        <Node pos="r" depth="1" NCoef="0" IVar="0" Cut="7.6633840799331665e-01" cType="1" res="-9.0803010389208794e-03" rms="3.3808419108390808e-01" purity="1.7283950746059418e-01" nType="0">
          <Node pos="l" depth="2" NCoef="0" IVar="-1" Cut="0.0000000000000000e+00" cType="1" res="8.7839607149362564e-03" rms="3.9241757988929749e-01" purity="2.5748503208160400e-01" nType="-99"/>
          <Node pos="r" depth="2" NCoef="0" IVar="-1" Cut="0.0000000000000000e+00" cType="1" res="-1.1787281371653080e-02" rms="3.0423450469970703e-01" purity="1.2852664291858673e-01" nType="-99"/>
        </Node>
      </Node>
    </BinaryTree>
    <BinaryTree type="DecisionTree" boostWeight="1.0000000000000000e+00" itree="389">
      <Node pos="s" depth="0" NCoef="0" IVar="2" Cut="3.7989275455474854e+00" cType="1" res="-8.4865411054124706e-07" rms="3.2434207201004028e-01" purity="5.9855979681015015e-01" nType="0">
        <Node pos="l" depth="1" NCoef="0" IVar="2" Cut="3.4397087097167969e+00" cType="1" res="-4.6551478590117767e-05" rms="3.2416528463363647e-01" purity="5.9950596094131470e-01" nType="0">
          <Node pos="l" depth="2" NCoef="0" IVar="-1" Cut="0.0000000000000000e+00" cType="1" res="1.3271220268507022e-05" rms="3.2417342066764832e-01" purity="6.0032230615615845e-01" nType="-99"/>
          <Node pos="r" depth="2" NCoef="0" IVar="-1" Cut="0.0000000000000000e+00" cType="1" res="-1.3852781616151333e-02" rms="3.1759124994277954e-01" purity="1.7821782827377319e-01" nType="-99"/>
        </Node>
        <Node pos="r" depth="1" NCoef="0" IVar="-1" Cut="0.0000000000000000e+00" cType="1" res="6.5028513781726360e-03" rms="3.8802880048751831e-01" purity="2.2137404978275299e-01" nType="-99"/>
      </Node>
    </BinaryTree>
    <BinaryTree type="DecisionTree" boostWeight="1.0000000000000000e+00" itree="390">
      <Node pos="s" depth="0" NCoef="0" IVar="2" Cut="3.2781672477722168e+00" cType="1" res="-8.2487781583040487e-07" rms="3.2434117794036865e-01" purity="5.9855979681015015e-01" nType="0">
        <Node pos="l" depth="1" NCoef="0" IVar="-1" Cut="0.0000000000000000e+00" cType="1" res="-3.3748878195183352e-05" rms="3.2406145334243774e-01" purity="6.0073769092559814e-01" nType="-99"/>
        <Node pos="r" depth="1" NCoef="0" IVar="0" Cut="7.6633840799331665e-01" cType="1" res="1.2414175085723400e-02" rms="3.6976474523544312e-01" purity="2.1812079846858978e-01" nType="0">
          <Node pos="l" depth="2" NCoef="0" IVar="-1" Cut="0.0000000000000000e+00" cType="1" res="1.9411338493227959e-02" rms="4.1409230232238770e-01" purity="3.1372550129890442e-01" nType="-99"/>
          <Node pos="r" depth="2" NCoef="0" IVar="-1" Cut="0.0000000000000000e+00" cType="1" res="-4.9324696883559227e-03" rms="3.4177947044372559e-01" purity="1.6836734116077423e-01" nType="-99"/>
        </Node>
      </Node>
    </BinaryTree>
    <BinaryTree type="DecisionTree" boostWeight="1.0000000000000000e+00" itree="391">
      <Node pos="s" depth="0" NCoef="0" IVar="0" Cut="1.6604198217391968e+00" cType="1" res="-8.4748739936912898e-07" rms="3.2433846592903137e-01" purity="5.9855979681015015e-01" nType="0">
        <Node pos="l" depth="1" NCoef="0" IVar="-1" Cut="0.0000000000000000e+00" cType="1" res="-7.1428286901209503e-05" rms="3.2425728440284729e-01" purity="6.1094874143600464e-01" nType="-99"/>
        <Node pos="r" depth="1" NCoef="0" IVar="1" Cut="8.3833080530166626e-01" cType="0" res="5.6359311565756798e-03" rms="3.2729315757751465e-01" purity="1.3785557448863983e-01" nType="0">
          <Node pos="l" depth="2" NCoef="0" IVar="-1" Cut="0.0000000000000000e+00" cType="1" res="1.1544618755578995e-02" rms="3.9492201805114746e-01" purity="2.0493827760219574e-01" nType="-99"/>
          <Node pos="r" depth="2" NCoef="0" IVar="-1" Cut="0.0000000000000000e+00" cType="1" res="-2.5581303052604198e-03" rms="2.9371565580368042e-01" purity="1.0973084717988968e-01" nType="-99"/>
        </Node>
      </Node>
    </BinaryTree>
    <BinaryTree type="DecisionTree" boostWeight="1.0000000000000000e+00" itree="392">
      <Node pos="s" depth="0" NCoef="0" IVar="1" Cut="1.3018491268157959e+00" cType="1" res="-9.3878298912386526e-07" rms="3.2433629035949707e-01" purity="5.9855979681015015e-01" nType="0">
        <Node pos="l" depth="1" NCoef="0" IVar="-1" Cut="0.0000000000000000e+00" cType="1" res="4.9845162720885128e-05" rms="3.2411366701126099e-01" purity="6.0432100296020508e-01" nType="-99"/>
        <Node pos="r" depth="1" NCoef="0" IVar="0" Cut="2.1614192426204681e-01" cType="0" res="-8.4861805662512779e-03" rms="3.4139406681060791e-01" purity="1.4241960644721985e-01" nType="0">
          <Node pos="l" depth="2" NCoef="0" IVar="-1" Cut="0.0000000000000000e+00" cType="1" res="4.1277767159044743e-03" rms="3.4008753299713135e-01" purity="1.4545454084873199e-01" nType="-99"/>
          <Node pos="r" depth="2" NCoef="0" IVar="-1" Cut="0.0000000000000000e+00" cType="1" res="-3.0323525890707970e-02" rms="3.3314365148544312e-01" purity="1.2621359527111053e-01" nType="-99"/>
        </Node>
      </Node>
    </BinaryTree>
    <BinaryTree type="DecisionTree" boostWeight="1.0000000000000000e+00" itree="393">
      <Node pos="s" depth="0" NCoef="0" IVar="1" Cut="8.0209892988204956e-01" cType="1" res="-1.1739315368686221e-06" rms="3.2432910799980164e-01" purity="5.9855979681015015e-01" nType="0">
        <Node pos="l" depth="1" NCoef="0" IVar="-1" Cut="0.0000000000000000e+00" cType="1" res="8.1735604908317327e-05" rms="3.2472455501556396e-01" purity="6.1697316169738770e-01" nType="-99"/>
        <Node pos="r" depth="1" NCoef="0" IVar="0" Cut="1.9165416955947876e+00" cType="0" res="-4.5594996772706509e-03" rms="3.1387260556221008e-01" purity="1.2133675813674927e-01" nType="0">
          <Node pos="l" depth="2" NCoef="0" IVar="-1" Cut="0.0000000000000000e+00" cType="1" res="1.2262099422514439e-02" rms="4.0965527296066284e-01" purity="2.2222222387790680e-01" nType="-99"/>
          <Node pos="r" depth="2" NCoef="0" IVar="-1" Cut="0.0000000000000000e+00" cType="1" res="-7.0478632114827633e-03" rms="2.8782394528388977e-01" purity="9.9121704697608948e-02" nType="-99"/>
        </Node>
      </Node>
    </BinaryTree>
    <BinaryTree type="DecisionTree" boostWeight="1.0000000000000000e+00" itree="394">
      <Node pos="s" depth="0" NCoef="0" IVar="2" Cut="3.0308997631072998e+00" cType="1" res="-1.4126733276498271e-06" rms="3.2432565093040466e-01" purity="5.9855979681015015e-01" nType="0">
        <Node pos="l" depth="1" NCoef="0" IVar="-1" Cut="0.0000000000000000e+00" cType="1" res="4.0434490074403584e-05" rms="3.2419651746749878e-01" purity="6.0254877805709839e-01" nType="-99"/>
        <Node pos="r" depth="1" NCoef="0" IVar="2" Cut="3.2768650054931641e+00" cType="0" res="-9.3440432101488113e-03" rms="3.3769321441650391e-01" purity="1.7283950746059418e-01" nType="0">
          <Node pos="l" depth="2" NCoef="0" IVar="-1" Cut="0.0000000000000000e+00" cType="1" res="3.6846005823463202e-03" rms="3.6958521604537964e-01" purity="2.1812079846858978e-01" nType="-99"/>
          <Node pos="r" depth="2" NCoef="0" IVar="-1" Cut="0.0000000000000000e+00" cType="1" res="-1.8927467986941338e-02" rms="2.7698346972465515e-01" purity="1.0106383264064789e-01" nType="-99"/>
        </Node>
      </Node>
    </BinaryTree>
    <BinaryTree type="DecisionTree" boostWeight="1.0000000000000000e+00" itree="395">
      <Node pos="s" depth="0" NCoef="0" IVar="3" Cut="2.3611772060394287e-01" cType="1" res="-1.4465153981291223e-06" rms="3.2432347536087036e-01" purity="5.9855979681015015e-01" nType="0">
        <Node pos="l" depth="1" NCoef="0" IVar="-1" Cut="0.0000000000000000e+00" cType="1" res="-6.1715394258499146e-04" rms="2.7633461356163025e-01" purity="6.5614449977874756e-01" nType="-99"/>
        <Node pos="r" depth="1" NCoef="0" IVar="0" Cut="1.5367315709590912e-01" cType="1" res="8.1764574861153960e-04" rms="3.5919106006622314e-01" purity="5.5094563961029053e-01" nType="0">
          <Node pos="l" depth="2" NCoef="0" IVar="-1" Cut="0.0000000000000000e+00" cType="1" res="-9.7095250384882092e-04" rms="3.6076146364212036e-01" purity="8.0334311723709106e-01" nType="-99"/>
          <Node pos="r" depth="2" NCoef="0" IVar="-1" Cut="0.0000000000000000e+00" cType="1" res="2.2641455288976431e-03" rms="3.5681527853012085e-01" purity="1.8022054433822632e-01" nType="-99"/>
        </Node>
      </Node>
    </BinaryTree>
    <BinaryTree type="DecisionTree" boostWeight="1.0000000000000000e+00" itree="396">
      <Node pos="s" depth="0" NCoef="0" IVar="0" Cut="6.5842080116271973e-01" cType="1" res="-1.4055499377718661e-06" rms="3.2431736588478088e-01" purity="5.9855979681015015e-01" nType="0">
        <Node pos="l" depth="1" NCoef="0" IVar="-1" Cut="0.0000000000000000e+00" cType="1" res="1.6310845967382193e-04" rms="3.3319211006164551e-01" purity="6.7745697498321533e-01" nType="-99"/>
        <Node pos="r" depth="1" NCoef="0" IVar="2" Cut="9.1414034366607666e-01" cType="0" res="-2.4325046688318253e-03" rms="2.5809484720230103e-01" purity="7.7169016003608704e-02" nType="0">
          <Node pos="l" depth="2" NCoef="0" IVar="-1" Cut="0.0000000000000000e+00" cType="1" res="-4.5096860267221928e-03" rms="2.5875797867774963e-01" purity="7.9158939421176910e-02" nType="-99"/>
          <Node pos="r" depth="2" NCoef="0" IVar="-1" Cut="0.0000000000000000e+00" cType="1" res="6.6184289753437042e-03" rms="2.5621083378791809e-01" purity="7.2413794696331024e-02" nType="-99"/>
        </Node>
      </Node>
    </BinaryTree>
    <BinaryTree type="DecisionTree" boostWeight="1.0000000000000000e+00" itree="397">
      <Node pos="s" depth="0" NCoef="0" IVar="3" Cut="4.1201916337013245e-01" cType="0" res="-1.6503615825058660e-06" rms="3.2431700825691223e-01" purity="5.9855979681015015e-01" nType="0">
        <Node pos="l" depth="1" NCoef="0" IVar="-1" Cut="0.0000000000000000e+00" cType="1" res="1.1899805394932628e-03" rms="3.4269794821739197e-01" purity="8.2571774721145630e-01" nType="-99"/>
        <Node pos="r" depth="1" NCoef="0" IVar="3" Cut="4.0850508213043213e-01" cType="0" res="-2.9389953124336898e-04" rms="3.2233756780624390e-01" purity="5.7486081123352051e-01" nType="0">
          <Node pos="l" depth="2" NCoef="0" IVar="-1" Cut="0.0000000000000000e+00" cType="1" res="-1.8630359321832657e-02" rms="4.0558132529258728e-01" purity="7.3214286565780640e-01" nType="-99"/>
          <Node pos="r" depth="2" NCoef="0" IVar="-1" Cut="0.0000000000000000e+00" cType="1" res="-4.6033378566789906e-06" rms="3.2175740599632263e-01" purity="5.7392632961273193e-01" nType="-99"/>
        </Node>
      </Node>
    </BinaryTree>
    <BinaryTree type="DecisionTree" boostWeight="1.0000000000000000e+00" itree="398">
      <Node pos="s" depth="0" NCoef="0" IVar="3" Cut="4.9697157740592957e-01" cType="0" res="-1.2464811334211845e-06" rms="3.2431283593177795e-01" purity="5.9855979681015015e-01" nType="0">
        <Node pos="l" depth="1" NCoef="0" IVar="-1" Cut="0.0000000000000000e+00" cType="1" res="-7.7019105665385723e-03" rms="3.4841233491897583e-01" purity="8.3458644151687622e-01" nType="-99"/>
        <Node pos="r" depth="1" NCoef="0" IVar="3" Cut="4.8894721269607544e-01" cType="0" res="4.2769534047693014e-05" rms="3.2424798607826233e-01" purity="5.9795868396759033e-01" nType="0">
          <Node pos="l" depth="2" NCoef="0" IVar="-1" Cut="0.0000000000000000e+00" cType="1" res="9.1785788536071777e-03" rms="2.6577910780906677e-01" purity="9.0153849124908447e-01" nType="-99"/>
          <Node pos="r" depth="2" NCoef="0" IVar="-1" Cut="0.0000000000000000e+00" cType="1" res="-2.8325075618340634e-05" rms="3.2457834482192993e-01" purity="5.9605747461318970e-01" nType="-99"/>
        </Node>
      </Node>
    </BinaryTree>
    <BinaryTree type="DecisionTree" boostWeight="1.0000000000000000e+00" itree="399">
      <Node pos="s" depth="0" NCoef="0" IVar="3" Cut="4.8397886753082275e-01" cType="0" res="-1.0341622100895620e-06" rms="3.2431295514106750e-01" purity="5.9855979681015015e-01" nType="0">
        <Node pos="l" depth="1" NCoef="0" IVar="-1" Cut="0.0000000000000000e+00" cType="1" res="-4.1194353252649307e-03" rms="3.1486627459526062e-01" purity="8.6547082662582397e-01" nType="-99"/>
        <Node pos="r" depth="1" NCoef="0" IVar="3" Cut="4.8131686449050903e-01" cType="0" res="1.0128013673238456e-04" rms="3.2443216443061829e-01" purity="5.9510499238967896e-01" nType="0">
          <Node pos="l" depth="2" NCoef="0" IVar="-1" Cut="0.0000000000000000e+00" cType="1" res="3.4568902105093002e-02" rms="2.2864495217800140e-01" purity="9.4736844301223755e-01" nType="-99"/>
          <Node pos="r" depth="2" NCoef="0" IVar="-1" Cut="0.0000000000000000e+00" cType="1" res="-1.4520104741677642e-05" rms="3.2460036873817444e-01" purity="5.9432625770568848e-01" nType="-99"/>
        </Node>
      </Node>
    </BinaryTree>
    <BinaryTree type="DecisionTree" boostWeight="1.0000000000000000e+00" itree="400">
      <Node pos="s" depth="0" NCoef="0" IVar="3" Cut="3.1907123327255249e-01" cType="0" res="-5.9626142956403783e-07" rms="3.2430902123451233e-01" purity="5.9855979681015015e-01" nType="0">
        <Node pos="l" depth="1" NCoef="0" IVar="-1" Cut="0.0000000000000000e+00" cType="1" res="-4.9112306442111731e-04" rms="3.7244862318038940e-01" purity="6.7848116159439087e-01" nType="-99"/>
        <Node pos="r" depth="1" NCoef="0" IVar="0" Cut="1.2743628025054932e-01" cType="1" res="5.7732540881261230e-04" rms="3.0106553435325623e-01" purity="5.6392705440521240e-01" nType="0">
          <Node pos="l" depth="2" NCoef="0" IVar="-1" Cut="0.0000000000000000e+00" cType="1" res="1.8733139149844646e-03" rms="2.8897249698638916e-01" purity="8.8697290420532227e-01" nType="-99"/>
          <Node pos="r" depth="2" NCoef="0" IVar="-1" Cut="0.0000000000000000e+00" cType="1" res="-1.4090117765590549e-03" rms="3.1615632772445679e-01" purity="1.4125007390975952e-01" nType="-99"/>
        </Node>
      </Node>
    </BinaryTree>
    <BinaryTree type="DecisionTree" boostWeight="1.0000000000000000e+00" itree="401">
      <Node pos="s" depth="0" NCoef="0" IVar="3" Cut="2.0538493990898132e-01" cType="1" res="-4.4945198851564783e-07" rms="3.2430797815322876e-01" purity="5.9855979681015015e-01" nType="0">
        <Node pos="l" depth="1" NCoef="0" IVar="-1" Cut="0.0000000000000000e+00" cType="1" res="-8.0445979256182909e-04" rms="2.7135807275772095e-01" purity="7.1875935792922974e-01" nType="-99"/>
        <Node pos="r" depth="1" NCoef="0" IVar="1" Cut="1.1494252830743790e-01" cType="1" res="7.6188752427697182e-04" rms="3.5320895910263062e-01" purity="5.2393186092376709e-01" nType="0">
          <Node pos="l" depth="2" NCoef="0" IVar="-1" Cut="0.0000000000000000e+00" cType="1" res="-5.1779288332909346e-04" rms="3.4730118513107300e-01" purity="6.4636445045471191e-01" nType="-99"/>
          <Node pos="r" depth="2" NCoef="0" IVar="-1" Cut="0.0000000000000000e+00" cType="1" res="1.6813727561384439e-03" rms="3.6344522237777710e-01" purity="3.0630320310592651e-01" nType="-99"/>
        </Node>
      </Node>
    </BinaryTree>
    <BinaryTree type="DecisionTree" boostWeight="1.0000000000000000e+00" itree="402">
      <Node pos="s" depth="0" NCoef="0" IVar="2" Cut="3.5591530799865723e-01" cType="1" res="-4.2262800548087398e-07" rms="3.2430520653724670e-01" purity="5.9855979681015015e-01" nType="0">
        <Node pos="l" depth="1" NCoef="0" IVar="-1" Cut="0.0000000000000000e+00" cType="1" res="-6.8483263021335006e-04" rms="2.8228884935379028e-01" purity="8.3244299888610840e-01" nType="-99"/>
        <Node pos="r" depth="1" NCoef="0" IVar="2" Cut="3.9873868227005005e-01" cType="1" res="7.0967827923595905e-04" rms="3.4849730134010315e-01" purity="4.4918462634086609e-01" nType="0">
          <Node pos="l" depth="2" NCoef="0" IVar="-1" Cut="0.0000000000000000e+00" cType="1" res="6.1634802259504795e-03" rms="3.1636905670166016e-01" purity="7.3412698507308960e-01" nType="-99"/>
          <Node pos="r" depth="2" NCoef="0" IVar="-1" Cut="0.0000000000000000e+00" cType="1" res="-3.0393455745070241e-05" rms="3.5026782751083374e-01" purity="4.3253272771835327e-01" nType="-99"/>
        </Node>
      </Node>
    </BinaryTree>
    <BinaryTree type="DecisionTree" boostWeight="1.0000000000000000e+00" itree="403">
      <Node pos="s" depth="0" NCoef="0" IVar="3" Cut="3.1907123327255249e-01" cType="0" res="-2.6059825586344232e-07" rms="3.2430243492126465e-01" purity="5.9855979681015015e-01" nType="0">
        <Node pos="l" depth="1" NCoef="0" IVar="-1" Cut="0.0000000000000000e+00" cType="1" res="-5.0193537026643753e-04" rms="3.7243267893791199e-01" purity="6.7848116159439087e-01" nType="-99"/>
        <Node pos="r" depth="1" NCoef="0" IVar="0" Cut="3.3358320593833923e-01" cType="1" res="5.9062300715595484e-04" rms="3.0106383562088013e-01" purity="5.6392705440521240e-01" nType="0">
          <Node pos="l" depth="2" NCoef="0" IVar="-1" Cut="0.0000000000000000e+00" cType="1" res="1.2104182969778776e-03" rms="3.1868207454681396e-01" purity="7.7932256460189819e-01" nType="-99"/>
          <Node pos="r" depth="2" NCoef="0" IVar="-1" Cut="0.0000000000000000e+00" cType="1" res="-2.7733840979635715e-03" rms="2.5635173916816711e-01" purity="7.2826869785785675e-02" nType="-99"/>
        </Node>
      </Node>
    </BinaryTree>
    <BinaryTree type="DecisionTree" boostWeight="1.0000000000000000e+00" itree="404">
      <Node pos="s" depth="0" NCoef="0" IVar="0" Cut="1.0319839715957642e+00" cType="1" res="-3.6703977457364090e-07" rms="3.2430085539817810e-01" purity="5.9855979681015015e-01" nType="0">
        <Node pos="l" depth="1" NCoef="0" IVar="-1" Cut="0.0000000000000000e+00" cType="1" res="-1.1982991418335587e-04" rms="3.2689869403839111e-01" purity="6.3455986976623535e-01" nType="-99"/>
        <Node pos="r" depth="1" NCoef="0" IVar="3" Cut="2.7276471257209778e-01" cType="0" res="3.6032320931553841e-03" rms="2.8577265143394470e-01" purity="9.8663635551929474e-02" nType="0">
          <Node pos="l" depth="2" NCoef="0" IVar="-1" Cut="0.0000000000000000e+00" cType="1" res="1.2181201949715614e-02" rms="3.6464810371398926e-01" purity="1.8270571529865265e-01" nType="-99"/>
          <Node pos="r" depth="2" NCoef="0" IVar="-1" Cut="0.0000000000000000e+00" cType="1" res="-1.9214091589674354e-03" rms="2.6140064001083374e-01" purity="7.7142857015132904e-02" nType="-99"/>
        </Node>
      </Node>
    </BinaryTree>
    <BinaryTree type="DecisionTree" boostWeight="1.0000000000000000e+00" itree="405">
      <Node pos="s" depth="0" NCoef="0" IVar="2" Cut="3.5591530799865723e-01" cType="1" res="-6.3118852722254815e-07" rms="3.2429680228233337e-01" purity="5.9855979681015015e-01" nType="0">
        <Node pos="l" depth="1" NCoef="0" IVar="-1" Cut="0.0000000000000000e+00" cType="1" res="-6.9816893665120006e-04" rms="2.8229016065597534e-01" purity="8.3244299888610840e-01" nType="-99"/>
        <Node pos="r" depth="1" NCoef="0" IVar="2" Cut="3.9873868227005005e-01" cType="1" res="7.2276784339919686e-04" rms="3.4848377108573914e-01" purity="4.4918462634086609e-01" nType="0">
          <Node pos="l" depth="2" NCoef="0" IVar="-1" Cut="0.0000000000000000e+00" cType="1" res="5.6072925217449665e-03" rms="3.1639105081558228e-01" purity="7.3412698507308960e-01" nType="-99"/>
          <Node pos="r" depth="2" NCoef="0" IVar="-1" Cut="0.0000000000000000e+00" cType="1" res="6.6913366936205421e-06" rms="3.5025542974472046e-01" purity="4.3253272771835327e-01" nType="-99"/>
        </Node>
      </Node>
    </BinaryTree>
    <BinaryTree type="DecisionTree" boostWeight="1.0000000000000000e+00" itree="406">
      <Node pos="s" depth="0" NCoef="0" IVar="3" Cut="3.1907123327255249e-01" cType="0" res="-4.6589653379669471e-07" rms="3.2429441809654236e-01" purity="5.9855979681015015e-01" nType="0">
        <Node pos="l" depth="1" NCoef="0" IVar="-1" Cut="0.0000000000000000e+00" cType="1" res="-4.9271836178377271e-04" rms="3.7241849303245544e-01" purity="6.7848116159439087e-01" nType="-99"/>
        <Node pos="r" depth="1" NCoef="0" IVar="1" Cut="8.4957517683506012e-02" cType="1" res="5.7952618226408958e-04" rms="3.0105912685394287e-01" purity="5.6392705440521240e-01" nType="0">
          <Node pos="l" depth="2" NCoef="0" IVar="-1" Cut="0.0000000000000000e+00" cType="1" res="1.7133337678387761e-03" rms="2.8467440605163574e-01" purity="7.1912145614624023e-01" nType="-99"/>
          <Node pos="r" depth="2" NCoef="0" IVar="-1" Cut="0.0000000000000000e+00" cType="1" res="-1.3717139372602105e-03" rms="3.2311695814132690e-01" purity="3.4096065163612366e-01" nType="-99"/>
        </Node>
      </Node>
    </BinaryTree>
    <BinaryTree type="DecisionTree" boostWeight="1.0000000000000000e+00" itree="407">
      <Node pos="s" depth="0" NCoef="0" IVar="0" Cut="1.0319839715957642e+00" cType="1" res="-3.7817153497599065e-07" rms="3.2429179549217224e-01" purity="5.9855979681015015e-01" nType="0">
        <Node pos="l" depth="1" NCoef="0" IVar="-1" Cut="0.0000000000000000e+00" cType="1" res="-1.1146774340886623e-04" rms="3.2689264416694641e-01" purity="6.3455986976623535e-01" nType="-99"/>
        <Node pos="r" depth="1" NCoef="0" IVar="0" Cut="1.1003342866897583e+00" cType="1" res="3.3506171312183142e-03" rms="2.8571948409080505e-01" purity="9.8663635551929474e-02" nType="0">
          <Node pos="l" depth="2" NCoef="0" IVar="-1" Cut="0.0000000000000000e+00" cType="1" res="2.9772974550724030e-02" rms="3.0038878321647644e-01" purity="1.0382513701915741e-01" nType="-99"/>
          <Node pos="r" depth="2" NCoef="0" IVar="-1" Cut="0.0000000000000000e+00" cType="1" res="-3.1976168975234032e-04" rms="2.8371119499206543e-01" purity="9.8064109683036804e-02" nType="-99"/>
        </Node>
      </Node>
    </BinaryTree>
    <BinaryTree type="DecisionTree" boostWeight="1.0000000000000000e+00" itree="408">
      <Node pos="s" depth="0" NCoef="0" IVar="3" Cut="4.1201916337013245e-01" cType="0" res="-9.9800217867596075e-07" rms="3.2428807020187378e-01" purity="5.9855979681015015e-01" nType="0">
        <Node pos="l" depth="1" NCoef="0" IVar="-1" Cut="0.0000000000000000e+00" cType="1" res="1.1837680358439684e-03" rms="3.4264490008354187e-01" purity="8.2571774721145630e-01" nType="-99"/>
        <Node pos="r" depth="1" NCoef="0" IVar="3" Cut="4.1015225648880005e-01" cType="0" res="-2.9174037626944482e-04" rms="3.2231131196022034e-01" purity="5.7486081123352051e-01" nType="0">
          <Node pos="l" depth="2" NCoef="0" IVar="-1" Cut="0.0000000000000000e+00" cType="1" res="-2.2648839280009270e-02" rms="4.1577324271202087e-01" purity="6.9178080558776855e-01" nType="-99"/>
          <Node pos="r" depth="2" NCoef="0" IVar="-1" Cut="0.0000000000000000e+00" cType="1" res="-4.9255795602221042e-05" rms="3.2196274399757385e-01" purity="5.7449960708618164e-01" nType="-99"/>
        </Node>
      </Node>
    </BinaryTree>
    <BinaryTree type="DecisionTree" boostWeight="1.0000000000000000e+00" itree="409">
      <Node pos="s" depth="0" NCoef="0" IVar="0" Cut="1.2981009483337402e+00" cType="1" res="-7.2335461709371884e-07" rms="3.2428401708602905e-01" purity="5.9855979681015015e-01" nType="0">
        <Node pos="l" depth="1" NCoef="0" IVar="-1" Cut="0.0000000000000000e+00" cType="1" res="-8.9323308202438056e-05" rms="3.2521972060203552e-01" purity="6.2081432342529297e-01" nType="-99"/>
        <Node pos="r" depth="1" NCoef="0" IVar="1" Cut="1.8215892314910889e+00" cType="0" res="4.1511175222694874e-03" rms="3.0319675803184509e-01" purity="1.1468288302421570e-01" nType="0">
          <Node pos="l" depth="2" NCoef="0" IVar="-1" Cut="0.0000000000000000e+00" cType="1" res="-1.7094273120164871e-02" rms="3.7275049090385437e-01" purity="1.8461538851261139e-01" nType="-99"/>
          <Node pos="r" depth="2" NCoef="0" IVar="-1" Cut="0.0000000000000000e+00" cType="1" res="4.5144879259169102e-03" rms="2.9811480641365051e-01" purity="1.1049723625183105e-01" nType="-99"/>
        </Node>
      </Node>
    </BinaryTree>
    <BinaryTree type="DecisionTree" boostWeight="1.0000000000000000e+00" itree="410">
      <Node pos="s" depth="0" NCoef="0" IVar="1" Cut="1.7341328859329224e+00" cType="1" res="-8.6945800603643875e-07" rms="3.2427987456321716e-01" purity="5.9855979681015015e-01" nType="0">
        <Node pos="l" depth="1" NCoef="0" IVar="-1" Cut="0.0000000000000000e+00" cType="1" res="-3.6197026929585263e-05" rms="3.2385388016700745e-01" purity="6.0092604160308838e-01" nType="-99"/>
        <Node pos="r" depth="1" NCoef="0" IVar="0" Cut="1.4305347204208374e+00" cType="0" res="1.2957632541656494e-02" rms="3.8980799913406372e-01" purity="1.9607843458652496e-01" nType="0">
          <Node pos="l" depth="2" NCoef="0" IVar="-1" Cut="0.0000000000000000e+00" cType="1" res="-9.2631233856081963e-03" rms="3.9022099971771240e-01" purity="2.0000000298023224e-01" nType="-99"/>
          <Node pos="r" depth="2" NCoef="0" IVar="-1" Cut="0.0000000000000000e+00" cType="1" res="2.1244816482067108e-02" rms="3.8572871685028076e-01" purity="1.9277107715606689e-01" nType="-99"/>
        </Node>
      </Node>
    </BinaryTree>
    <BinaryTree type="DecisionTree" boostWeight="1.0000000000000000e+00" itree="411">
      <Node pos="s" depth="0" NCoef="0" IVar="1" Cut="2.1589205265045166e+00" cType="1" res="-1.0353213610869716e-06" rms="3.2427677512168884e-01" purity="5.9855979681015015e-01" nType="0">
        <Node pos="l" depth="1" NCoef="0" IVar="1" Cut="1.4127805233001709e+00" cType="1" res="-4.8328016418963671e-05" rms="3.2398754358291626e-01" purity="5.9953266382217407e-01" nType="0">
          <Node pos="l" depth="2" NCoef="0" IVar="-1" Cut="0.0000000000000000e+00" cType="1" res="3.1259278330253437e-05" rms="3.2403275370597839e-01" purity="6.0298997163772583e-01" nType="-99"/>
          <Node pos="r" depth="2" NCoef="0" IVar="-1" Cut="0.0000000000000000e+00" cType="1" res="-7.3486412875354290e-03" rms="3.1725445389747620e-01" purity="1.2032085657119751e-01" nType="-99"/>
        </Node>
        <Node pos="r" depth="1" NCoef="0" IVar="-1" Cut="0.0000000000000000e+00" cType="1" res="5.5214413441717625e-03" rms="4.1805782914161682e-01" purity="2.3571428656578064e-01" nType="-99"/>
      </Node>
    </BinaryTree>
    <BinaryTree type="DecisionTree" boostWeight="1.0000000000000000e+00" itree="412">
      <Node pos="s" depth="0" NCoef="0" IVar="1" Cut="1.5704647302627563e+00" cType="1" res="-9.9898613825644134e-07" rms="3.2427600026130676e-01" purity="5.9855979681015015e-01" nType="0">
        <Node pos="l" depth="1" NCoef="0" IVar="-1" Cut="0.0000000000000000e+00" cType="1" res="-3.8951016904320568e-05" rms="3.2385396957397461e-01" purity="6.0177844762802124e-01" nType="-99"/>
        <Node pos="r" depth="1" NCoef="0" IVar="0" Cut="6.1844080686569214e-01" cType="0" res="1.0694447904825211e-02" rms="3.7516343593597412e-01" purity="1.7839196324348450e-01" nType="0">
          <Node pos="l" depth="2" NCoef="0" IVar="-1" Cut="0.0000000000000000e+00" cType="1" res="1.0807985439896584e-02" rms="3.9428797364234924e-01" purity="2.0300751924514771e-01" nType="-99"/>
          <Node pos="r" depth="2" NCoef="0" IVar="-1" Cut="0.0000000000000000e+00" cType="1" res="-1.0455841198563576e-02" rms="3.3038216829299927e-01" purity="1.2878787517547607e-01" nType="-99"/>
        </Node>
      </Node>
    </BinaryTree>
    <BinaryTree type="DecisionTree" boostWeight="1.0000000000000000e+00" itree="413">
      <Node pos="s" depth="0" NCoef="0" IVar="2" Cut="3.0308997631072998e+00" cType="1" res="-1.0292962997482391e-06" rms="3.2427397370338440e-01" purity="5.9855979681015015e-01" nType="0">
        <Node pos="l" depth="1" NCoef="0" IVar="-1" Cut="0.0000000000000000e+00" cType="1" res="3.9490420022048056e-05" rms="3.2414960861206055e-01" purity="6.0254877805709839e-01" nType="-99"/>
        <Node pos="r" depth="1" NCoef="0" IVar="3" Cut="3.4792906045913696e-01" cType="0" res="-9.0837199240922928e-03" rms="3.3716157078742981e-01" purity="1.7283950746059418e-01" nType="0">
          <Node pos="l" depth="2" NCoef="0" IVar="-1" Cut="0.0000000000000000e+00" cType="1" res="8.8462643325328827e-03" rms="4.2043516039848328e-01" purity="3.7735849618911743e-01" nType="-99"/>
          <Node pos="r" depth="2" NCoef="0" IVar="-1" Cut="0.0000000000000000e+00" cType="1" res="-9.7790742293000221e-03" rms="3.0891302227973938e-01" purity="1.1578947305679321e-01" nType="-99"/>
        </Node>
      </Node>
    </BinaryTree>
    <BinaryTree type="DecisionTree" boostWeight="1.0000000000000000e+00" itree="414">
      <Node pos="s" depth="0" NCoef="0" IVar="3" Cut="2.0538493990898132e-01" cType="1" res="-1.0372901897426345e-06" rms="3.2427167892456055e-01" purity="5.9855979681015015e-01" nType="0">
        <Node pos="l" depth="1" NCoef="0" IVar="-1" Cut="0.0000000000000000e+00" cType="1" res="-7.2669150540605187e-04" rms="2.7135050296783447e-01" purity="7.1875935792922974e-01" nType="-99"/>
        <Node pos="r" depth="1" NCoef="0" IVar="1" Cut="1.1494252830743790e-01" cType="1" res="6.8699626717716455e-04" rms="3.5315895080566406e-01" purity="5.2393186092376709e-01" nType="0">
          <Node pos="l" depth="2" NCoef="0" IVar="-1" Cut="0.0000000000000000e+00" cType="1" res="-5.0793727859854698e-04" rms="3.4726488590240479e-01" purity="6.4636445045471191e-01" nType="-99"/>
          <Node pos="r" depth="2" NCoef="0" IVar="-1" Cut="0.0000000000000000e+00" cType="1" res="1.5849348856136203e-03" rms="3.6337450146675110e-01" purity="3.0630320310592651e-01" nType="-99"/>
        </Node>
      </Node>
    </BinaryTree>
    <BinaryTree type="DecisionTree" boostWeight="1.0000000000000000e+00" itree="415">
      <Node pos="s" depth="0" NCoef="0" IVar="2" Cut="5.9943631291389465e-02" cType="1" res="-9.4964110530781909e-07" rms="3.2426917552947998e-01" purity="5.9855979681015015e-01" nType="0">
        <Node pos="l" depth="1" NCoef="0" IVar="-1" Cut="0.0000000000000000e+00" cType="1" res="1.1490648612380028e-03" rms="2.5191646814346313e-01" purity="9.1650909185409546e-01" nType="-99"/>
        <Node pos="r" depth="1" NCoef="0" IVar="2" Cut="1.9750227034091949e-01" cType="1" res="-5.0259742420166731e-04" rms="3.4530675411224365e-01" purity="4.9111956357955933e-01" nType="0">
          <Node pos="l" depth="2" NCoef="0" IVar="-1" Cut="0.0000000000000000e+00" cType="1" res="-7.2621693834662437e-03" rms="3.3817672729492188e-01" purity="6.1284720897674561e-01" nType="-99"/>
          <Node pos="r" depth="2" NCoef="0" IVar="-1" Cut="0.0000000000000000e+00" cType="1" res="2.0997063256800175e-04" rms="3.4572279453277588e-01" purity="4.8350393772125244e-01" nType="-99"/>
        </Node>
      </Node>
    </BinaryTree>
    <BinaryTree type="DecisionTree" boostWeight="1.0000000000000000e+00" itree="416">
      <Node pos="s" depth="0" NCoef="0" IVar="3" Cut="3.1907123327255249e-01" cType="0" res="-6.9418024395417888e-07" rms="3.2426342368125916e-01" purity="5.9855979681015015e-01" nType="0">
        <Node pos="l" depth="1" NCoef="0" IVar="-1" Cut="0.0000000000000000e+00" cType="1" res="-4.8128687194548547e-04" rms="3.7237668037414551e-01" purity="6.7848116159439087e-01" nType="-99"/>
        <Node pos="r" depth="1" NCoef="0" IVar="0" Cut="2.2738631069660187e-01" cType="1" res="5.6598644005134702e-04" rms="3.0103379487991333e-01" purity="5.6392705440521240e-01" nType="0">
          <Node pos="l" depth="2" NCoef="0" IVar="-1" Cut="0.0000000000000000e+00" cType="1" res="1.3296266552060843e-03" rms="3.1283634901046753e-01" purity="8.3240413665771484e-01" nType="-99"/>
          <Node pos="r" depth="2" NCoef="0" IVar="-1" Cut="0.0000000000000000e+00" cType="1" res="-1.9640407990664244e-03" rms="2.7894121408462524e-01" purity="8.9945487678050995e-02" nType="-99"/>
        </Node>
      </Node>
    </BinaryTree>
    <BinaryTree type="DecisionTree" boostWeight="1.0000000000000000e+00" itree="417">
      <Node pos="s" depth="0" NCoef="0" IVar="0" Cut="1.2493752874433994e-03" cType="1" res="-6.6958961042473675e-07" rms="3.2426232099533081e-01" purity="5.9855979681015015e-01" nType="0">
        <Node pos="l" depth="1" NCoef="0" IVar="-1" Cut="0.0000000000000000e+00" cType="1" res="-8.3425041520968080e-04" rms="2.7245077490806580e-01" purity="9.0791207551956177e-01" nType="-99"/>
        <Node pos="r" depth="1" NCoef="0" IVar="2" Cut="3.7464769557118416e-03" cType="1" res="6.1810627812519670e-04" rms="3.4723705053329468e-01" purity="4.4418039917945862e-01" nType="0">
          <Node pos="l" depth="2" NCoef="0" IVar="-1" Cut="0.0000000000000000e+00" cType="1" res="1.9306095317006111e-02" rms="4.0522441267967224e-01" purity="5.0000000000000000e-01" nType="-99"/>
          <Node pos="r" depth="2" NCoef="0" IVar="-1" Cut="0.0000000000000000e+00" cType="1" res="1.5068984066601843e-04" rms="3.4696838259696960e-01" purity="4.4396218657493591e-01" nType="-99"/>
        </Node>
      </Node>
    </BinaryTree>
    <BinaryTree type="DecisionTree" boostWeight="1.0000000000000000e+00" itree="418">
      <Node pos="s" depth="0" NCoef="0" IVar="0" Cut="1.2981009483337402e+00" cType="1" res="-6.0689836800520425e-07" rms="3.2425814867019653e-01" purity="5.9855979681015015e-01" nType="0">
        <Node pos="l" depth="1" NCoef="0" IVar="-1" Cut="0.0000000000000000e+00" cType="1" res="-8.6969441326800734e-05" rms="3.2519873976707458e-01" purity="6.2081432342529297e-01" nType="-99"/>
        <Node pos="r" depth="1" NCoef="0" IVar="2" Cut="2.1317453384399414e+00" cType="0" res="4.0430570952594280e-03" rms="3.0305758118629456e-01" purity="1.1468288302421570e-01" nType="0">
          <Node pos="l" depth="2" NCoef="0" IVar="-1" Cut="0.0000000000000000e+00" cType="1" res="-8.3444369956851006e-03" rms="3.0413824319839478e-01" purity="1.2816455960273743e-01" nType="-99"/>
          <Node pos="r" depth="2" NCoef="0" IVar="-1" Cut="0.0000000000000000e+00" cType="1" res="7.5152744539082050e-03" rms="3.0220329761505127e-01" purity="1.0958083719015121e-01" nType="-99"/>
        </Node>
      </Node>
    </BinaryTree>
    <BinaryTree type="DecisionTree" boostWeight="1.0000000000000000e+00" itree="419">
      <Node pos="s" depth="0" NCoef="0" IVar="2" Cut="2.7124493122100830e+00" cType="1" res="-8.8704973677522503e-07" rms="3.2425481081008911e-01" purity="5.9855979681015015e-01" nType="0">
        <Node pos="l" depth="1" NCoef="0" IVar="-1" Cut="0.0000000000000000e+00" cType="1" res="-5.6499058700865135e-05" rms="3.2387194037437439e-01" purity="6.0511964559555054e-01" nType="-99"/>
        <Node pos="r" depth="1" NCoef="0" IVar="3" Cut="3.6418318748474121e-01" cType="0" res="7.4351662769913673e-03" rms="3.4719842672348022e-01" purity="1.8984280526638031e-01" nType="0">
          <Node pos="l" depth="2" NCoef="0" IVar="-1" Cut="0.0000000000000000e+00" cType="1" res="1.6448572278022766e-02" rms="4.6477580070495605e-01" purity="5.0458717346191406e-01" nType="-99"/>
          <Node pos="r" depth="2" NCoef="0" IVar="-1" Cut="0.0000000000000000e+00" cType="1" res="-4.4853441067971289e-04" rms="3.2483446598052979e-01" purity="1.4206127822399139e-01" nType="-99"/>
        </Node>
      </Node>
    </BinaryTree>
    <BinaryTree type="DecisionTree" boostWeight="1.0000000000000000e+00" itree="420">
      <Node pos="s" depth="0" NCoef="0" IVar="3" Cut="4.1201916337013245e-01" cType="0" res="-8.2889931718455045e-07" rms="3.2425174117088318e-01" purity="5.9855979681015015e-01" nType="0">
        <Node pos="l" depth="1" NCoef="0" IVar="-1" Cut="0.0000000000000000e+00" cType="1" res="1.1476228246465325e-03" rms="3.4262847900390625e-01" purity="8.2571774721145630e-01" nType="-99"/>
        <Node pos="r" depth="1" NCoef="0" IVar="3" Cut="4.1015225648880005e-01" cType="0" res="-2.8272584313526750e-04" rms="3.2227283716201782e-01" purity="5.7486081123352051e-01" nType="0">
          <Node pos="l" depth="2" NCoef="0" IVar="-1" Cut="0.0000000000000000e+00" cType="1" res="-1.9928617402911186e-02" rms="4.1555771231651306e-01" purity="6.9178080558776855e-01" nType="-99"/>
          <Node pos="r" depth="2" NCoef="0" IVar="-1" Cut="0.0000000000000000e+00" cType="1" res="-5.4183896281756461e-05" rms="3.2192847132682800e-01" purity="5.7449960708618164e-01" nType="-99"/>
        </Node>
      </Node>
    </BinaryTree>
    <BinaryTree type="DecisionTree" boostWeight="1.0000000000000000e+00" itree="421">
      <Node pos="s" depth="0" NCoef="0" IVar="1" Cut="1.5704647302627563e+00" cType="1" res="-6.0612660490733106e-07" rms="3.2424843311309814e-01" purity="5.9855979681015015e-01" nType="0">
        <Node pos="l" depth="1" NCoef="0" IVar="-1" Cut="0.0000000000000000e+00" cType="1" res="-3.5860812204191461e-05" rms="3.2382845878601074e-01" purity="6.0177844762802124e-01" nType="-99"/>
        <Node pos="r" depth="1" NCoef="0" IVar="3" Cut="2.7439603209495544e-01" cType="1" res="9.8848408088088036e-03" rms="3.7492519617080688e-01" purity="1.7839196324348450e-01" nType="0">
          <Node pos="l" depth="2" NCoef="0" IVar="-1" Cut="0.0000000000000000e+00" cType="1" res="1.0102560743689537e-02" rms="3.8048341870307922e-01" purity="1.9117647409439087e-01" nType="-99"/>
          <Node pos="r" depth="2" NCoef="0" IVar="-1" Cut="0.0000000000000000e+00" cType="1" res="-1.0143801569938660e-02" rms="3.6008790135383606e-01" purity="1.5079365670681000e-01" nType="-99"/>
        </Node>
      </Node>
    </BinaryTree>
    <BinaryTree type="DecisionTree" boostWeight="1.0000000000000000e+00" itree="422">
      <Node pos="s" depth="0" NCoef="0" IVar="2" Cut="2.7124493122100830e+00" cType="1" res="-6.6207365989612299e-07" rms="3.2424607872962952e-01" purity="5.9855979681015015e-01" nType="0">
        <Node pos="l" depth="1" NCoef="0" IVar="-1" Cut="0.0000000000000000e+00" cType="1" res="-5.0939626817125827e-05" rms="3.2386797666549683e-01" purity="6.0511964559555054e-01" nType="-99"/>
        <Node pos="r" depth="1" NCoef="0" IVar="3" Cut="3.6418318748474121e-01" cType="0" res="6.7123197950422764e-03" rms="3.4692618250846863e-01" purity="1.8984280526638031e-01" nType="0">
          <Node pos="l" depth="2" NCoef="0" IVar="-1" Cut="0.0000000000000000e+00" cType="1" res="1.4763658866286278e-02" rms="4.6444022655487061e-01" purity="5.0458717346191406e-01" nType="-99"/>
          <Node pos="r" depth="2" NCoef="0" IVar="-1" Cut="0.0000000000000000e+00" cType="1" res="-3.9879322866909206e-04" rms="3.2472729682922363e-01" purity="1.4206127822399139e-01" nType="-99"/>
        </Node>
      </Node>
    </BinaryTree>
    <BinaryTree type="DecisionTree" boostWeight="1.0000000000000000e+00" itree="423">
      <Node pos="s" depth="0" NCoef="0" IVar="0" Cut="6.5842080116271973e-01" cType="1" res="-6.1920940197524033e-07" rms="3.2424351572990417e-01" purity="5.9855979681015015e-01" nType="0">
        <Node pos="l" depth="1" NCoef="0" IVar="-1" Cut="0.0000000000000000e+00" cType="1" res="1.4672956604044884e-04" rms="3.3313688635826111e-01" purity="6.7745697498321533e-01" nType="-99"/>
        <Node pos="r" depth="1" NCoef="0" IVar="1" Cut="3.2108944654464722e-01" cType="0" res="-2.1799420937895775e-03" rms="2.5786224007606506e-01" purity="7.7169016003608704e-02" nType="0">
          <Node pos="l" depth="2" NCoef="0" IVar="-1" Cut="0.0000000000000000e+00" cType="1" res="3.3902348950505257e-03" rms="2.8360038995742798e-01" purity="9.5867209136486053e-02" nType="-99"/>
          <Node pos="r" depth="2" NCoef="0" IVar="-1" Cut="0.0000000000000000e+00" cType="1" res="-6.0556516982614994e-03" rms="2.3653613030910492e-01" purity="6.3120387494564056e-02" nType="-99"/>
        </Node>
      </Node>
    </BinaryTree>
    <BinaryTree type="DecisionTree" boostWeight="1.0000000000000000e+00" itree="424">
      <Node pos="s" depth="0" NCoef="0" IVar="1" Cut="1.3018491268157959e+00" cType="1" res="-9.2214730784689891e-07" rms="3.2424229383468628e-01" purity="5.9855979681015015e-01" nType="0">
        <Node pos="l" depth="1" NCoef="0" IVar="-1" Cut="0.0000000000000000e+00" cType="1" res="4.5076114474795759e-05" rms="3.2403734326362610e-01" purity="6.0432100296020508e-01" nType="-99"/>
        <Node pos="r" depth="1" NCoef="0" IVar="0" Cut="2.1614192426204681e-01" cType="0" res="-7.6711033470928669e-03" rms="3.3999121189117432e-01" purity="1.4241960644721985e-01" nType="0">
          <Node pos="l" depth="2" NCoef="0" IVar="-1" Cut="0.0000000000000000e+00" cType="1" res="3.5101361572742462e-03" rms="3.3926296234130859e-01" purity="1.4545454084873199e-01" nType="-99"/>
          <Node pos="r" depth="2" NCoef="0" IVar="-1" Cut="0.0000000000000000e+00" cType="1" res="-2.7815828099846840e-02" rms="3.3204403519630432e-01" purity="1.2621359527111053e-01" nType="-99"/>
        </Node>
      </Node>
    </BinaryTree>
    <BinaryTree type="DecisionTree" boostWeight="1.0000000000000000e+00" itree="425">
      <Node pos="s" depth="0" NCoef="0" IVar="2" Cut="3.0308997631072998e+00" cType="1" res="-1.1041466905226116e-06" rms="3.2423666119575500e-01" purity="5.9855979681015015e-01" nType="0">
        <Node pos="l" depth="1" NCoef="0" IVar="-1" Cut="0.0000000000000000e+00" cType="1" res="3.7336452805902809e-05" rms="3.2411649823188782e-01" purity="6.0254877805709839e-01" nType="-99"/>
        <Node pos="r" depth="1" NCoef="0" IVar="2" Cut="3.2768650054931641e+00" cType="0" res="-8.5986619815230370e-03" rms="3.3670270442962646e-01" purity="1.7283950746059418e-01" nType="0">
          <Node pos="l" depth="2" NCoef="0" IVar="-1" Cut="0.0000000000000000e+00" cType="1" res="3.1184994149953127e-03" rms="3.6859834194183350e-01" purity="2.1812079846858978e-01" nType="-99"/>
          <Node pos="r" depth="2" NCoef="0" IVar="-1" Cut="0.0000000000000000e+00" cType="1" res="-1.7408082261681557e-02" rms="2.7658292651176453e-01" purity="1.0106383264064789e-01" nType="-99"/>
        </Node>
      </Node>
    </BinaryTree>
    <BinaryTree type="DecisionTree" boostWeight="1.0000000000000000e+00" itree="426">
      <Node pos="s" depth="0" NCoef="0" IVar="2" Cut="1.7608441114425659e+00" cType="1" res="-1.1369759249646449e-06" rms="3.2423496246337891e-01" purity="5.9855979681015015e-01" nType="0">
        <Node pos="l" depth="1" NCoef="0" IVar="-1" Cut="0.0000000000000000e+00" cType="1" res="-1.1857172648888081e-04" rms="3.2280364632606506e-01" purity="6.3296103477478027e-01" nType="-99"/>
        <Node pos="r" depth="1" NCoef="0" IVar="0" Cut="1.7116442322731018e-01" cType="1" res="2.8730195481330156e-03" rms="3.4027487039566040e-01" purity="2.0229555666446686e-01" nType="0">
          <Node pos="l" depth="2" NCoef="0" IVar="-1" Cut="0.0000000000000000e+00" cType="1" res="-8.2033360376954079e-03" rms="4.3681564927101135e-01" purity="6.3561075925827026e-01" nType="-99"/>
          <Node pos="r" depth="2" NCoef="0" IVar="-1" Cut="0.0000000000000000e+00" cType="1" res="3.3950281795114279e-03" rms="3.2530447840690613e-01" purity="1.4571505784988403e-01" nType="-99"/>
        </Node>
      </Node>
    </BinaryTree>
    <BinaryTree type="DecisionTree" boostWeight="1.0000000000000000e+00" itree="427">
      <Node pos="s" depth="0" NCoef="0" IVar="0" Cut="6.5842080116271973e-01" cType="1" res="-1.0674018540157704e-06" rms="3.2422852516174316e-01" purity="5.9855979681015015e-01" nType="0">
        <Node pos="l" depth="1" NCoef="0" IVar="-1" Cut="0.0000000000000000e+00" cType="1" res="1.4466140419244766e-04" rms="3.3312299847602844e-01" purity="6.7745697498321533e-01" nType="-99"/>
        <Node pos="r" depth="1" NCoef="0" IVar="0" Cut="7.9648286104202271e-01" cType="0" res="-2.1528853103518486e-03" rms="2.5783762335777283e-01" purity="7.7169016003608704e-02" nType="0">
          <Node pos="l" depth="2" NCoef="0" IVar="-1" Cut="0.0000000000000000e+00" cType="1" res="8.4711221279576421e-04" rms="2.6985356211662292e-01" purity="8.5542395710945129e-02" nType="-99"/>
          <Node pos="r" depth="2" NCoef="0" IVar="-1" Cut="0.0000000000000000e+00" cType="1" res="-1.1870822869241238e-02" rms="2.1146062016487122e-01" purity="4.8655569553375244e-02" nType="-99"/>
        </Node>
      </Node>
    </BinaryTree>
    <BinaryTree type="DecisionTree" boostWeight="1.0000000000000000e+00" itree="428">
      <Node pos="s" depth="0" NCoef="0" IVar="1" Cut="8.0209892988204956e-01" cType="1" res="-1.3814585599902784e-06" rms="3.2422739267349243e-01" purity="5.9855979681015015e-01" nType="0">
        <Node pos="l" depth="1" NCoef="0" IVar="-1" Cut="0.0000000000000000e+00" cType="1" res="7.5135591032449156e-05" rms="3.2464247941970825e-01" purity="6.1697316169738770e-01" nType="-99"/>
        <Node pos="r" depth="1" NCoef="0" IVar="0" Cut="1.9165416955947876e+00" cType="0" res="-4.1949381120502949e-03" rms="3.1324842572212219e-01" purity="1.2133675813674927e-01" nType="0">
          <Node pos="l" depth="2" NCoef="0" IVar="-1" Cut="0.0000000000000000e+00" cType="1" res="1.0882806032896042e-02" rms="4.0904015302658081e-01" purity="2.2222222387790680e-01" nType="-99"/>
          <Node pos="r" depth="2" NCoef="0" IVar="-1" Cut="0.0000000000000000e+00" cType="1" res="-6.4592272974550724e-03" rms="2.8731989860534668e-01" purity="9.9121704697608948e-02" nType="-99"/>
        </Node>
      </Node>
    </BinaryTree>
    <BinaryTree type="DecisionTree" boostWeight="1.0000000000000000e+00" itree="429">
      <Node pos="s" depth="0" NCoef="0" IVar="2" Cut="3.4542517662048340e+00" cType="1" res="-1.5334962881752290e-06" rms="3.2422468066215515e-01" purity="5.9855979681015015e-01" nType="0">
        <Node pos="l" depth="1" NCoef="0" IVar="-1" Cut="0.0000000000000000e+00" cType="1" res="2.5629431547713466e-05" rms="3.2405218482017517e-01" purity="6.0029160976409912e-01" nType="-99"/>
        <Node pos="r" depth="1" NCoef="0" IVar="1" Cut="3.2983508706092834e-01" cType="1" res="-1.2936021201312542e-02" rms="3.6158618330955505e-01" purity="1.9911503791809082e-01" nType="0">
          <Node pos="l" depth="2" NCoef="0" IVar="-1" Cut="0.0000000000000000e+00" cType="1" res="8.2078706473112106e-03" rms="3.8020938634872437e-01" purity="2.3140496015548706e-01" nType="-99"/>
          <Node pos="r" depth="2" NCoef="0" IVar="-1" Cut="0.0000000000000000e+00" cType="1" res="-1.8660368397831917e-02" rms="3.3416932821273804e-01" purity="1.6190476715564728e-01" nType="-99"/>
        </Node>
      </Node>
    </BinaryTree>
    <BinaryTree type="DecisionTree" boostWeight="1.0000000000000000e+00" itree="430">
      <Node pos="s" depth="0" NCoef="0" IVar="3" Cut="2.4386337399482727e-01" cType="1" res="-1.4920220792191685e-06" rms="3.2422253489494324e-01" purity="5.9855979681015015e-01" nType="0">
        <Node pos="l" depth="1" NCoef="0" IVar="-1" Cut="0.0000000000000000e+00" cType="1" res="-5.4234580602496862e-04" rms="2.7778506278991699e-01" purity="6.4105153083801270e-01" nType="-99"/>
        <Node pos="r" depth="1" NCoef="0" IVar="0" Cut="1.6741628944873810e-01" cType="1" res="7.8704120824113488e-04" rms="3.6084789037704468e-01" purity="5.6042045354843140e-01" nType="0">
          <Node pos="l" depth="2" NCoef="0" IVar="-1" Cut="0.0000000000000000e+00" cType="1" res="-8.8961166329681873e-04" rms="3.6449223756790161e-01" purity="7.9455560445785522e-01" nType="-99"/>
          <Node pos="r" depth="2" NCoef="0" IVar="-1" Cut="0.0000000000000000e+00" cType="1" res="2.4080008734017611e-03" rms="3.5467907786369324e-01" purity="1.7330256104469299e-01" nType="-99"/>
        </Node>
      </Node>
    </BinaryTree>
    <BinaryTree type="DecisionTree" boostWeight="1.0000000000000000e+00" itree="431">
      <Node pos="s" depth="0" NCoef="0" IVar="0" Cut="6.8715639412403107e-02" cType="1" res="-1.4621481341237086e-06" rms="3.2421705126762390e-01" purity="5.9855979681015015e-01" nType="0">
        <Node pos="l" depth="1" NCoef="0" IVar="-1" Cut="0.0000000000000000e+00" cType="1" res="4.8755432362668216e-04" rms="2.8763112425804138e-01" purity="8.9492529630661011e-01" nType="-99"/>
        <Node pos="r" depth="1" NCoef="0" IVar="2" Cut="5.9943631291389465e-02" cType="1" res="-9.2443253379315138e-04" rms="3.6078223586082458e-01" purity="2.6692840456962585e-01" nType="0">
          <Node pos="l" depth="2" NCoef="0" IVar="-1" Cut="0.0000000000000000e+00" cType="1" res="1.9515898078680038e-02" rms="3.9614602923393250e-01" purity="4.0856030583381653e-01" nType="-99"/>
          <Node pos="r" depth="2" NCoef="0" IVar="-1" Cut="0.0000000000000000e+00" cType="1" res="-5.8047485072165728e-04" rms="3.6034390330314636e-01" purity="2.6543965935707092e-01" nType="-99"/>
        </Node>
      </Node>
    </BinaryTree>
    <BinaryTree type="DecisionTree" boostWeight="1.0000000000000000e+00" itree="432">
      <Node pos="s" depth="0" NCoef="0" IVar="2" Cut="2.9222521185874939e-01" cType="1" res="-1.3796227449347498e-06" rms="3.2421359419822693e-01" purity="5.9855979681015015e-01" nType="0">
        <Node pos="l" depth="1" NCoef="0" IVar="-1" Cut="0.0000000000000000e+00" cType="1" res="-7.3954451363533735e-04" rms="2.7612432837486267e-01" purity="8.4798938035964966e-01" nType="-99"/>
        <Node pos="r" depth="1" NCoef="0" IVar="3" Cut="1.3903661072254181e-01" cType="0" res="6.0383474919945002e-04" rms="3.4694886207580566e-01" purity="4.6671533584594727e-01" nType="0">
          <Node pos="l" depth="2" NCoef="0" IVar="-1" Cut="0.0000000000000000e+00" cType="1" res="3.6507216282188892e-04" rms="3.4820351004600525e-01" purity="4.7285833954811096e-01" nType="-99"/>
          <Node pos="r" depth="2" NCoef="0" IVar="-1" Cut="0.0000000000000000e+00" cType="1" res="-1.1364525184035301e-02" rms="2.5569689273834229e-01" purity="8.1784389913082123e-02" nType="-99"/>
        </Node>
      </Node>
    </BinaryTree>
    <BinaryTree type="DecisionTree" boostWeight="1.0000000000000000e+00" itree="433">
      <Node pos="s" depth="0" NCoef="0" IVar="2" Cut="3.0308997631072998e+00" cType="1" res="-1.3721313507630839e-06" rms="3.2421258091926575e-01" purity="5.9855979681015015e-01" nType="0">
        <Node pos="l" depth="1" NCoef="0" IVar="-1" Cut="0.0000000000000000e+00" cType="1" res="3.7062123737996444e-05" rms="3.2409539818763733e-01" purity="6.0254877805709839e-01" nType="-99"/>
        <Node pos="r" depth="1" NCoef="0" IVar="2" Cut="3.2768650054931641e+00" cType="0" res="-8.5700377821922302e-03" rms="3.3637365698814392e-01" purity="1.7283950746059418e-01" nType="0">
          <Node pos="l" depth="2" NCoef="0" IVar="-1" Cut="0.0000000000000000e+00" cType="1" res="2.5406687054783106e-03" rms="3.6828076839447021e-01" purity="2.1812079846858978e-01" nType="-99"/>
          <Node pos="r" depth="2" NCoef="0" IVar="-1" Cut="0.0000000000000000e+00" cType="1" res="-1.6411237418651581e-02" rms="2.7660387754440308e-01" purity="1.0106383264064789e-01" nType="-99"/>
        </Node>
      </Node>
    </BinaryTree>
    <BinaryTree type="DecisionTree" boostWeight="1.0000000000000000e+00" itree="434">
      <Node pos="s" depth="0" NCoef="0" IVar="2" Cut="3.4542517662048340e+00" cType="1" res="-1.3595254131359980e-06" rms="3.2421118021011353e-01" purity="5.9855979681015015e-01" nType="0">
        <Node pos="l" depth="1" NCoef="0" IVar="-1" Cut="0.0000000000000000e+00" cType="1" res="2.5733274014783092e-05" rms="3.2404074072837830e-01" purity="6.0029160976409912e-01" nType="-99"/>
        <Node pos="r" depth="1" NCoef="0" IVar="1" Cut="3.2983508706092834e-01" cType="1" res="-1.2954201549291611e-02" rms="3.6114621162414551e-01" purity="1.9911503791809082e-01" nType="0">
          <Node pos="l" depth="2" NCoef="0" IVar="-1" Cut="0.0000000000000000e+00" cType="1" res="6.8408399820327759e-03" rms="3.8006833195686340e-01" purity="2.3140496015548706e-01" nType="-99"/>
          <Node pos="r" depth="2" NCoef="0" IVar="-1" Cut="0.0000000000000000e+00" cType="1" res="-1.7484439536929131e-02" rms="3.3422026038169861e-01" purity="1.6190476715564728e-01" nType="-99"/>
        </Node>
      </Node>
    </BinaryTree>
    <BinaryTree type="DecisionTree" boostWeight="1.0000000000000000e+00" itree="435">
      <Node pos="s" depth="0" NCoef="0" IVar="2" Cut="2.7124493122100830e+00" cType="1" res="-1.3182882412365871e-06" rms="3.2420942187309265e-01" purity="5.9855979681015015e-01" nType="0">
        <Node pos="l" depth="1" NCoef="0" IVar="-1" Cut="0.0000000000000000e+00" cType="1" res="-4.9699792725732550e-05" rms="3.2384139299392700e-01" purity="6.0511964559555054e-01" nType="-99"/>
        <Node pos="r" depth="1" NCoef="0" IVar="3" Cut="3.6418318748474121e-01" cType="0" res="6.5075252205133438e-03" rms="3.4630799293518066e-01" purity="1.8984280526638031e-01" nType="0">
          <Node pos="l" depth="2" NCoef="0" IVar="-1" Cut="0.0000000000000000e+00" cType="1" res="1.3139782473444939e-02" rms="4.6365964412689209e-01" purity="5.0458717346191406e-01" nType="-99"/>
          <Node pos="r" depth="2" NCoef="0" IVar="-1" Cut="0.0000000000000000e+00" cType="1" res="-9.2219350335653871e-05" rms="3.2428115606307983e-01" purity="1.4206127822399139e-01" nType="-99"/>
        </Node>
      </Node>
    </BinaryTree>
    <BinaryTree type="DecisionTree" boostWeight="1.0000000000000000e+00" itree="436">
      <Node pos="s" depth="0" NCoef="0" IVar="3" Cut="3.1907123327255249e-01" cType="0" res="-1.2033120810883702e-06" rms="3.2420730590820312e-01" purity="5.9855979681015015e-01" nType="0">
        <Node pos="l" depth="1" NCoef="0" IVar="-1" Cut="0.0000000000000000e+00" cType="1" res="-4.6110551920719445e-04" rms="3.7230950593948364e-01" purity="6.7848116159439087e-01" nType="-99"/>
        <Node pos="r" depth="1" NCoef="0" IVar="0" Cut="1.2743628025054932e-01" cType="1" res="5.4191594244912267e-04" rms="3.0098330974578857e-01" purity="5.6392705440521240e-01" nType="0">
          <Node pos="l" depth="2" NCoef="0" IVar="-1" Cut="0.0000000000000000e+00" cType="1" res="1.7235423438251019e-03" rms="2.8893467783927917e-01" purity="8.8697290420532227e-01" nType="-99"/>
          <Node pos="r" depth="2" NCoef="0" IVar="-1" Cut="0.0000000000000000e+00" cType="1" res="-1.2841987190768123e-03" rms="3.1602641940116882e-01" purity="1.4125007390975952e-01" nType="-99"/>
        </Node>
      </Node>
    </BinaryTree>
    <BinaryTree type="DecisionTree" boostWeight="1.0000000000000000e+00" itree="437">
      <Node pos="s" depth="0" NCoef="0" IVar="2" Cut="2.9222521185874939e-01" cType="1" res="-1.0080411811941303e-06" rms="3.2420650124549866e-01" purity="5.9855979681015015e-01" nType="0">
        <Node pos="l" depth="1" NCoef="0" IVar="-1" Cut="0.0000000000000000e+00" cType="1" res="-8.0567918485030532e-04" rms="2.7612581849098206e-01" purity="8.4798938035964966e-01" nType="-99"/>
        <Node pos="r" depth="1" NCoef="0" IVar="3" Cut="1.7966404557228088e-01" cType="0" res="6.5764633473008871e-04" rms="3.4693780541419983e-01" purity="4.6671533584594727e-01" nType="0">
          <Node pos="l" depth="2" NCoef="0" IVar="-1" Cut="0.0000000000000000e+00" cType="1" res="2.1307743736542761e-05" rms="3.5045725107192993e-01" purity="4.8694244027137756e-01" nType="-99"/>
          <Node pos="r" depth="2" NCoef="0" IVar="-1" Cut="0.0000000000000000e+00" cType="1" res="5.7384194806218147e-03" rms="2.8832930326461792e-01" purity="1.6062176227569580e-01" nType="-99"/>
        </Node>
      </Node>
    </BinaryTree>
    <BinaryTree type="DecisionTree" boostWeight="1.0000000000000000e+00" itree="438">
      <Node pos="s" depth="0" NCoef="0" IVar="3" Cut="2.0538493990898132e-01" cType="1" res="-1.0085371968671097e-06" rms="3.2420182228088379e-01" purity="5.9855979681015015e-01" nType="0">
        <Node pos="l" depth="1" NCoef="0" IVar="-1" Cut="0.0000000000000000e+00" cType="1" res="-7.1031553670763969e-04" rms="2.7127191424369812e-01" purity="7.1875935792922974e-01" nType="-99"/>
        <Node pos="r" depth="1" NCoef="0" IVar="3" Cut="2.2172753512859344e-01" cType="0" res="6.7062902962788939e-04" rms="3.5309255123138428e-01" purity="5.2393186092376709e-01" nType="0">
          <Node pos="l" depth="2" NCoef="0" IVar="-1" Cut="0.0000000000000000e+00" cType="1" res="1.6979536667349748e-05" rms="3.5588040947914124e-01" purity="5.3593826293945312e-01" nType="-99"/>
          <Node pos="r" depth="2" NCoef="0" IVar="-1" Cut="0.0000000000000000e+00" cType="1" res="5.5016125552356243e-03" rms="3.0320712924003601e-01" purity="3.2574525475502014e-01" nType="-99"/>
        </Node>
      </Node>
    </BinaryTree>
    <BinaryTree type="DecisionTree" boostWeight="1.0000000000000000e+00" itree="439">
      <Node pos="s" depth="0" NCoef="0" IVar="3" Cut="4.3975362181663513e-01" cType="0" res="-9.4266908945428440e-07" rms="3.2420021295547485e-01" purity="5.9855979681015015e-01" nType="0">
        <Node pos="l" depth="1" NCoef="0" IVar="-1" Cut="0.0000000000000000e+00" cType="1" res="1.5299406368285418e-03" rms="3.2991707324981689e-01" purity="8.4971487522125244e-01" nType="-99"/>
        <Node pos="r" depth="1" NCoef="0" IVar="3" Cut="4.3754813075065613e-01" cType="0" res="-2.0517974917311221e-04" rms="3.2385069131851196e-01" purity="5.8339577913284302e-01" nType="0">
          <Node pos="l" depth="2" NCoef="0" IVar="-1" Cut="0.0000000000000000e+00" cType="1" res="-2.4661401286721230e-02" rms="4.1044193506240845e-01" purity="7.5000000000000000e-01" nType="-99"/>
          <Node pos="r" depth="2" NCoef="0" IVar="-1" Cut="0.0000000000000000e+00" cType="1" res="-2.5039505999302492e-05" rms="3.2359674572944641e-01" purity="5.8298987150192261e-01" nType="-99"/>
        </Node>
      </Node>
    </BinaryTree>
    <BinaryTree type="DecisionTree" boostWeight="1.0000000000000000e+00" itree="440">
      <Node pos="s" depth="0" NCoef="0" IVar="3" Cut="4.8397886753082275e-01" cType="0" res="-6.3163599861582043e-07" rms="3.2419675588607788e-01" purity="5.9855979681015015e-01" nType="0">
        <Node pos="l" depth="1" NCoef="0" IVar="-1" Cut="0.0000000000000000e+00" cType="1" res="-3.7461759056895971e-03" rms="3.1477111577987671e-01" purity="8.6547082662582397e-01" nType="-99"/>
        <Node pos="r" depth="1" NCoef="0" IVar="3" Cut="4.8131686449050903e-01" cType="0" res="9.2835449322592467e-05" rms="3.2431590557098389e-01" purity="5.9510499238967896e-01" nType="0">
          <Node pos="l" depth="2" NCoef="0" IVar="-1" Cut="0.0000000000000000e+00" cType="1" res="3.2634839415550232e-02" rms="2.2754234075546265e-01" purity="9.4736844301223755e-01" nType="-99"/>
          <Node pos="r" depth="2" NCoef="0" IVar="-1" Cut="0.0000000000000000e+00" cType="1" res="-1.2274316759430803e-05" rms="3.2448795437812805e-01" purity="5.9432625770568848e-01" nType="-99"/>
        </Node>
      </Node>
    </BinaryTree>
    <BinaryTree type="DecisionTree" boostWeight="1.0000000000000000e+00" itree="441">
      <Node pos="s" depth="0" NCoef="0" IVar="3" Cut="2.2637318074703217e-01" cType="1" res="-2.8217789349582745e-07" rms="3.2419338822364807e-01" purity="5.9855979681015015e-01" nType="0">
        <Node pos="l" depth="1" NCoef="0" IVar="-1" Cut="0.0000000000000000e+00" cType="1" res="-5.9957994380965829e-04" rms="2.7429556846618652e-01" purity="6.7512804269790649e-01" nType="-99"/>
        <Node pos="r" depth="1" NCoef="0" IVar="3" Cut="2.2733871638774872e-01" cType="0" res="7.1006652433425188e-04" rms="3.5711115598678589e-01" purity="5.4105490446090698e-01" nType="0">
          <Node pos="l" depth="2" NCoef="0" IVar="-1" Cut="0.0000000000000000e+00" cType="1" res="1.8358031229581684e-04" rms="3.5700798034667969e-01" purity="5.4178839921951294e-01" nType="-99"/>
          <Node pos="r" depth="2" NCoef="0" IVar="-1" Cut="0.0000000000000000e+00" cType="1" res="2.9910018667578697e-02" rms="3.7732475996017456e-01" purity="3.5593220591545105e-01" nType="-99"/>
        </Node>
      </Node>
    </BinaryTree>
    <BinaryTree type="DecisionTree" boostWeight="1.0000000000000000e+00" itree="442">
      <Node pos="s" depth="0" NCoef="0" IVar="2" Cut="3.4542517662048340e+00" cType="1" res="-3.9964791653801512e-07" rms="3.2419043779373169e-01" purity="5.9855979681015015e-01" nType="0">
        <Node pos="l" depth="1" NCoef="0" IVar="-1" Cut="0.0000000000000000e+00" cType="1" res="2.4724315153434873e-05" rms="3.2402220368385315e-01" purity="6.0029160976409912e-01" nType="-99"/>
        <Node pos="r" depth="1" NCoef="0" IVar="1" Cut="3.2983508706092834e-01" cType="1" res="-1.2232852168381214e-02" rms="3.6069726943969727e-01" purity="1.9911503791809082e-01" nType="0">
          <Node pos="l" depth="2" NCoef="0" IVar="-1" Cut="0.0000000000000000e+00" cType="1" res="5.7658972218632698e-03" rms="3.7993168830871582e-01" purity="2.3140496015548706e-01" nType="-99"/>
          <Node pos="r" depth="2" NCoef="0" IVar="-1" Cut="0.0000000000000000e+00" cType="1" res="-1.6029322519898415e-02" rms="3.3416983485221863e-01" purity="1.6190476715564728e-01" nType="-99"/>
        </Node>
      </Node>
    </BinaryTree>
    <BinaryTree type="DecisionTree" boostWeight="1.0000000000000000e+00" itree="443">
      <Node pos="s" depth="0" NCoef="0" IVar="2" Cut="2.7124493122100830e+00" cType="1" res="-4.3744930167122220e-07" rms="3.2418909668922424e-01" purity="5.9855979681015015e-01" nType="0">
        <Node pos="l" depth="1" NCoef="0" IVar="-1" Cut="0.0000000000000000e+00" cType="1" res="-4.7669098421465605e-05" rms="3.2382392883300781e-01" purity="6.0511964559555054e-01" nType="-99"/>
        <Node pos="r" depth="1" NCoef="0" IVar="3" Cut="3.1751105189323425e-01" cType="0" res="6.2921969220042229e-03" rms="3.4612497687339783e-01" purity="1.8984280526638031e-01" nType="0">
          <Node pos="l" depth="2" NCoef="0" IVar="-1" Cut="0.0000000000000000e+00" cType="1" res="-4.3015810661017895e-03" rms="3.7590098381042480e-01" purity="2.6849314570426941e-01" nType="-99"/>
          <Node pos="r" depth="2" NCoef="0" IVar="-1" Cut="0.0000000000000000e+00" cType="1" res="1.2099931016564369e-02" rms="3.1980127096176147e-01" purity="1.2770563364028931e-01" nType="-99"/>
        </Node>
      </Node>
    </BinaryTree>
    <BinaryTree type="DecisionTree" boostWeight="1.0000000000000000e+00" itree="444">
      <Node pos="s" depth="0" NCoef="0" IVar="0" Cut="5.9970013797283173e-02" cType="1" res="-5.7570139233575901e-07" rms="3.2418695092201233e-01" purity="5.9855979681015015e-01" nType="0">
        <Node pos="l" depth="1" NCoef="0" IVar="-1" Cut="0.0000000000000000e+00" cType="1" res="4.7902434016577899e-04" rms="2.8308722376823425e-01" purity="8.9877647161483765e-01" nType="-99"/>
        <Node pos="r" depth="1" NCoef="0" IVar="3" Cut="5.0529081374406815e-02" cType="1" res="-8.1621954450383782e-04" rms="3.6188584566116333e-01" purity="2.8743678331375122e-01" nType="0">
          <Node pos="l" depth="2" NCoef="0" IVar="-1" Cut="0.0000000000000000e+00" cType="1" res="1.8337596207857132e-02" rms="3.8322192430496216e-01" purity="4.0977442264556885e-01" nType="-99"/>
          <Node pos="r" depth="2" NCoef="0" IVar="-1" Cut="0.0000000000000000e+00" cType="1" res="-5.1889586029574275e-04" rms="3.6161535978317261e-01" purity="2.8615784645080566e-01" nType="-99"/>
        </Node>
      </Node>
    </BinaryTree>
    <BinaryTree type="DecisionTree" boostWeight="1.0000000000000000e+00" itree="445">
      <Node pos="s" depth="0" NCoef="0" IVar="3" Cut="2.3611772060394287e-01" cType="1" res="-5.7485851812089095e-07" rms="3.2418337464332581e-01" purity="5.9855979681015015e-01" nType="0">
        <Node pos="l" depth="1" NCoef="0" IVar="-1" Cut="0.0000000000000000e+00" cType="1" res="-5.6184275308623910e-04" rms="2.7622219920158386e-01" purity="6.5614449977874756e-01" nType="-99"/>
        <Node pos="r" depth="1" NCoef="0" IVar="0" Cut="1.5367315709590912e-01" cType="1" res="7.4325955938547850e-04" rms="3.5903185606002808e-01" purity="5.5094563961029053e-01" nType="0">
          <Node pos="l" depth="2" NCoef="0" IVar="-1" Cut="0.0000000000000000e+00" cType="1" res="-9.1942615108564496e-04" rms="3.6065098643302917e-01" purity="8.0334311723709106e-01" nType="-99"/>
          <Node pos="r" depth="2" NCoef="0" IVar="-1" Cut="0.0000000000000000e+00" cType="1" res="2.1129262167960405e-03" rms="3.5659053921699524e-01" purity="1.8022054433822632e-01" nType="-99"/>
        </Node>
      </Node>
    </BinaryTree>
    <BinaryTree type="DecisionTree" boostWeight="1.0000000000000000e+00" itree="446">
      <Node pos="s" depth="0" NCoef="0" IVar="0" Cut="6.8715639412403107e-02" cType="1" res="-6.0636205034825252e-07" rms="3.2417792081832886e-01" purity="5.9855979681015015e-01" nType="0">
        <Node pos="l" depth="1" NCoef="0" IVar="-1" Cut="0.0000000000000000e+00" cType="1" res="4.7681614523753524e-04" rms="2.8761467337608337e-01" purity="8.9492529630661011e-01" nType="-99"/>
        <Node pos="r" depth="1" NCoef="0" IVar="3" Cut="4.0249881148338318e-01" cType="0" res="-9.0222043218091130e-04" rms="3.6072248220443726e-01" purity="2.6692840456962585e-01" nType="0">
          <Node pos="l" depth="2" NCoef="0" IVar="-1" Cut="0.0000000000000000e+00" cType="1" res="9.1665368527173996e-03" rms="4.6537223458290100e-01" purity="5.0261777639389038e-01" nType="-99"/>
          <Node pos="r" depth="2" NCoef="0" IVar="-1" Cut="0.0000000000000000e+00" cType="1" res="-6.8182992981746793e-04" rms="3.5782042145729065e-01" purity="2.6133257150650024e-01" nType="-99"/>
        </Node>
      </Node>
    </BinaryTree>
    <BinaryTree type="DecisionTree" boostWeight="1.0000000000000000e+00" itree="447">
      <Node pos="s" depth="0" NCoef="0" IVar="3" Cut="3.1907123327255249e-01" cType="0" res="-5.5312608537860797e-07" rms="3.2417574524879456e-01" purity="5.9855979681015015e-01" nType="0">
        <Node pos="l" depth="1" NCoef="0" IVar="-1" Cut="0.0000000000000000e+00" cType="1" res="-4.4985738350078464e-04" rms="3.7227216362953186e-01" purity="6.7848116159439087e-01" nType="-99"/>
        <Node pos="r" depth="1" NCoef="0" IVar="0" Cut="1.6741628944873810e-01" cType="1" res="5.2981771295890212e-04" rms="3.0095466971397400e-01" purity="5.6392705440521240e-01" nType="0">
          <Node pos="l" depth="2" NCoef="0" IVar="-1" Cut="0.0000000000000000e+00" cType="1" res="1.4838280621916056e-03" rms="3.0119130015373230e-01" purity="8.6572420597076416e-01" nType="-99"/>
          <Node pos="r" depth="2" NCoef="0" IVar="-1" Cut="0.0000000000000000e+00" cType="1" res="-1.5135586727410555e-03" rms="3.0057018995285034e-01" purity="1.1419416218996048e-01" nType="-99"/>
        </Node>
      </Node>
    </BinaryTree>
    <BinaryTree type="DecisionTree" boostWeight="1.0000000000000000e+00" itree="448">
      <Node pos="s" depth="0" NCoef="0" IVar="2" Cut="2.9222521185874939e-01" cType="1" res="-4.7797163915674901e-07" rms="3.2417494058609009e-01" purity="5.9855979681015015e-01" nType="0">
        <Node pos="l" depth="1" NCoef="0" IVar="-1" Cut="0.0000000000000000e+00" cType="1" res="-7.9438695684075356e-04" rms="2.7610704302787781e-01" purity="8.4798938035964966e-01" nType="-99"/>
        <Node pos="r" depth="1" NCoef="0" IVar="3" Cut="1.7966404557228088e-01" cType="0" res="6.4909382490441203e-04" rms="3.4690070152282715e-01" purity="4.6671533584594727e-01" nType="0">
          <Node pos="l" depth="2" NCoef="0" IVar="-1" Cut="0.0000000000000000e+00" cType="1" res="2.6023915779660456e-05" rms="3.5042089223861694e-01" purity="4.8694244027137756e-01" nType="-99"/>
          <Node pos="r" depth="2" NCoef="0" IVar="-1" Cut="0.0000000000000000e+00" cType="1" res="5.5499305017292500e-03" rms="2.8828790783882141e-01" purity="1.6062176227569580e-01" nType="-99"/>
        </Node>
      </Node>
    </BinaryTree>
    <BinaryTree type="DecisionTree" boostWeight="1.0000000000000000e+00" itree="449">
      <Node pos="s" depth="0" NCoef="0" IVar="2" Cut="3.5591530799865723e-01" cType="1" res="-5.2372769232533756e-07" rms="3.2417047023773193e-01" purity="5.9855979681015015e-01" nType="0">
        <Node pos="l" depth="1" NCoef="0" IVar="-1" Cut="0.0000000000000000e+00" cType="1" res="-6.3640921143814921e-04" rms="2.8220036625862122e-01" purity="8.3244299888610840e-01" nType="-99"/>
        <Node pos="r" depth="1" NCoef="0" IVar="1" Cut="1.6616691648960114e-01" cType="1" res="6.5806048223748803e-04" rms="3.4833788871765137e-01" purity="4.4918462634086609e-01" nType="0">
          <Node pos="l" depth="2" NCoef="0" IVar="-1" Cut="0.0000000000000000e+00" cType="1" res="-5.1294523291289806e-04" rms="3.5195863246917725e-01" purity="5.6202578544616699e-01" nType="-99"/>
          <Node pos="r" depth="2" NCoef="0" IVar="-1" Cut="0.0000000000000000e+00" cType="1" res="2.0330194383859634e-03" rms="3.4075003862380981e-01" purity="2.1756163239479065e-01" nType="-99"/>
        </Node>
      </Node>
    </BinaryTree>
    <BinaryTree type="DecisionTree" boostWeight="1.0000000000000000e+00" itree="450">
      <Node pos="s" depth="0" NCoef="0" IVar="1" Cut="4.4977512210607529e-02" cType="1" res="-5.2724129773196182e-07" rms="3.2416683435440063e-01" purity="5.9855979681015015e-01" nType="0">
        <Node pos="l" depth="1" NCoef="0" IVar="-1" Cut="0.0000000000000000e+00" cType="1" res="4.5286703971214592e-04" rms="3.0227276682853699e-01" purity="7.4969816207885742e-01" nType="-99"/>
        <Node pos="r" depth="1" NCoef="0" IVar="0" Cut="1.3868066668510437e-01" cType="1" res="-8.8937976397573948e-04" rms="3.4517368674278259e-01" purity="4.4359767436981201e-01" nType="0">
          <Node pos="l" depth="2" NCoef="0" IVar="-1" Cut="0.0000000000000000e+00" cType="1" res="-2.2423069458454847e-03" rms="3.7141981720924377e-01" purity="7.7346742153167725e-01" nType="-99"/>
          <Node pos="r" depth="2" NCoef="0" IVar="-1" Cut="0.0000000000000000e+00" cType="1" res="2.0003798417747021e-03" rms="3.1844660639762878e-01" purity="1.3338838517665863e-01" nType="-99"/>
        </Node>
      </Node>
    </BinaryTree>
    <BinaryTree type="DecisionTree" boostWeight="1.0000000000000000e+00" itree="451">
      <Node pos="s" depth="0" NCoef="0" IVar="0" Cut="8.1209398806095123e-02" cType="1" res="-4.5642306645277131e-07" rms="3.2415974140167236e-01" purity="5.9855979681015015e-01" nType="0">
        <Node pos="l" depth="1" NCoef="0" IVar="-1" Cut="0.0000000000000000e+00" cType="1" res="4.7314213588833809e-04" rms="2.9409074783325195e-01" purity="8.8828647136688232e-01" nType="-99"/>
        <Node pos="r" depth="1" NCoef="0" IVar="2" Cut="1.0078022480010986e+00" cType="1" res="-1.0333382524549961e-03" rms="3.5789281129837036e-01" purity="2.3995554447174072e-01" nType="0">
          <Node pos="l" depth="2" NCoef="0" IVar="-1" Cut="0.0000000000000000e+00" cType="1" res="-2.3482856340706348e-03" rms="3.6848017573356628e-01" purity="2.7468353509902954e-01" nType="-99"/>
          <Node pos="r" depth="2" NCoef="0" IVar="-1" Cut="0.0000000000000000e+00" cType="1" res="1.8693959573283792e-03" rms="3.4660205245018005e-01" purity="2.0431318879127502e-01" nType="-99"/>
        </Node>
      </Node>
    </BinaryTree>
    <BinaryTree type="DecisionTree" boostWeight="1.0000000000000000e+00" itree="452">
      <Node pos="s" depth="0" NCoef="0" IVar="2" Cut="1.1876331567764282e+00" cType="1" res="-5.5209056881722063e-07" rms="3.2415199279785156e-01" purity="5.9855979681015015e-01" nType="0">
        <Node pos="l" depth="1" NCoef="0" IVar="-1" Cut="0.0000000000000000e+00" cType="1" res="2.4933589156717062e-04" rms="3.1732258200645447e-01" purity="6.8335270881652832e-01" nType="-99"/>
        <Node pos="r" depth="1" NCoef="0" IVar="0" Cut="8.6206898093223572e-02" cType="1" res="-2.1106218919157982e-03" rms="3.5076490044593811e-01" purity="2.5080385804176331e-01" nType="0">
          <Node pos="l" depth="2" NCoef="0" IVar="-1" Cut="0.0000000000000000e+00" cType="1" res="-1.6312213614583015e-02" rms="4.0971663594245911e-01" purity="7.4313551187515259e-01" nType="-99"/>
          <Node pos="r" depth="2" NCoef="0" IVar="-1" Cut="0.0000000000000000e+00" cType="1" res="1.4502025442197919e-03" rms="3.4236508607864380e-01" purity="1.8994963169097900e-01" nType="-99"/>
        </Node>
      </Node>
    </BinaryTree>
    <BinaryTree type="DecisionTree" boostWeight="1.0000000000000000e+00" itree="453">
      <Node pos="s" depth="0" NCoef="0" IVar="0" Cut="9.4952523708343506e-02" cType="1" res="3.1424687563230691e-07" rms="3.2413396239280701e-01" purity="5.9855979681015015e-01" nType="0">
        <Node pos="l" depth="1" NCoef="0" IVar="-1" Cut="0.0000000000000000e+00" cType="1" res="4.6935919090174139e-04" rms="3.0033090710639954e-01" purity="8.8115000724792480e-01" nType="-99"/>
        <Node pos="r" depth="1" NCoef="0" IVar="3" Cut="3.9556342363357544e-01" cType="0" res="-1.1679964372888207e-03" rms="3.5383591055870056e-01" purity="2.1568010747432709e-01" nType="0">
          <Node pos="l" depth="2" NCoef="0" IVar="-1" Cut="0.0000000000000000e+00" cType="1" res="1.0445024818181992e-02" rms="4.7457325458526611e-01" purity="4.4709897041320801e-01" nType="-99"/>
          <Node pos="r" depth="2" NCoef="0" IVar="-1" Cut="0.0000000000000000e+00" cType="1" res="-9.3101628590375185e-04" rms="3.4991592168807983e-01" purity="2.0941513776779175e-01" nType="-99"/>
        </Node>
      </Node>
    </BinaryTree>
    <BinaryTree type="DecisionTree" boostWeight="1.0000000000000000e+00" itree="454">
      <Node pos="s" depth="0" NCoef="0" IVar="0" Cut="6.5842080116271973e-01" cType="1" res="2.0440977266389382e-07" rms="3.2413005828857422e-01" purity="5.9855979681015015e-01" nType="0">
        <Node pos="l" depth="1" NCoef="0" IVar="-1" Cut="0.0000000000000000e+00" cType="1" res="1.6163174586836249e-04" rms="3.3302953839302063e-01" purity="6.7745697498321533e-01" nType="-99"/>
        <Node pos="r" depth="1" NCoef="0" IVar="2" Cut="9.1414034366607666e-01" cType="0" res="-2.3969267494976521e-03" rms="2.5769123435020447e-01" purity="7.7169016003608704e-02" nType="0">
          <Node pos="l" depth="2" NCoef="0" IVar="-1" Cut="0.0000000000000000e+00" cType="1" res="-4.4902483932673931e-03" rms="2.5826132297515869e-01" purity="7.9158939421176910e-02" nType="-99"/>
          <Node pos="r" depth="2" NCoef="0" IVar="-1" Cut="0.0000000000000000e+00" cType="1" res="6.6371555440127850e-03" rms="2.5603282451629639e-01" purity="7.2413794696331024e-02" nType="-99"/>
        </Node>
      </Node>
    </BinaryTree>
    <BinaryTree type="DecisionTree" boostWeight="1.0000000000000000e+00" itree="455">
      <Node pos="s" depth="0" NCoef="0" IVar="0" Cut="9.4952523708343506e-02" cType="1" res="-1.9877957413427794e-07" rms="3.2412973046302795e-01" purity="5.9855979681015015e-01" nType="0">
        <Node pos="l" depth="1" NCoef="0" IVar="-1" Cut="0.0000000000000000e+00" cType="1" res="4.0661904495209455e-04" rms="3.0033218860626221e-01" purity="8.8115000724792480e-01" nType="-99"/>
        <Node pos="r" depth="1" NCoef="0" IVar="3" Cut="3.9556342363357544e-01" cType="0" res="-1.0121476370841265e-03" rms="3.5382607579231262e-01" purity="2.1568010747432709e-01" nType="0">
          <Node pos="l" depth="2" NCoef="0" IVar="-1" Cut="0.0000000000000000e+00" cType="1" res="9.3631008639931679e-03" rms="4.7468492388725281e-01" purity="4.4709897041320801e-01" nType="-99"/>
          <Node pos="r" depth="2" NCoef="0" IVar="-1" Cut="0.0000000000000000e+00" cType="1" res="-8.2215439761057496e-04" rms="3.4991571307182312e-01" purity="2.0941513776779175e-01" nType="-99"/>
        </Node>
      </Node>
    </BinaryTree>
    <BinaryTree type="DecisionTree" boostWeight="1.0000000000000000e+00" itree="456">
      <Node pos="s" depth="0" NCoef="0" IVar="3" Cut="3.1907123327255249e-01" cType="0" res="-2.3999703557819885e-07" rms="3.2412680983543396e-01" purity="5.9855979681015015e-01" nType="0">
        <Node pos="l" depth="1" NCoef="0" IVar="-1" Cut="0.0000000000000000e+00" cType="1" res="-4.7417305177077651e-04" rms="3.7217462062835693e-01" purity="6.7848116159439087e-01" nType="-99"/>
        <Node pos="r" depth="1" NCoef="0" IVar="1" Cut="2.8610694408416748e-01" cType="1" res="5.5987905943766236e-04" rms="3.0093118548393250e-01" purity="5.6392705440521240e-01" nType="0">
          <Node pos="l" depth="2" NCoef="0" IVar="-1" Cut="0.0000000000000000e+00" cType="1" res="1.0343556059524417e-03" rms="2.9672911763191223e-01" purity="6.5109157562255859e-01" nType="-99"/>
          <Node pos="r" depth="2" NCoef="0" IVar="-1" Cut="0.0000000000000000e+00" cType="1" res="-2.5861093308776617e-03" rms="3.1858760118484497e-01" purity="1.8282100558280945e-01" nType="-99"/>
        </Node>
      </Node>
    </BinaryTree>
    <BinaryTree type="DecisionTree" boostWeight="1.0000000000000000e+00" itree="457">
      <Node pos="s" depth="0" NCoef="0" IVar="1" Cut="1.2493752874433994e-03" cType="1" res="-2.6413545128889382e-07" rms="3.2412406802177429e-01" purity="5.9855979681015015e-01" nType="0">
        <Node pos="l" depth="1" NCoef="0" IVar="-1" Cut="0.0000000000000000e+00" cType="1" res="-5.3885177476331592e-04" rms="3.0560538172721863e-01" purity="7.4462652206420898e-01" nType="-99"/>
        <Node pos="r" depth="1" NCoef="0" IVar="3" Cut="3.3055311441421509e-01" cType="0" res="6.8112445296719670e-04" rms="3.3572596311569214e-01" purity="5.0265789031982422e-01" nType="0">
          <Node pos="l" depth="2" NCoef="0" IVar="-1" Cut="0.0000000000000000e+00" cType="1" res="2.0376567263156176e-03" rms="3.9140585064888000e-01" purity="6.3706612586975098e-01" nType="-99"/>
          <Node pos="r" depth="2" NCoef="0" IVar="-1" Cut="0.0000000000000000e+00" cType="1" res="-5.4741033818572760e-04" rms="3.1499117612838745e-01" purity="4.5790806412696838e-01" nType="-99"/>
        </Node>
      </Node>
    </BinaryTree>
    <BinaryTree type="DecisionTree" boostWeight="1.0000000000000000e+00" itree="458">
      <Node pos="s" depth="0" NCoef="0" IVar="3" Cut="3.1907123327255249e-01" cType="0" res="-1.9906188697405014e-07" rms="3.2412248849868774e-01" purity="5.9855979681015015e-01" nType="0">
        <Node pos="l" depth="1" NCoef="0" IVar="-1" Cut="0.0000000000000000e+00" cType="1" res="-5.1301642088219523e-04" rms="3.7216755747795105e-01" purity="6.7848116159439087e-01" nType="-99"/>
        <Node pos="r" depth="1" NCoef="0" IVar="0" Cut="3.3358320593833923e-01" cType="1" res="6.0584140010178089e-04" rms="3.0092805624008179e-01" purity="5.6392705440521240e-01" nType="0">
          <Node pos="l" depth="2" NCoef="0" IVar="-1" Cut="0.0000000000000000e+00" cType="1" res="1.1253269622102380e-03" rms="3.1856593489646912e-01" purity="7.7932256460189819e-01" nType="-99"/>
          <Node pos="r" depth="2" NCoef="0" IVar="-1" Cut="0.0000000000000000e+00" cType="1" res="-2.4485595058649778e-03" rms="2.5616866350173950e-01" purity="7.2826869785785675e-02" nType="-99"/>
        </Node>
      </Node>
    </BinaryTree>
    <BinaryTree type="DecisionTree" boostWeight="1.0000000000000000e+00" itree="459">
      <Node pos="s" depth="0" NCoef="0" IVar="0" Cut="1.2493752874433994e-03" cType="1" res="-2.7604994556895690e-07" rms="3.2412111759185791e-01" purity="5.9855979681015015e-01" nType="0">
        <Node pos="l" depth="1" NCoef="0" IVar="-1" Cut="0.0000000000000000e+00" cType="1" res="-8.1855646567419171e-04" rms="2.7239418029785156e-01" purity="9.0791207551956177e-01" nType="-99"/>
        <Node pos="r" depth="1" NCoef="0" IVar="0" Cut="1.5932820737361908e-02" cType="1" res="6.0646620113402605e-04" rms="3.4706160426139832e-01" purity="4.4418039917945862e-01" nType="0">
          <Node pos="l" depth="2" NCoef="0" IVar="-1" Cut="0.0000000000000000e+00" cType="1" res="1.9159521907567978e-02" rms="1.8266598880290985e-01" purity="9.5916664600372314e-01" nType="-99"/>
          <Node pos="r" depth="2" NCoef="0" IVar="-1" Cut="0.0000000000000000e+00" cType="1" res="-4.0958973841043189e-05" rms="3.5147657990455627e-01" purity="4.2585620284080505e-01" nType="-99"/>
        </Node>
      </Node>
    </BinaryTree>
    <BinaryTree type="DecisionTree" boostWeight="1.0000000000000000e+00" itree="460">
      <Node pos="s" depth="0" NCoef="0" IVar="3" Cut="3.1907123327255249e-01" cType="0" res="4.9606887841946445e-07" rms="3.2411822676658630e-01" purity="5.9855979681015015e-01" nType="0">
        <Node pos="l" depth="1" NCoef="0" IVar="-1" Cut="0.0000000000000000e+00" cType="1" res="-4.7060759970918298e-04" rms="3.7215876579284668e-01" purity="6.7848116159439087e-01" nType="-99"/>
        <Node pos="r" depth="1" NCoef="0" IVar="3" Cut="3.1842893362045288e-01" cType="0" res="5.5673986207693815e-04" rms="3.0092650651931763e-01" purity="5.6392705440521240e-01" nType="0">
          <Node pos="l" depth="2" NCoef="0" IVar="-1" Cut="0.0000000000000000e+00" cType="1" res="1.6810143366456032e-02" rms="4.0058544278144836e-01" purity="6.4285713434219360e-01" nType="-99"/>
          <Node pos="r" depth="2" NCoef="0" IVar="-1" Cut="0.0000000000000000e+00" cType="1" res="2.2174914192873985e-04" rms="3.0055800080299377e-01" purity="5.6368428468704224e-01" nType="-99"/>
        </Node>
      </Node>
    </BinaryTree>
    <BinaryTree type="DecisionTree" boostWeight="1.0000000000000000e+00" itree="461">
      <Node pos="s" depth="0" NCoef="0" IVar="2" Cut="3.5591530799865723e-01" cType="1" res="4.7101644895519712e-07" rms="3.2411608099937439e-01" purity="5.9855979681015015e-01" nType="0">
        <Node pos="l" depth="1" NCoef="0" IVar="-1" Cut="0.0000000000000000e+00" cType="1" res="-6.6997820977121592e-04" rms="2.8218197822570801e-01" purity="8.3244299888610840e-01" nType="-99"/>
        <Node pos="r" depth="1" NCoef="0" IVar="2" Cut="3.9160147309303284e-01" cType="1" res="6.9277163129299879e-04" rms="3.4826427698135376e-01" purity="4.4918462634086609e-01" nType="0">
          <Node pos="l" depth="2" NCoef="0" IVar="-1" Cut="0.0000000000000000e+00" cType="1" res="5.8684004470705986e-03" rms="3.1233027577400208e-01" purity="7.3533421754837036e-01" nType="-99"/>
          <Node pos="r" depth="2" NCoef="0" IVar="-1" Cut="0.0000000000000000e+00" cType="1" res="3.7201367376837879e-05" rms="3.4988820552825928e-01" purity="4.3542301654815674e-01" nType="-99"/>
        </Node>
      </Node>
    </BinaryTree>
    <BinaryTree type="DecisionTree" boostWeight="1.0000000000000000e+00" itree="462">
      <Node pos="s" depth="0" NCoef="0" IVar="3" Cut="3.1907123327255249e-01" cType="0" res="5.1661578481798642e-07" rms="3.2411369681358337e-01" purity="5.9855979681015015e-01" nType="0">
        <Node pos="l" depth="1" NCoef="0" IVar="-1" Cut="0.0000000000000000e+00" cType="1" res="-4.5618670992553234e-04" rms="3.7215122580528259e-01" purity="6.7848116159439087e-01" nType="-99"/>
        <Node pos="r" depth="1" NCoef="0" IVar="1" Cut="1.0619690269231796e-01" cType="1" res="5.3967686835676432e-04" rms="3.0092364549636841e-01" purity="5.6392705440521240e-01" nType="0">
          <Node pos="l" depth="2" NCoef="0" IVar="-1" Cut="0.0000000000000000e+00" cType="1" res="1.4449019217863679e-03" rms="2.8641360998153687e-01" purity="7.0986145734786987e-01" nType="-99"/>
          <Node pos="r" depth="2" NCoef="0" IVar="-1" Cut="0.0000000000000000e+00" cType="1" res="-1.3350392691791058e-03" rms="3.2397159934043884e-01" purity="3.1699585914611816e-01" nType="-99"/>
        </Node>
      </Node>
    </BinaryTree>
    <BinaryTree type="DecisionTree" boostWeight="1.0000000000000000e+00" itree="463">
      <Node pos="s" depth="0" NCoef="0" IVar="1" Cut="1.2493752874433994e-03" cType="1" res="4.8982485623128014e-07" rms="3.2411128282546997e-01" purity="5.9855979681015015e-01" nType="0">
        <Node pos="l" depth="1" NCoef="0" IVar="-1" Cut="0.0000000000000000e+00" cType="1" res="-5.6321633746847510e-04" rms="3.0558902025222778e-01" purity="7.4462652206420898e-01" nType="-99"/>
        <Node pos="r" depth="1" NCoef="0" IVar="0" Cut="2.2238880395889282e-01" cType="1" res="7.1279454277828336e-04" rms="3.3571514487266541e-01" purity="5.0265789031982422e-01" nType="0">
          <Node pos="l" depth="2" NCoef="0" IVar="-1" Cut="0.0000000000000000e+00" cType="1" res="-6.7434296943247318e-04" rms="3.5935670137405396e-01" purity="7.5884681940078735e-01" nType="-99"/>
          <Node pos="r" depth="2" NCoef="0" IVar="-1" Cut="0.0000000000000000e+00" cType="1" res="2.6538630481809378e-03" rms="2.9528033733367920e-01" purity="1.0526315867900848e-01" nType="-99"/>
        </Node>
      </Node>
    </BinaryTree>
    <BinaryTree type="DecisionTree" boostWeight="1.0000000000000000e+00" itree="464">
      <Node pos="s" depth="0" NCoef="0" IVar="3" Cut="4.2751049995422363e-01" cType="0" res="2.5592791530471004e-07" rms="3.2410570979118347e-01" purity="5.9855979681015015e-01" nType="0">
        <Node pos="l" depth="1" NCoef="0" IVar="-1" Cut="0.0000000000000000e+00" cType="1" res="1.3718322152271867e-03" rms="3.3540934324264526e-01" purity="8.4197926521301270e-01" nType="-99"/>
        <Node pos="r" depth="1" NCoef="0" IVar="3" Cut="4.2601159214973450e-01" cType="0" res="-2.4169673270080239e-04" rms="3.2321360707283020e-01" purity="5.7973045110702515e-01" nType="0">
          <Node pos="l" depth="2" NCoef="0" IVar="-1" Cut="0.0000000000000000e+00" cType="1" res="-3.1762629747390747e-02" rms="4.1079038381576538e-01" purity="6.9354838132858276e-01" nType="-99"/>
          <Node pos="r" depth="2" NCoef="0" IVar="-1" Cut="0.0000000000000000e+00" cType="1" res="-1.0614248822093941e-05" rms="3.2292994856834412e-01" purity="5.7943922281265259e-01" nType="-99"/>
        </Node>
      </Node>
    </BinaryTree>
    <BinaryTree type="DecisionTree" boostWeight="1.0000000000000000e+00" itree="465">
      <Node pos="s" depth="0" NCoef="0" IVar="3" Cut="4.1851553320884705e-01" cType="0" res="5.4736796073484584e-07" rms="3.2409936189651489e-01" purity="5.9855979681015015e-01" nType="0">
        <Node pos="l" depth="1" NCoef="0" IVar="-1" Cut="0.0000000000000000e+00" cType="1" res="1.1431640014052391e-03" rms="3.3916470408439636e-01" purity="8.3232861757278442e-01" nType="-99"/>
        <Node pos="r" depth="1" NCoef="0" IVar="3" Cut="4.1683581471443176e-01" cType="0" res="-2.4805657449178398e-04" rms="3.2265281677246094e-01" purity="5.7668930292129517e-01" nType="0">
          <Node pos="l" depth="2" NCoef="0" IVar="-1" Cut="0.0000000000000000e+00" cType="1" res="-1.7983447760343552e-02" rms="4.0866547822952271e-01" purity="7.1428573131561279e-01" nType="-99"/>
          <Node pos="r" depth="2" NCoef="0" IVar="-1" Cut="0.0000000000000000e+00" cType="1" res="-5.7871737226378173e-05" rms="3.2238614559173584e-01" purity="5.7632619142532349e-01" nType="-99"/>
        </Node>
      </Node>
    </BinaryTree>
    <BinaryTree type="DecisionTree" boostWeight="1.0000000000000000e+00" itree="466">
      <Node pos="s" depth="0" NCoef="0" IVar="2" Cut="3.1470406055450439e+00" cType="1" res="5.8990701745642582e-07" rms="3.2409757375717163e-01" purity="5.9855979681015015e-01" nType="0">
        <Node pos="l" depth="1" NCoef="0" IVar="-1" Cut="0.0000000000000000e+00" cType="1" res="3.2798834581626579e-05" rms="3.2393911480903625e-01" purity="6.0167813301086426e-01" nType="-99"/>
        <Node pos="r" depth="1" NCoef="0" IVar="2" Cut="3.3106193542480469e+00" cType="0" res="-9.1966744512319565e-03" rms="3.4438449144363403e-01" purity="1.8414321541786194e-01" nType="0">
          <Node pos="l" depth="2" NCoef="0" IVar="-1" Cut="0.0000000000000000e+00" cType="1" res="2.1934143733233213e-03" rms="3.6707174777984619e-01" purity="2.1951219439506531e-01" nType="-99"/>
          <Node pos="r" depth="2" NCoef="0" IVar="-1" Cut="0.0000000000000000e+00" cType="1" res="-2.4375179782509804e-02" rms="2.6763373613357544e-01" purity="8.6538463830947876e-02" nType="-99"/>
        </Node>
      </Node>
    </BinaryTree>
    <BinaryTree type="DecisionTree" boostWeight="1.0000000000000000e+00" itree="467">
      <Node pos="s" depth="0" NCoef="0" IVar="2" Cut="3.4542517662048340e+00" cType="1" res="3.7846697864551970e-07" rms="3.2409536838531494e-01" purity="5.9855979681015015e-01" nType="0">
        <Node pos="l" depth="1" NCoef="0" IVar="-1" Cut="0.0000000000000000e+00" cType="1" res="2.5974666641559452e-05" rms="3.2392820715904236e-01" purity="6.0029160976409912e-01" nType="-99"/>
        <Node pos="r" depth="1" NCoef="0" IVar="1" Cut="3.2983508706092834e-01" cType="1" res="-1.2664146721363068e-02" rms="3.6036565899848938e-01" purity="1.9911503791809082e-01" nType="0">
          <Node pos="l" depth="2" NCoef="0" IVar="-1" Cut="0.0000000000000000e+00" cType="1" res="4.6643335372209549e-03" rms="3.7976759672164917e-01" purity="2.3140496015548706e-01" nType="-99"/>
          <Node pos="r" depth="2" NCoef="0" IVar="-1" Cut="0.0000000000000000e+00" cType="1" res="-1.5250514261424541e-02" rms="3.3412894606590271e-01" purity="1.6190476715564728e-01" nType="-99"/>
        </Node>
      </Node>
    </BinaryTree>
    <BinaryTree type="DecisionTree" boostWeight="1.0000000000000000e+00" itree="468">
      <Node pos="s" depth="0" NCoef="0" IVar="1" Cut="1.5704647302627563e+00" cType="1" res="2.7297355131850054e-07" rms="3.2409426569938660e-01" purity="5.9855979681015015e-01" nType="0">
        <Node pos="l" depth="1" NCoef="0" IVar="-1" Cut="0.0000000000000000e+00" cType="1" res="-3.3395946957170963e-05" rms="3.2368162274360657e-01" purity="6.0177844762802124e-01" nType="-99"/>
        <Node pos="r" depth="1" NCoef="0" IVar="0" Cut="1.4305347204208374e+00" cType="0" res="9.3125468119978905e-03" rms="3.7395730614662170e-01" purity="1.7839196324348450e-01" nType="0">
          <Node pos="l" depth="2" NCoef="0" IVar="-1" Cut="0.0000000000000000e+00" cType="1" res="-6.1587868258357048e-03" rms="3.9071801304817200e-01" purity="2.0238095521926880e-01" nType="-99"/>
          <Node pos="r" depth="2" NCoef="0" IVar="-1" Cut="0.0000000000000000e+00" cType="1" res="1.4208537526428699e-02" rms="3.5974997282028198e-01" purity="1.6086956858634949e-01" nType="-99"/>
        </Node>
      </Node>
    </BinaryTree>
    <BinaryTree type="DecisionTree" boostWeight="1.0000000000000000e+00" itree="469">
      <Node pos="s" depth="0" NCoef="0" IVar="1" Cut="1.2493752874433994e-03" cType="1" res="9.7703448886932165e-08" rms="3.2409274578094482e-01" purity="5.9855979681015015e-01" nType="0">
        <Node pos="l" depth="1" NCoef="0" IVar="-1" Cut="0.0000000000000000e+00" cType="1" res="-5.1219668239355087e-04" rms="3.0558320879936218e-01" purity="7.4462652206420898e-01" nType="-99"/>
        <Node pos="r" depth="1" NCoef="0" IVar="3" Cut="3.3055311441421509e-01" cType="0" res="6.4779852982610464e-04" rms="3.3568930625915527e-01" purity="5.0265789031982422e-01" nType="0">
          <Node pos="l" depth="2" NCoef="0" IVar="-1" Cut="0.0000000000000000e+00" cType="1" res="1.9338672282174230e-03" rms="3.9132660627365112e-01" purity="6.3706612586975098e-01" nType="-99"/>
          <Node pos="r" depth="2" NCoef="0" IVar="-1" Cut="0.0000000000000000e+00" cType="1" res="-5.1850645104423165e-04" rms="3.1497392058372498e-01" purity="4.5790806412696838e-01" nType="-99"/>
        </Node>
      </Node>
    </BinaryTree>
    <BinaryTree type="DecisionTree" boostWeight="1.0000000000000000e+00" itree="470">
      <Node pos="s" depth="0" NCoef="0" IVar="3" Cut="3.1907123327255249e-01" cType="0" res="1.2237956070748623e-07" rms="3.2409134507179260e-01" purity="5.9855979681015015e-01" nType="0">
        <Node pos="l" depth="1" NCoef="0" IVar="-1" Cut="0.0000000000000000e+00" cType="1" res="-4.7901069046929479e-04" rms="3.7210080027580261e-01" purity="6.7848116159439087e-01" nType="-99"/>
        <Node pos="r" depth="1" NCoef="0" IVar="0" Cut="1.6741628944873810e-01" cType="1" res="5.6635990040376782e-04" rms="3.0091601610183716e-01" purity="5.6392705440521240e-01" nType="0">
          <Node pos="l" depth="2" NCoef="0" IVar="-1" Cut="0.0000000000000000e+00" cType="1" res="1.4345605159178376e-03" rms="3.0116245150566101e-01" purity="8.6572420597076416e-01" nType="-99"/>
          <Node pos="r" depth="2" NCoef="0" IVar="-1" Cut="0.0000000000000000e+00" cType="1" res="-1.3891456183046103e-03" rms="3.0052053928375244e-01" purity="1.1419416218996048e-01" nType="-99"/>
        </Node>
      </Node>
    </BinaryTree>
    <BinaryTree type="DecisionTree" boostWeight="1.0000000000000000e+00" itree="471">
      <Node pos="s" depth="0" NCoef="0" IVar="2" Cut="2.9222521185874939e-01" cType="1" res="1.3662922526691545e-07" rms="3.2409054040908813e-01" purity="5.9855979681015015e-01" nType="0">
        <Node pos="l" depth="1" NCoef="0" IVar="-1" Cut="0.0000000000000000e+00" cType="1" res="-7.5536128133535385e-04" rms="2.7608931064605713e-01" purity="8.4798938035964966e-01" nType="-99"/>
        <Node pos="r" depth="1" NCoef="0" IVar="3" Cut="1.3903661072254181e-01" cType="0" res="6.1678700149059296e-04" rms="3.4678775072097778e-01" purity="4.6671533584594727e-01" nType="0">
          <Node pos="l" depth="2" NCoef="0" IVar="-1" Cut="0.0000000000000000e+00" cType="1" res="3.6452407948672771e-04" rms="3.4803879261016846e-01" purity="4.7285833954811096e-01" nType="-99"/>
          <Node pos="r" depth="2" NCoef="0" IVar="-1" Cut="0.0000000000000000e+00" cType="1" res="-1.0859190486371517e-02" rms="2.5590071082115173e-01" purity="8.1784389913082123e-02" nType="-99"/>
        </Node>
      </Node>
    </BinaryTree>
    <BinaryTree type="DecisionTree" boostWeight="1.0000000000000000e+00" itree="472">
      <Node pos="s" depth="0" NCoef="0" IVar="3" Cut="3.1907123327255249e-01" cType="0" res="6.5987388886412646e-09" rms="3.2408961653709412e-01" purity="5.9855979681015015e-01" nType="0">
        <Node pos="l" depth="1" NCoef="0" IVar="-1" Cut="0.0000000000000000e+00" cType="1" res="-4.6753507922403514e-04" rms="3.7210059165954590e-01" purity="6.7848116159439087e-01" nType="-99"/>
        <Node pos="r" depth="1" NCoef="0" IVar="2" Cut="1.1134036779403687e+00" cType="1" res="5.5266154231503606e-04" rms="3.0091354250907898e-01" purity="5.6392705440521240e-01" nType="0">
          <Node pos="l" depth="2" NCoef="0" IVar="-1" Cut="0.0000000000000000e+00" cType="1" res="-3.2928533619269729e-04" rms="3.0077254772186279e-01" purity="6.6029542684555054e-01" nType="-99"/>
          <Node pos="r" depth="2" NCoef="0" IVar="-1" Cut="0.0000000000000000e+00" cType="1" res="2.9998307581990957e-03" rms="3.0147510766983032e-01" purity="1.4333969354629517e-01" nType="-99"/>
        </Node>
      </Node>
    </BinaryTree>
    <BinaryTree type="DecisionTree" boostWeight="1.0000000000000000e+00" itree="473">
      <Node pos="s" depth="0" NCoef="0" IVar="2" Cut="1.1876331567764282e+00" cType="1" res="-1.1567038882276393e-07" rms="3.2408392429351807e-01" purity="5.9855979681015015e-01" nType="0">
        <Node pos="l" depth="1" NCoef="0" IVar="-1" Cut="0.0000000000000000e+00" cType="1" res="1.9704717851709574e-04" rms="3.1728622317314148e-01" purity="6.8335270881652832e-01" nType="-99"/>
        <Node pos="r" depth="1" NCoef="0" IVar="0" Cut="5.4972514510154724e-02" cType="1" res="-1.6626755241304636e-03" rms="3.5058185458183289e-01" purity="2.5080385804176331e-01" nType="0">
          <Node pos="l" depth="2" NCoef="0" IVar="-1" Cut="0.0000000000000000e+00" cType="1" res="-2.0723436027765274e-02" rms="3.9825719594955444e-01" purity="7.5999999046325684e-01" nType="-99"/>
          <Node pos="r" depth="2" NCoef="0" IVar="-1" Cut="0.0000000000000000e+00" cType="1" res="9.3587720766663551e-04" rms="3.4650892019271851e-01" purity="2.1353131532669067e-01" nType="-99"/>
        </Node>
      </Node>
    </BinaryTree>
    <BinaryTree type="DecisionTree" boostWeight="1.0000000000000000e+00" itree="474">
      <Node pos="s" depth="0" NCoef="0" IVar="3" Cut="4.1201916337013245e-01" cType="0" res="7.4778995440283325e-07" rms="3.2406812906265259e-01" purity="5.9855979681015015e-01" nType="0">
        <Node pos="l" depth="1" NCoef="0" IVar="-1" Cut="0.0000000000000000e+00" cType="1" res="1.1350765125826001e-03" rms="3.4225776791572571e-01" purity="8.2571774721145630e-01" nType="-99"/>
        <Node pos="r" depth="1" NCoef="0" IVar="3" Cut="4.0850508213043213e-01" cType="0" res="-2.7895937091670930e-04" rms="3.2210999727249146e-01" purity="5.7486081123352051e-01" nType="0">
          <Node pos="l" depth="2" NCoef="0" IVar="-1" Cut="0.0000000000000000e+00" cType="1" res="-1.3495256192982197e-02" rms="4.0435010194778442e-01" purity="7.3214286565780640e-01" nType="-99"/>
          <Node pos="r" depth="2" NCoef="0" IVar="-1" Cut="0.0000000000000000e+00" cType="1" res="-3.0036364478291944e-05" rms="3.2154625654220581e-01" purity="5.7392632961273193e-01" nType="-99"/>
        </Node>
      </Node>
    </BinaryTree>
    <BinaryTree type="DecisionTree" boostWeight="1.0000000000000000e+00" itree="475">
      <Node pos="s" depth="0" NCoef="0" IVar="0" Cut="8.1209398806095123e-02" cType="1" res="8.0835042126636836e-07" rms="3.2406565546989441e-01" purity="5.9855979681015015e-01" nType="0">
        <Node pos="l" depth="1" NCoef="0" IVar="-1" Cut="0.0000000000000000e+00" cType="1" res="4.3239383376203477e-04" rms="2.9400226473808289e-01" purity="8.8828647136688232e-01" nType="-99"/>
        <Node pos="r" depth="1" NCoef="0" IVar="1" Cut="6.6216893494129181e-02" cType="1" res="-9.4022275879979134e-04" rms="3.5779258608818054e-01" purity="2.3995554447174072e-01" nType="0">
          <Node pos="l" depth="2" NCoef="0" IVar="-1" Cut="0.0000000000000000e+00" cType="1" res="-2.4370548781007528e-03" rms="3.8787719607353210e-01" purity="3.4532222151756287e-01" nType="-99"/>
          <Node pos="r" depth="2" NCoef="0" IVar="-1" Cut="0.0000000000000000e+00" cType="1" res="1.6049363184720278e-03" rms="3.3567848801612854e-01" purity="1.6816385090351105e-01" nType="-99"/>
        </Node>
      </Node>
    </BinaryTree>
    <BinaryTree type="DecisionTree" boostWeight="1.0000000000000000e+00" itree="476">
      <Node pos="s" depth="0" NCoef="0" IVar="1" Cut="4.4977512210607529e-02" cType="1" res="6.2222738961281721e-07" rms="3.2406187057495117e-01" purity="5.9855979681015015e-01" nType="0">
        <Node pos="l" depth="1" NCoef="0" IVar="-1" Cut="0.0000000000000000e+00" cType="1" res="4.8509452608413994e-04" rms="3.0220681428909302e-01" purity="7.4969816207885742e-01" nType="-99"/>
        <Node pos="r" depth="1" NCoef="0" IVar="0" Cut="2.2238880395889282e-01" cType="1" res="-9.4836973585188389e-04" rms="3.4503296017646790e-01" purity="4.4359767436981201e-01" nType="0">
          <Node pos="l" depth="2" NCoef="0" IVar="-1" Cut="0.0000000000000000e+00" cType="1" res="-1.7722917255014181e-03" rms="3.8236683607101440e-01" purity="7.1382123231887817e-01" nType="-99"/>
          <Node pos="r" depth="2" NCoef="0" IVar="-1" Cut="0.0000000000000000e+00" cType="1" res="2.6470681186765432e-03" rms="2.9076111316680908e-01" purity="1.0075478255748749e-01" nType="-99"/>
        </Node>
      </Node>
    </BinaryTree>
    <BinaryTree type="DecisionTree" boostWeight="1.0000000000000000e+00" itree="477">
      <Node pos="s" depth="0" NCoef="0" IVar="0" Cut="9.4952523708343506e-02" cType="1" res="4.5033539208816364e-07" rms="3.2405534386634827e-01" purity="5.9855979681015015e-01" nType="0">
        <Node pos="l" depth="1" NCoef="0" IVar="-1" Cut="0.0000000000000000e+00" cType="1" res="4.2578278225846589e-04" rms="3.0026718974113464e-01" purity="8.8115000724792480e-01" nType="-99"/>
        <Node pos="r" depth="1" NCoef="0" IVar="3" Cut="3.9556342363357544e-01" cType="0" res="-1.0576408822089434e-03" rms="3.5374012589454651e-01" purity="2.1568010747432709e-01" nType="0">
          <Node pos="l" depth="2" NCoef="0" IVar="-1" Cut="0.0000000000000000e+00" cType="1" res="8.5048144683241844e-03" rms="4.7442927956581116e-01" purity="4.4709897041320801e-01" nType="-99"/>
          <Node pos="r" depth="2" NCoef="0" IVar="-1" Cut="0.0000000000000000e+00" cType="1" res="-8.0478208838030696e-04" rms="3.4984534978866577e-01" purity="2.0941513776779175e-01" nType="-99"/>
        </Node>
      </Node>
    </BinaryTree>
    <BinaryTree type="DecisionTree" boostWeight="1.0000000000000000e+00" itree="478">
      <Node pos="s" depth="0" NCoef="0" IVar="2" Cut="1.7046469449996948e+00" cType="1" res="3.5561402000894304e-07" rms="3.2405304908752441e-01" purity="5.9855979681015015e-01" nType="0">
        <Node pos="l" depth="1" NCoef="0" IVar="-1" Cut="0.0000000000000000e+00" cType="1" res="1.2672320008277893e-04" rms="3.2241445779800415e-01" purity="6.3696724176406860e-01" nType="-99"/>
        <Node pos="r" depth="1" NCoef="0" IVar="3" Cut="4.2406514286994934e-01" cType="0" res="-2.7661731000989676e-03" rms="3.4055143594741821e-01" purity="2.0069429278373718e-01" nType="0">
          <Node pos="l" depth="2" NCoef="0" IVar="-1" Cut="0.0000000000000000e+00" cType="1" res="-2.9822234064340591e-02" rms="4.5310339331626892e-01" purity="5.7142859697341919e-01" nType="-99"/>
          <Node pos="r" depth="2" NCoef="0" IVar="-1" Cut="0.0000000000000000e+00" cType="1" res="-8.6773579823784530e-05" rms="3.3667984604835510e-01" purity="1.9086860120296478e-01" nType="-99"/>
        </Node>
      </Node>
    </BinaryTree>
    <BinaryTree type="DecisionTree" boostWeight="1.0000000000000000e+00" itree="479">
      <Node pos="s" depth="0" NCoef="0" IVar="1" Cut="4.4977512210607529e-02" cType="1" res="5.1765744046861073e-07" rms="3.2404607534408569e-01" purity="5.9855979681015015e-01" nType="0">
        <Node pos="l" depth="1" NCoef="0" IVar="-1" Cut="0.0000000000000000e+00" cType="1" res="4.3043002369813621e-04" rms="3.0220296978950500e-01" purity="7.4969816207885742e-01" nType="-99"/>
        <Node pos="r" depth="1" NCoef="0" IVar="0" Cut="2.2238880395889282e-01" cType="1" res="-8.4083963884040713e-04" rms="3.4500691294670105e-01" purity="4.4359767436981201e-01" nType="0">
          <Node pos="l" depth="2" NCoef="0" IVar="-1" Cut="0.0000000000000000e+00" cType="1" res="-1.6117410268634558e-03" rms="3.8234671950340271e-01" purity="7.1382123231887817e-01" nType="-99"/>
          <Node pos="r" depth="2" NCoef="0" IVar="-1" Cut="0.0000000000000000e+00" cType="1" res="2.4318345822393894e-03" rms="2.9073882102966309e-01" purity="1.0075478255748749e-01" nType="-99"/>
        </Node>
      </Node>
    </BinaryTree>
    <BinaryTree type="DecisionTree" boostWeight="1.0000000000000000e+00" itree="480">
      <Node pos="s" depth="0" NCoef="0" IVar="0" Cut="9.4952523708343506e-02" cType="1" res="3.7149106901779305e-07" rms="3.2404044270515442e-01" purity="5.9855979681015015e-01" nType="0">
        <Node pos="l" depth="1" NCoef="0" IVar="-1" Cut="0.0000000000000000e+00" cType="1" res="4.4717916171066463e-04" rms="3.0025038123130798e-01" purity="8.8115000724792480e-01" nType="-99"/>
        <Node pos="r" depth="1" NCoef="0" IVar="1" Cut="6.6216893494129181e-02" cType="1" res="-1.1109320912510157e-03" rms="3.5372704267501831e-01" purity="2.1568010747432709e-01" nType="0">
          <Node pos="l" depth="2" NCoef="0" IVar="-1" Cut="0.0000000000000000e+00" cType="1" res="-2.5082363281399012e-03" rms="3.8647025823593140e-01" purity="3.0815812945365906e-01" nType="-99"/>
          <Node pos="r" depth="2" NCoef="0" IVar="-1" Cut="0.0000000000000000e+00" cType="1" res="1.4738072641193867e-03" rms="3.3066552877426147e-01" purity="1.5563797950744629e-01" nType="-99"/>
        </Node>
      </Node>
    </BinaryTree>
    <BinaryTree type="DecisionTree" boostWeight="1.0000000000000000e+00" itree="481">
      <Node pos="s" depth="0" NCoef="0" IVar="0" Cut="6.5842080116271973e-01" cType="1" res="2.2137061250759871e-07" rms="3.2403698563575745e-01" purity="5.9855979681015015e-01" nType="0">
        <Node pos="l" depth="1" NCoef="0" IVar="-1" Cut="0.0000000000000000e+00" cType="1" res="1.6492680879309773e-04" rms="3.3293336629867554e-01" purity="6.7745697498321533e-01" nType="-99"/>
        <Node pos="r" depth="1" NCoef="0" IVar="2" Cut="9.1414034366607666e-01" cType="0" res="-2.4454086087644100e-03" rms="2.5762110948562622e-01" purity="7.7169016003608704e-02" nType="0">
          <Node pos="l" depth="2" NCoef="0" IVar="-1" Cut="0.0000000000000000e+00" cType="1" res="-4.3725185096263885e-03" rms="2.5821360945701599e-01" purity="7.9158939421176910e-02" nType="-99"/>
          <Node pos="r" depth="2" NCoef="0" IVar="-1" Cut="0.0000000000000000e+00" cType="1" res="6.0668541118502617e-03" rms="2.5593981146812439e-01" purity="7.2413794696331024e-02" nType="-99"/>
        </Node>
      </Node>
    </BinaryTree>
    <BinaryTree type="DecisionTree" boostWeight="1.0000000000000000e+00" itree="482">
      <Node pos="s" depth="0" NCoef="0" IVar="1" Cut="4.4977512210607529e-02" cType="1" res="-1.4494234790163318e-07" rms="3.2403677701950073e-01" purity="5.9855979681015015e-01" nType="0">
        <Node pos="l" depth="1" NCoef="0" IVar="-1" Cut="0.0000000000000000e+00" cType="1" res="4.7088589053601027e-04" rms="3.0220159888267517e-01" purity="7.4969816207885742e-01" nType="-99"/>
        <Node pos="r" depth="1" NCoef="0" IVar="0" Cut="1.3868066668510437e-01" cType="1" res="-9.2009757645428181e-04" rms="3.4499004483222961e-01" purity="4.4359767436981201e-01" nType="0">
          <Node pos="l" depth="2" NCoef="0" IVar="-1" Cut="0.0000000000000000e+00" cType="1" res="-1.8528010696172714e-03" rms="3.7125283479690552e-01" purity="7.7346742153167725e-01" nType="-99"/>
          <Node pos="r" depth="2" NCoef="0" IVar="-1" Cut="0.0000000000000000e+00" cType="1" res="1.4688755618408322e-03" rms="3.1827253103256226e-01" purity="1.3338838517665863e-01" nType="-99"/>
        </Node>
      </Node>
    </BinaryTree>
    <BinaryTree type="DecisionTree" boostWeight="1.0000000000000000e+00" itree="483">
      <Node pos="s" depth="0" NCoef="0" IVar="0" Cut="9.4952523708343506e-02" cType="1" res="-9.8099427248143911e-08" rms="3.2403180003166199e-01" purity="5.9855979681015015e-01" nType="0">
        <Node pos="l" depth="1" NCoef="0" IVar="-1" Cut="0.0000000000000000e+00" cType="1" res="4.5789949945174158e-04" rms="3.0024689435958862e-01" purity="8.8115000724792480e-01" nType="-99"/>
        <Node pos="r" depth="1" NCoef="0" IVar="3" Cut="3.9556342363357544e-01" cType="0" res="-1.1384527897462249e-03" rms="3.5371229052543640e-01" purity="2.1568010747432709e-01" nType="0">
          <Node pos="l" depth="2" NCoef="0" IVar="-1" Cut="0.0000000000000000e+00" cType="1" res="7.7763483859598637e-03" rms="4.7434842586517334e-01" purity="4.4709897041320801e-01" nType="-99"/>
          <Node pos="r" depth="2" NCoef="0" IVar="-1" Cut="0.0000000000000000e+00" cType="1" res="-8.0605904804542661e-04" rms="3.4982678294181824e-01" purity="2.0941513776779175e-01" nType="-99"/>
        </Node>
      </Node>
    </BinaryTree>
    <BinaryTree type="DecisionTree" boostWeight="1.0000000000000000e+00" itree="484">
      <Node pos="s" depth="0" NCoef="0" IVar="0" Cut="6.5842080116271973e-01" cType="1" res="-1.2950314953741326e-07" rms="3.2403007149696350e-01" purity="5.9855979681015015e-01" nType="0">
        <Node pos="l" depth="1" NCoef="0" IVar="-1" Cut="0.0000000000000000e+00" cType="1" res="1.5358217933680862e-04" rms="3.3292722702026367e-01" purity="6.7745697498321533e-01" nType="-99"/>
        <Node pos="r" depth="1" NCoef="0" IVar="0" Cut="7.9648286104202271e-01" cType="0" res="-2.2799300495535135e-03" rms="2.5760936737060547e-01" purity="7.7169016003608704e-02" nType="0">
          <Node pos="l" depth="2" NCoef="0" IVar="-1" Cut="0.0000000000000000e+00" cType="1" res="5.3641624981537461e-04" rms="2.6963543891906738e-01" purity="8.5542395710945129e-02" nType="-99"/>
          <Node pos="r" depth="2" NCoef="0" IVar="-1" Cut="0.0000000000000000e+00" cType="1" res="-1.1191383935511112e-02" rms="2.1125704050064087e-01" purity="4.8655569553375244e-02" nType="-99"/>
        </Node>
      </Node>
    </BinaryTree>
    <BinaryTree type="DecisionTree" boostWeight="1.0000000000000000e+00" itree="485">
      <Node pos="s" depth="0" NCoef="0" IVar="1" Cut="1.3018491268157959e+00" cType="1" res="-4.8152185172511963e-07" rms="3.2402926683425903e-01" purity="5.9855979681015015e-01" nType="0">
        <Node pos="l" depth="1" NCoef="0" IVar="-1" Cut="0.0000000000000000e+00" cType="1" res="4.5445245632436126e-05" rms="3.2383534312248230e-01" purity="6.0432100296020508e-01" nType="-99"/>
        <Node pos="r" depth="1" NCoef="0" IVar="0" Cut="2.1614192426204681e-01" cType="0" res="-7.7042360790073872e-03" rms="3.3894401788711548e-01" purity="1.4241960644721985e-01" nType="0">
          <Node pos="l" depth="2" NCoef="0" IVar="-1" Cut="0.0000000000000000e+00" cType="1" res="2.5973245501518250e-03" rms="3.3860814571380615e-01" purity="1.4545454084873199e-01" nType="-99"/>
          <Node pos="r" depth="2" NCoef="0" IVar="-1" Cut="0.0000000000000000e+00" cType="1" res="-2.5532212108373642e-02" rms="3.3160743117332458e-01" purity="1.2621359527111053e-01" nType="-99"/>
        </Node>
      </Node>
    </BinaryTree>
    <BinaryTree type="DecisionTree" boostWeight="1.0000000000000000e+00" itree="486">
      <Node pos="s" depth="0" NCoef="0" IVar="0" Cut="9.4952523708343506e-02" cType="1" res="-6.5980628960460308e-07" rms="3.2402479648590088e-01" purity="5.9855979681015015e-01" nType="0">
        <Node pos="l" depth="1" NCoef="0" IVar="-1" Cut="0.0000000000000000e+00" cType="1" res="4.0318610263057053e-04" rms="3.0024039745330811e-01" purity="8.8115000724792480e-01" nType="-99"/>
        <Node pos="r" depth="1" NCoef="0" IVar="3" Cut="2.4769158335402608e-04" cType="1" res="-1.0028112446889281e-03" rms="3.5370534658432007e-01" purity="2.1568010747432709e-01" nType="0">
          <Node pos="l" depth="2" NCoef="0" IVar="-1" Cut="0.0000000000000000e+00" cType="1" res="1.9982596859335899e-02" rms="4.0629613399505615e-01" purity="4.7107437252998352e-01" nType="-99"/>
          <Node pos="r" depth="2" NCoef="0" IVar="-1" Cut="0.0000000000000000e+00" cType="1" res="-5.4918305249884725e-04" rms="3.5335662961006165e-01" purity="2.1428248286247253e-01" nType="-99"/>
        </Node>
      </Node>
    </BinaryTree>
    <BinaryTree type="DecisionTree" boostWeight="1.0000000000000000e+00" itree="487">
      <Node pos="s" depth="0" NCoef="0" IVar="3" Cut="4.8397886753082275e-01" cType="0" res="-6.3607137690269155e-07" rms="3.2402166724205017e-01" purity="5.9855979681015015e-01" nType="0">
        <Node pos="l" depth="1" NCoef="0" IVar="-1" Cut="0.0000000000000000e+00" cType="1" res="-3.7838821299374104e-03" rms="3.1451693177223206e-01" purity="8.6547082662582397e-01" nType="-99"/>
        <Node pos="r" depth="1" NCoef="0" IVar="3" Cut="4.7889819741249084e-01" cType="0" res="9.3885020760353655e-05" rms="3.2414180040359497e-01" purity="5.9510499238967896e-01" nType="0">
          <Node pos="l" depth="2" NCoef="0" IVar="-1" Cut="0.0000000000000000e+00" cType="1" res="2.0112253725528717e-02" rms="2.5138613581657410e-01" purity="9.2640691995620728e-01" nType="-99"/>
          <Node pos="r" depth="2" NCoef="0" IVar="-1" Cut="0.0000000000000000e+00" cType="1" res="-2.7894868253497407e-05" rms="3.2442352175712585e-01" purity="5.9361761808395386e-01" nType="-99"/>
        </Node>
      </Node>
    </BinaryTree>
    <BinaryTree type="DecisionTree" boostWeight="1.0000000000000000e+00" itree="488">
      <Node pos="s" depth="0" NCoef="0" IVar="3" Cut="2.1462975442409515e-01" cType="1" res="-3.3577398994566465e-07" rms="3.2401880621910095e-01" purity="5.9855979681015015e-01" nType="0">
        <Node pos="l" depth="1" NCoef="0" IVar="-1" Cut="0.0000000000000000e+00" cType="1" res="-6.4095476409420371e-04" rms="2.7246156334877014e-01" purity="6.9912135601043701e-01" nType="-99"/>
        <Node pos="r" depth="1" NCoef="0" IVar="3" Cut="2.1648526191711426e-01" cType="0" res="6.6400988725945354e-04" rms="3.5450631380081177e-01" purity="5.3091150522232056e-01" nType="0">
          <Node pos="l" depth="2" NCoef="0" IVar="-1" Cut="0.0000000000000000e+00" cType="1" res="1.3090510037727654e-04" rms="3.5490164160728455e-01" purity="5.3187930583953857e-01" nType="-99"/>
          <Node pos="r" depth="2" NCoef="0" IVar="-1" Cut="0.0000000000000000e+00" cType="1" res="2.3028399795293808e-02" rms="2.8700414299964905e-01" purity="3.8967135548591614e-01" nType="-99"/>
        </Node>
      </Node>
    </BinaryTree>
    <BinaryTree type="DecisionTree" boostWeight="1.0000000000000000e+00" itree="489">
      <Node pos="s" depth="0" NCoef="0" IVar="3" Cut="3.6604493856430054e-01" cType="0" res="-3.8806842894700821e-07" rms="3.2401445508003235e-01" purity="5.9855979681015015e-01" nType="0">
        <Node pos="l" depth="1" NCoef="0" IVar="-1" Cut="0.0000000000000000e+00" cType="1" res="-6.7591347033157945e-04" rms="3.6181199550628662e-01" purity="7.6616013050079346e-01" nType="-99"/>
        <Node pos="r" depth="1" NCoef="0" IVar="3" Cut="3.6510133743286133e-01" cType="0" res="3.7834528484381735e-04" rms="3.1520286202430725e-01" purity="5.6214833259582520e-01" nType="0">
          <Node pos="l" depth="2" NCoef="0" IVar="-1" Cut="0.0000000000000000e+00" cType="1" res="1.8292294815182686e-02" rms="4.0707886219024658e-01" purity="6.6666668653488159e-01" nType="-99"/>
          <Node pos="r" depth="2" NCoef="0" IVar="-1" Cut="0.0000000000000000e+00" cType="1" res="9.8596210591495037e-05" rms="3.1486925482749939e-01" purity="5.6183391809463501e-01" nType="-99"/>
        </Node>
      </Node>
    </BinaryTree>
    <BinaryTree type="DecisionTree" boostWeight="1.0000000000000000e+00" itree="490">
      <Node pos="s" depth="0" NCoef="0" IVar="0" Cut="9.4952523708343506e-02" cType="1" res="-3.0440173759416211e-07" rms="3.2401132583618164e-01" purity="5.9855979681015015e-01" nType="0">
        <Node pos="l" depth="1" NCoef="0" IVar="-1" Cut="0.0000000000000000e+00" cType="1" res="3.8394264993257821e-04" rms="3.0022761225700378e-01" purity="8.8115000724792480e-01" nType="-99"/>
        <Node pos="r" depth="1" NCoef="0" IVar="2" Cut="5.6197155267000198e-02" cType="1" res="-9.5395563403144479e-04" rms="3.5369122028350830e-01" purity="2.1568010747432709e-01" nType="0">
          <Node pos="l" depth="2" NCoef="0" IVar="-1" Cut="0.0000000000000000e+00" cType="1" res="1.6630930826067924e-02" rms="3.9857056736946106e-01" purity="3.5483869910240173e-01" nType="-99"/>
          <Node pos="r" depth="2" NCoef="0" IVar="-1" Cut="0.0000000000000000e+00" cType="1" res="-5.6693371152505279e-04" rms="3.5318654775619507e-01" purity="2.1430842578411102e-01" nType="-99"/>
        </Node>
      </Node>
    </BinaryTree>
    <BinaryTree type="DecisionTree" boostWeight="1.0000000000000000e+00" itree="491">
      <Node pos="s" depth="0" NCoef="0" IVar="3" Cut="2.3012107610702515e-01" cType="1" res="-3.4606685517246660e-07" rms="3.2400953769683838e-01" purity="5.9855979681015015e-01" nType="0">
        <Node pos="l" depth="1" NCoef="0" IVar="-1" Cut="0.0000000000000000e+00" cType="1" res="-5.9377372963353992e-04" rms="2.7536538243293762e-01" purity="6.6755342483520508e-01" nType="-99"/>
        <Node pos="r" depth="1" NCoef="0" IVar="2" Cut="2.4108339846134186e-01" cType="1" res="7.3225825326517224e-04" rms="3.5735440254211426e-01" purity="5.4479336738586426e-01" nType="0">
          <Node pos="l" depth="2" NCoef="0" IVar="-1" Cut="0.0000000000000000e+00" cType="1" res="1.7313683405518532e-02" rms="3.2061347365379333e-01" purity="8.3829784393310547e-01" nType="-99"/>
          <Node pos="r" depth="2" NCoef="0" IVar="-1" Cut="0.0000000000000000e+00" cType="1" res="1.7633925017435104e-04" rms="3.5762113332748413e-01" purity="5.4243034124374390e-01" nType="-99"/>
        </Node>
      </Node>
    </BinaryTree>
    <BinaryTree type="DecisionTree" boostWeight="1.0000000000000000e+00" itree="492">
      <Node pos="s" depth="0" NCoef="0" IVar="2" Cut="3.4542517662048340e+00" cType="1" res="-1.8619026320720877e-07" rms="3.2400706410408020e-01" purity="5.9855979681015015e-01" nType="0">
        <Node pos="l" depth="1" NCoef="0" IVar="-1" Cut="0.0000000000000000e+00" cType="1" res="2.4642506105010398e-05" rms="3.2383969426155090e-01" purity="6.0029160976409912e-01" nType="-99"/>
        <Node pos="r" depth="1" NCoef="0" IVar="1" Cut="3.2983508706092834e-01" cType="1" res="-1.2143204919993877e-02" rms="3.6033734679222107e-01" purity="1.9911503791809082e-01" nType="0">
          <Node pos="l" depth="2" NCoef="0" IVar="-1" Cut="0.0000000000000000e+00" cType="1" res="4.1406964883208275e-03" rms="3.7977826595306396e-01" purity="2.3140496015548706e-01" nType="-99"/>
          <Node pos="r" depth="2" NCoef="0" IVar="-1" Cut="0.0000000000000000e+00" cType="1" res="-1.4382404275238514e-02" rms="3.3441433310508728e-01" purity="1.6190476715564728e-01" nType="-99"/>
        </Node>
      </Node>
    </BinaryTree>
    <BinaryTree type="DecisionTree" boostWeight="1.0000000000000000e+00" itree="493">
      <Node pos="s" depth="0" NCoef="0" IVar="2" Cut="2.9222521185874939e-01" cType="1" res="-2.2721054904195626e-07" rms="3.2400611042976379e-01" purity="5.9855979681015015e-01" nType="0">
        <Node pos="l" depth="1" NCoef="0" IVar="-1" Cut="0.0000000000000000e+00" cType="1" res="-7.0630031405016780e-04" rms="2.7602326869964600e-01" purity="8.4798938035964966e-01" nType="-99"/>
        <Node pos="r" depth="1" NCoef="0" IVar="3" Cut="1.7966404557228088e-01" cType="0" res="5.7639495935291052e-04" rms="3.4669512510299683e-01" purity="4.6671533584594727e-01" nType="0">
          <Node pos="l" depth="2" NCoef="0" IVar="-1" Cut="0.0000000000000000e+00" cType="1" res="1.1492265002743807e-05" rms="3.5021001100540161e-01" purity="4.8694244027137756e-01" nType="-99"/>
          <Node pos="r" depth="2" NCoef="0" IVar="-1" Cut="0.0000000000000000e+00" cType="1" res="5.1575279794633389e-03" rms="2.8819406032562256e-01" purity="1.6062176227569580e-01" nType="-99"/>
        </Node>
      </Node>
    </BinaryTree>
    <BinaryTree type="DecisionTree" boostWeight="1.0000000000000000e+00" itree="494">
      <Node pos="s" depth="0" NCoef="0" IVar="0" Cut="5.9970013797283173e-02" cType="1" res="-2.8822620379287400e-07" rms="3.2400208711624146e-01" purity="5.9855979681015015e-01" nType="0">
        <Node pos="l" depth="1" NCoef="0" IVar="-1" Cut="0.0000000000000000e+00" cType="1" res="4.8754978342913091e-04" rms="2.8295701742172241e-01" purity="8.9877647161483765e-01" nType="-99"/>
        <Node pos="r" depth="1" NCoef="0" IVar="2" Cut="1.0003093481063843e+00" cType="1" res="-8.2834222121164203e-04" rms="3.6165413260459900e-01" purity="2.8743678331375122e-01" nType="0">
          <Node pos="l" depth="2" NCoef="0" IVar="-1" Cut="0.0000000000000000e+00" cType="1" res="-1.9059031037613750e-03" rms="3.7267920374870300e-01" purity="3.4198909997940063e-01" nType="-99"/>
          <Node pos="r" depth="2" NCoef="0" IVar="-1" Cut="0.0000000000000000e+00" cType="1" res="1.7167337937280536e-03" rms="3.4880012273788452e-01" purity="2.2622977197170258e-01" nType="-99"/>
        </Node>
      </Node>
    </BinaryTree>
    <BinaryTree type="DecisionTree" boostWeight="1.0000000000000000e+00" itree="495">
      <Node pos="s" depth="0" NCoef="0" IVar="2" Cut="1.1876331567764282e+00" cType="1" res="-3.3982419722633495e-07" rms="3.2399600744247437e-01" purity="5.9855979681015015e-01" nType="0">
        <Node pos="l" depth="1" NCoef="0" IVar="-1" Cut="0.0000000000000000e+00" cType="1" res="2.1354656200855970e-04" rms="3.1721639633178711e-01" purity="6.8335270881652832e-01" nType="-99"/>
        <Node pos="r" depth="1" NCoef="0" IVar="0" Cut="8.6206898093223572e-02" cType="1" res="-1.8022586591541767e-03" rms="3.5042563080787659e-01" purity="2.5080385804176331e-01" nType="0">
          <Node pos="l" depth="2" NCoef="0" IVar="-1" Cut="0.0000000000000000e+00" cType="1" res="-1.3078675605356693e-02" rms="4.0901061892509460e-01" purity="7.4313551187515259e-01" nType="-99"/>
          <Node pos="r" depth="2" NCoef="0" IVar="-1" Cut="0.0000000000000000e+00" cType="1" res="1.1657092254608870e-03" rms="3.4221082925796509e-01" purity="1.8994963169097900e-01" nType="-99"/>
        </Node>
      </Node>
    </BinaryTree>
    <BinaryTree type="DecisionTree" boostWeight="1.0000000000000000e+00" itree="496">
      <Node pos="s" depth="0" NCoef="0" IVar="0" Cut="9.4952523708343506e-02" cType="1" res="2.1804852678997122e-07" rms="3.2398337125778198e-01" purity="5.9855979681015015e-01" nType="0">
        <Node pos="l" depth="1" NCoef="0" IVar="-1" Cut="0.0000000000000000e+00" cType="1" res="4.1668757330626249e-04" rms="3.0020424723625183e-01" purity="8.8115000724792480e-01" nType="-99"/>
        <Node pos="r" depth="1" NCoef="0" IVar="3" Cut="4.2355257272720337e-01" cType="0" res="-1.0341642191633582e-03" rms="3.5365736484527588e-01" purity="2.1568010747432709e-01" nType="0">
          <Node pos="l" depth="2" NCoef="0" IVar="-1" Cut="0.0000000000000000e+00" cType="1" res="1.4682083390653133e-02" rms="4.5106941461563110e-01" purity="4.6000000834465027e-01" nType="-99"/>
          <Node pos="r" depth="2" NCoef="0" IVar="-1" Cut="0.0000000000000000e+00" cType="1" res="-5.6653562933206558e-04" rms="3.5287013649940491e-01" purity="2.1402047574520111e-01" nType="-99"/>
        </Node>
      </Node>
    </BinaryTree>
    <BinaryTree type="DecisionTree" boostWeight="1.0000000000000000e+00" itree="497">
      <Node pos="s" depth="0" NCoef="0" IVar="2" Cut="1.7046469449996948e+00" cType="1" res="1.6510847444806132e-07" rms="3.2398110628128052e-01" purity="5.9855979681015015e-01" nType="0">
        <Node pos="l" depth="1" NCoef="0" IVar="-1" Cut="0.0000000000000000e+00" cType="1" res="1.2473408423829824e-04" rms="3.2234683632850647e-01" purity="6.3696724176406860e-01" nType="-99"/>
        <Node pos="r" depth="1" NCoef="0" IVar="3" Cut="4.2406514286994934e-01" cType="0" res="-2.7239834889769554e-03" rms="3.4043714404106140e-01" purity="2.0069429278373718e-01" nType="0">
          <Node pos="l" depth="2" NCoef="0" IVar="-1" Cut="0.0000000000000000e+00" cType="1" res="-2.6121160015463829e-02" rms="4.5234605669975281e-01" purity="5.7142859697341919e-01" nType="-99"/>
          <Node pos="r" depth="2" NCoef="0" IVar="-1" Cut="0.0000000000000000e+00" cType="1" res="-1.8242139776702970e-04" rms="3.3666270971298218e-01" purity="1.9086860120296478e-01" nType="-99"/>
        </Node>
      </Node>
    </BinaryTree>
    <BinaryTree type="DecisionTree" boostWeight="1.0000000000000000e+00" itree="498">
      <Node pos="s" depth="0" NCoef="0" IVar="0" Cut="6.5842080116271973e-01" cType="1" res="2.9924558475613594e-07" rms="3.2397547364234924e-01" purity="5.9855979681015015e-01" nType="0">
        <Node pos="l" depth="1" NCoef="0" IVar="-1" Cut="0.0000000000000000e+00" cType="1" res="1.4672325050923973e-04" rms="3.3286890387535095e-01" purity="6.7745697498321533e-01" nType="-99"/>
        <Node pos="r" depth="1" NCoef="0" IVar="2" Cut="9.1414034366607666e-01" cType="0" res="-2.1735290065407753e-03" rms="2.5758594274520874e-01" purity="7.7169016003608704e-02" nType="0">
          <Node pos="l" depth="2" NCoef="0" IVar="-1" Cut="0.0000000000000000e+00" cType="1" res="-4.0049785748124123e-03" rms="2.5819027423858643e-01" purity="7.9158939421176910e-02" nType="-99"/>
          <Node pos="r" depth="2" NCoef="0" IVar="-1" Cut="0.0000000000000000e+00" cType="1" res="5.6350068189203739e-03" rms="2.5591453909873962e-01" purity="7.2413794696331024e-02" nType="-99"/>
        </Node>
      </Node>
    </BinaryTree>
    <BinaryTree type="DecisionTree" boostWeight="1.0000000000000000e+00" itree="499">
      <Node pos="s" depth="0" NCoef="0" IVar="2" Cut="3.7989275455474854e+00" cType="1" res="-2.2629640383797778e-08" rms="3.2397541403770447e-01" purity="5.9855979681015015e-01" nType="0">
        <Node pos="l" depth="1" NCoef="0" IVar="2" Cut="3.4397087097167969e+00" cType="1" res="-4.0378061385126784e-05" rms="3.2380858063697815e-01" purity="5.9950596094131470e-01" nType="0">
          <Node pos="l" depth="2" NCoef="0" IVar="-1" Cut="0.0000000000000000e+00" cType="1" res="1.9335586330271326e-05" rms="3.2381799817085266e-01" purity="6.0032230615615845e-01" nType="-99"/>
          <Node pos="r" depth="2" NCoef="0" IVar="-1" Cut="0.0000000000000000e+00" cType="1" res="-1.5155758708715439e-02" rms="3.1612646579742432e-01" purity="1.7821782827377319e-01" nType="-99"/>
        </Node>
        <Node pos="r" depth="1" NCoef="0" IVar="-1" Cut="0.0000000000000000e+00" cType="1" res="5.7283323258161545e-03" rms="3.8442745804786682e-01" purity="2.2137404978275299e-01" nType="-99"/>
      </Node>
    </BinaryTree>
    <BinaryTree type="DecisionTree" boostWeight="1.0000000000000000e+00" itree="500">
      <Node pos="s" depth="0" NCoef="0" IVar="3" Cut="2.3611772060394287e-01" cType="1" res="-8.5073402544821874e-08" rms="3.2397440075874329e-01" purity="5.9855979681015015e-01" nType="0">
        <Node pos="l" depth="1" NCoef="0" IVar="-1" Cut="0.0000000000000000e+00" cType="1" res="-5.5249145952984691e-04" rms="2.7611303329467773e-01" purity="6.5614449977874756e-01" nType="-99"/>
        <Node pos="r" depth="1" NCoef="0" IVar="3" Cut="2.3691380023956299e-01" cType="0" res="7.2954909410327673e-04" rms="3.5875663161277771e-01" purity="5.5094563961029053e-01" nType="0">
          <Node pos="l" depth="2" NCoef="0" IVar="-1" Cut="0.0000000000000000e+00" cType="1" res="1.9654413335956633e-04" rms="3.5885646939277649e-01" purity="5.5172657966613770e-01" nType="-99"/>
          <Node pos="r" depth="2" NCoef="0" IVar="-1" Cut="0.0000000000000000e+00" cType="1" res="2.8514683246612549e-02" rms="3.2443499565124512e-01" purity="3.3653846383094788e-01" nType="-99"/>
        </Node>
      </Node>
    </BinaryTree>
    <BinaryTree type="DecisionTree" boostWeight="1.0000000000000000e+00" itree="501">
      <Node pos="s" depth="0" NCoef="0" IVar="3" Cut="4.7248530387878418e-01" cType="0" res="-1.7436865107356425e-07" rms="3.2396987080574036e-01" purity="5.9855979681015015e-01" nType="0">
        <Node pos="l" depth="1" NCoef="0" IVar="-1" Cut="0.0000000000000000e+00" cType="1" res="-2.6891743764281273e-03" rms="3.1838905811309814e-01" purity="8.6808508634567261e-01" nType="-99"/>
        <Node pos="r" depth="1" NCoef="0" IVar="3" Cut="4.6351227164268494e-01" cType="0" res="1.1945627193199471e-04" rms="3.2409587502479553e-01" purity="5.9237188100814819e-01" nType="0">
          <Node pos="l" depth="2" NCoef="0" IVar="-1" Cut="0.0000000000000000e+00" cType="1" res="1.0885359719395638e-02" rms="2.9980534315109253e-01" purity="8.7692308425903320e-01" nType="-99"/>
          <Node pos="r" depth="2" NCoef="0" IVar="-1" Cut="0.0000000000000000e+00" cType="1" res="-4.2357536585768685e-05" rms="3.2429790496826172e-01" purity="5.8981943130493164e-01" nType="-99"/>
        </Node>
      </Node>
    </BinaryTree>
    <BinaryTree type="DecisionTree" boostWeight="1.0000000000000000e+00" itree="502">
      <Node pos="s" depth="0" NCoef="0" IVar="0" Cut="9.4952523708343506e-02" cType="1" res="1.7399369722781444e-09" rms="3.2396829128265381e-01" purity="5.9855979681015015e-01" nType="0">
        <Node pos="l" depth="1" NCoef="0" IVar="-1" Cut="0.0000000000000000e+00" cType="1" res="3.6650191759690642e-04" rms="3.0019205808639526e-01" purity="8.8115000724792480e-01" nType="-99"/>
        <Node pos="r" depth="1" NCoef="0" IVar="1" Cut="6.6216893494129181e-02" cType="1" res="-9.0945750707760453e-04" rms="3.5363951325416565e-01" purity="2.1568010747432709e-01" nType="0">
          <Node pos="l" depth="2" NCoef="0" IVar="-1" Cut="0.0000000000000000e+00" cType="1" res="-2.2480145562440157e-03" rms="3.8640692830085754e-01" purity="3.0815812945365906e-01" nType="-99"/>
          <Node pos="r" depth="2" NCoef="0" IVar="-1" Cut="0.0000000000000000e+00" cType="1" res="1.3819142477586865e-03" rms="3.3057177066802979e-01" purity="1.5563797950744629e-01" nType="-99"/>
        </Node>
      </Node>
    </BinaryTree>
    <BinaryTree type="DecisionTree" boostWeight="1.0000000000000000e+00" itree="503">
      <Node pos="s" depth="0" NCoef="0" IVar="1" Cut="4.4977512210607529e-02" cType="1" res="-9.5644764996904996e-08" rms="3.2396543025970459e-01" purity="5.9855979681015015e-01" nType="0">
        <Node pos="l" depth="1" NCoef="0" IVar="-1" Cut="0.0000000000000000e+00" cType="1" res="4.8008910380303860e-04" rms="3.0215242505073547e-01" purity="7.4969816207885742e-01" nType="-99"/>
        <Node pos="r" depth="1" NCoef="0" IVar="0" Cut="2.2238880395889282e-01" cType="1" res="-9.3572720652446151e-04" rms="3.4489843249320984e-01" purity="4.4359767436981201e-01" nType="0">
          <Node pos="l" depth="2" NCoef="0" IVar="-1" Cut="0.0000000000000000e+00" cType="1" res="-1.4788489788770676e-03" rms="3.8224002718925476e-01" purity="7.1382123231887817e-01" nType="-99"/>
          <Node pos="r" depth="2" NCoef="0" IVar="-1" Cut="0.0000000000000000e+00" cType="1" res="1.9980377983301878e-03" rms="2.9064184427261353e-01" purity="1.0075478255748749e-01" nType="-99"/>
        </Node>
      </Node>
    </BinaryTree>
    <BinaryTree type="DecisionTree" boostWeight="1.0000000000000000e+00" itree="504">
      <Node pos="s" depth="0" NCoef="0" IVar="0" Cut="6.5842080116271973e-01" cType="1" res="-1.3756492478478322e-07" rms="3.2396081089973450e-01" purity="5.9855979681015015e-01" nType="0">
        <Node pos="l" depth="1" NCoef="0" IVar="-1" Cut="0.0000000000000000e+00" cType="1" res="1.5227388939820230e-04" rms="3.3285513520240784e-01" purity="6.7745697498321533e-01" nType="-99"/>
        <Node pos="r" depth="1" NCoef="0" IVar="3" Cut="3.0551603436470032e-01" cType="0" res="-2.2599508520215750e-03" rms="2.5756245851516724e-01" purity="7.7169016003608704e-02" nType="0">
          <Node pos="l" depth="2" NCoef="0" IVar="-1" Cut="0.0000000000000000e+00" cType="1" res="6.4070615917444229e-03" rms="3.3280265331268311e-01" purity="1.4740565419197083e-01" nType="-99"/>
          <Node pos="r" depth="2" NCoef="0" IVar="-1" Cut="0.0000000000000000e+00" cType="1" res="-3.4338431432843208e-03" rms="2.4506226181983948e-01" purity="6.7296534776687622e-02" nType="-99"/>
        </Node>
      </Node>
    </BinaryTree>
    <BinaryTree type="DecisionTree" boostWeight="1.0000000000000000e+00" itree="505">
      <Node pos="s" depth="0" NCoef="0" IVar="1" Cut="4.4977512210607529e-02" cType="1" res="-3.5550152688301750e-07" rms="3.2395979762077332e-01" purity="5.9855979681015015e-01" nType="0">
        <Node pos="l" depth="1" NCoef="0" IVar="-1" Cut="0.0000000000000000e+00" cType="1" res="4.2256375309079885e-04" rms="3.0215108394622803e-01" purity="7.4969816207885742e-01" nType="-99"/>
        <Node pos="r" depth="1" NCoef="0" IVar="0" Cut="1.3868066668510437e-01" cType="1" res="-8.2370865857228637e-04" rms="3.4488946199417114e-01" purity="4.4359767436981201e-01" nType="0">
          <Node pos="l" depth="2" NCoef="0" IVar="-1" Cut="0.0000000000000000e+00" cType="1" res="-1.6208576271310449e-03" rms="3.7116813659667969e-01" purity="7.7346742153167725e-01" nType="-99"/>
          <Node pos="r" depth="2" NCoef="0" IVar="-1" Cut="0.0000000000000000e+00" cType="1" res="1.2660947395488620e-03" rms="3.1816571950912476e-01" purity="1.3338838517665863e-01" nType="-99"/>
        </Node>
      </Node>
    </BinaryTree>
    <BinaryTree type="DecisionTree" boostWeight="1.0000000000000000e+00" itree="506">
      <Node pos="s" depth="0" NCoef="0" IVar="0" Cut="1.4617690443992615e-01" cType="1" res="-2.9380572641457547e-07" rms="3.2395580410957336e-01" purity="5.9855979681015015e-01" nType="0">
        <Node pos="l" depth="1" NCoef="0" IVar="-1" Cut="0.0000000000000000e+00" cType="1" res="3.5301942261867225e-04" rms="3.1921723484992981e-01" purity="8.5407841205596924e-01" nType="-99"/>
        <Node pos="r" depth="1" NCoef="0" IVar="0" Cut="1.4854422211647034e-01" cType="1" res="-1.2733638286590576e-03" rms="3.3206117153167725e-01" purity="1.5255126357078552e-01" nType="0">
          <Node pos="l" depth="2" NCoef="0" IVar="-1" Cut="0.0000000000000000e+00" cType="1" res="-2.3519543930888176e-02" rms="4.8064804077148438e-01" purity="3.4999999403953552e-01" nType="-99"/>
          <Node pos="r" depth="2" NCoef="0" IVar="-1" Cut="0.0000000000000000e+00" cType="1" res="-2.6480876840651035e-04" rms="3.3079648017883301e-01" purity="1.5130086243152618e-01" nType="-99"/>
        </Node>
      </Node>
    </BinaryTree>
    <BinaryTree type="DecisionTree" boostWeight="1.0000000000000000e+00" itree="507">
      <Node pos="s" depth="0" NCoef="0" IVar="0" Cut="1.6116940975189209e-01" cType="1" res="-2.9479136287591245e-07" rms="3.2394799590110779e-01" purity="5.9855979681015015e-01" nType="0">
        <Node pos="l" depth="1" NCoef="0" IVar="-1" Cut="0.0000000000000000e+00" cType="1" res="3.1716033117845654e-04" rms="3.2310566306114197e-01" purity="8.4581202268600464e-01" nType="-99"/>
        <Node pos="r" depth="1" NCoef="0" IVar="3" Cut="3.9234051108360291e-01" cType="0" res="-1.2417493853718042e-03" rms="3.2549613714218140e-01" purity="1.4138005673885345e-01" nType="0">
          <Node pos="l" depth="2" NCoef="0" IVar="-1" Cut="0.0000000000000000e+00" cType="1" res="1.5445676632225513e-02" rms="4.6420714259147644e-01" purity="3.5326087474822998e-01" nType="-99"/>
          <Node pos="r" depth="2" NCoef="0" IVar="-1" Cut="0.0000000000000000e+00" cType="1" res="-1.1575118405744433e-03" rms="3.2192265987396240e-01" purity="1.3705019652843475e-01" nType="-99"/>
        </Node>
      </Node>
    </BinaryTree>
    <BinaryTree type="DecisionTree" boostWeight="1.0000000000000000e+00" itree="508">
      <Node pos="s" depth="0" NCoef="0" IVar="3" Cut="3.6604493856430054e-01" cType="0" res="-5.3688802381657297e-07" rms="3.2394215464591980e-01" purity="5.9855979681015015e-01" nType="0">
        <Node pos="l" depth="1" NCoef="0" IVar="-1" Cut="0.0000000000000000e+00" cType="1" res="-7.3880085255950689e-04" rms="3.6165666580200195e-01" purity="7.6616013050079346e-01" nType="-99"/>
        <Node pos="r" depth="1" NCoef="0" IVar="3" Cut="3.6071133613586426e-01" cType="0" res="4.1365667129866779e-04" rms="3.1515085697174072e-01" purity="5.6214833259582520e-01" nType="0">
          <Node pos="l" depth="2" NCoef="0" IVar="-1" Cut="0.0000000000000000e+00" cType="1" res="7.8024356625974178e-03" rms="3.9392429590225220e-01" purity="6.3452565670013428e-01" nType="-99"/>
          <Node pos="r" depth="2" NCoef="0" IVar="-1" Cut="0.0000000000000000e+00" cType="1" res="2.6309615350328386e-05" rms="3.1378915905952454e-01" purity="5.6104987859725952e-01" nType="-99"/>
        </Node>
      </Node>
    </BinaryTree>
    <BinaryTree type="DecisionTree" boostWeight="1.0000000000000000e+00" itree="509">
      <Node pos="s" depth="0" NCoef="0" IVar="3" Cut="3.1907123327255249e-01" cType="0" res="-4.4678708377432486e-07" rms="3.2393857836723328e-01" purity="5.9855979681015015e-01" nType="0">
        <Node pos="l" depth="1" NCoef="0" IVar="-1" Cut="0.0000000000000000e+00" cType="1" res="-4.7577678924426436e-04" rms="3.7182047963142395e-01" purity="6.7848116159439087e-01" nType="-99"/>
        <Node pos="r" depth="1" NCoef="0" IVar="0" Cut="2.2738631069660187e-01" cType="1" res="5.6261423742398620e-04" rms="3.0083036422729492e-01" purity="5.6392705440521240e-01" nType="0">
          <Node pos="l" depth="2" NCoef="0" IVar="-1" Cut="0.0000000000000000e+00" cType="1" res="1.3440290931612253e-03" rms="3.1264975666999817e-01" purity="8.3240413665771484e-01" nType="-99"/>
          <Node pos="r" depth="2" NCoef="0" IVar="-1" Cut="0.0000000000000000e+00" cType="1" res="-1.9869343377649784e-03" rms="2.7870282530784607e-01" purity="8.9945487678050995e-02" nType="-99"/>
        </Node>
      </Node>
    </BinaryTree>
    <BinaryTree type="DecisionTree" boostWeight="1.0000000000000000e+00" itree="510">
      <Node pos="s" depth="0" NCoef="0" IVar="2" Cut="2.9222521185874939e-01" cType="1" res="-4.4937860366189852e-07" rms="3.2393723726272583e-01" purity="5.9855979681015015e-01" nType="0">
        <Node pos="l" depth="1" NCoef="0" IVar="-1" Cut="0.0000000000000000e+00" cType="1" res="-7.6714070746675134e-04" rms="2.7600365877151489e-01" purity="8.4798938035964966e-01" nType="-99"/>
        <Node pos="r" depth="1" NCoef="0" IVar="3" Cut="1.3903661072254181e-01" cType="0" res="6.2417256413027644e-04" rms="3.4660476446151733e-01" purity="4.6671533584594727e-01" nType="0">
          <Node pos="l" depth="2" NCoef="0" IVar="-1" Cut="0.0000000000000000e+00" cType="1" res="3.6513878148980439e-04" rms="3.4785380959510803e-01" purity="4.7285833954811096e-01" nType="-99"/>
          <Node pos="r" depth="2" NCoef="0" IVar="-1" Cut="0.0000000000000000e+00" cType="1" res="-1.0672505013644695e-02" rms="2.5589907169342041e-01" purity="8.1784389913082123e-02" nType="-99"/>
        </Node>
      </Node>
    </BinaryTree>
    <BinaryTree type="DecisionTree" boostWeight="1.0000000000000000e+00" itree="511">
      <Node pos="s" depth="0" NCoef="0" IVar="3" Cut="3.1907123327255249e-01" cType="0" res="-5.1556315838752198e-07" rms="3.2393634319305420e-01" purity="5.9855979681015015e-01" nType="0">
        <Node pos="l" depth="1" NCoef="0" IVar="-1" Cut="0.0000000000000000e+00" cType="1" res="-4.6468732762150466e-04" rms="3.7182030081748962e-01" purity="6.7848116159439087e-01" nType="-99"/>
        <Node pos="r" depth="1" NCoef="0" IVar="0" Cut="2.2738631069660187e-01" cType="1" res="5.4941739654168487e-04" rms="3.0082708597183228e-01" purity="5.6392705440521240e-01" nType="0">
          <Node pos="l" depth="2" NCoef="0" IVar="-1" Cut="0.0000000000000000e+00" cType="1" res="1.2398058315739036e-03" rms="3.1264495849609375e-01" purity="8.3240413665771484e-01" nType="-99"/>
          <Node pos="r" depth="2" NCoef="0" IVar="-1" Cut="0.0000000000000000e+00" cType="1" res="-1.7847929848358035e-03" rms="2.7870965003967285e-01" purity="8.9945487678050995e-02" nType="-99"/>
        </Node>
      </Node>
    </BinaryTree>
    <BinaryTree type="DecisionTree" boostWeight="1.0000000000000000e+00" itree="512">
      <Node pos="s" depth="0" NCoef="0" IVar="2" Cut="2.9222521185874939e-01" cType="1" res="-4.9807891855380149e-07" rms="3.2393530011177063e-01" purity="5.9855979681015015e-01" nType="0">
        <Node pos="l" depth="1" NCoef="0" IVar="-1" Cut="0.0000000000000000e+00" cType="1" res="-8.0000871093943715e-04" rms="2.7600637078285217e-01" purity="8.4798938035964966e-01" nType="-99"/>
        <Node pos="r" depth="1" NCoef="0" IVar="3" Cut="1.7966404557228088e-01" cType="0" res="6.5037637250497937e-04" rms="3.4660068154335022e-01" purity="4.6671533584594727e-01" nType="0">
          <Node pos="l" depth="2" NCoef="0" IVar="-1" Cut="0.0000000000000000e+00" cType="1" res="4.1978280933108181e-05" rms="3.5011336207389832e-01" purity="4.8694244027137756e-01" nType="-99"/>
          <Node pos="r" depth="2" NCoef="0" IVar="-1" Cut="0.0000000000000000e+00" cType="1" res="5.2004437893629074e-03" rms="2.8813958168029785e-01" purity="1.6062176227569580e-01" nType="-99"/>
        </Node>
      </Node>
    </BinaryTree>
    <BinaryTree type="DecisionTree" boostWeight="1.0000000000000000e+00" itree="513">
      <Node pos="s" depth="0" NCoef="0" IVar="2" Cut="3.5591530799865723e-01" cType="1" res="-5.2867386557409191e-07" rms="3.2393115758895874e-01" purity="5.9855979681015015e-01" nType="0">
        <Node pos="l" depth="1" NCoef="0" IVar="-1" Cut="0.0000000000000000e+00" cType="1" res="-6.4173352438956499e-04" rms="2.8208211064338684e-01" purity="8.3244299888610840e-01" nType="-99"/>
        <Node pos="r" depth="1" NCoef="0" IVar="2" Cut="3.9873868227005005e-01" cType="1" res="6.6024059196934104e-04" rms="3.4803411364555359e-01" purity="4.4918462634086609e-01" nType="0">
          <Node pos="l" depth="2" NCoef="0" IVar="-1" Cut="0.0000000000000000e+00" cType="1" res="4.8697008751332760e-03" rms="3.1618177890777588e-01" purity="7.3412698507308960e-01" nType="-99"/>
          <Node pos="r" depth="2" NCoef="0" IVar="-1" Cut="0.0000000000000000e+00" cType="1" res="2.2592073946725577e-05" rms="3.4979641437530518e-01" purity="4.3253272771835327e-01" nType="-99"/>
        </Node>
      </Node>
    </BinaryTree>
    <BinaryTree type="DecisionTree" boostWeight="1.0000000000000000e+00" itree="514">
      <Node pos="s" depth="0" NCoef="0" IVar="3" Cut="3.1907123327255249e-01" cType="0" res="-3.9850621647019580e-07" rms="3.2392936944961548e-01" purity="5.9855979681015015e-01" nType="0">
        <Node pos="l" depth="1" NCoef="0" IVar="-1" Cut="0.0000000000000000e+00" cType="1" res="-4.5371899614110589e-04" rms="3.7181442975997925e-01" purity="6.7848116159439087e-01" nType="-99"/>
        <Node pos="r" depth="1" NCoef="0" IVar="1" Cut="8.4957517683506012e-02" cType="1" res="5.3653807844966650e-04" rms="3.0081954598426819e-01" purity="5.6392705440521240e-01" nType="0">
          <Node pos="l" depth="2" NCoef="0" IVar="-1" Cut="0.0000000000000000e+00" cType="1" res="1.5516764251515269e-03" rms="2.8445854783058167e-01" purity="7.1912145614624023e-01" nType="-99"/>
          <Node pos="r" depth="2" NCoef="0" IVar="-1" Cut="0.0000000000000000e+00" cType="1" res="-1.1995894601568580e-03" rms="3.2285296916961670e-01" purity="3.4096065163612366e-01" nType="-99"/>
        </Node>
      </Node>
    </BinaryTree>
    <BinaryTree type="DecisionTree" boostWeight="1.0000000000000000e+00" itree="515">
      <Node pos="s" depth="0" NCoef="0" IVar="1" Cut="1.2493752874433994e-03" cType="1" res="-3.2449719356009155e-07" rms="3.2392725348472595e-01" purity="5.9855979681015015e-01" nType="0">
        <Node pos="l" depth="1" NCoef="0" IVar="-1" Cut="0.0000000000000000e+00" cType="1" res="-5.7285343063995242e-04" rms="3.0547389388084412e-01" purity="7.4462652206420898e-01" nType="-99"/>
        <Node pos="r" depth="1" NCoef="0" IVar="3" Cut="3.3055311441421509e-01" cType="0" res="7.1806320920586586e-04" rms="3.3548954129219055e-01" purity="5.0265789031982422e-01" nType="0">
          <Node pos="l" depth="2" NCoef="0" IVar="-1" Cut="0.0000000000000000e+00" cType="1" res="1.8732743337750435e-03" rms="3.9091956615447998e-01" purity="6.3706612586975098e-01" nType="-99"/>
          <Node pos="r" depth="2" NCoef="0" IVar="-1" Cut="0.0000000000000000e+00" cType="1" res="-4.4622743735089898e-04" rms="3.1486010551452637e-01" purity="4.5790806412696838e-01" nType="-99"/>
        </Node>
      </Node>
    </BinaryTree>
    <BinaryTree type="DecisionTree" boostWeight="1.0000000000000000e+00" itree="516">
      <Node pos="s" depth="0" NCoef="0" IVar="3" Cut="3.1907123327255249e-01" cType="0" res="-2.5770521006052149e-07" rms="3.2392597198486328e-01" purity="5.9855979681015015e-01" nType="0">
        <Node pos="l" depth="1" NCoef="0" IVar="-1" Cut="0.0000000000000000e+00" cType="1" res="-4.8541842261329293e-04" rms="3.7180829048156738e-01" purity="6.7848116159439087e-01" nType="-99"/>
        <Node pos="r" depth="1" NCoef="0" IVar="0" Cut="2.2738631069660187e-01" cType="1" res="5.7429517619311810e-04" rms="3.0081740021705627e-01" purity="5.6392705440521240e-01" nType="0">
          <Node pos="l" depth="2" NCoef="0" IVar="-1" Cut="0.0000000000000000e+00" cType="1" res="1.1855366174131632e-03" rms="3.1263071298599243e-01" purity="8.3240413665771484e-01" nType="-99"/>
          <Node pos="r" depth="2" NCoef="0" IVar="-1" Cut="0.0000000000000000e+00" cType="1" res="-1.6258426476269960e-03" rms="2.7871340513229370e-01" purity="8.9945487678050995e-02" nType="-99"/>
        </Node>
      </Node>
    </BinaryTree>
    <BinaryTree type="DecisionTree" boostWeight="1.0000000000000000e+00" itree="517">
      <Node pos="s" depth="0" NCoef="0" IVar="2" Cut="3.5591530799865723e-01" cType="1" res="-2.5343155130030937e-07" rms="3.2392504811286926e-01" purity="5.9855979681015015e-01" nType="0">
        <Node pos="l" depth="1" NCoef="0" IVar="-1" Cut="0.0000000000000000e+00" cType="1" res="-6.5930368145927787e-04" rms="2.8208234906196594e-01" purity="8.3244299888610840e-01" nType="-99"/>
        <Node pos="r" depth="1" NCoef="0" IVar="1" Cut="1.6616691648960114e-01" cType="1" res="6.7809136817231774e-04" rms="3.4802460670471191e-01" purity="4.4918462634086609e-01" nType="0">
          <Node pos="l" depth="2" NCoef="0" IVar="-1" Cut="0.0000000000000000e+00" cType="1" res="-4.1056622285395861e-04" rms="3.5166564583778381e-01" purity="5.6202578544616699e-01" nType="-99"/>
          <Node pos="r" depth="2" NCoef="0" IVar="-1" Cut="0.0000000000000000e+00" cType="1" res="1.8177559832111001e-03" rms="3.4040173888206482e-01" purity="2.1756163239479065e-01" nType="-99"/>
        </Node>
      </Node>
    </BinaryTree>
    <BinaryTree type="DecisionTree" boostWeight="1.0000000000000000e+00" itree="518">
      <Node pos="s" depth="0" NCoef="0" IVar="3" Cut="3.6604493856430054e-01" cType="0" res="-2.6978014489031921e-07" rms="3.2392185926437378e-01" purity="5.9855979681015015e-01" nType="0">
        <Node pos="l" depth="1" NCoef="0" IVar="-1" Cut="0.0000000000000000e+00" cType="1" res="-6.7102210596203804e-04" rms="3.6164033412933350e-01" purity="7.6616013050079346e-01" nType="-99"/>
        <Node pos="r" depth="1" NCoef="0" IVar="3" Cut="3.6510133743286133e-01" cType="0" res="3.7640993832610548e-04" rms="3.1512984633445740e-01" purity="5.6214833259582520e-01" nType="0">
          <Node pos="l" depth="2" NCoef="0" IVar="-1" Cut="0.0000000000000000e+00" cType="1" res="1.5726748853921890e-02" rms="4.0692830085754395e-01" purity="6.6666668653488159e-01" nType="-99"/>
          <Node pos="r" depth="2" NCoef="0" IVar="-1" Cut="0.0000000000000000e+00" cType="1" res="1.1092372733401135e-04" rms="3.1480109691619873e-01" purity="5.6183391809463501e-01" nType="-99"/>
        </Node>
      </Node>
    </BinaryTree>
    <BinaryTree type="DecisionTree" boostWeight="1.0000000000000000e+00" itree="519">
      <Node pos="s" depth="0" NCoef="0" IVar="2" Cut="2.7349281311035156e-01" cType="1" res="-2.0638488251734088e-07" rms="3.2391944527626038e-01" purity="5.9855979681015015e-01" nType="0">
        <Node pos="l" depth="1" NCoef="0" IVar="-1" Cut="0.0000000000000000e+00" cType="1" res="-7.2582456050440669e-04" rms="2.7386674284934998e-01" purity="8.5204869508743286e-01" nType="-99"/>
        <Node pos="r" depth="1" NCoef="0" IVar="3" Cut="1.4487259089946747e-01" cType="0" res="5.5335724027827382e-04" rms="3.4633028507232666e-01" purity="4.7129535675048828e-01" nType="0">
          <Node pos="l" depth="2" NCoef="0" IVar="-1" Cut="0.0000000000000000e+00" cType="1" res="3.8370655965991318e-04" rms="3.4795308113098145e-01" purity="4.7918987274169922e-01" nType="-99"/>
          <Node pos="r" depth="2" NCoef="0" IVar="-1" Cut="0.0000000000000000e+00" cType="1" res="-1.0728855617344379e-02" rms="2.5972762703895569e-01" purity="1.0583446174860001e-01" nType="-99"/>
        </Node>
      </Node>
    </BinaryTree>
    <BinaryTree type="DecisionTree" boostWeight="1.0000000000000000e+00" itree="520">
      <Node pos="s" depth="0" NCoef="0" IVar="3" Cut="3.1907123327255249e-01" cType="0" res="-3.3415537359360314e-07" rms="3.2391834259033203e-01" purity="5.9855979681015015e-01" nType="0">
        <Node pos="l" depth="1" NCoef="0" IVar="-1" Cut="0.0000000000000000e+00" cType="1" res="-4.6982424100860953e-04" rms="3.7179511785507202e-01" purity="6.7848116159439087e-01" nType="-99"/>
        <Node pos="r" depth="1" NCoef="0" IVar="1" Cut="2.4237881600856781e-01" cType="1" res="5.5608723778277636e-04" rms="3.0081275105476379e-01" purity="5.6392705440521240e-01" nType="0">
          <Node pos="l" depth="2" NCoef="0" IVar="-1" Cut="0.0000000000000000e+00" cType="1" res="9.9548371508717537e-04" rms="2.9479438066482544e-01" purity="6.6266655921936035e-01" nType="-99"/>
          <Node pos="r" depth="2" NCoef="0" IVar="-1" Cut="0.0000000000000000e+00" cType="1" res="-1.9284755690023303e-03" rms="3.2176890969276428e-01" purity="2.0381680130958557e-01" nType="-99"/>
        </Node>
      </Node>
    </BinaryTree>
    <BinaryTree type="DecisionTree" boostWeight="1.0000000000000000e+00" itree="521">
      <Node pos="s" depth="0" NCoef="0" IVar="1" Cut="1.2493752874433994e-03" cType="1" res="-3.1980860626390495e-07" rms="3.2391589879989624e-01" purity="5.9855979681015015e-01" nType="0">
        <Node pos="l" depth="1" NCoef="0" IVar="-1" Cut="0.0000000000000000e+00" cType="1" res="-5.1787804113700986e-04" rms="3.0546045303344727e-01" purity="7.4462652206420898e-01" nType="-99"/>
        <Node pos="r" depth="1" NCoef="0" IVar="1" Cut="5.0218775868415833e-03" cType="1" res="6.4911862136796117e-04" rms="3.3547979593276978e-01" purity="5.0265789031982422e-01" nType="0">
          <Node pos="l" depth="2" NCoef="0" IVar="-1" Cut="0.0000000000000000e+00" cType="1" res="1.4619034714996815e-02" rms="2.7783817052841187e-01" purity="7.7218937873840332e-01" nType="-99"/>
          <Node pos="r" depth="2" NCoef="0" IVar="-1" Cut="0.0000000000000000e+00" cType="1" res="1.5817116945981979e-04" rms="3.3603727817535400e-01" purity="4.9974411725997925e-01" nType="-99"/>
        </Node>
      </Node>
    </BinaryTree>
    <BinaryTree type="DecisionTree" boostWeight="1.0000000000000000e+00" itree="522">
      <Node pos="s" depth="0" NCoef="0" IVar="0" Cut="1.2831084728240967e+00" cType="1" res="-1.9907906789740082e-07" rms="3.2391309738159180e-01" purity="5.9855979681015015e-01" nType="0">
        <Node pos="l" depth="1" NCoef="0" IVar="-1" Cut="0.0000000000000000e+00" cType="1" res="-8.0735284427646548e-05" rms="3.2492306828498840e-01" purity="6.2139242887496948e-01" nType="-99"/>
        <Node pos="r" depth="1" NCoef="0" IVar="1" Cut="1.8215892314910889e+00" cType="0" res="3.6679888144135475e-03" rms="3.0165034532546997e-01" purity="1.1380042135715485e-01" nType="0">
          <Node pos="l" depth="2" NCoef="0" IVar="-1" Cut="0.0000000000000000e+00" cType="1" res="-1.6866296529769897e-02" rms="3.7067449092864990e-01" purity="1.8320611119270325e-01" nType="-99"/>
          <Node pos="r" depth="2" NCoef="0" IVar="-1" Cut="0.0000000000000000e+00" cType="1" res="4.1665970347821712e-03" rms="2.9670223593711853e-01" purity="1.0971222817897797e-01" nType="-99"/>
        </Node>
      </Node>
    </BinaryTree>
    <BinaryTree type="DecisionTree" boostWeight="1.0000000000000000e+00" itree="523">
      <Node pos="s" depth="0" NCoef="0" IVar="1" Cut="1.5704647302627563e+00" cType="1" res="-3.8243655353653594e-07" rms="3.2390919327735901e-01" purity="5.9855979681015015e-01" nType="0">
        <Node pos="l" depth="1" NCoef="0" IVar="-1" Cut="0.0000000000000000e+00" cType="1" res="-3.7602843804052100e-05" rms="3.2349956035614014e-01" purity="6.0177844762802124e-01" nType="-99"/>
        <Node pos="r" depth="1" NCoef="0" IVar="3" Cut="2.7439603209495544e-01" cType="1" res="1.0380957275629044e-02" rms="3.7340053915977478e-01" purity="1.7839196324348450e-01" nType="0">
          <Node pos="l" depth="2" NCoef="0" IVar="-1" Cut="0.0000000000000000e+00" cType="1" res="9.6361478790640831e-03" rms="3.7987270951271057e-01" purity="1.9117647409439087e-01" nType="-99"/>
          <Node pos="r" depth="2" NCoef="0" IVar="-1" Cut="0.0000000000000000e+00" cType="1" res="-8.7579963728785515e-03" rms="3.5690286755561829e-01" purity="1.5079365670681000e-01" nType="-99"/>
        </Node>
      </Node>
    </BinaryTree>
    <BinaryTree type="DecisionTree" boostWeight="1.0000000000000000e+00" itree="524">
      <Node pos="s" depth="0" NCoef="0" IVar="1" Cut="1.7341328859329224e+00" cType="1" res="-4.4593781467483495e-07" rms="3.2390713691711426e-01" purity="5.9855979681015015e-01" nType="0">
        <Node pos="l" depth="1" NCoef="0" IVar="-1" Cut="0.0000000000000000e+00" cType="1" res="-2.9707704015891068e-05" rms="3.2349553704261780e-01" purity="6.0092604160308838e-01" nType="-99"/>
        <Node pos="r" depth="1" NCoef="0" IVar="0" Cut="1.4305347204208374e+00" cType="0" res="1.0660029016435146e-02" rms="3.8746252655982971e-01" purity="1.9607843458652496e-01" nType="0">
          <Node pos="l" depth="2" NCoef="0" IVar="-1" Cut="0.0000000000000000e+00" cType="1" res="-9.1802123934030533e-03" rms="3.8853305578231812e-01" purity="2.0000000298023224e-01" nType="-99"/>
          <Node pos="r" depth="2" NCoef="0" IVar="-1" Cut="0.0000000000000000e+00" cType="1" res="1.8799478188157082e-02" rms="3.8320574164390564e-01" purity="1.9277107715606689e-01" nType="-99"/>
        </Node>
      </Node>
    </BinaryTree>
    <BinaryTree type="DecisionTree" boostWeight="1.0000000000000000e+00" itree="525">
      <Node pos="s" depth="0" NCoef="0" IVar="3" Cut="4.1201916337013245e-01" cType="0" res="-6.1156299580034101e-07" rms="3.2390424609184265e-01" purity="5.9855979681015015e-01" nType="0">
        <Node pos="l" depth="1" NCoef="0" IVar="-1" Cut="0.0000000000000000e+00" cType="1" res="1.0147516150027514e-03" rms="3.4191468358039856e-01" purity="8.2571774721145630e-01" nType="-99"/>
        <Node pos="r" depth="1" NCoef="0" IVar="3" Cut="4.1015225648880005e-01" cType="0" res="-2.5100796483457088e-04" rms="3.2196620106697083e-01" purity="5.7486081123352051e-01" nType="0">
          <Node pos="l" depth="2" NCoef="0" IVar="-1" Cut="0.0000000000000000e+00" cType="1" res="-1.6243502497673035e-02" rms="4.1362479329109192e-01" purity="6.9178080558776855e-01" nType="-99"/>
          <Node pos="r" depth="2" NCoef="0" IVar="-1" Cut="0.0000000000000000e+00" cType="1" res="-5.1421386160654947e-05" rms="3.2163226604461670e-01" purity="5.7449960708618164e-01" nType="-99"/>
        </Node>
      </Node>
    </BinaryTree>
    <BinaryTree type="DecisionTree" boostWeight="1.0000000000000000e+00" itree="526">
      <Node pos="s" depth="0" NCoef="0" IVar="0" Cut="2.4575212001800537e+00" cType="1" res="-4.5451236019289354e-07" rms="3.2390186190605164e-01" purity="5.9855979681015015e-01" nType="0">
        <Node pos="l" depth="1" NCoef="0" IVar="-1" Cut="0.0000000000000000e+00" cType="1" res="-3.5532812034944072e-05" rms="3.2351499795913696e-01" purity="6.0261505842208862e-01" nType="-99"/>
        <Node pos="r" depth="1" NCoef="0" IVar="2" Cut="2.3382983207702637e+00" cType="0" res="7.7799377031624317e-03" rms="3.6169987916946411e-01" purity="1.7800000309944153e-01" nType="0">
          <Node pos="l" depth="2" NCoef="0" IVar="-1" Cut="0.0000000000000000e+00" cType="1" res="1.3693099841475487e-02" rms="3.9166414737701416e-01" purity="2.3780487477779388e-01" nType="-99"/>
          <Node pos="r" depth="2" NCoef="0" IVar="-1" Cut="0.0000000000000000e+00" cType="1" res="-2.7815396897494793e-03" rms="3.4517246484756470e-01" purity="1.4880952239036560e-01" nType="-99"/>
        </Node>
      </Node>
    </BinaryTree>
    <BinaryTree type="DecisionTree" boostWeight="1.0000000000000000e+00" itree="527">
      <Node pos="s" depth="0" NCoef="0" IVar="2" Cut="3.4542517662048340e+00" cType="1" res="-4.9832942750072107e-07" rms="3.2390013337135315e-01" purity="5.9855979681015015e-01" nType="0">
        <Node pos="l" depth="1" NCoef="0" IVar="-1" Cut="0.0000000000000000e+00" cType="1" res="2.3217624402604997e-05" rms="3.2373580336570740e-01" purity="6.0029160976409912e-01" nType="-99"/>
        <Node pos="r" depth="1" NCoef="0" IVar="3" Cut="3.2233086228370667e-01" cType="0" res="-1.1499608866870403e-02" rms="3.5962387919425964e-01" purity="1.9911503791809082e-01" nType="0">
          <Node pos="l" depth="2" NCoef="0" IVar="-1" Cut="0.0000000000000000e+00" cType="1" res="-1.1334008537232876e-02" rms="3.7906217575073242e-01" purity="2.5471699237823486e-01" nType="-99"/>
          <Node pos="r" depth="2" NCoef="0" IVar="-1" Cut="0.0000000000000000e+00" cType="1" res="5.9285489842295647e-03" rms="3.3963036537170410e-01" purity="1.5000000596046448e-01" nType="-99"/>
        </Node>
      </Node>
    </BinaryTree>
    <BinaryTree type="DecisionTree" boostWeight="1.0000000000000000e+00" itree="528">
      <Node pos="s" depth="0" NCoef="0" IVar="1" Cut="2.0239880084991455e+00" cType="1" res="-4.8975647359839058e-07" rms="3.2389938831329346e-01" purity="5.9855979681015015e-01" nType="0">
        <Node pos="l" depth="1" NCoef="0" IVar="1" Cut="1.4128235578536987e+00" cType="1" res="-4.3830874346895143e-05" rms="3.2356482744216919e-01" purity="5.9982752799987793e-01" nType="0">
          <Node pos="l" depth="2" NCoef="0" IVar="-1" Cut="0.0000000000000000e+00" cType="1" res="3.2465850381413475e-05" rms="3.2368043065071106e-01" purity="6.0298997163772583e-01" nType="-99"/>
          <Node pos="r" depth="2" NCoef="0" IVar="-1" Cut="0.0000000000000000e+00" cType="1" res="-8.3921682089567184e-03" rms="3.0464610457420349e-01" purity="1.1044776439666748e-01" nType="-99"/>
        </Node>
        <Node pos="r" depth="1" NCoef="0" IVar="-1" Cut="0.0000000000000000e+00" cType="1" res="3.9666066877543926e-03" rms="4.0973815321922302e-01" purity="2.2905027866363525e-01" nType="-99"/>
      </Node>
    </BinaryTree>
    <BinaryTree type="DecisionTree" boostWeight="1.0000000000000000e+00" itree="529">
      <Node pos="s" depth="0" NCoef="0" IVar="1" Cut="1.5704647302627563e+00" cType="1" res="-5.1238697551525547e-07" rms="3.2389864325523376e-01" purity="5.9855979681015015e-01" nType="0">
        <Node pos="l" depth="1" NCoef="0" IVar="-1" Cut="0.0000000000000000e+00" cType="1" res="-3.1368766940431669e-05" rms="3.2349449396133423e-01" purity="6.0177844762802124e-01" nType="-99"/>
        <Node pos="r" depth="1" NCoef="0" IVar="0" Cut="6.1844080686569214e-01" cType="0" res="8.6339907720685005e-03" rms="3.7281593680381775e-01" purity="1.7839196324348450e-01" nType="0">
          <Node pos="l" depth="2" NCoef="0" IVar="-1" Cut="0.0000000000000000e+00" cType="1" res="9.1315694153308868e-03" rms="3.9207169413566589e-01" purity="2.0300751924514771e-01" nType="-99"/>
          <Node pos="r" depth="2" NCoef="0" IVar="-1" Cut="0.0000000000000000e+00" cType="1" res="-9.8249530419707298e-03" rms="3.2823896408081055e-01" purity="1.2878787517547607e-01" nType="-99"/>
        </Node>
      </Node>
    </BinaryTree>
    <BinaryTree type="DecisionTree" boostWeight="1.0000000000000000e+00" itree="530">
      <Node pos="s" depth="0" NCoef="0" IVar="0" Cut="1.2493752874433994e-03" cType="1" res="-5.6236689260913408e-07" rms="3.2389697432518005e-01" purity="5.9855979681015015e-01" nType="0">
        <Node pos="l" depth="1" NCoef="0" IVar="-1" Cut="0.0000000000000000e+00" cType="1" res="-6.9937488297000527e-04" rms="2.7228757739067078e-01" purity="9.0791207551956177e-01" nType="-99"/>
        <Node pos="r" depth="1" NCoef="0" IVar="0" Cut="1.2195507064461708e-02" cType="1" res="5.1733310101553798e-04" rms="3.4678998589515686e-01" purity="4.4418039917945862e-01" nType="0">
          <Node pos="l" depth="2" NCoef="0" IVar="-1" Cut="0.0000000000000000e+00" cType="1" res="3.5018820315599442e-02" rms="1.2181105464696884e-01" purity="9.8249453306198120e-01" nType="-99"/>
          <Node pos="r" depth="2" NCoef="0" IVar="-1" Cut="0.0000000000000000e+00" cType="1" res="4.5697335735894740e-05" rms="3.4878158569335938e-01" purity="4.3704304099082947e-01" nType="-99"/>
        </Node>
      </Node>
    </BinaryTree>
    <BinaryTree type="DecisionTree" boostWeight="1.0000000000000000e+00" itree="531">
      <Node pos="s" depth="0" NCoef="0" IVar="3" Cut="4.1801580786705017e-01" cType="0" res="3.0477474410872674e-07" rms="3.2389390468597412e-01" purity="5.9855979681015015e-01" nType="0">
        <Node pos="l" depth="1" NCoef="0" IVar="-1" Cut="0.0000000000000000e+00" cType="1" res="1.0281935101374984e-03" rms="3.3925327658653259e-01" purity="8.3137863874435425e-01" nType="-99"/>
        <Node pos="r" depth="1" NCoef="0" IVar="3" Cut="4.1466757655143738e-01" cType="0" res="-2.2615958005189896e-04" rms="3.2240417599678040e-01" purity="5.7656526565551758e-01" nType="0">
          <Node pos="l" depth="2" NCoef="0" IVar="-1" Cut="0.0000000000000000e+00" cType="1" res="-1.2637124396860600e-02" rms="3.7939506769180298e-01" purity="7.3839664459228516e-01" nType="-99"/>
          <Node pos="r" depth="2" NCoef="0" IVar="-1" Cut="0.0000000000000000e+00" cType="1" res="-2.7299473003949970e-05" rms="3.2208624482154846e-01" purity="5.7575947046279907e-01" nType="-99"/>
        </Node>
      </Node>
    </BinaryTree>
    <BinaryTree type="DecisionTree" boostWeight="1.0000000000000000e+00" itree="532">
      <Node pos="s" depth="0" NCoef="0" IVar="3" Cut="3.1907123327255249e-01" cType="0" res="3.6974893191654701e-07" rms="3.2389131188392639e-01" purity="5.9855979681015015e-01" nType="0">
        <Node pos="l" depth="1" NCoef="0" IVar="-1" Cut="0.0000000000000000e+00" cType="1" res="-4.1331481770612299e-04" rms="3.7175145745277405e-01" purity="6.7848116159439087e-01" nType="-99"/>
        <Node pos="r" depth="1" NCoef="0" IVar="0" Cut="3.3358320593833923e-01" cType="1" res="4.9011455848813057e-04" rms="3.0079481005668640e-01" purity="5.6392705440521240e-01" nType="0">
          <Node pos="l" depth="2" NCoef="0" IVar="-1" Cut="0.0000000000000000e+00" cType="1" res="9.7348535200580955e-04" rms="3.1842803955078125e-01" purity="7.7932256460189819e-01" nType="-99"/>
          <Node pos="r" depth="2" NCoef="0" IVar="-1" Cut="0.0000000000000000e+00" cType="1" res="-2.1958288270980120e-03" rms="2.5605627894401550e-01" purity="7.2826869785785675e-02" nType="-99"/>
        </Node>
      </Node>
    </BinaryTree>
    <BinaryTree type="DecisionTree" boostWeight="1.0000000000000000e+00" itree="533">
      <Node pos="s" depth="0" NCoef="0" IVar="2" Cut="3.5591530799865723e-01" cType="1" res="2.5207074827449105e-07" rms="3.2389035820960999e-01" purity="5.9855979681015015e-01" nType="0">
        <Node pos="l" depth="1" NCoef="0" IVar="-1" Cut="0.0000000000000000e+00" cType="1" res="-6.1868468765169382e-04" rms="2.8207024931907654e-01" purity="8.3244299888610840e-01" nType="-99"/>
        <Node pos="r" depth="1" NCoef="0" IVar="1" Cut="2.4987506866455078e-01" cType="1" res="6.3692627009004354e-04" rms="3.4797811508178711e-01" purity="4.4918462634086609e-01" nType="0">
          <Node pos="l" depth="2" NCoef="0" IVar="-1" Cut="0.0000000000000000e+00" cType="1" res="-2.7943463646806777e-04" rms="3.5305428504943848e-01" purity="5.3704315423965454e-01" nType="-99"/>
          <Node pos="r" depth="2" NCoef="0" IVar="-1" Cut="0.0000000000000000e+00" cType="1" res="2.2044337820261717e-03" rms="3.3162462711334229e-01" purity="1.7536400258541107e-01" nType="-99"/>
        </Node>
      </Node>
    </BinaryTree>
    <BinaryTree type="DecisionTree" boostWeight="1.0000000000000000e+00" itree="534">
      <Node pos="s" depth="0" NCoef="0" IVar="3" Cut="4.1201916337013245e-01" cType="0" res="1.6479204134611791e-07" rms="3.2388725876808167e-01" purity="5.9855979681015015e-01" nType="0">
        <Node pos="l" depth="1" NCoef="0" IVar="-1" Cut="0.0000000000000000e+00" cType="1" res="9.6395623404532671e-04" rms="3.4187850356101990e-01" purity="8.2571774721145630e-01" nType="-99"/>
        <Node pos="r" depth="1" NCoef="0" IVar="3" Cut="4.0850508213043213e-01" cType="0" res="-2.3753888672217727e-04" rms="3.2195144891738892e-01" purity="5.7486081123352051e-01" nType="0">
          <Node pos="l" depth="2" NCoef="0" IVar="-1" Cut="0.0000000000000000e+00" cType="1" res="-1.1080008931457996e-02" rms="4.0360018610954285e-01" purity="7.3214286565780640e-01" nType="-99"/>
          <Node pos="r" depth="2" NCoef="0" IVar="-1" Cut="0.0000000000000000e+00" cType="1" res="-2.6756943043437786e-05" rms="3.2139569520950317e-01" purity="5.7392632961273193e-01" nType="-99"/>
        </Node>
      </Node>
    </BinaryTree>
    <BinaryTree type="DecisionTree" boostWeight="1.0000000000000000e+00" itree="535">
      <Node pos="s" depth="0" NCoef="0" IVar="3" Cut="4.8397886753082275e-01" cType="0" res="2.4035955448198365e-07" rms="3.2388556003570557e-01" purity="5.9855979681015015e-01" nType="0">
        <Node pos="l" depth="1" NCoef="0" IVar="-1" Cut="0.0000000000000000e+00" cType="1" res="-3.3195996657013893e-03" rms="3.1438592076301575e-01" purity="8.6547082662582397e-01" nType="-99"/>
        <Node pos="r" depth="1" NCoef="0" IVar="3" Cut="4.8131686449050903e-01" cType="0" res="8.3805993199348450e-05" rms="3.2400584220886230e-01" purity="5.9510499238967896e-01" nType="0">
          <Node pos="l" depth="2" NCoef="0" IVar="-1" Cut="0.0000000000000000e+00" cType="1" res="2.9226070269942284e-02" rms="2.2380611300468445e-01" purity="9.4736844301223755e-01" nType="-99"/>
          <Node pos="r" depth="2" NCoef="0" IVar="-1" Cut="0.0000000000000000e+00" cType="1" res="-7.2786579039529897e-06" rms="3.2418614625930786e-01" purity="5.9432625770568848e-01" nType="-99"/>
        </Node>
      </Node>
    </BinaryTree>
    <BinaryTree type="DecisionTree" boostWeight="1.0000000000000000e+00" itree="536">
      <Node pos="s" depth="0" NCoef="0" IVar="3" Cut="4.8897606134414673e-01" cType="0" res="4.3436372720861982e-07" rms="3.2388299703598022e-01" purity="5.9855979681015015e-01" nType="0">
        <Node pos="l" depth="1" NCoef="0" IVar="-1" Cut="0.0000000000000000e+00" cType="1" res="3.9862706325948238e-03" rms="2.9251798987388611e-01" purity="8.8183808326721191e-01" nType="-99"/>
        <Node pos="r" depth="1" NCoef="0" IVar="3" Cut="4.8676481842994690e-01" cType="0" res="-6.8139255745336413e-05" rms="3.2414489984512329e-01" purity="5.9606528282165527e-01" nType="0">
          <Node pos="l" depth="2" NCoef="0" IVar="-1" Cut="0.0000000000000000e+00" cType="1" res="-3.3659510314464569e-02" rms="3.7017977237701416e-01" purity="8.0000001192092896e-01" nType="-99"/>
          <Node pos="r" depth="2" NCoef="0" IVar="-1" Cut="0.0000000000000000e+00" cType="1" res="2.6334022550145164e-05" rms="3.2403734326362610e-01" purity="5.9567153453826904e-01" nType="-99"/>
        </Node>
      </Node>
    </BinaryTree>
    <BinaryTree type="DecisionTree" boostWeight="1.0000000000000000e+00" itree="537">
      <Node pos="s" depth="0" NCoef="0" IVar="3" Cut="4.9447298049926758e-01" cType="0" res="6.8319769752633874e-07" rms="3.2388108968734741e-01" purity="5.9855979681015015e-01" nType="0">
        <Node pos="l" depth="1" NCoef="0" IVar="-1" Cut="0.0000000000000000e+00" cType="1" res="-5.1785893738269806e-03" rms="3.3031040430068970e-01" purity="8.5217392444610596e-01" nType="-99"/>
        <Node pos="r" depth="1" NCoef="0" IVar="3" Cut="4.8897045850753784e-01" cType="0" res="4.9627396947471425e-05" rms="3.2385158538818359e-01" purity="5.9744071960449219e-01" nType="0">
          <Node pos="l" depth="2" NCoef="0" IVar="-1" Cut="0.0000000000000000e+00" cType="1" res="1.4555984176695347e-02" rms="2.4717074632644653e-01" purity="9.1189426183700562e-01" nType="-99"/>
          <Node pos="r" depth="2" NCoef="0" IVar="-1" Cut="0.0000000000000000e+00" cType="1" res="-2.8662976546911523e-05" rms="3.2414281368255615e-01" purity="5.9606528282165527e-01" nType="-99"/>
        </Node>
      </Node>
    </BinaryTree>
    <BinaryTree type="DecisionTree" boostWeight="1.0000000000000000e+00" itree="538">
      <Node pos="s" depth="0" NCoef="0" IVar="3" Cut="4.7248530387878418e-01" cType="0" res="7.4091178703383775e-07" rms="3.2388073205947876e-01" purity="5.9855979681015015e-01" nType="0">
        <Node pos="l" depth="1" NCoef="0" IVar="-1" Cut="0.0000000000000000e+00" cType="1" res="-2.4801201652735472e-03" rms="3.1808909773826599e-01" purity="8.6808508634567261e-01" nType="-99"/>
        <Node pos="r" depth="1" NCoef="0" IVar="3" Cut="4.6351227164268494e-01" cType="0" res="1.1148616613354534e-04" rms="3.2401165366172791e-01" purity="5.9237188100814819e-01" nType="0">
          <Node pos="l" depth="2" NCoef="0" IVar="-1" Cut="0.0000000000000000e+00" cType="1" res="9.8845474421977997e-03" rms="2.9979583621025085e-01" purity="8.7692308425903320e-01" nType="-99"/>
          <Node pos="r" depth="2" NCoef="0" IVar="-1" Cut="0.0000000000000000e+00" cType="1" res="-3.5955541534349322e-05" rms="3.2421454787254333e-01" purity="5.8981943130493164e-01" nType="-99"/>
        </Node>
      </Node>
    </BinaryTree>
    <BinaryTree type="DecisionTree" boostWeight="1.0000000000000000e+00" itree="539">
      <Node pos="s" depth="0" NCoef="0" IVar="0" Cut="1.2493752874433994e-03" cType="1" res="7.9715255196788348e-07" rms="3.2387948036193848e-01" purity="5.9855979681015015e-01" nType="0">
        <Node pos="l" depth="1" NCoef="0" IVar="-1" Cut="0.0000000000000000e+00" cType="1" res="-6.8997993366792798e-04" rms="2.7226364612579346e-01" purity="9.0791207551956177e-01" nType="-99"/>
        <Node pos="r" depth="1" NCoef="0" IVar="0" Cut="2.4653216823935509e-02" cType="1" res="5.1256921142339706e-04" rms="3.4677490592002869e-01" purity="4.4418039917945862e-01" nType="0">
          <Node pos="l" depth="2" NCoef="0" IVar="-1" Cut="0.0000000000000000e+00" cType="1" res="7.8029534779489040e-03" rms="2.4098047614097595e-01" purity="9.3065577745437622e-01" nType="-99"/>
          <Node pos="r" depth="2" NCoef="0" IVar="-1" Cut="0.0000000000000000e+00" cType="1" res="-2.0078964007552713e-04" rms="3.5564768314361572e-01" purity="3.9533051848411560e-01" nType="-99"/>
        </Node>
      </Node>
    </BinaryTree>
    <BinaryTree type="DecisionTree" boostWeight="1.0000000000000000e+00" itree="540">
      <Node pos="s" depth="0" NCoef="0" IVar="3" Cut="3.1907123327255249e-01" cType="0" res="1.1261008694418706e-06" rms="3.2387828826904297e-01" purity="5.9855979681015015e-01" nType="0">
        <Node pos="l" depth="1" NCoef="0" IVar="-1" Cut="0.0000000000000000e+00" cType="1" res="-4.0659360820427537e-04" rms="3.7171781063079834e-01" purity="6.7848116159439087e-01" nType="-99"/>
        <Node pos="r" depth="1" NCoef="0" IVar="2" Cut="1.1134036779403687e+00" cType="1" res="4.8318528570234776e-04" rms="3.0079275369644165e-01" purity="5.6392705440521240e-01" nType="0">
          <Node pos="l" depth="2" NCoef="0" IVar="-1" Cut="0.0000000000000000e+00" cType="1" res="-3.3792702015489340e-04" rms="3.0066028237342834e-01" purity="6.6029542684555054e-01" nType="-99"/>
          <Node pos="r" depth="2" NCoef="0" IVar="-1" Cut="0.0000000000000000e+00" cType="1" res="2.8334388043731451e-03" rms="3.0132216215133667e-01" purity="1.4333969354629517e-01" nType="-99"/>
        </Node>
      </Node>
    </BinaryTree>
    <BinaryTree type="DecisionTree" boostWeight="1.0000000000000000e+00" itree="541">
      <Node pos="s" depth="0" NCoef="0" IVar="1" Cut="1.3018491268157959e+00" cType="1" res="9.0474276248642127e-07" rms="3.2387310266494751e-01" purity="5.9855979681015015e-01" nType="0">
        <Node pos="l" depth="1" NCoef="0" IVar="-1" Cut="0.0000000000000000e+00" cType="1" res="3.9321850636042655e-05" rms="3.2369130849838257e-01" purity="6.0432100296020508e-01" nType="-99"/>
        <Node pos="r" depth="1" NCoef="0" IVar="0" Cut="2.1614192426204681e-01" cType="0" res="-6.5460447221994400e-03" rms="3.3789083361625671e-01" purity="1.4241960644721985e-01" nType="0">
          <Node pos="l" depth="2" NCoef="0" IVar="-1" Cut="0.0000000000000000e+00" cType="1" res="2.5156761985272169e-03" rms="3.3785533905029297e-01" purity="1.4545454084873199e-01" nType="-99"/>
          <Node pos="r" depth="2" NCoef="0" IVar="-1" Cut="0.0000000000000000e+00" cType="1" res="-2.3609140887856483e-02" rms="3.3062192797660828e-01" purity="1.2621359527111053e-01" nType="-99"/>
        </Node>
      </Node>
    </BinaryTree>
    <BinaryTree type="DecisionTree" boostWeight="1.0000000000000000e+00" itree="542">
      <Node pos="s" depth="0" NCoef="0" IVar="0" Cut="2.0439779758453369e+00" cType="1" res="6.2103470099827973e-07" rms="3.2386940717697144e-01" purity="5.9855979681015015e-01" nType="0">
        <Node pos="l" depth="1" NCoef="0" IVar="-1" Cut="0.0000000000000000e+00" cType="1" res="4.4058888306608424e-05" rms="3.2371827960014343e-01" purity="6.0564202070236206e-01" nType="-99"/>
        <Node pos="r" depth="1" NCoef="0" IVar="1" Cut="9.2453771829605103e-01" cType="0" res="-5.9002614580094814e-03" rms="3.3326807618141174e-01" purity="1.4901477098464966e-01" nType="0">
          <Node pos="l" depth="2" NCoef="0" IVar="-1" Cut="0.0000000000000000e+00" cType="1" res="9.2388046905398369e-03" rms="4.1063311696052551e-01" purity="2.3282442986965179e-01" nType="-99"/>
          <Node pos="r" depth="2" NCoef="0" IVar="-1" Cut="0.0000000000000000e+00" cType="1" res="-1.0415258817374706e-02" rms="2.8782182931900024e-01" purity="1.0909090936183929e-01" nType="-99"/>
        </Node>
      </Node>
    </BinaryTree>
    <BinaryTree type="DecisionTree" boostWeight="1.0000000000000000e+00" itree="543">
      <Node pos="s" depth="0" NCoef="0" IVar="1" Cut="1.4130434989929199e+00" cType="1" res="3.2725770893193840e-07" rms="3.2386744022369385e-01" purity="5.9855979681015015e-01" nType="0">
        <Node pos="l" depth="1" NCoef="0" IVar="-1" Cut="0.0000000000000000e+00" cType="1" res="3.5638357076095417e-05" rms="3.2365462183952332e-01" purity="6.0298997163772583e-01" nType="-99"/>
        <Node pos="r" depth="1" NCoef="0" IVar="0" Cut="3.7856072187423706e-01" cType="0" res="-7.6046306639909744e-03" rms="3.4457165002822876e-01" purity="1.5175096690654755e-01" nType="0">
          <Node pos="l" depth="2" NCoef="0" IVar="-1" Cut="0.0000000000000000e+00" cType="1" res="3.1385072506964207e-03" rms="3.5310465097427368e-01" purity="1.6249999403953552e-01" nType="-99"/>
          <Node pos="r" depth="2" NCoef="0" IVar="-1" Cut="0.0000000000000000e+00" cType="1" res="-2.2222653031349182e-02" rms="3.0695202946662903e-01" purity="1.1403508484363556e-01" nType="-99"/>
        </Node>
      </Node>
    </BinaryTree>
    <BinaryTree type="DecisionTree" boostWeight="1.0000000000000000e+00" itree="544">
      <Node pos="s" depth="0" NCoef="0" IVar="1" Cut="2.3250875473022461e+00" cType="1" res="1.1103146135837960e-07" rms="3.2386475801467896e-01" purity="5.9855979681015015e-01" nType="0">
        <Node pos="l" depth="1" NCoef="0" IVar="1" Cut="1.7344640493392944e+00" cType="1" res="3.3202959457412362e-05" rms="3.2368573546409607e-01" purity="5.9937214851379395e-01" nType="0">
          <Node pos="l" depth="2" NCoef="0" IVar="-1" Cut="0.0000000000000000e+00" cType="1" res="-2.1385381842264906e-05" rms="3.2345777750015259e-01" purity="6.0092604160308838e-01" nType="-99"/>
          <Node pos="r" depth="2" NCoef="0" IVar="-1" Cut="0.0000000000000000e+00" cType="1" res="8.2698203623294830e-03" rms="3.7908694148063660e-01" purity="1.8461538851261139e-01" nType="-99"/>
        </Node>
        <Node pos="r" depth="1" NCoef="0" IVar="-1" Cut="0.0000000000000000e+00" cType="1" res="-4.6598711051046848e-03" rms="3.9901304244995117e-01" purity="2.1621622145175934e-01" nType="-99"/>
      </Node>
    </BinaryTree>
    <BinaryTree type="DecisionTree" boostWeight="1.0000000000000000e+00" itree="545">
      <Node pos="s" depth="0" NCoef="0" IVar="1" Cut="1.4130434989929199e+00" cType="1" res="5.3071296690632153e-08" rms="3.2386398315429688e-01" purity="5.9855979681015015e-01" nType="0">
        <Node pos="l" depth="1" NCoef="0" IVar="-1" Cut="0.0000000000000000e+00" cType="1" res="3.4213157050544396e-05" rms="3.2365462183952332e-01" purity="6.0298997163772583e-01" nType="-99"/>
        <Node pos="r" depth="1" NCoef="0" IVar="1" Cut="1.5699497461318970e+00" cType="0" res="-7.3270811699330807e-03" rms="3.4424728155136108e-01" purity="1.5175096690654755e-01" nType="0">
          <Node pos="l" depth="2" NCoef="0" IVar="-1" Cut="0.0000000000000000e+00" cType="1" res="2.5501239579170942e-03" rms="3.7214252352714539e-01" purity="1.7839196324348450e-01" nType="-99"/>
          <Node pos="r" depth="2" NCoef="0" IVar="-1" Cut="0.0000000000000000e+00" cType="1" res="-2.9099058359861374e-02" rms="2.1666461229324341e-01" purity="6.0344826430082321e-02" nType="-99"/>
        </Node>
      </Node>
    </BinaryTree>
    <BinaryTree type="DecisionTree" boostWeight="1.0000000000000000e+00" itree="546">
      <Node pos="s" depth="0" NCoef="0" IVar="2" Cut="8.6168967187404633e-02" cType="1" res="-2.0323217597706389e-07" rms="3.2386210560798645e-01" purity="5.9855979681015015e-01" nType="0">
        <Node pos="l" depth="1" NCoef="0" IVar="-1" Cut="0.0000000000000000e+00" cType="1" res="9.3390891561284661e-04" rms="2.5329536199569702e-01" purity="9.0979170799255371e-01" nType="-99"/>
        <Node pos="r" depth="1" NCoef="0" IVar="2" Cut="1.9736017286777496e-01" cType="1" res="-4.2267161188647151e-04" rms="3.4499916434288025e-01" purity="4.9051797389984131e-01" nType="0">
          <Node pos="l" depth="2" NCoef="0" IVar="-1" Cut="0.0000000000000000e+00" cType="1" res="-6.7965844646096230e-03" rms="3.3938732743263245e-01" purity="6.1686390638351440e-01" nType="-99"/>
          <Node pos="r" depth="2" NCoef="0" IVar="-1" Cut="0.0000000000000000e+00" cType="1" res="1.6966430121101439e-04" rms="3.4528619050979614e-01" purity="4.8356184363365173e-01" nType="-99"/>
        </Node>
      </Node>
    </BinaryTree>
    <BinaryTree type="DecisionTree" boostWeight="1.0000000000000000e+00" itree="547">
      <Node pos="s" depth="0" NCoef="0" IVar="2" Cut="1.7046469449996948e+00" cType="1" res="-6.2112746945786057e-08" rms="3.2385796308517456e-01" purity="5.9855979681015015e-01" nType="0">
        <Node pos="l" depth="1" NCoef="0" IVar="-1" Cut="0.0000000000000000e+00" cType="1" res="1.0673231736291200e-04" rms="3.2223528623580933e-01" purity="6.3696724176406860e-01" nType="-99"/>
        <Node pos="r" depth="1" NCoef="0" IVar="2" Cut="1.7596725225448608e+00" cType="0" res="-2.3279294837266207e-03" rms="3.4020373225212097e-01" purity="2.0069429278373718e-01" nType="0">
          <Node pos="l" depth="2" NCoef="0" IVar="-1" Cut="0.0000000000000000e+00" cType="1" res="8.5012096678838134e-04" rms="3.3953031897544861e-01" purity="2.0233833789825439e-01" nType="-99"/>
          <Node pos="r" depth="2" NCoef="0" IVar="-1" Cut="0.0000000000000000e+00" cType="1" res="-1.8695147708058357e-02" rms="3.4387594461441040e-01" purity="1.8421052396297455e-01" nType="-99"/>
        </Node>
      </Node>
    </BinaryTree>
    <BinaryTree type="DecisionTree" boostWeight="1.0000000000000000e+00" itree="548">
      <Node pos="s" depth="0" NCoef="0" IVar="2" Cut="3.4542517662048340e+00" cType="1" res="-2.9911376486779773e-07" rms="3.2384985685348511e-01" purity="5.9855979681015015e-01" nType="0">
        <Node pos="l" depth="1" NCoef="0" IVar="-1" Cut="0.0000000000000000e+00" cType="1" res="2.2249731046031229e-05" rms="3.2368507981300354e-01" purity="6.0029160976409912e-01" nType="-99"/>
        <Node pos="r" depth="1" NCoef="0" IVar="1" Cut="3.2983508706092834e-01" cType="1" res="-1.0974362492561340e-02" rms="3.5967740416526794e-01" purity="1.9911503791809082e-01" nType="0">
          <Node pos="l" depth="2" NCoef="0" IVar="-1" Cut="0.0000000000000000e+00" cType="1" res="4.4456319883465767e-03" rms="3.7918552756309509e-01" purity="2.3140496015548706e-01" nType="-99"/>
          <Node pos="r" depth="2" NCoef="0" IVar="-1" Cut="0.0000000000000000e+00" cType="1" res="-1.3906587846577168e-02" rms="3.3371281623840332e-01" purity="1.6190476715564728e-01" nType="-99"/>
        </Node>
      </Node>
    </BinaryTree>
    <BinaryTree type="DecisionTree" boostWeight="1.0000000000000000e+00" itree="549">
      <Node pos="s" depth="0" NCoef="0" IVar="2" Cut="3.7989275455474854e+00" cType="1" res="-3.2599072596894985e-07" rms="3.2384893298149109e-01" purity="5.9855979681015015e-01" nType="0">
        <Node pos="l" depth="1" NCoef="0" IVar="2" Cut="3.4397087097167969e+00" cType="1" res="-3.6017914680996910e-05" rms="3.2368296384811401e-01" purity="5.9950596094131470e-01" nType="0">
          <Node pos="l" depth="2" NCoef="0" IVar="-1" Cut="0.0000000000000000e+00" cType="1" res="1.7452537576900795e-05" rms="3.2369431853294373e-01" purity="6.0032230615615845e-01" nType="-99"/>
          <Node pos="r" depth="2" NCoef="0" IVar="-1" Cut="0.0000000000000000e+00" cType="1" res="-1.3756402768194675e-02" rms="3.1552365422248840e-01" purity="1.7821782827377319e-01" nType="-99"/>
        </Node>
        <Node pos="r" depth="1" NCoef="0" IVar="-1" Cut="0.0000000000000000e+00" cType="1" res="5.0310287624597549e-03" rms="3.8408407568931580e-01" purity="2.2137404978275299e-01" nType="-99"/>
      </Node>
    </BinaryTree>
    <BinaryTree type="DecisionTree" boostWeight="1.0000000000000000e+00" itree="550">
      <Node pos="s" depth="0" NCoef="0" IVar="2" Cut="2.7124493122100830e+00" cType="1" res="-3.4609351473591232e-07" rms="3.2384815812110901e-01" purity="5.9855979681015015e-01" nType="0">
        <Node pos="l" depth="1" NCoef="0" IVar="-1" Cut="0.0000000000000000e+00" cType="1" res="-4.2771302105393261e-05" rms="3.2349452376365662e-01" purity="6.0511964559555054e-01" nType="-99"/>
        <Node pos="r" depth="1" NCoef="0" IVar="3" Cut="3.1751105189323425e-01" cType="0" res="5.6371651589870453e-03" rms="3.4512135386466980e-01" purity="1.8984280526638031e-01" nType="0">
          <Node pos="l" depth="2" NCoef="0" IVar="-1" Cut="0.0000000000000000e+00" cType="1" res="-4.1755475103855133e-03" rms="3.7480369210243225e-01" purity="2.6849314570426941e-01" nType="-99"/>
          <Node pos="r" depth="2" NCoef="0" IVar="-1" Cut="0.0000000000000000e+00" cType="1" res="1.1177198030054569e-02" rms="3.1895983219146729e-01" purity="1.2770563364028931e-01" nType="-99"/>
        </Node>
      </Node>
    </BinaryTree>
    <BinaryTree type="DecisionTree" boostWeight="1.0000000000000000e+00" itree="551">
      <Node pos="s" depth="0" NCoef="0" IVar="0" Cut="2.0439779758453369e+00" cType="1" res="-4.6855407731527521e-07" rms="3.2384619116783142e-01" purity="5.9855979681015015e-01" nType="0">
        <Node pos="l" depth="1" NCoef="0" IVar="-1" Cut="0.0000000000000000e+00" cType="1" res="4.1922772652469575e-05" rms="3.2369780540466309e-01" purity="6.0564202070236206e-01" nType="-99"/>
        <Node pos="r" depth="1" NCoef="0" IVar="3" Cut="1.3391660153865814e-01" cType="1" res="-5.6811529211699963e-03" rms="3.3308053016662598e-01" purity="1.4901477098464966e-01" nType="0">
          <Node pos="l" depth="2" NCoef="0" IVar="-1" Cut="0.0000000000000000e+00" cType="1" res="2.5039069354534149e-02" rms="3.7496668100357056e-01" purity="1.8627451360225677e-01" nType="-99"/>
          <Node pos="r" depth="2" NCoef="0" IVar="-1" Cut="0.0000000000000000e+00" cType="1" res="-5.9308391064405441e-03" rms="3.2568198442459106e-01" purity="1.4366197586059570e-01" nType="-99"/>
        </Node>
      </Node>
    </BinaryTree>
    <BinaryTree type="DecisionTree" boostWeight="1.0000000000000000e+00" itree="552">
      <Node pos="s" depth="0" NCoef="0" IVar="1" Cut="4.4977512210607529e-02" cType="1" res="-6.8287744170447695e-07" rms="3.2384353876113892e-01" purity="5.9855979681015015e-01" nType="0">
        <Node pos="l" depth="1" NCoef="0" IVar="-1" Cut="0.0000000000000000e+00" cType="1" res="3.6697922041639686e-04" rms="3.0205523967742920e-01" purity="7.4969816207885742e-01" nType="-99"/>
        <Node pos="r" depth="1" NCoef="0" IVar="0" Cut="2.2238880395889282e-01" cType="1" res="-7.1390712400898337e-04" rms="3.4475484490394592e-01" purity="4.4359767436981201e-01" nType="0">
          <Node pos="l" depth="2" NCoef="0" IVar="-1" Cut="0.0000000000000000e+00" cType="1" res="-1.3959332136437297e-03" rms="3.8211226463317871e-01" purity="7.1382123231887817e-01" nType="-99"/>
          <Node pos="r" depth="2" NCoef="0" IVar="-1" Cut="0.0000000000000000e+00" cType="1" res="2.1228916011750698e-03" rms="2.9046908020973206e-01" purity="1.0075478255748749e-01" nType="-99"/>
        </Node>
      </Node>
    </BinaryTree>
    <BinaryTree type="DecisionTree" boostWeight="1.0000000000000000e+00" itree="553">
      <Node pos="s" depth="0" NCoef="0" IVar="0" Cut="8.2458771765232086e-02" cType="1" res="-6.8754485482713790e-07" rms="3.2383891940116882e-01" purity="5.9855979681015015e-01" nType="0">
        <Node pos="l" depth="1" NCoef="0" IVar="-1" Cut="0.0000000000000000e+00" cType="1" res="3.9316748734563589e-04" rms="2.9432791471481323e-01" purity="8.8776105642318726e-01" nType="-99"/>
        <Node pos="r" depth="1" NCoef="0" IVar="0" Cut="8.7337613105773926e-02" cType="1" res="-8.6484890198335052e-04" rms="3.5725894570350647e-01" purity="2.3768837749958038e-01" nType="0">
          <Node pos="l" depth="2" NCoef="0" IVar="-1" Cut="0.0000000000000000e+00" cType="1" res="-9.2691248282790184e-03" rms="4.3957960605621338e-01" purity="6.6289591789245605e-01" nType="-99"/>
          <Node pos="r" depth="2" NCoef="0" IVar="-1" Cut="0.0000000000000000e+00" cType="1" res="-8.3353763329796493e-05" rms="3.5544720292091370e-01" purity="2.2946299612522125e-01" nType="-99"/>
        </Node>
      </Node>
    </BinaryTree>
    <BinaryTree type="DecisionTree" boostWeight="1.0000000000000000e+00" itree="554">
      <Node pos="s" depth="0" NCoef="0" IVar="0" Cut="9.4952523708343506e-02" cType="1" res="-5.1122111699442030e-07" rms="3.2383576035499573e-01" purity="5.9855979681015015e-01" nType="0">
        <Node pos="l" depth="1" NCoef="0" IVar="-1" Cut="0.0000000000000000e+00" cType="1" res="3.5460921935737133e-04" rms="3.0009680986404419e-01" purity="8.8115000724792480e-01" nType="-99"/>
        <Node pos="r" depth="1" NCoef="0" IVar="2" Cut="5.6197155267000198e-02" cType="1" res="-8.7944645201787353e-04" rms="3.5346326231956482e-01" purity="2.1568010747432709e-01" nType="0">
          <Node pos="l" depth="2" NCoef="0" IVar="-1" Cut="0.0000000000000000e+00" cType="1" res="1.5696791931986809e-02" rms="3.9846080541610718e-01" purity="3.5483869910240173e-01" nType="-99"/>
          <Node pos="r" depth="2" NCoef="0" IVar="-1" Cut="0.0000000000000000e+00" cType="1" res="-5.2738684462383389e-04" rms="3.5296091437339783e-01" purity="2.1430842578411102e-01" nType="-99"/>
        </Node>
      </Node>
    </BinaryTree>
    <BinaryTree type="DecisionTree" boostWeight="1.0000000000000000e+00" itree="555">
      <Node pos="s" depth="0" NCoef="0" IVar="1" Cut="1.2493752874433994e-03" cType="1" res="-5.2368494607435423e-07" rms="3.2383427023887634e-01" purity="5.9855979681015015e-01" nType="0">
        <Node pos="l" depth="1" NCoef="0" IVar="-1" Cut="0.0000000000000000e+00" cType="1" res="-4.7789094969630241e-04" rms="3.0541467666625977e-01" purity="7.4462652206420898e-01" nType="-99"/>
        <Node pos="r" depth="1" NCoef="0" IVar="3" Cut="4.0400937199592590e-01" cType="0" res="5.9813453117385507e-04" rms="3.3537685871124268e-01" purity="5.0265789031982422e-01" nType="0">
          <Node pos="l" depth="2" NCoef="0" IVar="-1" Cut="0.0000000000000000e+00" cType="1" res="3.3622363116592169e-03" rms="3.6822941899299622e-01" purity="7.7033489942550659e-01" nType="-99"/>
          <Node pos="r" depth="2" NCoef="0" IVar="-1" Cut="0.0000000000000000e+00" cType="1" res="-1.2911304656881839e-04" rms="3.3182936906814575e-01" purity="4.7534695267677307e-01" nType="-99"/>
        </Node>
      </Node>
    </BinaryTree>
    <BinaryTree type="DecisionTree" boostWeight="1.0000000000000000e+00" itree="556">
      <Node pos="s" depth="0" NCoef="0" IVar="3" Cut="3.6604493856430054e-01" cType="0" res="-3.9335324686362583e-07" rms="3.2383346557617188e-01" purity="5.9855979681015015e-01" nType="0">
        <Node pos="l" depth="1" NCoef="0" IVar="-1" Cut="0.0000000000000000e+00" cType="1" res="-6.4925331389531493e-04" rms="3.6148670315742493e-01" purity="7.6616013050079346e-01" nType="-99"/>
        <Node pos="r" depth="1" NCoef="0" IVar="3" Cut="3.6071133613586426e-01" cType="0" res="3.6371377063915133e-04" rms="3.1505760550498962e-01" purity="5.6214833259582520e-01" nType="0">
          <Node pos="l" depth="2" NCoef="0" IVar="-1" Cut="0.0000000000000000e+00" cType="1" res="6.7544365301728249e-03" rms="3.9378389716148376e-01" purity="6.3452565670013428e-01" nType="-99"/>
          <Node pos="r" depth="2" NCoef="0" IVar="-1" Cut="0.0000000000000000e+00" cType="1" res="2.6172210709773935e-05" rms="3.1370031833648682e-01" purity="5.6104987859725952e-01" nType="-99"/>
        </Node>
      </Node>
    </BinaryTree>
    <BinaryTree type="DecisionTree" boostWeight="1.0000000000000000e+00" itree="557">
      <Node pos="s" depth="0" NCoef="0" IVar="0" Cut="1.2493752874433994e-03" cType="1" res="-3.2644535963299859e-07" rms="3.2383066415786743e-01" purity="5.9855979681015015e-01" nType="0">
        <Node pos="l" depth="1" NCoef="0" IVar="-1" Cut="0.0000000000000000e+00" cType="1" res="-6.9415773032233119e-04" rms="2.7223077416419983e-01" purity="9.0791207551956177e-01" nType="-99"/>
        <Node pos="r" depth="1" NCoef="0" IVar="0" Cut="1.2195507064461708e-02" cType="1" res="5.1360414363443851e-04" rms="3.4671941399574280e-01" purity="4.4418039917945862e-01" nType="0">
          <Node pos="l" depth="2" NCoef="0" IVar="-1" Cut="0.0000000000000000e+00" cType="1" res="3.3277634531259537e-02" rms="1.2182723730802536e-01" purity="9.8249453306198120e-01" nType="-99"/>
          <Node pos="r" depth="2" NCoef="0" IVar="-1" Cut="0.0000000000000000e+00" cType="1" res="6.3357962062582374e-05" rms="3.4871435165405273e-01" purity="4.3704304099082947e-01" nType="-99"/>
        </Node>
      </Node>
    </BinaryTree>
    <BinaryTree type="DecisionTree" boostWeight="1.0000000000000000e+00" itree="558">
      <Node pos="s" depth="0" NCoef="0" IVar="3" Cut="3.4780514240264893e-01" cType="0" res="3.9680472241343523e-07" rms="3.2382825016975403e-01" purity="5.9855979681015015e-01" nType="0">
        <Node pos="l" depth="1" NCoef="0" IVar="-1" Cut="0.0000000000000000e+00" cType="1" res="-4.9325037980452180e-04" rms="3.6937972903251648e-01" purity="7.3368912935256958e-01" nType="-99"/>
        <Node pos="r" depth="1" NCoef="0" IVar="3" Cut="3.4675428271293640e-01" cType="0" res="3.7625740515068173e-04" rms="3.0961000919342041e-01" purity="5.6002062559127808e-01" nType="0">
          <Node pos="l" depth="2" NCoef="0" IVar="-1" Cut="0.0000000000000000e+00" cType="1" res="1.7528718337416649e-02" rms="3.5032349824905396e-01" purity="6.0416668653488159e-01" nType="-99"/>
          <Node pos="r" depth="2" NCoef="0" IVar="-1" Cut="0.0000000000000000e+00" cType="1" res="9.3018054030835629e-05" rms="3.0943903326988220e-01" purity="5.5986398458480835e-01" nType="-99"/>
        </Node>
      </Node>
    </BinaryTree>
    <BinaryTree type="DecisionTree" boostWeight="1.0000000000000000e+00" itree="559">
      <Node pos="s" depth="0" NCoef="0" IVar="0" Cut="6.5842080116271973e-01" cType="1" res="3.7073996850267577e-07" rms="3.2382488250732422e-01" purity="5.9855979681015015e-01" nType="0">
        <Node pos="l" depth="1" NCoef="0" IVar="-1" Cut="0.0000000000000000e+00" cType="1" res="1.2293273175600916e-04" rms="3.3272901177406311e-01" purity="6.7745697498321533e-01" nType="-99"/>
        <Node pos="r" depth="1" NCoef="0" IVar="2" Cut="1.4049288034439087e+00" cType="0" res="-1.8173479475080967e-03" rms="2.5734281539916992e-01" purity="7.7169016003608704e-02" nType="0">
          <Node pos="l" depth="2" NCoef="0" IVar="-1" Cut="0.0000000000000000e+00" cType="1" res="-5.1945480518043041e-03" rms="2.6474604010581970e-01" purity="8.5556276142597198e-02" nType="-99"/>
          <Node pos="r" depth="2" NCoef="0" IVar="-1" Cut="0.0000000000000000e+00" cType="1" res="2.7947155758738518e-03" rms="2.5108402967453003e-01" purity="7.0396639406681061e-02" nType="-99"/>
        </Node>
      </Node>
    </BinaryTree>
    <BinaryTree type="DecisionTree" boostWeight="1.0000000000000000e+00" itree="560">
      <Node pos="s" depth="0" NCoef="0" IVar="2" Cut="2.7124493122100830e+00" cType="1" res="8.9503096489806921e-08" rms="3.2382467389106750e-01" purity="5.9855979681015015e-01" nType="0">
        <Node pos="l" depth="1" NCoef="0" IVar="-1" Cut="0.0000000000000000e+00" cType="1" res="-4.4100117520429194e-05" rms="3.2347235083580017e-01" purity="6.0511964559555054e-01" nType="-99"/>
        <Node pos="r" depth="1" NCoef="0" IVar="3" Cut="3.4811067581176758e-01" cType="0" res="5.8412654325366020e-03" rms="3.4501767158508301e-01" purity="1.8984280526638031e-01" nType="0">
          <Node pos="l" depth="2" NCoef="0" IVar="-1" Cut="0.0000000000000000e+00" cType="1" res="9.7398906946182251e-03" rms="4.3229234218597412e-01" purity="4.1968911886215210e-01" nType="-99"/>
          <Node pos="r" depth="2" NCoef="0" IVar="-1" Cut="0.0000000000000000e+00" cType="1" res="-1.6894263681024313e-03" rms="3.1308478116989136e-01" purity="1.1987381428480148e-01" nType="-99"/>
        </Node>
      </Node>
    </BinaryTree>
    <BinaryTree type="DecisionTree" boostWeight="1.0000000000000000e+00" itree="561">
      <Node pos="s" depth="0" NCoef="0" IVar="0" Cut="1.6604198217391968e+00" cType="1" res="4.9233296550710293e-08" rms="3.2382252812385559e-01" purity="5.9855979681015015e-01" nType="0">
        <Node pos="l" depth="1" NCoef="0" IVar="-1" Cut="0.0000000000000000e+00" cType="1" res="-5.2698072977364063e-05" rms="3.2376754283905029e-01" purity="6.1094874143600464e-01" nType="-99"/>
        <Node pos="r" depth="1" NCoef="0" IVar="1" Cut="1.8215892314910889e+00" cType="0" res="4.1715381667017937e-03" rms="3.2583338022232056e-01" purity="1.3785557448863983e-01" nType="0">
          <Node pos="l" depth="2" NCoef="0" IVar="-1" Cut="0.0000000000000000e+00" cType="1" res="-1.5863994136452675e-02" rms="4.0120846033096313e-01" purity="2.1568627655506134e-01" nType="-99"/>
          <Node pos="r" depth="2" NCoef="0" IVar="-1" Cut="0.0000000000000000e+00" cType="1" res="4.6147443354129791e-03" rms="3.1845006346702576e-01" purity="1.3159967958927155e-01" nType="-99"/>
        </Node>
      </Node>
    </BinaryTree>
    <BinaryTree type="DecisionTree" boostWeight="1.0000000000000000e+00" itree="562">
      <Node pos="s" depth="0" NCoef="0" IVar="1" Cut="2.1589205265045166e+00" cType="1" res="-1.0397305771903120e-07" rms="3.2381901144981384e-01" purity="5.9855979681015015e-01" nType="0">
        <Node pos="l" depth="1" NCoef="0" IVar="0" Cut="1.5004997253417969e+00" cType="1" res="-3.7252844776958227e-05" rms="3.2353770732879639e-01" purity="5.9953266382217407e-01" nType="0">
          <Node pos="l" depth="2" NCoef="0" IVar="-1" Cut="0.0000000000000000e+00" cType="1" res="-1.0702525469241664e-04" rms="3.2397761940956116e-01" purity="6.1489343643188477e-01" nType="-99"/>
          <Node pos="r" depth="2" NCoef="0" IVar="-1" Cut="0.0000000000000000e+00" cType="1" res="3.0715137254446745e-03" rms="3.0949831008911133e-01" purity="1.2223587185144424e-01" nType="-99"/>
        </Node>
        <Node pos="r" depth="1" NCoef="0" IVar="-1" Cut="0.0000000000000000e+00" cType="1" res="4.2430353350937366e-03" rms="4.1543075442314148e-01" purity="2.3571428656578064e-01" nType="-99"/>
      </Node>
    </BinaryTree>
    <BinaryTree type="DecisionTree" boostWeight="1.0000000000000000e+00" itree="563">
      <Node pos="s" depth="0" NCoef="0" IVar="0" Cut="2.0439779758453369e+00" cType="1" res="-1.4028204020632984e-07" rms="3.2381770014762878e-01" purity="5.9855979681015015e-01" nType="0">
        <Node pos="l" depth="1" NCoef="0" IVar="-1" Cut="0.0000000000000000e+00" cType="1" res="4.4022093788953498e-05" rms="3.2367444038391113e-01" purity="6.0564202070236206e-01" nType="-99"/>
        <Node pos="r" depth="1" NCoef="0" IVar="1" Cut="9.2453771829605103e-01" cType="0" res="-5.9446669183671474e-03" rms="3.3273118734359741e-01" purity="1.4901477098464966e-01" nType="0">
          <Node pos="l" depth="2" NCoef="0" IVar="-1" Cut="0.0000000000000000e+00" cType="1" res="8.3902766928076744e-03" rms="4.0945211052894592e-01" purity="2.3282442986965179e-01" nType="-99"/>
          <Node pos="r" depth="2" NCoef="0" IVar="-1" Cut="0.0000000000000000e+00" cType="1" res="-9.9825114011764526e-03" rms="2.8788700699806213e-01" purity="1.0909090936183929e-01" nType="-99"/>
        </Node>
      </Node>
    </BinaryTree>
    <BinaryTree type="DecisionTree" boostWeight="1.0000000000000000e+00" itree="564">
      <Node pos="s" depth="0" NCoef="0" IVar="1" Cut="8.0209892988204956e-01" cType="1" res="-3.3269932941948355e-07" rms="3.2381597161293030e-01" purity="5.9855979681015015e-01" nType="0">
        <Node pos="l" depth="1" NCoef="0" IVar="-1" Cut="0.0000000000000000e+00" cType="1" res="6.7195207520853728e-05" rms="3.2426759600639343e-01" purity="6.1697316169738770e-01" nType="-99"/>
        <Node pos="r" depth="1" NCoef="0" IVar="1" Cut="8.3491510152816772e-01" cType="0" res="-3.7220539525151253e-03" rms="3.1186044216156006e-01" purity="1.2133675813674927e-01" nType="0">
          <Node pos="l" depth="2" NCoef="0" IVar="-1" Cut="0.0000000000000000e+00" cType="1" res="2.3970905749592930e-04" rms="3.1692296266555786e-01" purity="1.2637968361377716e-01" nType="-99"/>
          <Node pos="r" depth="2" NCoef="0" IVar="-1" Cut="0.0000000000000000e+00" cType="1" res="-3.2310549169778824e-02" rms="2.2439347207546234e-01" purity="5.2631579339504242e-02" nType="-99"/>
        </Node>
      </Node>
    </BinaryTree>
    <BinaryTree type="DecisionTree" boostWeight="1.0000000000000000e+00" itree="565">
      <Node pos="s" depth="0" NCoef="0" IVar="1" Cut="8.8330835103988647e-01" cType="1" res="-6.4147553757720743e-07" rms="3.2381221652030945e-01" purity="5.9855979681015015e-01" nType="0">
        <Node pos="l" depth="1" NCoef="0" IVar="-1" Cut="0.0000000000000000e+00" cType="1" res="6.0238420701352879e-05" rms="3.2414212822914124e-01" purity="6.1389672756195068e-01" nType="-99"/>
        <Node pos="r" depth="1" NCoef="0" IVar="1" Cut="9.1340029239654541e-01" cType="0" res="-3.9962059818208218e-03" rms="3.1339290738105774e-01" purity="1.2339645624160767e-01" nType="0">
          <Node pos="l" depth="2" NCoef="0" IVar="-1" Cut="0.0000000000000000e+00" cType="1" res="3.2826073584146798e-04" rms="3.1971490383148193e-01" purity="1.2934996187686920e-01" nType="-99"/>
          <Node pos="r" depth="2" NCoef="0" IVar="-1" Cut="0.0000000000000000e+00" cType="1" res="-3.5864122211933136e-02" rms="2.0134800672531128e-01" purity="4.3859649449586868e-02" nType="-99"/>
        </Node>
      </Node>
    </BinaryTree>
    <BinaryTree type="DecisionTree" boostWeight="1.0000000000000000e+00" itree="566">
      <Node pos="s" depth="0" NCoef="0" IVar="1" Cut="1.3018491268157959e+00" cType="1" res="-9.3837803660790087e-07" rms="3.2380869984626770e-01" purity="5.9855979681015015e-01" nType="0">
        <Node pos="l" depth="1" NCoef="0" IVar="-1" Cut="0.0000000000000000e+00" cType="1" res="3.7075726140756160e-05" rms="3.2364460825920105e-01" purity="6.0432100296020508e-01" nType="-99"/>
        <Node pos="r" depth="1" NCoef="0" IVar="0" Cut="2.1614192426204681e-01" cType="0" res="-6.3139977864921093e-03" rms="3.3648693561553955e-01" purity="1.4241960644721985e-01" nType="0">
          <Node pos="l" depth="2" NCoef="0" IVar="-1" Cut="0.0000000000000000e+00" cType="1" res="1.5078024007380009e-03" rms="3.3686217665672302e-01" purity="1.4545454084873199e-01" nType="-99"/>
          <Node pos="r" depth="2" NCoef="0" IVar="-1" Cut="0.0000000000000000e+00" cType="1" res="-2.0246651023626328e-02" rms="3.2967278361320496e-01" purity="1.2621359527111053e-01" nType="-99"/>
        </Node>
      </Node>
    </BinaryTree>
    <BinaryTree type="DecisionTree" boostWeight="1.0000000000000000e+00" itree="567">
      <Node pos="s" depth="0" NCoef="0" IVar="0" Cut="9.4952523708343506e-02" cType="1" res="-9.8267332759860437e-07" rms="3.2380622625350952e-01" purity="5.9855979681015015e-01" nType="0">
        <Node pos="l" depth="1" NCoef="0" IVar="-1" Cut="0.0000000000000000e+00" cType="1" res="3.2728607766330242e-04" rms="3.0007463693618774e-01" purity="8.8115000724792480e-01" nType="-99"/>
        <Node pos="r" depth="1" NCoef="0" IVar="2" Cut="1.0078022480010986e+00" cType="1" res="-8.1239541759714484e-04" rms="3.5342532396316528e-01" purity="2.1568010747432709e-01" nType="0">
          <Node pos="l" depth="2" NCoef="0" IVar="-1" Cut="0.0000000000000000e+00" cType="1" res="-2.0056806970387697e-03" rms="3.6284598708152771e-01" purity="2.4024434387683868e-01" nType="-99"/>
          <Node pos="r" depth="2" NCoef="0" IVar="-1" Cut="0.0000000000000000e+00" cType="1" res="1.5049498761072755e-03" rms="3.4394663572311401e-01" purity="1.9176135957241058e-01" nType="-99"/>
        </Node>
      </Node>
    </BinaryTree>
    <BinaryTree type="DecisionTree" boostWeight="1.0000000000000000e+00" itree="568">
      <Node pos="s" depth="0" NCoef="0" IVar="2" Cut="1.1876331567764282e+00" cType="1" res="-9.9592455171659822e-07" rms="3.2380089163780212e-01" purity="5.9855979681015015e-01" nType="0">
        <Node pos="l" depth="1" NCoef="0" IVar="-1" Cut="0.0000000000000000e+00" cType="1" res="1.8006368190981448e-04" rms="3.1707799434661865e-01" purity="6.8335270881652832e-01" nType="-99"/>
        <Node pos="r" depth="1" NCoef="0" IVar="0" Cut="5.4972514510154724e-02" cType="1" res="-1.5180449699983001e-03" rms="3.5002085566520691e-01" purity="2.5080385804176331e-01" nType="0">
          <Node pos="l" depth="2" NCoef="0" IVar="-1" Cut="0.0000000000000000e+00" cType="1" res="-1.6351269558072090e-02" rms="3.9728954434394836e-01" purity="7.5999999046325684e-01" nType="-99"/>
          <Node pos="r" depth="2" NCoef="0" IVar="-1" Cut="0.0000000000000000e+00" cType="1" res="6.9576915120705962e-04" rms="3.4608975052833557e-01" purity="2.1353131532669067e-01" nType="-99"/>
        </Node>
      </Node>
    </BinaryTree>
    <BinaryTree type="DecisionTree" boostWeight="1.0000000000000000e+00" itree="569">
      <Node pos="s" depth="0" NCoef="0" IVar="3" Cut="4.1201916337013245e-01" cType="0" res="-3.6190752439324569e-07" rms="3.2379001379013062e-01" purity="5.9855979681015015e-01" nType="0">
        <Node pos="l" depth="1" NCoef="0" IVar="-1" Cut="0.0000000000000000e+00" cType="1" res="9.7591971280053258e-04" rms="3.4171852469444275e-01" purity="8.2571774721145630e-01" nType="-99"/>
        <Node pos="r" depth="1" NCoef="0" IVar="3" Cut="4.1015225648880005e-01" cType="0" res="-2.4091113300528377e-04" rms="3.2186108827590942e-01" purity="5.7486081123352051e-01" nType="0">
          <Node pos="l" depth="2" NCoef="0" IVar="-1" Cut="0.0000000000000000e+00" cType="1" res="-1.2994295917451382e-02" rms="4.1331192851066589e-01" purity="6.9178080558776855e-01" nType="-99"/>
          <Node pos="r" depth="2" NCoef="0" IVar="-1" Cut="0.0000000000000000e+00" cType="1" res="-5.9074394812341779e-05" rms="3.2153141498565674e-01" purity="5.7449960708618164e-01" nType="-99"/>
        </Node>
      </Node>
    </BinaryTree>
    <BinaryTree type="DecisionTree" boostWeight="1.0000000000000000e+00" itree="570">
      <Node pos="s" depth="0" NCoef="0" IVar="0" Cut="6.5842080116271973e-01" cType="1" res="-2.6032998334812874e-07" rms="3.2378837466239929e-01" purity="5.9855979681015015e-01" nType="0">
        <Node pos="l" depth="1" NCoef="0" IVar="-1" Cut="0.0000000000000000e+00" cType="1" res="1.2833465007133782e-04" rms="3.3269888162612915e-01" purity="6.7745697498321533e-01" nType="-99"/>
        <Node pos="r" depth="1" NCoef="0" IVar="2" Cut="9.1414034366607666e-01" cType="0" res="-1.9016781589016318e-03" rms="2.5725001096725464e-01" purity="7.7169016003608704e-02" nType="0">
          <Node pos="l" depth="2" NCoef="0" IVar="-1" Cut="0.0000000000000000e+00" cType="1" res="-3.7413481622934341e-03" rms="2.5781518220901489e-01" purity="7.9158939421176910e-02" nType="-99"/>
          <Node pos="r" depth="2" NCoef="0" IVar="-1" Cut="0.0000000000000000e+00" cType="1" res="5.5669625289738178e-03" rms="2.5569003820419312e-01" purity="7.2413794696331024e-02" nType="-99"/>
        </Node>
      </Node>
    </BinaryTree>
    <BinaryTree type="DecisionTree" boostWeight="1.0000000000000000e+00" itree="571">
      <Node pos="s" depth="0" NCoef="0" IVar="3" Cut="3.1907123327255249e-01" cType="0" res="-5.0015131591862882e-07" rms="3.2378840446472168e-01" purity="5.9855979681015015e-01" nType="0">
        <Node pos="l" depth="1" NCoef="0" IVar="-1" Cut="0.0000000000000000e+00" cType="1" res="-3.8228189805522561e-04" rms="3.7160527706146240e-01" purity="6.7848116159439087e-01" nType="-99"/>
        <Node pos="r" depth="1" NCoef="0" IVar="0" Cut="2.2488754987716675e-01" cType="1" res="4.5194203266873956e-04" rms="3.0071446299552917e-01" purity="5.6392705440521240e-01" nType="0">
          <Node pos="l" depth="2" NCoef="0" IVar="-1" Cut="0.0000000000000000e+00" cType="1" res="1.1408668942749500e-03" rms="3.1221759319305420e-01" purity="8.3411467075347900e-01" nType="-99"/>
          <Node pos="r" depth="2" NCoef="0" IVar="-1" Cut="0.0000000000000000e+00" cType="1" res="-1.6995659098029137e-03" rms="2.7939912676811218e-01" purity="9.0696796774864197e-02" nType="-99"/>
        </Node>
      </Node>
    </BinaryTree>
    <BinaryTree type="DecisionTree" boostWeight="1.0000000000000000e+00" itree="572">
      <Node pos="s" depth="0" NCoef="0" IVar="2" Cut="3.5591530799865723e-01" cType="1" res="-4.8590800361125730e-07" rms="3.2378765940666199e-01" purity="5.9855979681015015e-01" nType="0">
        <Node pos="l" depth="1" NCoef="0" IVar="-1" Cut="0.0000000000000000e+00" cType="1" res="-5.9753499226644635e-04" rms="2.8200489282608032e-01" purity="8.3244299888610840e-01" nType="-99"/>
        <Node pos="r" depth="1" NCoef="0" IVar="2" Cut="4.7011086344718933e-01" cType="1" res="6.1278161592781544e-04" rms="3.4785544872283936e-01" purity="4.4918462634086609e-01" nType="0">
          <Node pos="l" depth="2" NCoef="0" IVar="-1" Cut="0.0000000000000000e+00" cType="1" res="2.5972356088459492e-03" rms="3.2046696543693542e-01" purity="7.3324424028396606e-01" nType="-99"/>
          <Node pos="r" depth="2" NCoef="0" IVar="-1" Cut="0.0000000000000000e+00" cType="1" res="-1.6142810636665672e-04" rms="3.5296705365180969e-01" purity="3.9349356293678284e-01" nType="-99"/>
        </Node>
      </Node>
    </BinaryTree>
    <BinaryTree type="DecisionTree" boostWeight="1.0000000000000000e+00" itree="573">
      <Node pos="s" depth="0" NCoef="0" IVar="0" Cut="1.2493752874433994e-03" cType="1" res="-3.6830937233389704e-07" rms="3.2378637790679932e-01" purity="5.9855979681015015e-01" nType="0">
        <Node pos="l" depth="1" NCoef="0" IVar="-1" Cut="0.0000000000000000e+00" cType="1" res="-7.1826018393039703e-04" rms="2.7221053838729858e-01" purity="9.0791207551956177e-01" nType="-99"/>
        <Node pos="r" depth="1" NCoef="0" IVar="0" Cut="1.5932820737361908e-02" cType="1" res="5.3089985158294439e-04" rms="3.4666526317596436e-01" purity="4.4418039917945862e-01" nType="0">
          <Node pos="l" depth="2" NCoef="0" IVar="-1" Cut="0.0000000000000000e+00" cType="1" res="1.5775132924318314e-02" rms="1.8257772922515869e-01" purity="9.5916664600372314e-01" nType="-99"/>
          <Node pos="r" depth="2" NCoef="0" IVar="-1" Cut="0.0000000000000000e+00" cType="1" res="-1.6792980659374734e-06" rms="3.5108187794685364e-01" purity="4.2585620284080505e-01" nType="-99"/>
        </Node>
      </Node>
    </BinaryTree>
    <BinaryTree type="DecisionTree" boostWeight="1.0000000000000000e+00" itree="574">
      <Node pos="s" depth="0" NCoef="0" IVar="1" Cut="1.2493752874433994e-03" cType="1" res="1.4046518970189936e-07" rms="3.2378488779067993e-01" purity="5.9855979681015015e-01" nType="0">
        <Node pos="l" depth="1" NCoef="0" IVar="-1" Cut="0.0000000000000000e+00" cType="1" res="-4.5614238479174674e-04" rms="3.0538797378540039e-01" purity="7.4462652206420898e-01" nType="-99"/>
        <Node pos="r" depth="1" NCoef="0" IVar="1" Cut="4.1235275566577911e-02" cType="1" res="5.7170068612322211e-04" rms="3.3531391620635986e-01" purity="5.0265789031982422e-01" nType="0">
          <Node pos="l" depth="2" NCoef="0" IVar="-1" Cut="0.0000000000000000e+00" cType="1" res="3.6698926705867052e-03" rms="2.8599849343299866e-01" purity="7.6980537176132202e-01" nType="-99"/>
          <Node pos="r" depth="2" NCoef="0" IVar="-1" Cut="0.0000000000000000e+00" cType="1" res="-2.5493168504908681e-04" rms="3.4395480155944824e-01" purity="4.5140853524208069e-01" nType="-99"/>
        </Node>
      </Node>
    </BinaryTree>
    <BinaryTree type="DecisionTree" boostWeight="1.0000000000000000e+00" itree="575">
      <Node pos="s" depth="0" NCoef="0" IVar="3" Cut="3.1907123327255249e-01" cType="0" res="2.1159495133815653e-07" rms="3.2378396391868591e-01" purity="5.9855979681015015e-01" nType="0">
        <Node pos="l" depth="1" NCoef="0" IVar="-1" Cut="0.0000000000000000e+00" cType="1" res="-3.8460249197669327e-04" rms="3.7159234285354614e-01" purity="6.7848116159439087e-01" nType="-99"/>
        <Node pos="r" depth="1" NCoef="0" IVar="3" Cut="3.1842893362045288e-01" cType="0" res="4.5543961459770799e-04" rms="3.0071452260017395e-01" purity="5.6392705440521240e-01" nType="0">
          <Node pos="l" depth="2" NCoef="0" IVar="-1" Cut="0.0000000000000000e+00" cType="1" res="1.4793199487030506e-02" rms="4.0026149153709412e-01" purity="6.4285713434219360e-01" nType="-99"/>
          <Node pos="r" depth="2" NCoef="0" IVar="-1" Cut="0.0000000000000000e+00" cType="1" res="1.7807299445848912e-04" rms="3.0034908652305603e-01" purity="5.6368428468704224e-01" nType="-99"/>
        </Node>
      </Node>
    </BinaryTree>
    <BinaryTree type="DecisionTree" boostWeight="1.0000000000000000e+00" itree="576">
      <Node pos="s" depth="0" NCoef="0" IVar="2" Cut="3.5591530799865723e-01" cType="1" res="2.0853738647019782e-07" rms="3.2378226518630981e-01" purity="5.9855979681015015e-01" nType="0">
        <Node pos="l" depth="1" NCoef="0" IVar="-1" Cut="0.0000000000000000e+00" cType="1" res="-5.4487399756908417e-04" rms="2.8200101852416992e-01" purity="8.3244299888610840e-01" nType="-99"/>
        <Node pos="r" depth="1" NCoef="0" IVar="1" Cut="2.4987506866455078e-01" cType="1" res="5.6010409025475383e-04" rms="3.4784945845603943e-01" purity="4.4918462634086609e-01" nType="0">
          <Node pos="l" depth="2" NCoef="0" IVar="-1" Cut="0.0000000000000000e+00" cType="1" res="-2.7720921207219362e-04" rms="3.5295641422271729e-01" purity="5.3704315423965454e-01" nType="-99"/>
          <Node pos="r" depth="2" NCoef="0" IVar="-1" Cut="0.0000000000000000e+00" cType="1" res="2.0501243416219950e-03" rms="3.3139777183532715e-01" purity="1.7536400258541107e-01" nType="-99"/>
        </Node>
      </Node>
    </BinaryTree>
    <BinaryTree type="DecisionTree" boostWeight="1.0000000000000000e+00" itree="577">
      <Node pos="s" depth="0" NCoef="0" IVar="3" Cut="4.8847633600234985e-01" cType="0" res="1.3297352552399389e-07" rms="3.2377955317497253e-01" purity="5.9855979681015015e-01" nType="0">
        <Node pos="l" depth="1" NCoef="0" IVar="-1" Cut="0.0000000000000000e+00" cType="1" res="3.6406619474291801e-03" rms="2.9104775190353394e-01" purity="8.7991720438003540e-01" nType="-99"/>
        <Node pos="r" depth="1" NCoef="0" IVar="3" Cut="4.8624518513679504e-01" cType="0" res="-6.5690925111994147e-05" rms="3.2406806945800781e-01" purity="5.9593993425369263e-01" nType="0">
          <Node pos="l" depth="2" NCoef="0" IVar="-1" Cut="0.0000000000000000e+00" cType="1" res="-2.7545066550374031e-02" rms="3.7727805972099304e-01" purity="8.0000001192092896e-01" nType="-99"/>
          <Node pos="r" depth="2" NCoef="0" IVar="-1" Cut="0.0000000000000000e+00" cType="1" res="2.1187324819038622e-05" rms="3.2394701242446899e-01" purity="5.9554576873779297e-01" nType="-99"/>
        </Node>
      </Node>
    </BinaryTree>
    <BinaryTree type="DecisionTree" boostWeight="1.0000000000000000e+00" itree="578">
      <Node pos="s" depth="0" NCoef="0" IVar="3" Cut="4.1201916337013245e-01" cType="0" res="3.3075281180572347e-07" rms="3.2377809286117554e-01" purity="5.9855979681015015e-01" nType="0">
        <Node pos="l" depth="1" NCoef="0" IVar="-1" Cut="0.0000000000000000e+00" cType="1" res="9.0664502931758761e-04" rms="3.4169352054595947e-01" purity="8.2571774721145630e-01" nType="-99"/>
        <Node pos="r" depth="1" NCoef="0" IVar="3" Cut="4.0850508213043213e-01" cType="0" res="-2.2295222152024508e-04" rms="3.2185074687004089e-01" purity="5.7486081123352051e-01" nType="0">
          <Node pos="l" depth="2" NCoef="0" IVar="-1" Cut="0.0000000000000000e+00" cType="1" res="-9.0144919231534004e-03" rms="4.0323719382286072e-01" purity="7.3214286565780640e-01" nType="-99"/>
          <Node pos="r" depth="2" NCoef="0" IVar="-1" Cut="0.0000000000000000e+00" cType="1" res="-3.4936383599415421e-05" rms="3.2129973173141479e-01" purity="5.7392632961273193e-01" nType="-99"/>
        </Node>
      </Node>
    </BinaryTree>
    <BinaryTree type="DecisionTree" boostWeight="1.0000000000000000e+00" itree="579">
      <Node pos="s" depth="0" NCoef="0" IVar="3" Cut="4.9447298049926758e-01" cType="0" res="3.6126951385995199e-07" rms="3.2377696037292480e-01" purity="5.9855979681015015e-01" nType="0">
        <Node pos="l" depth="1" NCoef="0" IVar="-1" Cut="0.0000000000000000e+00" cType="1" res="-4.7949948348104954e-03" rms="3.3025357127189636e-01" purity="8.5217392444610596e-01" nType="-99"/>
        <Node pos="r" depth="1" NCoef="0" IVar="3" Cut="4.8897045850753784e-01" cType="0" res="4.5915337977930903e-05" rms="3.2374736666679382e-01" purity="5.9744071960449219e-01" nType="0">
          <Node pos="l" depth="2" NCoef="0" IVar="-1" Cut="0.0000000000000000e+00" cType="1" res="1.3341469690203667e-02" rms="2.4725380539894104e-01" purity="9.1189426183700562e-01" nType="-99"/>
          <Node pos="r" depth="2" NCoef="0" IVar="-1" Cut="0.0000000000000000e+00" cType="1" res="-2.4974888219730929e-05" rms="3.2403880357742310e-01" purity="5.9606528282165527e-01" nType="-99"/>
        </Node>
      </Node>
    </BinaryTree>
    <BinaryTree type="DecisionTree" boostWeight="1.0000000000000000e+00" itree="580">
      <Node pos="s" depth="0" NCoef="0" IVar="2" Cut="3.7989275455474854e+00" cType="1" res="4.3005360339520848e-07" rms="3.2377672195434570e-01" purity="5.9855979681015015e-01" nType="0">
        <Node pos="l" depth="1" NCoef="0" IVar="2" Cut="3.4397087097167969e+00" cType="1" res="-3.2844534871401265e-05" rms="3.2361191511154175e-01" purity="5.9950596094131470e-01" nType="0">
          <Node pos="l" depth="2" NCoef="0" IVar="-1" Cut="0.0000000000000000e+00" cType="1" res="1.6006904843379743e-05" rms="3.2362449169158936e-01" purity="6.0032230615615845e-01" nType="-99"/>
          <Node pos="r" depth="2" NCoef="0" IVar="-1" Cut="0.0000000000000000e+00" cType="1" res="-1.2721163220703602e-02" rms="3.1517741084098816e-01" purity="1.7821782827377319e-01" nType="-99"/>
        </Node>
        <Node pos="r" depth="1" NCoef="0" IVar="-1" Cut="0.0000000000000000e+00" cType="1" res="4.6736379154026508e-03" rms="3.8364931941032410e-01" purity="2.2137404978275299e-01" nType="-99"/>
      </Node>
    </BinaryTree>
    <BinaryTree type="DecisionTree" boostWeight="1.0000000000000000e+00" itree="581">
      <Node pos="s" depth="0" NCoef="0" IVar="2" Cut="2.7124493122100830e+00" cType="1" res="3.4242677315887704e-07" rms="3.2377612590789795e-01" purity="5.9855979681015015e-01" nType="0">
        <Node pos="l" depth="1" NCoef="0" IVar="-1" Cut="0.0000000000000000e+00" cType="1" res="-4.1032380977412686e-05" rms="3.2342821359634399e-01" purity="6.0511964559555054e-01" nType="-99"/>
        <Node pos="r" depth="1" NCoef="0" IVar="3" Cut="3.1751105189323425e-01" cType="0" res="5.4475306533277035e-03" rms="3.4471681714057922e-01" purity="1.8984280526638031e-01" nType="0">
          <Node pos="l" depth="2" NCoef="0" IVar="-1" Cut="0.0000000000000000e+00" cType="1" res="-4.0977271273732185e-03" rms="3.7434738874435425e-01" purity="2.6849314570426941e-01" nType="-99"/>
          <Node pos="r" depth="2" NCoef="0" IVar="-1" Cut="0.0000000000000000e+00" cType="1" res="1.0829705744981766e-02" rms="3.1863722205162048e-01" purity="1.2770563364028931e-01" nType="-99"/>
        </Node>
      </Node>
    </BinaryTree>
    <BinaryTree type="DecisionTree" boostWeight="1.0000000000000000e+00" itree="582">
      <Node pos="s" depth="0" NCoef="0" IVar="0" Cut="2.0439779758453369e+00" cType="1" res="1.6003012603960087e-07" rms="3.2377421855926514e-01" purity="5.9855979681015015e-01" nType="0">
        <Node pos="l" depth="1" NCoef="0" IVar="-1" Cut="0.0000000000000000e+00" cType="1" res="4.0480375901097432e-05" rms="3.2363232970237732e-01" purity="6.0564202070236206e-01" nType="-99"/>
        <Node pos="r" depth="1" NCoef="0" IVar="2" Cut="1.4992284774780273e+00" cType="1" res="-5.4431427270174026e-03" rms="3.3261173963546753e-01" purity="1.4901477098464966e-01" nType="0">
          <Node pos="l" depth="2" NCoef="0" IVar="-1" Cut="0.0000000000000000e+00" cType="1" res="7.8674918040633202e-03" rms="3.4295111894607544e-01" purity="1.5277777612209320e-01" nType="-99"/>
          <Node pos="r" depth="2" NCoef="0" IVar="-1" Cut="0.0000000000000000e+00" cType="1" res="-9.3655157834291458e-03" rms="3.2296499609947205e-01" purity="1.4601770043373108e-01" nType="-99"/>
        </Node>
      </Node>
    </BinaryTree>
    <BinaryTree type="DecisionTree" boostWeight="1.0000000000000000e+00" itree="583">
      <Node pos="s" depth="0" NCoef="0" IVar="2" Cut="3.2781672477722168e+00" cType="1" res="-3.0479050394660590e-08" rms="3.2377204298973083e-01" purity="5.9855979681015015e-01" nType="0">
        <Node pos="l" depth="1" NCoef="0" IVar="-1" Cut="0.0000000000000000e+00" cType="1" res="-2.5102992367465049e-05" rms="3.2351505756378174e-01" purity="6.0073769092559814e-01" nType="-99"/>
        <Node pos="r" depth="1" NCoef="0" IVar="0" Cut="7.6633840799331665e-01" cType="1" res="9.3046836555004120e-03" rms="3.6578398942947388e-01" purity="2.1812079846858978e-01" nType="0">
          <Node pos="l" depth="2" NCoef="0" IVar="-1" Cut="0.0000000000000000e+00" cType="1" res="1.4122485183179379e-02" rms="4.1232997179031372e-01" purity="3.1372550129890442e-01" nType="-99"/>
          <Node pos="r" depth="2" NCoef="0" IVar="-1" Cut="0.0000000000000000e+00" cType="1" res="-3.6798075307160616e-03" rms="3.3754560351371765e-01" purity="1.6836734116077423e-01" nType="-99"/>
        </Node>
      </Node>
    </BinaryTree>
    <BinaryTree type="DecisionTree" boostWeight="1.0000000000000000e+00" itree="584">
      <Node pos="s" depth="0" NCoef="0" IVar="2" Cut="3.0308997631072998e+00" cType="1" res="-7.9965126076331217e-08" rms="3.2377061247825623e-01" purity="5.9855979681015015e-01" nType="0">
        <Node pos="l" depth="1" NCoef="0" IVar="-1" Cut="0.0000000000000000e+00" cType="1" res="3.0761639209231362e-05" rms="3.2366731762886047e-01" purity="6.0254877805709839e-01" nType="-99"/>
        <Node pos="r" depth="1" NCoef="0" IVar="2" Cut="3.2768650054931641e+00" cType="0" res="-6.9802249781787395e-03" rms="3.3453881740570068e-01" purity="1.7283950746059418e-01" nType="0">
          <Node pos="l" depth="2" NCoef="0" IVar="-1" Cut="0.0000000000000000e+00" cType="1" res="3.0282454099506140e-03" rms="3.6558628082275391e-01" purity="2.1812079846858978e-01" nType="-99"/>
          <Node pos="r" depth="2" NCoef="0" IVar="-1" Cut="0.0000000000000000e+00" cType="1" res="-1.5596222132444382e-02" rms="2.7657851576805115e-01" purity="1.0106383264064789e-01" nType="-99"/>
        </Node>
      </Node>
    </BinaryTree>
    <BinaryTree type="DecisionTree" boostWeight="1.0000000000000000e+00" itree="585">
      <Node pos="s" depth="0" NCoef="0" IVar="2" Cut="2.7124493122100830e+00" cType="1" res="-1.8635412857292977e-07" rms="3.2376927137374878e-01" purity="5.9855979681015015e-01" nType="0">
        <Node pos="l" depth="1" NCoef="0" IVar="-1" Cut="0.0000000000000000e+00" cType="1" res="-4.1088987927651033e-05" rms="3.2342612743377686e-01" purity="6.0511964559555054e-01" nType="-99"/>
        <Node pos="r" depth="1" NCoef="0" IVar="3" Cut="3.4811067581176758e-01" cType="0" res="5.4215379059314728e-03" rms="3.4443092346191406e-01" purity="1.8984280526638031e-01" nType="0">
          <Node pos="l" depth="2" NCoef="0" IVar="-1" Cut="0.0000000000000000e+00" cType="1" res="9.1138333082199097e-03" rms="4.3157321214675903e-01" purity="4.1968911886215210e-01" nType="-99"/>
          <Node pos="r" depth="2" NCoef="0" IVar="-1" Cut="0.0000000000000000e+00" cType="1" res="-1.6222235281020403e-03" rms="3.1261166930198669e-01" purity="1.1987381428480148e-01" nType="-99"/>
        </Node>
      </Node>
    </BinaryTree>
    <BinaryTree type="DecisionTree" boostWeight="1.0000000000000000e+00" itree="586">
      <Node pos="s" depth="0" NCoef="0" IVar="0" Cut="2.4575212001800537e+00" cType="1" res="-1.9491801594995195e-07" rms="3.2376733422279358e-01" purity="5.9855979681015015e-01" nType="0">
        <Node pos="l" depth="1" NCoef="0" IVar="-1" Cut="0.0000000000000000e+00" cType="1" res="-3.1456289434572682e-05" rms="3.2338699698448181e-01" purity="6.0261505842208862e-01" nType="-99"/>
        <Node pos="r" depth="1" NCoef="0" IVar="2" Cut="2.3382983207702637e+00" cType="0" res="6.9023007526993752e-03" rms="3.6097547411918640e-01" purity="1.7800000309944153e-01" nType="0">
          <Node pos="l" depth="2" NCoef="0" IVar="-1" Cut="0.0000000000000000e+00" cType="1" res="1.2965145520865917e-02" rms="3.9072281122207642e-01" purity="2.3780487477779388e-01" nType="-99"/>
          <Node pos="r" depth="2" NCoef="0" IVar="-1" Cut="0.0000000000000000e+00" cType="1" res="-2.9705786146223545e-03" rms="3.4461647272109985e-01" purity="1.4880952239036560e-01" nType="-99"/>
        </Node>
      </Node>
    </BinaryTree>
    <BinaryTree type="DecisionTree" boostWeight="1.0000000000000000e+00" itree="587">
      <Node pos="s" depth="0" NCoef="0" IVar="2" Cut="3.4542517662048340e+00" cType="1" res="-2.5756585841918422e-07" rms="3.2376566529273987e-01" purity="5.9855979681015015e-01" nType="0">
        <Node pos="l" depth="1" NCoef="0" IVar="-1" Cut="0.0000000000000000e+00" cType="1" res="2.2761316358810291e-05" rms="3.2360804080963135e-01" purity="6.0029160976409912e-01" nType="-99"/>
        <Node pos="r" depth="1" NCoef="0" IVar="3" Cut="3.2233086228370667e-01" cType="0" res="-1.1209500022232533e-02" rms="3.5809937119483948e-01" purity="1.9911503791809082e-01" nType="0">
          <Node pos="l" depth="2" NCoef="0" IVar="-1" Cut="0.0000000000000000e+00" cType="1" res="-1.0471867397427559e-02" rms="3.7690892815589905e-01" purity="2.5471699237823486e-01" nType="-99"/>
          <Node pos="r" depth="2" NCoef="0" IVar="-1" Cut="0.0000000000000000e+00" cType="1" res="4.8046507872641087e-03" rms="3.3910259604454041e-01" purity="1.5000000596046448e-01" nType="-99"/>
        </Node>
      </Node>
    </BinaryTree>
    <BinaryTree type="DecisionTree" boostWeight="1.0000000000000000e+00" itree="588">
      <Node pos="s" depth="0" NCoef="0" IVar="2" Cut="3.1470406055450439e+00" cType="1" res="-2.6474825176592276e-07" rms="3.2376512885093689e-01" purity="5.9855979681015015e-01" nType="0">
        <Node pos="l" depth="1" NCoef="0" IVar="-1" Cut="0.0000000000000000e+00" cType="1" res="2.7577640139497817e-05" rms="3.2361924648284912e-01" purity="6.0167813301086426e-01" nType="-99"/>
        <Node pos="r" depth="1" NCoef="0" IVar="2" Cut="3.3106193542480469e+00" cType="0" res="-7.8170606866478920e-03" rms="3.4251204133033752e-01" purity="1.8414321541786194e-01" nType="0">
          <Node pos="l" depth="2" NCoef="0" IVar="-1" Cut="0.0000000000000000e+00" cType="1" res="2.4055952671915293e-03" rms="3.6468553543090820e-01" purity="2.1951219439506531e-01" nType="-99"/>
          <Node pos="r" depth="2" NCoef="0" IVar="-1" Cut="0.0000000000000000e+00" cType="1" res="-2.3261457681655884e-02" rms="2.6805877685546875e-01" purity="8.6538463830947876e-02" nType="-99"/>
        </Node>
      </Node>
    </BinaryTree>
    <BinaryTree type="DecisionTree" boostWeight="1.0000000000000000e+00" itree="589">
      <Node pos="s" depth="0" NCoef="0" IVar="2" Cut="3.4542517662048340e+00" cType="1" res="-3.7449467527039815e-07" rms="3.2376307249069214e-01" purity="5.9855979681015015e-01" nType="0">
        <Node pos="l" depth="1" NCoef="0" IVar="-1" Cut="0.0000000000000000e+00" cType="1" res="2.1814672436448745e-05" rms="3.2360601425170898e-01" purity="6.0029160976409912e-01" nType="-99"/>
        <Node pos="r" depth="1" NCoef="0" IVar="1" Cut="3.2983508706092834e-01" cType="1" res="-1.0772174224257469e-02" rms="3.5799619555473328e-01" purity="1.9911503791809082e-01" nType="0">
          <Node pos="l" depth="2" NCoef="0" IVar="-1" Cut="0.0000000000000000e+00" cType="1" res="3.8183622527867556e-03" rms="3.7738105654716492e-01" purity="2.3140496015548706e-01" nType="-99"/>
          <Node pos="r" depth="2" NCoef="0" IVar="-1" Cut="0.0000000000000000e+00" cType="1" res="-1.3082994148135185e-02" rms="3.3250534534454346e-01" purity="1.6190476715564728e-01" nType="-99"/>
        </Node>
      </Node>
    </BinaryTree>
    <BinaryTree type="DecisionTree" boostWeight="1.0000000000000000e+00" itree="590">
      <Node pos="s" depth="0" NCoef="0" IVar="2" Cut="2.7124493122100830e+00" cType="1" res="-3.8692570569764939e-07" rms="3.2376232743263245e-01" purity="5.9855979681015015e-01" nType="0">
        <Node pos="l" depth="1" NCoef="0" IVar="-1" Cut="0.0000000000000000e+00" cType="1" res="-4.0489088860340416e-05" rms="3.2342457771301270e-01" purity="6.0511964559555054e-01" nType="-99"/>
        <Node pos="r" depth="1" NCoef="0" IVar="3" Cut="3.1751105189323425e-01" cType="0" res="5.3294608369469643e-03" rms="3.4411251544952393e-01" purity="1.8984280526638031e-01" nType="0">
          <Node pos="l" depth="2" NCoef="0" IVar="-1" Cut="0.0000000000000000e+00" cType="1" res="-3.8723950274288654e-03" rms="3.7365737557411194e-01" purity="2.6849314570426941e-01" nType="-99"/>
          <Node pos="r" depth="2" NCoef="0" IVar="-1" Cut="0.0000000000000000e+00" cType="1" res="1.0328449308872223e-02" rms="3.1817656755447388e-01" purity="1.2770563364028931e-01" nType="-99"/>
        </Node>
      </Node>
    </BinaryTree>
    <BinaryTree type="DecisionTree" boostWeight="1.0000000000000000e+00" itree="591">
      <Node pos="s" depth="0" NCoef="0" IVar="2" Cut="3.4542517662048340e+00" cType="1" res="-4.8277854602929438e-07" rms="3.2376056909561157e-01" purity="5.9855979681015015e-01" nType="0">
        <Node pos="l" depth="1" NCoef="0" IVar="-1" Cut="0.0000000000000000e+00" cType="1" res="2.0690213204943575e-05" rms="3.2360461354255676e-01" purity="6.0029160976409912e-01" nType="-99"/>
        <Node pos="r" depth="1" NCoef="0" IVar="1" Cut="3.2983508706092834e-01" cType="1" res="-1.0247190482914448e-02" rms="3.5777273774147034e-01" purity="1.9911503791809082e-01" nType="0">
          <Node pos="l" depth="2" NCoef="0" IVar="-1" Cut="0.0000000000000000e+00" cType="1" res="3.4128832630813122e-03" rms="3.7720125913619995e-01" purity="2.3140496015548706e-01" nType="-99"/>
          <Node pos="r" depth="2" NCoef="0" IVar="-1" Cut="0.0000000000000000e+00" cType="1" res="-1.2285603210330009e-02" rms="3.3247867226600647e-01" purity="1.6190476715564728e-01" nType="-99"/>
        </Node>
      </Node>
    </BinaryTree>
    <BinaryTree type="DecisionTree" boostWeight="1.0000000000000000e+00" itree="592">
      <Node pos="s" depth="0" NCoef="0" IVar="0" Cut="1.2493752874433994e-03" cType="1" res="-4.7777956524441834e-07" rms="3.2375994324684143e-01" purity="5.9855979681015015e-01" nType="0">
        <Node pos="l" depth="1" NCoef="0" IVar="-1" Cut="0.0000000000000000e+00" cType="1" res="-6.3066015718504786e-04" rms="2.7219673991203308e-01" purity="9.0791207551956177e-01" nType="-99"/>
        <Node pos="r" depth="1" NCoef="0" IVar="3" Cut="4.0249881148338318e-01" cType="0" res="4.6654572361148894e-04" rms="3.4663397073745728e-01" purity="4.4418039917945862e-01" nType="0">
          <Node pos="l" depth="2" NCoef="0" IVar="-1" Cut="0.0000000000000000e+00" cType="1" res="4.3208543211221695e-03" rms="3.9999920129776001e-01" purity="6.8990558385848999e-01" nType="-99"/>
          <Node pos="r" depth="2" NCoef="0" IVar="-1" Cut="0.0000000000000000e+00" cType="1" res="-3.3371954486938193e-05" rms="3.4425583481788635e-01" purity="4.3409442901611328e-01" nType="-99"/>
        </Node>
      </Node>
    </BinaryTree>
    <BinaryTree type="DecisionTree" boostWeight="1.0000000000000000e+00" itree="593">
      <Node pos="s" depth="0" NCoef="0" IVar="3" Cut="3.6604493856430054e-01" cType="0" res="-3.7398075392047758e-07" rms="3.2375898957252502e-01" purity="5.9855979681015015e-01" nType="0">
        <Node pos="l" depth="1" NCoef="0" IVar="-1" Cut="0.0000000000000000e+00" cType="1" res="-5.8467325288802385e-04" rms="3.6137530207633972e-01" purity="7.6616013050079346e-01" nType="-99"/>
        <Node pos="r" depth="1" NCoef="0" IVar="3" Cut="3.6510133743286133e-01" cType="0" res="3.2773017301224172e-04" rms="3.1499242782592773e-01" purity="5.6214833259582520e-01" nType="0">
          <Node pos="l" depth="2" NCoef="0" IVar="-1" Cut="0.0000000000000000e+00" cType="1" res="1.3744907453656197e-02" rms="4.0677472949028015e-01" purity="6.6666668653488159e-01" nType="-99"/>
          <Node pos="r" depth="2" NCoef="0" IVar="-1" Cut="0.0000000000000000e+00" cType="1" res="9.6950287115760148e-05" rms="3.1466674804687500e-01" purity="5.6183391809463501e-01" nType="-99"/>
        </Node>
      </Node>
    </BinaryTree>
    <BinaryTree type="DecisionTree" boostWeight="1.0000000000000000e+00" itree="594">
      <Node pos="s" depth="0" NCoef="0" IVar="2" Cut="8.6168967187404633e-02" cType="1" res="-3.0866908673488069e-07" rms="3.2375708222389221e-01" purity="5.9855979681015015e-01" nType="0">
        <Node pos="l" depth="1" NCoef="0" IVar="-1" Cut="0.0000000000000000e+00" cType="1" res="8.8285456877201796e-04" rms="2.5327137112617493e-01" purity="9.0979170799255371e-01" nType="-99"/>
        <Node pos="r" depth="1" NCoef="0" IVar="2" Cut="1.9736017286777496e-01" cType="1" res="-3.9954663952812552e-04" rms="3.4487259387969971e-01" purity="4.9051797389984131e-01" nType="0">
          <Node pos="l" depth="2" NCoef="0" IVar="-1" Cut="0.0000000000000000e+00" cType="1" res="-6.1648767441511154e-03" rms="3.3928805589675903e-01" purity="6.1686390638351440e-01" nType="-99"/>
          <Node pos="r" depth="2" NCoef="0" IVar="-1" Cut="0.0000000000000000e+00" cType="1" res="1.4703943452332169e-04" rms="3.4516158699989319e-01" purity="4.8356184363365173e-01" nType="-99"/>
        </Node>
      </Node>
    </BinaryTree>
    <BinaryTree type="DecisionTree" boostWeight="1.0000000000000000e+00" itree="595">
      <Node pos="s" depth="0" NCoef="0" IVar="3" Cut="3.4780514240264893e-01" cType="0" res="-1.7713590239054611e-07" rms="3.2375371456146240e-01" purity="5.9855979681015015e-01" nType="0">
        <Node pos="l" depth="1" NCoef="0" IVar="-1" Cut="0.0000000000000000e+00" cType="1" res="-4.7760954475961626e-04" rms="3.6926853656768799e-01" purity="7.3368912935256958e-01" nType="-99"/>
        <Node pos="r" depth="1" NCoef="0" IVar="3" Cut="3.3771607279777527e-01" cType="0" res="3.6367733264341950e-04" rms="3.0954772233963013e-01" purity="5.6002062559127808e-01" nType="0">
          <Node pos="l" depth="2" NCoef="0" IVar="-1" Cut="0.0000000000000000e+00" cType="1" res="5.4377755150198936e-03" rms="3.8146188855171204e-01" purity="5.7616358995437622e-01" nType="-99"/>
          <Node pos="r" depth="2" NCoef="0" IVar="-1" Cut="0.0000000000000000e+00" cType="1" res="-1.1248173541389406e-04" rms="3.0662336945533752e-01" purity="5.5943840742111206e-01" nType="-99"/>
        </Node>
      </Node>
    </BinaryTree>
    <BinaryTree type="DecisionTree" boostWeight="1.0000000000000000e+00" itree="596">
      <Node pos="s" depth="0" NCoef="0" IVar="3" Cut="3.1882137060165405e-01" cType="0" res="-1.4387256896952749e-07" rms="3.2375040650367737e-01" purity="5.9855979681015015e-01" nType="0">
        <Node pos="l" depth="1" NCoef="0" IVar="-1" Cut="0.0000000000000000e+00" cType="1" res="-3.8559245876967907e-04" rms="3.7181377410888672e-01" purity="6.7804938554763794e-01" nType="-99"/>
        <Node pos="r" depth="1" NCoef="0" IVar="0" Cut="1.6741628944873810e-01" cType="1" res="4.5824589324183762e-04" rms="3.0044791102409363e-01" purity="5.6397676467895508e-01" nType="0">
          <Node pos="l" depth="2" NCoef="0" IVar="-1" Cut="0.0000000000000000e+00" cType="1" res="1.3729679631069303e-03" rms="3.0078905820846558e-01" purity="8.6602848768234253e-01" nType="-99"/>
          <Node pos="r" depth="2" NCoef="0" IVar="-1" Cut="0.0000000000000000e+00" cType="1" res="-1.4314117142930627e-03" rms="2.9991146922111511e-01" purity="1.1379616707563400e-01" nType="-99"/>
        </Node>
      </Node>
    </BinaryTree>
    <BinaryTree type="DecisionTree" boostWeight="1.0000000000000000e+00" itree="597">
      <Node pos="s" depth="0" NCoef="0" IVar="3" Cut="4.0727183222770691e-01" cType="0" res="-1.1660665677482029e-07" rms="3.2374960184097290e-01" purity="5.9855979681015015e-01" nType="0">
        <Node pos="l" depth="1" NCoef="0" IVar="-1" Cut="0.0000000000000000e+00" cType="1" res="8.5623271297663450e-04" rms="3.4507626295089722e-01" purity="8.2049363851547241e-01" nType="-99"/>
        <Node pos="r" depth="1" NCoef="0" IVar="3" Cut="4.0600001811981201e-01" cType="0" res="-2.3341465566772968e-04" rms="3.2123267650604248e-01" purity="5.7330977916717529e-01" nType="0">
          <Node pos="l" depth="2" NCoef="0" IVar="-1" Cut="0.0000000000000000e+00" cType="1" res="-2.9343025758862495e-02" rms="4.5341518521308899e-01" purity="6.7857140302658081e-01" nType="-99"/>
          <Node pos="r" depth="2" NCoef="0" IVar="-1" Cut="0.0000000000000000e+00" cType="1" res="-1.4892010767653119e-05" rms="3.2082504034042358e-01" purity="5.7305836677551270e-01" nType="-99"/>
        </Node>
      </Node>
    </BinaryTree>
    <BinaryTree type="DecisionTree" boostWeight="1.0000000000000000e+00" itree="598">
      <Node pos="s" depth="0" NCoef="0" IVar="0" Cut="1.2493752874433994e-03" cType="1" res="1.2160329276866833e-07" rms="3.2374507188796997e-01" purity="5.9855979681015015e-01" nType="0">
        <Node pos="l" depth="1" NCoef="0" IVar="-1" Cut="0.0000000000000000e+00" cType="1" res="-6.7527109058573842e-04" rms="2.7219384908676147e-01" purity="9.0791207551956177e-01" nType="-99"/>
        <Node pos="r" depth="1" NCoef="0" IVar="0" Cut="1.2195507064461708e-02" cType="1" res="5.0007755635306239e-04" rms="3.4661412239074707e-01" purity="4.4418039917945862e-01" nType="0">
          <Node pos="l" depth="2" NCoef="0" IVar="-1" Cut="0.0000000000000000e+00" cType="1" res="3.1169686466455460e-02" rms="1.2182585895061493e-01" purity="9.8249453306198120e-01" nType="-99"/>
          <Node pos="r" depth="2" NCoef="0" IVar="-1" Cut="0.0000000000000000e+00" cType="1" res="7.8383214713539928e-05" rms="3.4861195087432861e-01" purity="4.3704304099082947e-01" nType="-99"/>
        </Node>
      </Node>
    </BinaryTree>
    <BinaryTree type="DecisionTree" boostWeight="1.0000000000000000e+00" itree="599">
      <Node pos="s" depth="0" NCoef="0" IVar="0" Cut="9.1829085350036621e-01" cType="1" res="6.7367903966442100e-07" rms="3.2374328374862671e-01" purity="5.9855979681015015e-01" nType="0">
        <Node pos="l" depth="1" NCoef="0" IVar="-1" Cut="0.0000000000000000e+00" cType="1" res="-9.1594876721501350e-05" rms="3.2757061719894409e-01" purity="6.4393198490142822e-01" nType="-99"/>
        <Node pos="r" depth="1" NCoef="0" IVar="3" Cut="2.4343517422676086e-01" cType="0" res="2.2323539014905691e-03" rms="2.7748095989227295e-01" purity="9.2407710850238800e-02" nType="0">
          <Node pos="l" depth="2" NCoef="0" IVar="-1" Cut="0.0000000000000000e+00" cType="1" res="8.1648249179124832e-03" rms="3.1876599788665771e-01" purity="1.3043478131294250e-01" nType="-99"/>
          <Node pos="r" depth="2" NCoef="0" IVar="-1" Cut="0.0000000000000000e+00" cType="1" res="-4.5625916682183743e-03" rms="2.4716286361217499e-01" purity="6.8112634122371674e-02" nType="-99"/>
        </Node>
      </Node>
    </BinaryTree>
    <BinaryTree type="DecisionTree" boostWeight="1.0000000000000000e+00" itree="600">
      <Node pos="s" depth="0" NCoef="0" IVar="2" Cut="3.4542517662048340e+00" cType="1" res="2.1792727977754112e-07" rms="3.2373929023742676e-01" purity="5.9855979681015015e-01" nType="0">
        <Node pos="l" depth="1" NCoef="0" IVar="-1" Cut="0.0000000000000000e+00" cType="1" res="2.1394214854808524e-05" rms="3.2358330488204956e-01" purity="6.0029160976409912e-01" nType="-99"/>
        <Node pos="r" depth="1" NCoef="0" IVar="0" Cut="1.3857963085174561e+00" cType="1" res="-1.0423318482935429e-02" rms="3.5775014758110046e-01" purity="1.9911503791809082e-01" nType="0">
          <Node pos="l" depth="2" NCoef="0" IVar="-1" Cut="0.0000000000000000e+00" cType="1" res="3.2880054786801338e-03" rms="3.6428922414779663e-01" purity="2.1848739683628082e-01" nType="-99"/>
          <Node pos="r" depth="2" NCoef="0" IVar="-1" Cut="0.0000000000000000e+00" cType="1" res="-1.1172103695571423e-02" rms="3.4905791282653809e-01" purity="1.7757008969783783e-01" nType="-99"/>
        </Node>
      </Node>
    </BinaryTree>
    <BinaryTree type="DecisionTree" boostWeight="1.0000000000000000e+00" itree="601">
      <Node pos="s" depth="0" NCoef="0" IVar="0" Cut="2.4575212001800537e+00" cType="1" res="1.5864453928315925e-07" rms="3.2373848557472229e-01" purity="5.9855979681015015e-01" nType="0">
        <Node pos="l" depth="1" NCoef="0" IVar="-1" Cut="0.0000000000000000e+00" cType="1" res="-3.1562987715005875e-05" rms="3.2336252927780151e-01" purity="6.0261505842208862e-01" nType="-99"/>
        <Node pos="r" depth="1" NCoef="0" IVar="3" Cut="2.1075220406055450e-01" cType="0" res="6.9587579928338528e-03" rms="3.6053794622421265e-01" purity="1.7800000309944153e-01" nType="0">
          <Node pos="l" depth="2" NCoef="0" IVar="-1" Cut="0.0000000000000000e+00" cType="1" res="9.1745443642139435e-03" rms="3.9455211162567139e-01" purity="2.3206751048564911e-01" nType="-99"/>
          <Node pos="r" depth="2" NCoef="0" IVar="-1" Cut="0.0000000000000000e+00" cType="1" res="-4.5861569233238697e-03" rms="3.2585841417312622e-01" purity="1.2927757203578949e-01" nType="-99"/>
        </Node>
      </Node>
    </BinaryTree>
    <BinaryTree type="DecisionTree" boostWeight="1.0000000000000000e+00" itree="602">
      <Node pos="s" depth="0" NCoef="0" IVar="2" Cut="3.4542517662048340e+00" cType="1" res="7.1579272287181084e-08" rms="3.2373732328414917e-01" purity="5.9855979681015015e-01" nType="0">
        <Node pos="l" depth="1" NCoef="0" IVar="-1" Cut="0.0000000000000000e+00" cType="1" res="2.0607596525223926e-05" rms="3.2358211278915405e-01" purity="6.0029160976409912e-01" nType="-99"/>
        <Node pos="r" depth="1" NCoef="0" IVar="3" Cut="3.2233086228370667e-01" cType="0" res="-1.0072267614305019e-02" rms="3.5759755969047546e-01" purity="1.9911503791809082e-01" nType="0">
          <Node pos="l" depth="2" NCoef="0" IVar="-1" Cut="0.0000000000000000e+00" cType="1" res="-9.4592701643705368e-03" rms="3.7672919034957886e-01" purity="2.5471699237823486e-01" nType="-99"/>
          <Node pos="r" depth="2" NCoef="0" IVar="-1" Cut="0.0000000000000000e+00" cType="1" res="4.2718499898910522e-03" rms="3.3857887983322144e-01" purity="1.5000000596046448e-01" nType="-99"/>
        </Node>
      </Node>
    </BinaryTree>
    <BinaryTree type="DecisionTree" boostWeight="1.0000000000000000e+00" itree="603">
      <Node pos="s" depth="0" NCoef="0" IVar="3" Cut="4.0727183222770691e-01" cType="0" res="3.7656498363958235e-08" rms="3.2373690605163574e-01" purity="5.9855979681015015e-01" nType="0">
        <Node pos="l" depth="1" NCoef="0" IVar="-1" Cut="0.0000000000000000e+00" cType="1" res="8.1570667680352926e-04" rms="3.4506896138191223e-01" purity="8.2049363851547241e-01" nType="-99"/>
        <Node pos="r" depth="1" NCoef="0" IVar="3" Cut="4.0600001811981201e-01" cType="0" res="-2.2212561452761292e-04" rms="3.2121941447257996e-01" purity="5.7330977916717529e-01" nType="0">
          <Node pos="l" depth="2" NCoef="0" IVar="-1" Cut="0.0000000000000000e+00" cType="1" res="-2.5750316679477692e-02" rms="4.5338663458824158e-01" purity="6.7857140302658081e-01" nType="-99"/>
          <Node pos="r" depth="2" NCoef="0" IVar="-1" Cut="0.0000000000000000e+00" cType="1" res="-1.9317943952046335e-05" rms="3.2081699371337891e-01" purity="5.7305836677551270e-01" nType="-99"/>
        </Node>
      </Node>
    </BinaryTree>
    <BinaryTree type="DecisionTree" boostWeight="1.0000000000000000e+00" itree="604">
      <Node pos="s" depth="0" NCoef="0" IVar="0" Cut="1.2493752874433994e-03" cType="1" res="2.0856484184150759e-07" rms="3.2373327016830444e-01" purity="5.9855979681015015e-01" nType="0">
        <Node pos="l" depth="1" NCoef="0" IVar="-1" Cut="0.0000000000000000e+00" cType="1" res="-6.1610603006556630e-04" rms="2.7219167351722717e-01" purity="9.0791207551956177e-01" nType="-99"/>
        <Node pos="r" depth="1" NCoef="0" IVar="3" Cut="4.0249881148338318e-01" cType="0" res="4.5680781477130949e-04" rms="3.4659862518310547e-01" purity="4.4418039917945862e-01" nType="0">
          <Node pos="l" depth="2" NCoef="0" IVar="-1" Cut="0.0000000000000000e+00" cType="1" res="4.1356612928211689e-03" rms="3.9973944425582886e-01" purity="6.8990558385848999e-01" nType="-99"/>
          <Node pos="r" depth="2" NCoef="0" IVar="-1" Cut="0.0000000000000000e+00" cType="1" res="-2.7296824555378407e-05" rms="3.4423214197158813e-01" purity="4.3409442901611328e-01" nType="-99"/>
        </Node>
      </Node>
    </BinaryTree>
    <BinaryTree type="DecisionTree" boostWeight="1.0000000000000000e+00" itree="605">
      <Node pos="s" depth="0" NCoef="0" IVar="3" Cut="3.1882137060165405e-01" cType="0" res="2.3981462504707451e-07" rms="3.2373243570327759e-01" purity="5.9855979681015015e-01" nType="0">
        <Node pos="l" depth="1" NCoef="0" IVar="-1" Cut="0.0000000000000000e+00" cType="1" res="-3.8186376332305372e-04" rms="3.7177646160125732e-01" purity="6.7804938554763794e-01" nType="-99"/>
        <Node pos="r" depth="1" NCoef="0" IVar="0" Cut="1.6741628944873810e-01" cType="1" res="4.5438503730110824e-04" rms="3.0044022202491760e-01" purity="5.6397676467895508e-01" nType="0">
          <Node pos="l" depth="2" NCoef="0" IVar="-1" Cut="0.0000000000000000e+00" cType="1" res="1.2841330608353019e-03" rms="3.0078700184822083e-01" purity="8.6602848768234253e-01" nType="-99"/>
          <Node pos="r" depth="2" NCoef="0" IVar="-1" Cut="0.0000000000000000e+00" cType="1" res="-1.3051185524091125e-03" rms="2.9989951848983765e-01" purity="1.1379616707563400e-01" nType="-99"/>
        </Node>
      </Node>
    </BinaryTree>
    <BinaryTree type="DecisionTree" boostWeight="1.0000000000000000e+00" itree="606">
      <Node pos="s" depth="0" NCoef="0" IVar="2" Cut="3.5591530799865723e-01" cType="1" res="2.3035015317418583e-07" rms="3.2373180985450745e-01" purity="5.9855979681015015e-01" nType="0">
        <Node pos="l" depth="1" NCoef="0" IVar="-1" Cut="0.0000000000000000e+00" cType="1" res="-5.6130450684577227e-04" rms="2.8199243545532227e-01" purity="8.3244299888610840e-01" nType="-99"/>
        <Node pos="r" depth="1" NCoef="0" IVar="2" Cut="4.7011086344718933e-01" cType="1" res="5.7608343195170164e-04" rms="3.4777685999870300e-01" purity="4.4918462634086609e-01" nType="0">
          <Node pos="l" depth="2" NCoef="0" IVar="-1" Cut="0.0000000000000000e+00" cType="1" res="2.4933589156717062e-03" rms="3.2040408253669739e-01" purity="7.3324424028396606e-01" nType="-99"/>
          <Node pos="r" depth="2" NCoef="0" IVar="-1" Cut="0.0000000000000000e+00" cType="1" res="-1.6081631474662572e-04" rms="3.5288631916046143e-01" purity="3.9349356293678284e-01" nType="-99"/>
        </Node>
      </Node>
    </BinaryTree>
    <BinaryTree type="DecisionTree" boostWeight="1.0000000000000000e+00" itree="607">
      <Node pos="s" depth="0" NCoef="0" IVar="3" Cut="3.1882137060165405e-01" cType="0" res="2.6991526169695135e-07" rms="3.2373070716857910e-01" purity="5.9855979681015015e-01" nType="0">
        <Node pos="l" depth="1" NCoef="0" IVar="-1" Cut="0.0000000000000000e+00" cType="1" res="-3.7526871892623603e-04" rms="3.7177240848541260e-01" purity="6.7804938554763794e-01" nType="-99"/>
        <Node pos="r" depth="1" NCoef="0" IVar="1" Cut="1.5117441117763519e-01" cType="1" res="4.4645147863775492e-04" rms="3.0043977499008179e-01" purity="5.6397676467895508e-01" nType="0">
          <Node pos="l" depth="2" NCoef="0" IVar="-1" Cut="0.0000000000000000e+00" cType="1" res="1.1237610597163439e-03" rms="2.8962522745132446e-01" purity="6.9209873676300049e-01" nType="-99"/>
          <Node pos="r" depth="2" NCoef="0" IVar="-1" Cut="0.0000000000000000e+00" cType="1" res="-1.4405953697860241e-03" rms="3.2384327054023743e-01" purity="2.7028247714042664e-01" nType="-99"/>
        </Node>
      </Node>
    </BinaryTree>
    <BinaryTree type="DecisionTree" boostWeight="1.0000000000000000e+00" itree="608">
      <Node pos="s" depth="0" NCoef="0" IVar="0" Cut="1.2981009483337402e+00" cType="1" res="2.4696075229257985e-07" rms="3.2372853159904480e-01" purity="5.9855979681015015e-01" nType="0">
        <Node pos="l" depth="1" NCoef="0" IVar="-1" Cut="0.0000000000000000e+00" cType="1" res="-6.9987596361897886e-05" rms="3.2471543550491333e-01" purity="6.2081432342529297e-01" nType="-99"/>
        <Node pos="r" depth="1" NCoef="0" IVar="1" Cut="1.8215892314910889e+00" cType="0" res="3.2560455147176981e-03" rms="3.0145418643951416e-01" purity="1.1468288302421570e-01" nType="0">
          <Node pos="l" depth="2" NCoef="0" IVar="-1" Cut="0.0000000000000000e+00" cType="1" res="-1.6469372436404228e-02" rms="3.6902740597724915e-01" purity="1.8461538851261139e-01" nType="-99"/>
          <Node pos="r" depth="2" NCoef="0" IVar="-1" Cut="0.0000000000000000e+00" cType="1" res="3.8772909902036190e-03" rms="2.9655098915100098e-01" purity="1.1049723625183105e-01" nType="-99"/>
        </Node>
      </Node>
    </BinaryTree>
    <BinaryTree type="DecisionTree" boostWeight="1.0000000000000000e+00" itree="609">
      <Node pos="s" depth="0" NCoef="0" IVar="1" Cut="2.1589205265045166e+00" cType="1" res="3.8582200545533851e-08" rms="3.2372486591339111e-01" purity="5.9855979681015015e-01" nType="0">
        <Node pos="l" depth="1" NCoef="0" IVar="0" Cut="1.5004997253417969e+00" cType="1" res="-4.3947562517132610e-05" rms="3.2344639301300049e-01" purity="5.9953266382217407e-01" nType="0">
          <Node pos="l" depth="2" NCoef="0" IVar="-1" Cut="0.0000000000000000e+00" cType="1" res="-1.0990750888595358e-04" rms="3.2390099763870239e-01" purity="6.1489343643188477e-01" nType="-99"/>
          <Node pos="r" depth="2" NCoef="0" IVar="-1" Cut="0.0000000000000000e+00" cType="1" res="3.0528521165251732e-03" rms="3.0892962217330933e-01" purity="1.2223587185144424e-01" nType="-99"/>
        </Node>
        <Node pos="r" depth="1" NCoef="0" IVar="-1" Cut="0.0000000000000000e+00" cType="1" res="5.0565558485686779e-03" rms="4.1441377997398376e-01" purity="2.3571428656578064e-01" nType="-99"/>
      </Node>
    </BinaryTree>
    <BinaryTree type="DecisionTree" boostWeight="1.0000000000000000e+00" itree="610">
      <Node pos="s" depth="0" NCoef="0" IVar="1" Cut="2.1589205265045166e+00" cType="1" res="-1.5089831606474036e-08" rms="3.2372343540191650e-01" purity="5.9855979681015015e-01" nType="0">
        <Node pos="l" depth="1" NCoef="0" IVar="1" Cut="1.4127805233001709e+00" cType="1" res="-3.9591330278199166e-05" rms="3.2344520092010498e-01" purity="5.9953266382217407e-01" nType="0">
          <Node pos="l" depth="2" NCoef="0" IVar="-1" Cut="0.0000000000000000e+00" cType="1" res="2.2523990992340259e-05" rms="3.2353231310844421e-01" purity="6.0298997163772583e-01" nType="-99"/>
          <Node pos="r" depth="2" NCoef="0" IVar="-1" Cut="0.0000000000000000e+00" cType="1" res="-5.6764706969261169e-03" rms="3.1089580059051514e-01" purity="1.2032085657119751e-01" nType="-99"/>
        </Node>
        <Node pos="r" depth="1" NCoef="0" IVar="-1" Cut="0.0000000000000000e+00" cType="1" res="4.5260684564709663e-03" rms="4.1440802812576294e-01" purity="2.3571428656578064e-01" nType="-99"/>
      </Node>
    </BinaryTree>
    <BinaryTree type="DecisionTree" boostWeight="1.0000000000000000e+00" itree="611">
      <Node pos="s" depth="0" NCoef="0" IVar="1" Cut="1.5704647302627563e+00" cType="1" res="-5.5016627698023512e-08" rms="3.2372319698333740e-01" purity="5.9855979681015015e-01" nType="0">
        <Node pos="l" depth="1" NCoef="0" IVar="-1" Cut="0.0000000000000000e+00" cType="1" res="-3.0750372388865799e-05" rms="3.2333824038505554e-01" purity="6.0177844762802124e-01" nType="-99"/>
        <Node pos="r" depth="1" NCoef="0" IVar="0" Cut="1.1031984090805054e+00" cType="0" res="8.5024936124682426e-03" rms="3.7046241760253906e-01" purity="1.7839196324348450e-01" nType="0">
          <Node pos="l" depth="2" NCoef="0" IVar="-1" Cut="0.0000000000000000e+00" cType="1" res="-5.1413481123745441e-03" rms="3.7571445107460022e-01" purity="1.9191919267177582e-01" nType="-99"/>
          <Node pos="r" depth="2" NCoef="0" IVar="-1" Cut="0.0000000000000000e+00" cType="1" res="1.4843088574707508e-02" rms="3.6360293626785278e-01" purity="1.6500000655651093e-01" nType="-99"/>
        </Node>
      </Node>
    </BinaryTree>
    <BinaryTree type="DecisionTree" boostWeight="1.0000000000000000e+00" itree="612">
      <Node pos="s" depth="0" NCoef="0" IVar="2" Cut="3.5591530799865723e-01" cType="1" res="-1.8954469283016806e-07" rms="3.2372191548347473e-01" purity="5.9855979681015015e-01" nType="0">
        <Node pos="l" depth="1" NCoef="0" IVar="-1" Cut="0.0000000000000000e+00" cType="1" res="-5.2192923612892628e-04" rms="2.8199049830436707e-01" purity="8.3244299888610840e-01" nType="-99"/>
        <Node pos="r" depth="1" NCoef="0" IVar="1" Cut="1.6616691648960114e-01" cType="1" res="5.3506484255194664e-04" rms="3.4776294231414795e-01" purity="4.4918462634086609e-01" nType="0">
          <Node pos="l" depth="2" NCoef="0" IVar="-1" Cut="0.0000000000000000e+00" cType="1" res="-3.8343048072420061e-04" rms="3.5146218538284302e-01" purity="5.6202578544616699e-01" nType="-99"/>
          <Node pos="r" depth="2" NCoef="0" IVar="-1" Cut="0.0000000000000000e+00" cType="1" res="1.5661168145015836e-03" rms="3.4002280235290527e-01" purity="2.1756163239479065e-01" nType="-99"/>
        </Node>
      </Node>
    </BinaryTree>
    <BinaryTree type="DecisionTree" boostWeight="1.0000000000000000e+00" itree="613">
      <Node pos="s" depth="0" NCoef="0" IVar="0" Cut="2.0439779758453369e+00" cType="1" res="-2.0293705915719329e-07" rms="3.2371941208839417e-01" purity="5.9855979681015015e-01" nType="0">
        <Node pos="l" depth="1" NCoef="0" IVar="-1" Cut="0.0000000000000000e+00" cType="1" res="3.9673333958489820e-05" rms="3.2358667254447937e-01" purity="6.0564202070236206e-01" nType="-99"/>
        <Node pos="r" depth="1" NCoef="0" IVar="1" Cut="9.2453771829605103e-01" cType="0" res="-5.3527057170867920e-03" rms="3.3199244737625122e-01" purity="1.4901477098464966e-01" nType="0">
          <Node pos="l" depth="2" NCoef="0" IVar="-1" Cut="0.0000000000000000e+00" cType="1" res="8.1770084798336029e-03" rms="4.0812680125236511e-01" purity="2.3282442986965179e-01" nType="-99"/>
          <Node pos="r" depth="2" NCoef="0" IVar="-1" Cut="0.0000000000000000e+00" cType="1" res="-9.5256650820374489e-03" rms="2.8761273622512817e-01" purity="1.0909090936183929e-01" nType="-99"/>
        </Node>
      </Node>
    </BinaryTree>
    <BinaryTree type="DecisionTree" boostWeight="1.0000000000000000e+00" itree="614">
      <Node pos="s" depth="0" NCoef="0" IVar="1" Cut="8.8580709695816040e-01" cType="1" res="-3.7162149624236918e-07" rms="3.2371783256530762e-01" purity="5.9855979681015015e-01" nType="0">
        <Node pos="l" depth="1" NCoef="0" IVar="-1" Cut="0.0000000000000000e+00" cType="1" res="5.4289364925352857e-05" rms="3.2405108213424683e-01" purity="6.1379539966583252e-01" nType="-99"/>
        <Node pos="r" depth="1" NCoef="0" IVar="1" Cut="9.1325265169143677e-01" cType="0" res="-3.6114733666181564e-03" rms="3.1312829256057739e-01" purity="1.2354025989770889e-01" nType="0">
          <Node pos="l" depth="2" NCoef="0" IVar="-1" Cut="0.0000000000000000e+00" cType="1" res="3.0744267860427499e-04" rms="3.1908094882965088e-01" purity="1.2934996187686920e-01" nType="-99"/>
          <Node pos="r" depth="2" NCoef="0" IVar="-1" Cut="0.0000000000000000e+00" cType="1" res="-3.7172686308622360e-02" rms="1.9696639478206635e-01" purity="3.8461539894342422e-02" nType="-99"/>
        </Node>
      </Node>
    </BinaryTree>
    <BinaryTree type="DecisionTree" boostWeight="1.0000000000000000e+00" itree="615">
      <Node pos="s" depth="0" NCoef="0" IVar="1" Cut="1.3018491268157959e+00" cType="1" res="-6.7952203153254231e-07" rms="3.2371428608894348e-01" purity="5.9855979681015015e-01" nType="0">
        <Node pos="l" depth="1" NCoef="0" IVar="-1" Cut="0.0000000000000000e+00" cType="1" res="3.3922868169611320e-05" rms="3.2356151938438416e-01" purity="6.0432100296020508e-01" nType="-99"/>
        <Node pos="r" depth="1" NCoef="0" IVar="0" Cut="2.1614192426204681e-01" cType="0" res="-5.7529071345925331e-03" rms="3.3553877472877502e-01" purity="1.4241960644721985e-01" nType="0">
          <Node pos="l" depth="2" NCoef="0" IVar="-1" Cut="0.0000000000000000e+00" cType="1" res="1.5143399359658360e-03" rms="3.3586356043815613e-01" purity="1.4545454084873199e-01" nType="-99"/>
          <Node pos="r" depth="2" NCoef="0" IVar="-1" Cut="0.0000000000000000e+00" cType="1" res="-1.9344005733728409e-02" rms="3.2951104640960693e-01" purity="1.2621359527111053e-01" nType="-99"/>
        </Node>
      </Node>
    </BinaryTree>
    <BinaryTree type="DecisionTree" boostWeight="1.0000000000000000e+00" itree="616">
      <Node pos="s" depth="0" NCoef="0" IVar="3" Cut="4.9747130274772644e-01" cType="0" res="-7.3718450721571571e-07" rms="3.2371205091476440e-01" purity="5.9855979681015015e-01" nType="0">
        <Node pos="l" depth="1" NCoef="0" IVar="-1" Cut="0.0000000000000000e+00" cType="1" res="6.1430553905665874e-03" rms="3.1810081005096436e-01" purity="8.5981309413909912e-01" nType="-99"/>
        <Node pos="r" depth="1" NCoef="0" IVar="3" Cut="4.9446254968643188e-01" cType="0" res="-2.9812938009854406e-05" rms="3.2372280955314636e-01" purity="5.9802478551864624e-01" nType="0">
          <Node pos="l" depth="2" NCoef="0" IVar="-1" Cut="0.0000000000000000e+00" cType="1" res="-1.3949222862720490e-02" rms="3.3924639225006104e-01" purity="8.4552848339080811e-01" nType="-99"/>
          <Node pos="r" depth="2" NCoef="0" IVar="-1" Cut="0.0000000000000000e+00" cType="1" res="1.7802973161451519e-05" rms="3.2368227839469910e-01" purity="5.9744071960449219e-01" nType="-99"/>
        </Node>
      </Node>
    </BinaryTree>
    <BinaryTree type="DecisionTree" boostWeight="1.0000000000000000e+00" itree="617">
      <Node pos="s" depth="0" NCoef="0" IVar="0" Cut="6.5842080116271973e-01" cType="1" res="-5.8691836102298112e-07" rms="3.2371097803115845e-01" purity="5.9855979681015015e-01" nType="0">
        <Node pos="l" depth="1" NCoef="0" IVar="-1" Cut="0.0000000000000000e+00" cType="1" res="1.1045425344491377e-04" rms="3.3264207839965820e-01" purity="6.7745697498321533e-01" nType="-99"/>
        <Node pos="r" depth="1" NCoef="0" IVar="2" Cut="1.4049288034439087e+00" cType="0" res="-1.6368152573704720e-03" rms="2.5699606537818909e-01" purity="7.7169016003608704e-02" nType="0">
          <Node pos="l" depth="2" NCoef="0" IVar="-1" Cut="0.0000000000000000e+00" cType="1" res="-4.8148366622626781e-03" rms="2.6414355635643005e-01" purity="8.5556276142597198e-02" nType="-99"/>
          <Node pos="r" depth="2" NCoef="0" IVar="-1" Cut="0.0000000000000000e+00" cType="1" res="2.6199668645858765e-03" rms="2.5097182393074036e-01" purity="7.0396639406681061e-02" nType="-99"/>
        </Node>
      </Node>
    </BinaryTree>
    <BinaryTree type="DecisionTree" boostWeight="1.0000000000000000e+00" itree="618">
      <Node pos="s" depth="0" NCoef="0" IVar="0" Cut="2.4575212001800537e+00" cType="1" res="-7.3776033104877570e-07" rms="3.2371097803115845e-01" purity="5.9855979681015015e-01" nType="0">
        <Node pos="l" depth="1" NCoef="0" IVar="-1" Cut="0.0000000000000000e+00" cType="1" res="-3.2111263863043860e-05" rms="3.2333835959434509e-01" purity="6.0261505842208862e-01" nType="-99"/>
        <Node pos="r" depth="1" NCoef="0" IVar="2" Cut="2.3382983207702637e+00" cType="0" res="6.9808387197554111e-03" rms="3.6020046472549438e-01" purity="1.7800000309944153e-01" nType="0">
          <Node pos="l" depth="2" NCoef="0" IVar="-1" Cut="0.0000000000000000e+00" cType="1" res="1.1437264271080494e-02" rms="3.8918843865394592e-01" purity="2.3780487477779388e-01" nType="-99"/>
          <Node pos="r" depth="2" NCoef="0" IVar="-1" Cut="0.0000000000000000e+00" cType="1" res="-2.2133511956781149e-03" rms="3.4448078274726868e-01" purity="1.4880952239036560e-01" nType="-99"/>
        </Node>
      </Node>
    </BinaryTree>
    <BinaryTree type="DecisionTree" boostWeight="1.0000000000000000e+00" itree="619">
      <Node pos="s" depth="0" NCoef="0" IVar="2" Cut="1.2363374233245850e+00" cType="1" res="-7.2582736265758285e-07" rms="3.2370963692665100e-01" purity="5.9855979681015015e-01" nType="0">
        <Node pos="l" depth="1" NCoef="0" IVar="-1" Cut="0.0000000000000000e+00" cType="1" res="-1.5076351701281965e-04" rms="3.1763061881065369e-01" purity="6.7695432901382446e-01" nType="-99"/>
        <Node pos="r" depth="1" NCoef="0" IVar="0" Cut="1.0994502902030945e-01" cType="1" res="1.3830626849085093e-03" rms="3.4965056180953979e-01" purity="2.4727804958820343e-01" nType="0">
          <Node pos="l" depth="2" NCoef="0" IVar="-1" Cut="0.0000000000000000e+00" cType="1" res="-7.7790725044906139e-03" rms="4.1993138194084167e-01" purity="7.2448980808258057e-01" nType="-99"/>
          <Node pos="r" depth="2" NCoef="0" IVar="-1" Cut="0.0000000000000000e+00" cType="1" res="2.3848044220358133e-03" rms="3.3734744787216187e-01" purity="1.7383426427841187e-01" nType="-99"/>
        </Node>
      </Node>
    </BinaryTree>
    <BinaryTree type="DecisionTree" boostWeight="1.0000000000000000e+00" itree="620">
      <Node pos="s" depth="0" NCoef="0" IVar="3" Cut="4.2751049995422363e-01" cType="0" res="-5.4521876791113755e-07" rms="3.2369941473007202e-01" purity="5.9855979681015015e-01" nType="0">
        <Node pos="l" depth="1" NCoef="0" IVar="-1" Cut="0.0000000000000000e+00" cType="1" res="1.0607341537252069e-03" rms="3.3470377326011658e-01" purity="8.4197926521301270e-01" nType="-99"/>
        <Node pos="r" depth="1" NCoef="0" IVar="3" Cut="4.2622524499893188e-01" cType="0" res="-1.8724799156188965e-04" rms="3.2283177971839905e-01" purity="5.7973045110702515e-01" nType="0">
          <Node pos="l" depth="2" NCoef="0" IVar="-1" Cut="0.0000000000000000e+00" cType="1" res="-3.0497157946228981e-02" rms="4.1053825616836548e-01" purity="6.8000000715255737e-01" nType="-99"/>
          <Node pos="r" depth="2" NCoef="0" IVar="-1" Cut="0.0000000000000000e+00" cType="1" res="-5.3109674809093121e-06" rms="3.2260295748710632e-01" purity="5.7952368259429932e-01" nType="-99"/>
        </Node>
      </Node>
    </BinaryTree>
    <BinaryTree type="DecisionTree" boostWeight="1.0000000000000000e+00" itree="621">
      <Node pos="s" depth="0" NCoef="0" IVar="0" Cut="6.5842080116271973e-01" cType="1" res="-2.5731267783157818e-07" rms="3.2369446754455566e-01" purity="5.9855979681015015e-01" nType="0">
        <Node pos="l" depth="1" NCoef="0" IVar="-1" Cut="0.0000000000000000e+00" cType="1" res="1.1520212865434587e-04" rms="3.3262580633163452e-01" purity="6.7745697498321533e-01" nType="-99"/>
        <Node pos="r" depth="1" NCoef="0" IVar="3" Cut="3.0551603436470032e-01" cType="0" res="-1.7054118216037750e-03" rms="2.5697672367095947e-01" purity="7.7169016003608704e-02" nType="0">
          <Node pos="l" depth="2" NCoef="0" IVar="-1" Cut="0.0000000000000000e+00" cType="1" res="5.9118005447089672e-03" rms="3.3143019676208496e-01" purity="1.4740565419197083e-01" nType="-99"/>
          <Node pos="r" depth="2" NCoef="0" IVar="-1" Cut="0.0000000000000000e+00" cType="1" res="-2.8737983666360378e-03" rms="2.4463686347007751e-01" purity="6.7296534776687622e-02" nType="-99"/>
        </Node>
      </Node>
    </BinaryTree>
    <BinaryTree type="DecisionTree" boostWeight="1.0000000000000000e+00" itree="622">
      <Node pos="s" depth="0" NCoef="0" IVar="2" Cut="3.0308997631072998e+00" cType="1" res="-4.0634145648255071e-07" rms="3.2369372248649597e-01" purity="5.9855979681015015e-01" nType="0">
        <Node pos="l" depth="1" NCoef="0" IVar="-1" Cut="0.0000000000000000e+00" cType="1" res="3.0568924557883292e-05" rms="3.2359930872917175e-01" purity="6.0254877805709839e-01" nType="-99"/>
        <Node pos="r" depth="1" NCoef="0" IVar="0" Cut="7.6633840799331665e-01" cType="1" res="-6.9661699235439301e-03" rms="3.3354184031486511e-01" purity="1.7283950746059418e-01" nType="0">
          <Node pos="l" depth="2" NCoef="0" IVar="-1" Cut="0.0000000000000000e+00" cType="1" res="5.9398747980594635e-03" rms="3.8883349299430847e-01" purity="2.5748503208160400e-01" nType="-99"/>
          <Node pos="r" depth="2" NCoef="0" IVar="-1" Cut="0.0000000000000000e+00" cType="1" res="-8.9009189978241920e-03" rms="2.9977390170097351e-01" purity="1.2852664291858673e-01" nType="-99"/>
        </Node>
      </Node>
    </BinaryTree>
    <BinaryTree type="DecisionTree" boostWeight="1.0000000000000000e+00" itree="623">
      <Node pos="s" depth="0" NCoef="0" IVar="0" Cut="2.4575212001800537e+00" cType="1" res="-4.4117459196968412e-07" rms="3.2369315624237061e-01" purity="5.9855979681015015e-01" nType="0">
        <Node pos="l" depth="1" NCoef="0" IVar="-1" Cut="0.0000000000000000e+00" cType="1" res="-3.1059506000019610e-05" rms="3.2332152128219604e-01" purity="6.0261505842208862e-01" nType="-99"/>
        <Node pos="r" depth="1" NCoef="0" IVar="2" Cut="1.3615382909774780e+00" cType="1" res="6.7837517708539963e-03" rms="3.6009335517883301e-01" purity="1.7800000309944153e-01" nType="0">
          <Node pos="l" depth="2" NCoef="0" IVar="-1" Cut="0.0000000000000000e+00" cType="1" res="1.2161225080490112e-02" rms="3.7427705526351929e-01" purity="1.8343195319175720e-01" nType="-99"/>
          <Node pos="r" depth="2" NCoef="0" IVar="-1" Cut="0.0000000000000000e+00" cType="1" res="-2.0116062369197607e-03" rms="3.5201627016067505e-01" purity="1.7522658407688141e-01" nType="-99"/>
        </Node>
      </Node>
    </BinaryTree>
    <BinaryTree type="DecisionTree" boostWeight="1.0000000000000000e+00" itree="624">
      <Node pos="s" depth="0" NCoef="0" IVar="0" Cut="9.1829085350036621e-01" cType="1" res="-4.7931632707332028e-07" rms="3.2369187474250793e-01" purity="5.9855979681015015e-01" nType="0">
        <Node pos="l" depth="1" NCoef="0" IVar="-1" Cut="0.0000000000000000e+00" cType="1" res="-8.7834167061373591e-05" rms="3.2753267884254456e-01" purity="6.4393198490142822e-01" nType="-99"/>
        <Node pos="r" depth="1" NCoef="0" IVar="3" Cut="2.4343517422676086e-01" cType="0" res="2.1268718410283327e-03" rms="2.7725264430046082e-01" purity="9.2407710850238800e-02" nType="0">
          <Node pos="l" depth="2" NCoef="0" IVar="-1" Cut="0.0000000000000000e+00" cType="1" res="7.3842476122081280e-03" rms="3.1844678521156311e-01" purity="1.3043478131294250e-01" nType="-99"/>
          <Node pos="r" depth="2" NCoef="0" IVar="-1" Cut="0.0000000000000000e+00" cType="1" res="-4.0866737253963947e-03" rms="2.4707119166851044e-01" purity="6.8112634122371674e-02" nType="-99"/>
        </Node>
      </Node>
    </BinaryTree>
    <BinaryTree type="DecisionTree" boostWeight="1.0000000000000000e+00" itree="625">
      <Node pos="s" depth="0" NCoef="0" IVar="2" Cut="1.7046469449996948e+00" cType="1" res="-7.4736368560479605e-07" rms="3.2368853688240051e-01" purity="5.9855979681015015e-01" nType="0">
        <Node pos="l" depth="1" NCoef="0" IVar="-1" Cut="0.0000000000000000e+00" cType="1" res="1.0134099284186959e-04" rms="3.2211235165596008e-01" purity="6.3696724176406860e-01" nType="-99"/>
        <Node pos="r" depth="1" NCoef="0" IVar="2" Cut="1.7596725225448608e+00" cType="0" res="-2.2147390991449356e-03" rms="3.3957833051681519e-01" purity="2.0069429278373718e-01" nType="0">
          <Node pos="l" depth="2" NCoef="0" IVar="-1" Cut="0.0000000000000000e+00" cType="1" res="7.1340514114126563e-04" rms="3.3895578980445862e-01" purity="2.0233833789825439e-01" nType="-99"/>
          <Node pos="r" depth="2" NCoef="0" IVar="-1" Cut="0.0000000000000000e+00" cType="1" res="-1.7069119960069656e-02" rms="3.4331485629081726e-01" purity="1.8421052396297455e-01" nType="-99"/>
        </Node>
      </Node>
    </BinaryTree>
    <BinaryTree type="DecisionTree" boostWeight="1.0000000000000000e+00" itree="626">
      <Node pos="s" depth="0" NCoef="0" IVar="2" Cut="2.5401113033294678e+00" cType="1" res="-8.7184383801286458e-07" rms="3.2368165254592896e-01" purity="5.9855979681015015e-01" nType="0">
        <Node pos="l" depth="1" NCoef="0" IVar="-1" Cut="0.0000000000000000e+00" cType="1" res="4.8302867071470246e-05" rms="3.2340931892395020e-01" purity="6.0765719413757324e-01" nType="-99"/>
        <Node pos="r" depth="1" NCoef="0" IVar="2" Cut="2.6195185184478760e+00" cType="0" res="-4.7771590761840343e-03" rms="3.3600088953971863e-01" purity="1.7779783904552460e-01" nType="0">
          <Node pos="l" depth="2" NCoef="0" IVar="-1" Cut="0.0000000000000000e+00" cType="1" res="1.3112606247887015e-03" rms="3.4326902031898499e-01" purity="1.8762886524200439e-01" nType="-99"/>
          <Node pos="r" depth="2" NCoef="0" IVar="-1" Cut="0.0000000000000000e+00" cType="1" res="-2.7387559413909912e-02" rms="2.7324783802032471e-01" purity="1.0869564861059189e-01" nType="-99"/>
        </Node>
      </Node>
    </BinaryTree>
    <BinaryTree type="DecisionTree" boostWeight="1.0000000000000000e+00" itree="627">
      <Node pos="s" depth="0" NCoef="0" IVar="2" Cut="3.0308997631072998e+00" cType="1" res="-1.0258137308483128e-06" rms="3.2367840409278870e-01" purity="5.9855979681015015e-01" nType="0">
        <Node pos="l" depth="1" NCoef="0" IVar="-1" Cut="0.0000000000000000e+00" cType="1" res="3.2631262001814321e-05" rms="3.2358458638191223e-01" purity="6.0254877805709839e-01" nType="-99"/>
        <Node pos="r" depth="1" NCoef="0" IVar="2" Cut="3.2768650054931641e+00" cType="0" res="-7.4994717724621296e-03" rms="3.3345499634742737e-01" purity="1.7283950746059418e-01" nType="0">
          <Node pos="l" depth="2" NCoef="0" IVar="-1" Cut="0.0000000000000000e+00" cType="1" res="2.1088444627821445e-03" rms="3.6445081233978271e-01" purity="2.1812079846858978e-01" nType="-99"/>
          <Node pos="r" depth="2" NCoef="0" IVar="-1" Cut="0.0000000000000000e+00" cType="1" res="-1.4534730464220047e-02" rms="2.7599030733108521e-01" purity="1.0106383264064789e-01" nType="-99"/>
        </Node>
      </Node>
    </BinaryTree>
    <BinaryTree type="DecisionTree" boostWeight="1.0000000000000000e+00" itree="628">
      <Node pos="s" depth="0" NCoef="0" IVar="2" Cut="3.4542517662048340e+00" cType="1" res="-1.0184389793721493e-06" rms="3.2367736101150513e-01" purity="5.9855979681015015e-01" nType="0">
        <Node pos="l" depth="1" NCoef="0" IVar="-1" Cut="0.0000000000000000e+00" cType="1" res="2.2460655600298196e-05" rms="3.2352221012115479e-01" purity="6.0029160976409912e-01" nType="-99"/>
        <Node pos="r" depth="1" NCoef="0" IVar="3" Cut="3.2233086228370667e-01" cType="0" res="-1.1228356510400772e-02" rms="3.5749462246894836e-01" purity="1.9911503791809082e-01" nType="0">
          <Node pos="l" depth="2" NCoef="0" IVar="-1" Cut="0.0000000000000000e+00" cType="1" res="-9.5789832994341850e-03" rms="3.7665939331054688e-01" purity="2.5471699237823486e-01" nType="-99"/>
          <Node pos="r" depth="2" NCoef="0" IVar="-1" Cut="0.0000000000000000e+00" cType="1" res="3.4437756985425949e-03" rms="3.3852231502532959e-01" purity="1.5000000596046448e-01" nType="-99"/>
        </Node>
      </Node>
    </BinaryTree>
    <BinaryTree type="DecisionTree" boostWeight="1.0000000000000000e+00" itree="629">
      <Node pos="s" depth="0" NCoef="0" IVar="2" Cut="3.4542517662048340e+00" cType="1" res="-9.4247621973408968e-07" rms="3.2367700338363647e-01" purity="5.9855979681015015e-01" nType="0">
        <Node pos="l" depth="1" NCoef="0" IVar="-1" Cut="0.0000000000000000e+00" cType="1" res="2.0214469259371981e-05" rms="3.2352221012115479e-01" purity="6.0029160976409912e-01" nType="-99"/>
        <Node pos="r" depth="1" NCoef="0" IVar="0" Cut="1.3857963085174561e+00" cType="1" res="-1.0111395269632339e-02" rms="3.5744997859001160e-01" purity="1.9911503791809082e-01" nType="0">
          <Node pos="l" depth="2" NCoef="0" IVar="-1" Cut="0.0000000000000000e+00" cType="1" res="3.4794653765857220e-03" rms="3.6413770914077759e-01" purity="2.1848739683628082e-01" nType="-99"/>
          <Node pos="r" depth="2" NCoef="0" IVar="-1" Cut="0.0000000000000000e+00" cType="1" res="-1.1136780492961407e-02" rms="3.4855565428733826e-01" purity="1.7757008969783783e-01" nType="-99"/>
        </Node>
      </Node>
    </BinaryTree>
    <BinaryTree type="DecisionTree" boostWeight="1.0000000000000000e+00" itree="630">
      <Node pos="s" depth="0" NCoef="0" IVar="2" Cut="1.2363374233245850e+00" cType="1" res="-8.8551246335555334e-07" rms="3.2367619872093201e-01" purity="5.9855979681015015e-01" nType="0">
        <Node pos="l" depth="1" NCoef="0" IVar="-1" Cut="0.0000000000000000e+00" cType="1" res="-1.5199926565401256e-04" rms="3.1762841343879700e-01" purity="6.7695432901382446e-01" nType="-99"/>
        <Node pos="r" depth="1" NCoef="0" IVar="0" Cut="8.6206898093223572e-02" cType="1" res="1.3931428547948599e-03" rms="3.4948983788490295e-01" purity="2.4727804958820343e-01" nType="0">
          <Node pos="l" depth="2" NCoef="0" IVar="-1" Cut="0.0000000000000000e+00" cType="1" res="-8.7233865633606911e-03" rms="4.0815553069114685e-01" purity="7.4186992645263672e-01" nType="-99"/>
          <Node pos="r" depth="2" NCoef="0" IVar="-1" Cut="0.0000000000000000e+00" cType="1" res="1.9639914389699697e-03" rms="3.4195739030838013e-01" purity="1.9047619402408600e-01" nType="-99"/>
        </Node>
      </Node>
    </BinaryTree>
    <BinaryTree type="DecisionTree" boostWeight="1.0000000000000000e+00" itree="631">
      <Node pos="s" depth="0" NCoef="0" IVar="0" Cut="9.4952523708343506e-02" cType="1" res="-6.5341509980498813e-07" rms="3.2366758584976196e-01" purity="5.9855979681015015e-01" nType="0">
        <Node pos="l" depth="1" NCoef="0" IVar="-1" Cut="0.0000000000000000e+00" cType="1" res="3.3924440504051745e-04" rms="2.9996350407600403e-01" purity="8.8115000724792480e-01" nType="-99"/>
        <Node pos="r" depth="1" NCoef="0" IVar="0" Cut="9.8583877086639404e-02" cType="1" res="-8.4064988186582923e-04" rms="3.5325393080711365e-01" purity="2.1568010747432709e-01" nType="0">
          <Node pos="l" depth="2" NCoef="0" IVar="-1" Cut="0.0000000000000000e+00" cType="1" res="-9.9206343293190002e-03" rms="4.5086488127708435e-01" purity="6.2807017564773560e-01" nType="-99"/>
          <Node pos="r" depth="2" NCoef="0" IVar="-1" Cut="0.0000000000000000e+00" cType="1" res="-1.3295287499204278e-04" rms="3.5177984833717346e-01" purity="2.1032486855983734e-01" nType="-99"/>
        </Node>
      </Node>
    </BinaryTree>
    <BinaryTree type="DecisionTree" boostWeight="1.0000000000000000e+00" itree="632">
      <Node pos="s" depth="0" NCoef="0" IVar="3" Cut="4.0327405929565430e-01" cType="0" res="-5.1291459612912149e-07" rms="3.2366517186164856e-01" purity="5.9855979681015015e-01" nType="0">
        <Node pos="l" depth="1" NCoef="0" IVar="-1" Cut="0.0000000000000000e+00" cType="1" res="8.2402105908840895e-04" rms="3.4807255864143372e-01" purity="8.1618291139602661e-01" nType="-99"/>
        <Node pos="r" depth="1" NCoef="0" IVar="3" Cut="4.0045061707496643e-01" cType="0" res="-2.4320113880094141e-04" rms="3.2056421041488647e-01" purity="5.7204997539520264e-01" nType="0">
          <Node pos="l" depth="2" NCoef="0" IVar="-1" Cut="0.0000000000000000e+00" cType="1" res="-1.6962561756372452e-02" rms="4.0284648537635803e-01" purity="7.1367520093917847e-01" nType="-99"/>
          <Node pos="r" depth="2" NCoef="0" IVar="-1" Cut="0.0000000000000000e+00" cType="1" res="-5.0934322644025087e-06" rms="3.2007914781570435e-01" purity="5.7133626937866211e-01" nType="-99"/>
        </Node>
      </Node>
    </BinaryTree>
    <BinaryTree type="DecisionTree" boostWeight="1.0000000000000000e+00" itree="633">
      <Node pos="s" depth="0" NCoef="0" IVar="0" Cut="1.2493752874433994e-03" cType="1" res="-3.1865661753727181e-07" rms="3.2366225123405457e-01" purity="5.9855979681015015e-01" nType="0">
        <Node pos="l" depth="1" NCoef="0" IVar="-1" Cut="0.0000000000000000e+00" cType="1" res="-6.1352364718914032e-04" rms="2.7215954661369324e-01" purity="9.0791207551956177e-01" nType="-99"/>
        <Node pos="r" depth="1" NCoef="0" IVar="3" Cut="4.0249881148338318e-01" cType="0" res="4.5387243153527379e-04" rms="3.4651178121566772e-01" purity="4.4418039917945862e-01" nType="0">
          <Node pos="l" depth="2" NCoef="0" IVar="-1" Cut="0.0000000000000000e+00" cType="1" res="4.1915476322174072e-03" rms="3.9931666851043701e-01" purity="6.8990558385848999e-01" nType="-99"/>
          <Node pos="r" depth="2" NCoef="0" IVar="-1" Cut="0.0000000000000000e+00" cType="1" res="-3.2267882488667965e-05" rms="3.4416088461875916e-01" purity="4.3409442901611328e-01" nType="-99"/>
        </Node>
      </Node>
    </BinaryTree>
    <BinaryTree type="DecisionTree" boostWeight="1.0000000000000000e+00" itree="634">
      <Node pos="s" depth="0" NCoef="0" IVar="0" Cut="9.4952523708343506e-02" cType="1" res="-2.3379705282877694e-07" rms="3.2366141676902771e-01" purity="5.9855979681015015e-01" nType="0">
        <Node pos="l" depth="1" NCoef="0" IVar="-1" Cut="0.0000000000000000e+00" cType="1" res="3.1083045178093016e-04" rms="2.9996004700660706e-01" purity="8.8115000724792480e-01" nType="-99"/>
        <Node pos="r" depth="1" NCoef="0" IVar="1" Cut="6.6216893494129181e-02" cType="1" res="-7.6917448313906789e-04" rms="3.5324490070343018e-01" purity="2.1568010747432709e-01" nType="0">
          <Node pos="l" depth="2" NCoef="0" IVar="-1" Cut="0.0000000000000000e+00" cType="1" res="-2.0152882207185030e-03" rms="3.8604548573493958e-01" purity="3.0815812945365906e-01" nType="-99"/>
          <Node pos="r" depth="2" NCoef="0" IVar="-1" Cut="0.0000000000000000e+00" cType="1" res="1.2649919372051954e-03" rms="3.3016115427017212e-01" purity="1.5563797950744629e-01" nType="-99"/>
        </Node>
      </Node>
    </BinaryTree>
    <BinaryTree type="DecisionTree" boostWeight="1.0000000000000000e+00" itree="635">
      <Node pos="s" depth="0" NCoef="0" IVar="1" Cut="4.4977512210607529e-02" cType="1" res="-2.9058193717901304e-07" rms="3.2365897297859192e-01" purity="5.9855979681015015e-01" nType="0">
        <Node pos="l" depth="1" NCoef="0" IVar="-1" Cut="0.0000000000000000e+00" cType="1" res="3.9917157846502960e-04" rms="3.0193170905113220e-01" purity="7.4969816207885742e-01" nType="-99"/>
        <Node pos="r" depth="1" NCoef="0" IVar="0" Cut="2.2238880395889282e-01" cType="1" res="-7.7377376146614552e-04" rms="3.4451448917388916e-01" purity="4.4359767436981201e-01" nType="0">
          <Node pos="l" depth="2" NCoef="0" IVar="-1" Cut="0.0000000000000000e+00" cType="1" res="-1.3463594950735569e-03" rms="3.8191169500350952e-01" purity="7.1382123231887817e-01" nType="-99"/>
          <Node pos="r" depth="2" NCoef="0" IVar="-1" Cut="0.0000000000000000e+00" cType="1" res="1.9260232802480459e-03" rms="2.9016327857971191e-01" purity="1.0075478255748749e-01" nType="-99"/>
        </Node>
      </Node>
    </BinaryTree>
    <BinaryTree type="DecisionTree" boostWeight="1.0000000000000000e+00" itree="636">
      <Node pos="s" depth="0" NCoef="0" IVar="0" Cut="6.5842080116271973e-01" cType="1" res="-3.1523737220595649e-07" rms="3.2365474104881287e-01" purity="5.9855979681015015e-01" nType="0">
        <Node pos="l" depth="1" NCoef="0" IVar="-1" Cut="0.0000000000000000e+00" cType="1" res="1.3154455518815666e-04" rms="3.3259302377700806e-01" purity="6.7745697498321533e-01" nType="-99"/>
        <Node pos="r" depth="1" NCoef="0" IVar="2" Cut="9.1414034366607666e-01" cType="0" res="-1.9487058743834496e-03" rms="2.5687450170516968e-01" purity="7.7169016003608704e-02" nType="0">
          <Node pos="l" depth="2" NCoef="0" IVar="-1" Cut="0.0000000000000000e+00" cType="1" res="-3.6866937298327684e-03" rms="2.5733998417854309e-01" purity="7.9158939421176910e-02" nType="-99"/>
          <Node pos="r" depth="2" NCoef="0" IVar="-1" Cut="0.0000000000000000e+00" cType="1" res="5.2271601743996143e-03" rms="2.5556993484497070e-01" purity="7.2413794696331024e-02" nType="-99"/>
        </Node>
      </Node>
    </BinaryTree>
    <BinaryTree type="DecisionTree" boostWeight="1.0000000000000000e+00" itree="637">
      <Node pos="s" depth="0" NCoef="0" IVar="0" Cut="4.7851073741912842e-01" cType="1" res="-5.3155423529460677e-07" rms="3.2365491986274719e-01" purity="5.9855979681015015e-01" nType="0">
        <Node pos="l" depth="1" NCoef="0" IVar="-1" Cut="0.0000000000000000e+00" cType="1" res="1.4255559653975070e-04" rms="3.3689549565315247e-01" purity="7.1715843677520752e-01" nType="-99"/>
        <Node pos="r" depth="1" NCoef="0" IVar="3" Cut="3.0605003237724304e-01" cType="0" res="-1.4450140297412872e-03" rms="2.5734671950340271e-01" purity="7.6184578239917755e-02" nType="0">
          <Node pos="l" depth="2" NCoef="0" IVar="-1" Cut="0.0000000000000000e+00" cType="1" res="5.5777560919523239e-03" rms="3.2944694161415100e-01" purity="1.3814015686511993e-01" nType="-99"/>
          <Node pos="r" depth="2" NCoef="0" IVar="-1" Cut="0.0000000000000000e+00" cType="1" res="-3.0168367084115744e-03" rms="2.4194572865962982e-01" purity="6.4976230263710022e-02" nType="-99"/>
        </Node>
      </Node>
    </BinaryTree>
    <BinaryTree type="DecisionTree" boostWeight="1.0000000000000000e+00" itree="638">
      <Node pos="s" depth="0" NCoef="0" IVar="3" Cut="2.6060399413108826e-01" cType="1" res="-7.4820570716838120e-07" rms="3.2365354895591736e-01" purity="5.9855979681015015e-01" nType="0">
        <Node pos="l" depth="1" NCoef="0" IVar="-1" Cut="0.0000000000000000e+00" cType="1" res="3.9043315337039530e-04" rms="2.8260394930839539e-01" purity="6.1518114805221558e-01" nType="-99"/>
        <Node pos="r" depth="1" NCoef="0" IVar="0" Cut="1.0644677877426147e+00" cType="1" res="-7.0456683170050383e-04" rms="3.6290305852890015e-01" purity="5.8056175708770752e-01" nType="0">
          <Node pos="l" depth="2" NCoef="0" IVar="-1" Cut="0.0000000000000000e+00" cType="1" res="-5.2889983635395765e-04" rms="3.6348548531532288e-01" purity="5.9604668617248535e-01" nType="-99"/>
          <Node pos="r" depth="2" NCoef="0" IVar="-1" Cut="0.0000000000000000e+00" cType="1" res="7.9277371987700462e-03" rms="3.4639191627502441e-01" purity="1.6500553488731384e-01" nType="-99"/>
        </Node>
      </Node>
    </BinaryTree>
    <BinaryTree type="DecisionTree" boostWeight="1.0000000000000000e+00" itree="639">
      <Node pos="s" depth="0" NCoef="0" IVar="2" Cut="3.4542517662048340e+00" cType="1" res="-8.1402549767517485e-07" rms="3.2365036010742188e-01" purity="5.9855979681015015e-01" nType="0">
        <Node pos="l" depth="1" NCoef="0" IVar="-1" Cut="0.0000000000000000e+00" cType="1" res="2.1902633307036012e-05" rms="3.2349580526351929e-01" purity="6.0029160976409912e-01" nType="-99"/>
        <Node pos="r" depth="1" NCoef="0" IVar="3" Cut="3.2233086228370667e-01" cType="0" res="-1.0915987193584442e-02" rms="3.5734802484512329e-01" purity="1.9911503791809082e-01" nType="0">
          <Node pos="l" depth="2" NCoef="0" IVar="-1" Cut="0.0000000000000000e+00" cType="1" res="-9.3365693464875221e-03" rms="3.7658634781837463e-01" purity="2.5471699237823486e-01" nType="-99"/>
          <Node pos="r" depth="2" NCoef="0" IVar="-1" Cut="0.0000000000000000e+00" cType="1" res="3.3723276574164629e-03" rms="3.3835807442665100e-01" purity="1.5000000596046448e-01" nType="-99"/>
        </Node>
      </Node>
    </BinaryTree>
    <BinaryTree type="DecisionTree" boostWeight="1.0000000000000000e+00" itree="640">
      <Node pos="s" depth="0" NCoef="0" IVar="0" Cut="6.5842080116271973e-01" cType="1" res="-7.5660983611669508e-07" rms="3.2365000247955322e-01" purity="5.9855979681015015e-01" nType="0">
        <Node pos="l" depth="1" NCoef="0" IVar="-1" Cut="0.0000000000000000e+00" cType="1" res="1.2147016241215169e-04" rms="3.3259153366088867e-01" purity="6.7745697498321533e-01" nType="-99"/>
        <Node pos="r" depth="1" NCoef="0" IVar="2" Cut="1.4049288034439087e+00" cType="0" res="-1.8027338664978743e-03" rms="2.5684303045272827e-01" purity="7.7169016003608704e-02" nType="0">
          <Node pos="l" depth="2" NCoef="0" IVar="-1" Cut="0.0000000000000000e+00" cType="1" res="-4.8100030981004238e-03" rms="2.6385107636451721e-01" purity="8.5556276142597198e-02" nType="-99"/>
          <Node pos="r" depth="2" NCoef="0" IVar="-1" Cut="0.0000000000000000e+00" cType="1" res="2.3487950675189495e-03" rms="2.5094372034072876e-01" purity="7.0396639406681061e-02" nType="-99"/>
        </Node>
      </Node>
    </BinaryTree>
    <BinaryTree type="DecisionTree" boostWeight="1.0000000000000000e+00" itree="641">
      <Node pos="s" depth="0" NCoef="0" IVar="2" Cut="1.2363374233245850e+00" cType="1" res="-8.7932824044401059e-07" rms="3.2365012168884277e-01" purity="5.9855979681015015e-01" nType="0">
        <Node pos="l" depth="1" NCoef="0" IVar="-1" Cut="0.0000000000000000e+00" cType="1" res="-1.5554747369606048e-04" rms="3.1761270761489868e-01" purity="6.7695432901382446e-01" nType="-99"/>
        <Node pos="r" depth="1" NCoef="0" IVar="0" Cut="8.6206898093223572e-02" cType="1" res="1.4263148186728358e-03" rms="3.4942117333412170e-01" purity="2.4727804958820343e-01" nType="0">
          <Node pos="l" depth="2" NCoef="0" IVar="-1" Cut="0.0000000000000000e+00" cType="1" res="-7.9516610130667686e-03" rms="4.0812596678733826e-01" purity="7.4186992645263672e-01" nType="-99"/>
          <Node pos="r" depth="2" NCoef="0" IVar="-1" Cut="0.0000000000000000e+00" cType="1" res="1.8703694222494960e-03" rms="3.4190571308135986e-01" purity="1.9047619402408600e-01" nType="-99"/>
        </Node>
      </Node>
    </BinaryTree>
    <BinaryTree type="DecisionTree" boostWeight="1.0000000000000000e+00" itree="642">
      <Node pos="s" depth="0" NCoef="0" IVar="0" Cut="9.4952523708343506e-02" cType="1" res="-6.7723840402322821e-07" rms="3.2364249229431152e-01" purity="5.9855979681015015e-01" nType="0">
        <Node pos="l" depth="1" NCoef="0" IVar="-1" Cut="0.0000000000000000e+00" cType="1" res="3.5788639797829092e-04" rms="2.9994884133338928e-01" purity="8.8115000724792480e-01" nType="-99"/>
        <Node pos="r" depth="1" NCoef="0" IVar="2" Cut="5.6197155267000198e-02" cType="1" res="-8.8671158300712705e-04" rms="3.5321643948554993e-01" purity="2.1568010747432709e-01" nType="0">
          <Node pos="l" depth="2" NCoef="0" IVar="-1" Cut="0.0000000000000000e+00" cType="1" res="1.4319114387035370e-02" rms="3.9851370453834534e-01" purity="3.5483869910240173e-01" nType="-99"/>
          <Node pos="r" depth="2" NCoef="0" IVar="-1" Cut="0.0000000000000000e+00" cType="1" res="-5.1568215712904930e-04" rms="3.5271546244621277e-01" purity="2.1430842578411102e-01" nType="-99"/>
        </Node>
      </Node>
    </BinaryTree>
    <BinaryTree type="DecisionTree" boostWeight="1.0000000000000000e+00" itree="643">
      <Node pos="s" depth="0" NCoef="0" IVar="2" Cut="2.9222521185874939e-01" cType="1" res="-6.6131116227552411e-07" rms="3.2364141941070557e-01" purity="5.9855979681015015e-01" nType="0">
        <Node pos="l" depth="1" NCoef="0" IVar="-1" Cut="0.0000000000000000e+00" cType="1" res="-6.2225601868703961e-04" rms="2.7590185403823853e-01" purity="8.4798938035964966e-01" nType="-99"/>
        <Node pos="r" depth="1" NCoef="0" IVar="3" Cut="1.7966404557228088e-01" cType="0" res="5.0372252007946372e-04" rms="3.4622555971145630e-01" purity="4.6671533584594727e-01" nType="0">
          <Node pos="l" depth="2" NCoef="0" IVar="-1" Cut="0.0000000000000000e+00" cType="1" res="-9.2721593318856321e-06" rms="3.4974175691604614e-01" purity="4.8694244027137756e-01" nType="-99"/>
          <Node pos="r" depth="2" NCoef="0" IVar="-1" Cut="0.0000000000000000e+00" cType="1" res="4.9512637779116631e-03" rms="2.8770110011100769e-01" purity="1.6062176227569580e-01" nType="-99"/>
        </Node>
      </Node>
    </BinaryTree>
    <BinaryTree type="DecisionTree" boostWeight="1.0000000000000000e+00" itree="644">
      <Node pos="s" depth="0" NCoef="0" IVar="0" Cut="9.4952523708343506e-02" cType="1" res="-6.7404914716462372e-07" rms="3.2363778352737427e-01" purity="5.9855979681015015e-01" nType="0">
        <Node pos="l" depth="1" NCoef="0" IVar="-1" Cut="0.0000000000000000e+00" cType="1" res="3.4621974918991327e-04" rms="2.9994791746139526e-01" purity="8.8115000724792480e-01" nType="-99"/>
        <Node pos="r" depth="1" NCoef="0" IVar="2" Cut="1.0078022480010986e+00" cType="1" res="-8.5775658953934908e-04" rms="3.5320749878883362e-01" purity="2.1568010747432709e-01" nType="0">
          <Node pos="l" depth="2" NCoef="0" IVar="-1" Cut="0.0000000000000000e+00" cType="1" res="-1.8356177024543285e-03" rms="3.6274293065071106e-01" purity="2.4024434387683868e-01" nType="-99"/>
          <Node pos="r" depth="2" NCoef="0" IVar="-1" Cut="0.0000000000000000e+00" cType="1" res="1.2802034616470337e-03" rms="3.4362280368804932e-01" purity="1.9176135957241058e-01" nType="-99"/>
        </Node>
      </Node>
    </BinaryTree>
    <BinaryTree type="DecisionTree" boostWeight="1.0000000000000000e+00" itree="645">
      <Node pos="s" depth="0" NCoef="0" IVar="0" Cut="4.7851073741912842e-01" cType="1" res="-6.9198688379401574e-07" rms="3.2363346219062805e-01" purity="5.9855979681015015e-01" nType="0">
        <Node pos="l" depth="1" NCoef="0" IVar="-1" Cut="0.0000000000000000e+00" cType="1" res="1.5270541189238429e-04" rms="3.3687636256217957e-01" purity="7.1715843677520752e-01" nType="-99"/>
        <Node pos="r" depth="1" NCoef="0" IVar="1" Cut="1.2868565320968628e-01" cType="0" res="-1.5484415926039219e-03" rms="2.5731045007705688e-01" purity="7.6184578239917755e-02" nType="0">
          <Node pos="l" depth="2" NCoef="0" IVar="-1" Cut="0.0000000000000000e+00" cType="1" res="1.8755305791273713e-03" rms="2.6671779155731201e-01" purity="8.3585098385810852e-02" nType="-99"/>
          <Node pos="r" depth="2" NCoef="0" IVar="-1" Cut="0.0000000000000000e+00" cType="1" res="-6.2681934796273708e-03" rms="2.4136884510517120e-01" purity="6.4360417425632477e-02" nType="-99"/>
        </Node>
      </Node>
    </BinaryTree>
    <BinaryTree type="DecisionTree" boostWeight="1.0000000000000000e+00" itree="646">
      <Node pos="s" depth="0" NCoef="0" IVar="1" Cut="4.4977512210607529e-02" cType="1" res="-9.6946007488440955e-07" rms="3.2363155484199524e-01" purity="5.9855979681015015e-01" nType="0">
        <Node pos="l" depth="1" NCoef="0" IVar="-1" Cut="0.0000000000000000e+00" cType="1" res="3.8053267053328454e-04" rms="3.0191761255264282e-01" purity="7.4969816207885742e-01" nType="-99"/>
        <Node pos="r" depth="1" NCoef="0" IVar="0" Cut="2.2238880395889282e-01" cType="1" res="-7.3817343218252063e-04" rms="3.4447506070137024e-01" purity="4.4359767436981201e-01" nType="0">
          <Node pos="l" depth="2" NCoef="0" IVar="-1" Cut="0.0000000000000000e+00" cType="1" res="-1.2183272046968341e-03" rms="3.8188514113426208e-01" purity="7.1382123231887817e-01" nType="-99"/>
          <Node pos="r" depth="2" NCoef="0" IVar="-1" Cut="0.0000000000000000e+00" cType="1" res="1.6871992265805602e-03" rms="2.9011136293411255e-01" purity="1.0075478255748749e-01" nType="-99"/>
        </Node>
      </Node>
    </BinaryTree>
    <BinaryTree type="DecisionTree" boostWeight="1.0000000000000000e+00" itree="647">
      <Node pos="s" depth="0" NCoef="0" IVar="0" Cut="1.6116940975189209e-01" cType="1" res="-9.1110354105694569e-07" rms="3.2362800836563110e-01" purity="5.9855979681015015e-01" nType="0">
        <Node pos="l" depth="1" NCoef="0" IVar="-1" Cut="0.0000000000000000e+00" cType="1" res="2.7454359224066138e-04" rms="3.2285556197166443e-01" purity="8.4581202268600464e-01" nType="-99"/>
        <Node pos="r" depth="1" NCoef="0" IVar="3" Cut="3.9234051108360291e-01" cType="0" res="-1.0736826807260513e-03" rms="3.2504874467849731e-01" purity="1.4138005673885345e-01" nType="0">
          <Node pos="l" depth="2" NCoef="0" IVar="-1" Cut="0.0000000000000000e+00" cType="1" res="1.3027216307818890e-02" rms="4.6291521191596985e-01" purity="3.5326087474822998e-01" nType="-99"/>
          <Node pos="r" depth="2" NCoef="0" IVar="-1" Cut="0.0000000000000000e+00" cType="1" res="-1.0006281081587076e-03" rms="3.2152989506721497e-01" purity="1.3705019652843475e-01" nType="-99"/>
        </Node>
      </Node>
    </BinaryTree>
    <BinaryTree type="DecisionTree" boostWeight="1.0000000000000000e+00" itree="648">
      <Node pos="s" depth="0" NCoef="0" IVar="2" Cut="1.7046469449996948e+00" cType="1" res="-1.0118403679371113e-06" rms="3.2362389564514160e-01" purity="5.9855979681015015e-01" nType="0">
        <Node pos="l" depth="1" NCoef="0" IVar="-1" Cut="0.0000000000000000e+00" cType="1" res="1.0693937656469643e-04" rms="3.2206463813781738e-01" purity="6.3696724176406860e-01" nType="-99"/>
        <Node pos="r" depth="1" NCoef="0" IVar="3" Cut="4.2406514286994934e-01" cType="0" res="-2.3402529768645763e-03" rms="3.3934652805328369e-01" purity="2.0069429278373718e-01" nType="0">
          <Node pos="l" depth="2" NCoef="0" IVar="-1" Cut="0.0000000000000000e+00" cType="1" res="-2.0427195355296135e-02" rms="4.5006155967712402e-01" purity="5.7142859697341919e-01" nType="-99"/>
          <Node pos="r" depth="2" NCoef="0" IVar="-1" Cut="0.0000000000000000e+00" cType="1" res="-2.0061719988007098e-04" rms="3.3571451902389526e-01" purity="1.9086860120296478e-01" nType="-99"/>
        </Node>
      </Node>
    </BinaryTree>
    <BinaryTree type="DecisionTree" boostWeight="1.0000000000000000e+00" itree="649">
      <Node pos="s" depth="0" NCoef="0" IVar="1" Cut="4.1854071617126465e-01" cType="1" res="-8.2162858916490222e-07" rms="3.2362011075019836e-01" purity="5.9855979681015015e-01" nType="0">
        <Node pos="l" depth="1" NCoef="0" IVar="-1" Cut="0.0000000000000000e+00" cType="1" res="1.1840469232993200e-04" rms="3.2267245650291443e-01" purity="6.5104132890701294e-01" nType="-99"/>
        <Node pos="r" depth="1" NCoef="0" IVar="2" Cut="3.8214063644409180e-01" cType="1" res="-2.0826796535402536e-03" rms="3.3136531710624695e-01" purity="1.6344277560710907e-01" nType="0">
          <Node pos="l" depth="2" NCoef="0" IVar="-1" Cut="0.0000000000000000e+00" cType="1" res="-7.7546155080199242e-03" rms="3.8428553938865662e-01" purity="2.7246093750000000e-01" nType="-99"/>
          <Node pos="r" depth="2" NCoef="0" IVar="-1" Cut="0.0000000000000000e+00" cType="1" res="1.2628192780539393e-03" rms="3.1823202967643738e-01" purity="1.3923227787017822e-01" nType="-99"/>
        </Node>
      </Node>
    </BinaryTree>
    <BinaryTree type="DecisionTree" boostWeight="1.0000000000000000e+00" itree="650">
      <Node pos="s" depth="0" NCoef="0" IVar="0" Cut="6.5842080116271973e-01" cType="1" res="-8.2640298160185921e-07" rms="3.2361525297164917e-01" purity="5.9855979681015015e-01" nType="0">
        <Node pos="l" depth="1" NCoef="0" IVar="-1" Cut="0.0000000000000000e+00" cType="1" res="1.2909164070151746e-04" rms="3.3255556225776672e-01" purity="6.7745697498321533e-01" nType="-99"/>
        <Node pos="r" depth="1" NCoef="0" IVar="2" Cut="1.4049288034439087e+00" cType="0" res="-1.9155821064487100e-03" rms="2.5681671500205994e-01" purity="7.7169016003608704e-02" nType="0">
          <Node pos="l" depth="2" NCoef="0" IVar="-1" Cut="0.0000000000000000e+00" cType="1" res="-4.6832035295665264e-03" rms="2.6382663846015930e-01" purity="8.5556276142597198e-02" nType="-99"/>
          <Node pos="r" depth="2" NCoef="0" IVar="-1" Cut="0.0000000000000000e+00" cType="1" res="2.0286741200834513e-03" rms="2.5092664361000061e-01" purity="7.0396639406681061e-02" nType="-99"/>
        </Node>
      </Node>
    </BinaryTree>
    <BinaryTree type="DecisionTree" boostWeight="1.0000000000000000e+00" itree="651">
      <Node pos="s" depth="0" NCoef="0" IVar="0" Cut="1.6116940975189209e-01" cType="1" res="-9.2351018565750564e-07" rms="3.2361546158790588e-01" purity="5.9855979681015015e-01" nType="0">
        <Node pos="l" depth="1" NCoef="0" IVar="-1" Cut="0.0000000000000000e+00" cType="1" res="2.4618880706839263e-04" rms="3.2284271717071533e-01" purity="8.4581202268600464e-01" nType="-99"/>
        <Node pos="r" depth="1" NCoef="0" IVar="3" Cut="4.0016287565231323e-01" cType="0" res="-9.6252403454855084e-04" rms="3.2503733038902283e-01" purity="1.4138005673885345e-01" nType="0">
          <Node pos="l" depth="2" NCoef="0" IVar="-1" Cut="0.0000000000000000e+00" cType="1" res="1.4225193299353123e-02" rms="4.6431457996368408e-01" purity="3.5849055647850037e-01" nType="-99"/>
          <Node pos="r" depth="2" NCoef="0" IVar="-1" Cut="0.0000000000000000e+00" cType="1" res="-8.3406298654153943e-04" rms="3.2248172163963318e-01" purity="1.3820330798625946e-01" nType="-99"/>
        </Node>
      </Node>
    </BinaryTree>
    <BinaryTree type="DecisionTree" boostWeight="1.0000000000000000e+00" itree="652">
      <Node pos="s" depth="0" NCoef="0" IVar="3" Cut="3.1557321548461914e-01" cType="0" res="-9.8804741810454288e-07" rms="3.2361230254173279e-01" purity="5.9855979681015015e-01" nType="0">
        <Node pos="l" depth="1" NCoef="0" IVar="-1" Cut="0.0000000000000000e+00" cType="1" res="-3.8992534973658621e-04" rms="3.7131807208061218e-01" purity="6.7276829481124878e-01" nType="-99"/>
        <Node pos="r" depth="1" NCoef="0" IVar="3" Cut="3.1494051218032837e-01" cType="1" res="4.8434169730171561e-04" rms="2.9936087131500244e-01" purity="5.6474351882934570e-01" nType="0">
          <Node pos="l" depth="2" NCoef="0" IVar="-1" Cut="0.0000000000000000e+00" cType="1" res="1.6190526366699487e-04" rms="2.9924169182777405e-01" purity="5.6481480598449707e-01" nType="-99"/>
          <Node pos="r" depth="2" NCoef="0" IVar="-1" Cut="0.0000000000000000e+00" cType="1" res="2.3107873275876045e-02" rms="3.3067750930786133e-01" purity="5.4128438234329224e-01" nType="-99"/>
        </Node>
      </Node>
    </BinaryTree>
    <BinaryTree type="DecisionTree" boostWeight="1.0000000000000000e+00" itree="653">
      <Node pos="s" depth="0" NCoef="0" IVar="3" Cut="3.0407965183258057e-01" cType="0" res="-9.0034882305189967e-07" rms="3.2360786199569702e-01" purity="5.9855979681015015e-01" nType="0">
        <Node pos="l" depth="1" NCoef="0" IVar="-1" Cut="0.0000000000000000e+00" cType="1" res="-3.3853831700980663e-04" rms="3.7015777826309204e-01" purity="6.5125590562820435e-01" nType="-99"/>
        <Node pos="r" depth="1" NCoef="0" IVar="3" Cut="3.0314764380455017e-01" cType="1" res="4.9051083624362946e-04" rms="2.9574108123779297e-01" purity="5.7039856910705566e-01" nType="0">
          <Node pos="l" depth="2" NCoef="0" IVar="-1" Cut="0.0000000000000000e+00" cType="1" res="9.8655291367322206e-05" rms="2.9533579945564270e-01" purity="5.7054132223129272e-01" nType="-99"/>
          <Node pos="r" depth="2" NCoef="0" IVar="-1" Cut="0.0000000000000000e+00" cType="1" res="2.9632274061441422e-02" rms="3.7093263864517212e-01" purity="5.3741496801376343e-01" nType="-99"/>
        </Node>
      </Node>
    </BinaryTree>
    <BinaryTree type="DecisionTree" boostWeight="1.0000000000000000e+00" itree="654">
      <Node pos="s" depth="0" NCoef="0" IVar="0" Cut="1.6116940975189209e-01" cType="1" res="-8.4182613591110567e-07" rms="3.2360196113586426e-01" purity="5.9855979681015015e-01" nType="0">
        <Node pos="l" depth="1" NCoef="0" IVar="-1" Cut="0.0000000000000000e+00" cType="1" res="2.2971829457674176e-04" rms="3.2283455133438110e-01" purity="8.4581202268600464e-01" nType="-99"/>
        <Node pos="r" depth="1" NCoef="0" IVar="3" Cut="3.9234051108360291e-01" cType="0" res="-8.9790916536003351e-04" rms="3.2501423358917236e-01" purity="1.4138005673885345e-01" nType="0">
          <Node pos="l" depth="2" NCoef="0" IVar="-1" Cut="0.0000000000000000e+00" cType="1" res="1.0691237635910511e-02" rms="4.6303918957710266e-01" purity="3.5326087474822998e-01" nType="-99"/>
          <Node pos="r" depth="2" NCoef="0" IVar="-1" Cut="0.0000000000000000e+00" cType="1" res="-8.3661783719435334e-04" rms="3.2151699066162109e-01" purity="1.3705019652843475e-01" nType="-99"/>
        </Node>
      </Node>
    </BinaryTree>
    <BinaryTree type="DecisionTree" boostWeight="1.0000000000000000e+00" itree="655">
      <Node pos="s" depth="0" NCoef="0" IVar="3" Cut="3.6279675364494324e-01" cType="0" res="-8.8432926759196562e-07" rms="3.2359939813613892e-01" purity="5.9855979681015015e-01" nType="0">
        <Node pos="l" depth="1" NCoef="0" IVar="-1" Cut="0.0000000000000000e+00" cType="1" res="-5.4149224888533354e-04" rms="3.6316561698913574e-01" purity="7.5971221923828125e-01" nType="-99"/>
        <Node pos="r" depth="1" NCoef="0" IVar="3" Cut="3.6170709133148193e-01" cType="0" res="3.2212366932071745e-04" rms="3.1386807560920715e-01" purity="5.6177270412445068e-01" nType="0">
          <Node pos="l" depth="2" NCoef="0" IVar="-1" Cut="0.0000000000000000e+00" cType="1" res="2.2595930844545364e-02" rms="3.6445659399032593e-01" purity="7.0229005813598633e-01" nType="-99"/>
          <Node pos="r" depth="2" NCoef="0" IVar="-1" Cut="0.0000000000000000e+00" cType="1" res="5.9778845752589405e-05" rms="3.1367832422256470e-01" purity="5.6133949756622314e-01" nType="-99"/>
        </Node>
      </Node>
    </BinaryTree>
    <BinaryTree type="DecisionTree" boostWeight="1.0000000000000000e+00" itree="656">
      <Node pos="s" depth="0" NCoef="0" IVar="3" Cut="1.4491881430149078e-01" cType="1" res="-7.3947381906691589e-07" rms="3.2359462976455688e-01" purity="5.9855979681015015e-01" nType="0">
        <Node pos="l" depth="1" NCoef="0" IVar="-1" Cut="0.0000000000000000e+00" cType="1" res="-7.2751380503177643e-04" rms="2.6069119572639465e-01" purity="8.3438467979431152e-01" nType="-99"/>
        <Node pos="r" depth="1" NCoef="0" IVar="3" Cut="1.5645994246006012e-01" cType="0" res="4.2367799323983490e-04" rms="3.4673002362251282e-01" purity="4.9904936552047729e-01" nType="0">
          <Node pos="l" depth="2" NCoef="0" IVar="-1" Cut="0.0000000000000000e+00" cType="1" res="-5.6527384003857151e-05" rms="3.4690150618553162e-01" purity="5.0051099061965942e-01" nType="-99"/>
          <Node pos="r" depth="2" NCoef="0" IVar="-1" Cut="0.0000000000000000e+00" cType="1" res="1.5815192833542824e-02" rms="3.3482453227043152e-01" purity="4.1300812363624573e-01" nType="-99"/>
        </Node>
      </Node>
    </BinaryTree>
    <BinaryTree type="DecisionTree" boostWeight="1.0000000000000000e+00" itree="657">
      <Node pos="s" depth="0" NCoef="0" IVar="2" Cut="1.2363374233245850e+00" cType="1" res="-7.3414014423178742e-07" rms="3.2358971238136292e-01" purity="5.9855979681015015e-01" nType="0">
        <Node pos="l" depth="1" NCoef="0" IVar="-1" Cut="0.0000000000000000e+00" cType="1" res="-1.5025657194200903e-04" rms="3.1757041811943054e-01" purity="6.7695432901382446e-01" nType="-99"/>
        <Node pos="r" depth="1" NCoef="0" IVar="2" Cut="1.2707720994949341e+00" cType="1" res="1.3769668294116855e-03" rms="3.4928697347640991e-01" purity="2.4727804958820343e-01" nType="0">
          <Node pos="l" depth="2" NCoef="0" IVar="-1" Cut="0.0000000000000000e+00" cType="1" res="1.4469314366579056e-02" rms="3.6999800801277161e-01" purity="3.7425741553306580e-01" nType="-99"/>
          <Node pos="r" depth="2" NCoef="0" IVar="-1" Cut="0.0000000000000000e+00" cType="1" res="-2.7716450858861208e-04" rms="3.4797987341880798e-01" purity="2.4019011855125427e-01" nType="-99"/>
        </Node>
      </Node>
    </BinaryTree>
    <BinaryTree type="DecisionTree" boostWeight="1.0000000000000000e+00" itree="658">
      <Node pos="s" depth="0" NCoef="0" IVar="0" Cut="9.4952523708343506e-02" cType="1" res="-7.5107072916580364e-07" rms="3.2358473539352417e-01" purity="5.9855979681015015e-01" nType="0">
        <Node pos="l" depth="1" NCoef="0" IVar="-1" Cut="0.0000000000000000e+00" cType="1" res="3.0945782782509923e-04" rms="2.9992046952247620e-01" purity="8.8115000724792480e-01" nType="-99"/>
        <Node pos="r" depth="1" NCoef="0" IVar="2" Cut="5.6197155267000198e-02" cType="1" res="-7.6620437903329730e-04" rms="3.5312494635581970e-01" purity="2.1568010747432709e-01" nType="0">
          <Node pos="l" depth="2" NCoef="0" IVar="-1" Cut="0.0000000000000000e+00" cType="1" res="1.3339623808860779e-02" rms="3.9854702353477478e-01" purity="3.5483869910240173e-01" nType="-99"/>
          <Node pos="r" depth="2" NCoef="0" IVar="-1" Cut="0.0000000000000000e+00" cType="1" res="-4.5732021681033075e-04" rms="3.5262590646743774e-01" purity="2.1430842578411102e-01" nType="-99"/>
        </Node>
      </Node>
    </BinaryTree>
    <BinaryTree type="DecisionTree" boostWeight="1.0000000000000000e+00" itree="659">
      <Node pos="s" depth="0" NCoef="0" IVar="2" Cut="1.5360555648803711e+00" cType="1" res="-7.2081945745594567e-07" rms="3.2358390092849731e-01" purity="5.9855979681015015e-01" nType="0">
        <Node pos="l" depth="1" NCoef="0" IVar="-1" Cut="0.0000000000000000e+00" cType="1" res="-1.1729393008863553e-04" rms="3.2088783383369446e-01" purity="6.4864921569824219e-01" nType="-99"/>
        <Node pos="r" depth="1" NCoef="0" IVar="0" Cut="3.1234383583068848e-02" cType="1" res="1.8716581398621202e-03" rms="3.4352335333824158e-01" purity="2.1498262882232666e-01" nType="0">
          <Node pos="l" depth="2" NCoef="0" IVar="-1" Cut="0.0000000000000000e+00" cType="1" res="-3.0950397253036499e-02" rms="4.1137710213661194e-01" purity="6.9444441795349121e-01" nType="-99"/>
          <Node pos="r" depth="2" NCoef="0" IVar="-1" Cut="0.0000000000000000e+00" cType="1" res="1.4779581688344479e-03" rms="3.4194594621658325e-01" purity="2.0626367628574371e-01" nType="-99"/>
        </Node>
      </Node>
    </BinaryTree>
    <BinaryTree type="DecisionTree" boostWeight="1.0000000000000000e+00" itree="660">
      <Node pos="s" depth="0" NCoef="0" IVar="3" Cut="4.2751049995422363e-01" cType="0" res="-3.9194350165416836e-07" rms="3.2357656955718994e-01" purity="5.9855979681015015e-01" nType="0">
        <Node pos="l" depth="1" NCoef="0" IVar="-1" Cut="0.0000000000000000e+00" cType="1" res="1.0741956066340208e-03" rms="3.3451768755912781e-01" purity="8.4197926521301270e-01" nType="-99"/>
        <Node pos="r" depth="1" NCoef="0" IVar="3" Cut="4.2622524499893188e-01" cType="0" res="-1.8966340576298535e-04" rms="3.2271400094032288e-01" purity="5.7973045110702515e-01" nType="0">
          <Node pos="l" depth="2" NCoef="0" IVar="-1" Cut="0.0000000000000000e+00" cType="1" res="-2.6279542595148087e-02" rms="4.0924006700515747e-01" purity="6.8000000715255737e-01" nType="-99"/>
          <Node pos="r" depth="2" NCoef="0" IVar="-1" Cut="0.0000000000000000e+00" cType="1" res="-1.5622355931554921e-05" rms="3.2249310612678528e-01" purity="5.7952368259429932e-01" nType="-99"/>
        </Node>
      </Node>
    </BinaryTree>
    <BinaryTree type="DecisionTree" boostWeight="1.0000000000000000e+00" itree="661">
      <Node pos="s" depth="0" NCoef="0" IVar="2" Cut="3.5591530799865723e-01" cType="1" res="-1.7706751975765656e-07" rms="3.2357263565063477e-01" purity="5.9855979681015015e-01" nType="0">
        <Node pos="l" depth="1" NCoef="0" IVar="-1" Cut="0.0000000000000000e+00" cType="1" res="-5.1324750529602170e-04" rms="2.8193280100822449e-01" purity="8.3244299888610840e-01" nType="-99"/>
        <Node pos="r" depth="1" NCoef="0" IVar="3" Cut="1.3800720870494843e-01" cType="0" res="5.2529311506077647e-04" rms="3.4756514430046082e-01" purity="4.4918462634086609e-01" nType="0">
          <Node pos="l" depth="2" NCoef="0" IVar="-1" Cut="0.0000000000000000e+00" cType="1" res="3.1181430676952004e-04" rms="3.4868663549423218e-01" purity="4.5413601398468018e-01" nType="-99"/>
          <Node pos="r" depth="2" NCoef="0" IVar="-1" Cut="0.0000000000000000e+00" cType="1" res="-1.1651025153696537e-02" rms="2.4896605312824249e-01" purity="7.8384801745414734e-02" nType="-99"/>
        </Node>
      </Node>
    </BinaryTree>
    <BinaryTree type="DecisionTree" boostWeight="1.0000000000000000e+00" itree="662">
      <Node pos="s" depth="0" NCoef="0" IVar="3" Cut="2.9058721661567688e-01" cType="0" res="-2.7184020723325375e-07" rms="3.2357197999954224e-01" purity="5.9855979681015015e-01" nType="0">
        <Node pos="l" depth="1" NCoef="0" IVar="-1" Cut="0.0000000000000000e+00" cType="1" res="-3.2330263638868928e-04" rms="3.6843892931938171e-01" purity="6.2768095731735229e-01" nType="-99"/>
        <Node pos="r" depth="1" NCoef="0" IVar="3" Cut="2.8840887546539307e-01" cType="1" res="5.5479019647464156e-04" rms="2.9140338301658630e-01" purity="5.8000564575195312e-01" nType="0">
          <Node pos="l" depth="2" NCoef="0" IVar="-1" Cut="0.0000000000000000e+00" cType="1" res="5.6538676290074363e-05" rms="2.9074475169181824e-01" purity="5.8118307590484619e-01" nType="-99"/>
          <Node pos="r" depth="2" NCoef="0" IVar="-1" Cut="0.0000000000000000e+00" cType="1" res="1.7771162092685699e-02" rms="3.4818118810653687e-01" purity="4.6202531456947327e-01" nType="-99"/>
        </Node>
      </Node>
    </BinaryTree>
    <BinaryTree type="DecisionTree" boostWeight="1.0000000000000000e+00" itree="663">
      <Node pos="s" depth="0" NCoef="0" IVar="0" Cut="9.4952523708343506e-02" cType="1" res="-2.9849309157725656e-07" rms="3.2356619834899902e-01" purity="5.9855979681015015e-01" nType="0">
        <Node pos="l" depth="1" NCoef="0" IVar="-1" Cut="0.0000000000000000e+00" cType="1" res="3.1799430144019425e-04" rms="2.9989749193191528e-01" purity="8.8115000724792480e-01" nType="-99"/>
        <Node pos="r" depth="1" NCoef="0" IVar="0" Cut="9.8583877086639404e-02" cType="1" res="-7.8629516065120697e-04" rms="3.5311132669448853e-01" purity="2.1568010747432709e-01" nType="0">
          <Node pos="l" depth="2" NCoef="0" IVar="-1" Cut="0.0000000000000000e+00" cType="1" res="-8.7123485282063484e-03" rms="4.5082470774650574e-01" purity="6.2807017564773560e-01" nType="-99"/>
          <Node pos="r" depth="2" NCoef="0" IVar="-1" Cut="0.0000000000000000e+00" cType="1" res="-1.3484047667589039e-04" rms="3.5164171457290649e-01" purity="2.1032486855983734e-01" nType="-99"/>
        </Node>
      </Node>
    </BinaryTree>
    <BinaryTree type="DecisionTree" boostWeight="1.0000000000000000e+00" itree="664">
      <Node pos="s" depth="0" NCoef="0" IVar="3" Cut="2.6060399413108826e-01" cType="1" res="-2.1139368300282513e-07" rms="3.2356435060501099e-01" purity="5.9855979681015015e-01" nType="0">
        <Node pos="l" depth="1" NCoef="0" IVar="-1" Cut="0.0000000000000000e+00" cType="1" res="3.7870256346650422e-04" rms="2.8254809975624084e-01" purity="6.1518114805221558e-01" nType="-99"/>
        <Node pos="r" depth="1" NCoef="0" IVar="0" Cut="1.0069965124130249e+00" cType="1" res="-6.8127852864563465e-04" rms="3.6278459429740906e-01" purity="5.8056175708770752e-01" nType="0">
          <Node pos="l" depth="2" NCoef="0" IVar="-1" Cut="0.0000000000000000e+00" cType="1" res="-5.2079651504755020e-04" rms="3.6364117264747620e-01" purity="5.9804451465606689e-01" nType="-99"/>
          <Node pos="r" depth="2" NCoef="0" IVar="-1" Cut="0.0000000000000000e+00" cType="1" res="7.3537342250347137e-03" rms="3.4100389480590820e-01" purity="1.5815815329551697e-01" nType="-99"/>
        </Node>
      </Node>
    </BinaryTree>
    <BinaryTree type="DecisionTree" boostWeight="1.0000000000000000e+00" itree="665">
      <Node pos="s" depth="0" NCoef="0" IVar="0" Cut="6.5842080116271973e-01" cType="1" res="-3.2205915090344206e-07" rms="3.2356137037277222e-01" purity="5.9855979681015015e-01" nType="0">
        <Node pos="l" depth="1" NCoef="0" IVar="-1" Cut="0.0000000000000000e+00" cType="1" res="1.2538864393718541e-04" rms="3.3250176906585693e-01" purity="6.7745697498321533e-01" nType="-99"/>
        <Node pos="r" depth="1" NCoef="0" IVar="2" Cut="9.1414034366607666e-01" cType="0" res="-1.8562478944659233e-03" rms="2.5676080584526062e-01" purity="7.7169016003608704e-02" nType="0">
          <Node pos="l" depth="2" NCoef="0" IVar="-1" Cut="0.0000000000000000e+00" cType="1" res="-3.4222532995045185e-03" rms="2.5721350312232971e-01" purity="7.9158939421176910e-02" nType="-99"/>
          <Node pos="r" depth="2" NCoef="0" IVar="-1" Cut="0.0000000000000000e+00" cType="1" res="4.6165278181433678e-03" rms="2.5552099943161011e-01" purity="7.2413794696331024e-02" nType="-99"/>
        </Node>
      </Node>
    </BinaryTree>
    <BinaryTree type="DecisionTree" boostWeight="1.0000000000000000e+00" itree="666">
      <Node pos="s" depth="0" NCoef="0" IVar="2" Cut="2.9222521185874939e-01" cType="1" res="-4.9416547653891030e-07" rms="3.2356163859367371e-01" purity="5.9855979681015015e-01" nType="0">
        <Node pos="l" depth="1" NCoef="0" IVar="-1" Cut="0.0000000000000000e+00" cType="1" res="-6.1442406149581075e-04" rms="2.7587690949440002e-01" purity="8.4798938035964966e-01" nType="-99"/>
        <Node pos="r" depth="1" NCoef="0" IVar="3" Cut="1.0626529902219772e-01" cType="0" res="4.9682182725518942e-04" rms="3.4612208604812622e-01" purity="4.6671533584594727e-01" nType="0">
          <Node pos="l" depth="2" NCoef="0" IVar="-1" Cut="0.0000000000000000e+00" cType="1" res="1.5879525744821876e-04" rms="3.4616395831108093e-01" purity="4.6767204999923706e-01" nType="-99"/>
          <Node pos="r" depth="2" NCoef="0" IVar="-1" Cut="0.0000000000000000e+00" cType="1" res="2.1666739135980606e-02" rms="3.2939165830612183e-01" purity="1.4000000059604645e-01" nType="-99"/>
        </Node>
      </Node>
    </BinaryTree>
    <BinaryTree type="DecisionTree" boostWeight="1.0000000000000000e+00" itree="667">
      <Node pos="s" depth="0" NCoef="0" IVar="0" Cut="1.6116940975189209e-01" cType="1" res="-5.4809970606584102e-07" rms="3.2355949282646179e-01" purity="5.9855979681015015e-01" nType="0">
        <Node pos="l" depth="1" NCoef="0" IVar="-1" Cut="0.0000000000000000e+00" cType="1" res="2.3820578644517809e-04" rms="3.2278978824615479e-01" purity="8.4581202268600464e-01" nType="-99"/>
        <Node pos="r" depth="1" NCoef="0" IVar="3" Cut="2.5080457329750061e-01" cType="0" res="-9.3025888781994581e-04" rms="3.2497587800025940e-01" purity="1.4138005673885345e-01" nType="0">
          <Node pos="l" depth="2" NCoef="0" IVar="-1" Cut="0.0000000000000000e+00" cType="1" res="1.6612746985629201e-03" rms="3.6102536320686340e-01" purity="1.8347975611686707e-01" nType="-99"/>
          <Node pos="r" depth="2" NCoef="0" IVar="-1" Cut="0.0000000000000000e+00" cType="1" res="-4.3178000487387180e-03" rms="2.7683162689208984e-01" purity="9.2175140976905823e-02" nType="-99"/>
        </Node>
      </Node>
    </BinaryTree>
    <BinaryTree type="DecisionTree" boostWeight="1.0000000000000000e+00" itree="668">
      <Node pos="s" depth="0" NCoef="0" IVar="3" Cut="2.6060399413108826e-01" cType="1" res="-9.0236272853871924e-07" rms="3.2355451583862305e-01" purity="5.9855979681015015e-01" nType="0">
        <Node pos="l" depth="1" NCoef="0" IVar="-1" Cut="0.0000000000000000e+00" cType="1" res="4.6427678898908198e-04" rms="2.8253298997879028e-01" purity="6.1518114805221558e-01" nType="-99"/>
        <Node pos="r" depth="1" NCoef="0" IVar="0" Cut="3.4482759237289429e-01" cType="1" res="-8.3522713975980878e-04" rms="3.6277842521667480e-01" purity="5.8056175708770752e-01" nType="0">
          <Node pos="l" depth="2" NCoef="0" IVar="-1" Cut="0.0000000000000000e+00" cType="1" res="-8.7974994676187634e-04" rms="3.7619620561599731e-01" purity="7.0340603590011597e-01" nType="-99"/>
          <Node pos="r" depth="2" NCoef="0" IVar="-1" Cut="0.0000000000000000e+00" cType="1" res="2.9958919622004032e-03" rms="3.0629798769950867e-01" purity="1.1300191283226013e-01" nType="-99"/>
        </Node>
      </Node>
    </BinaryTree>
    <BinaryTree type="DecisionTree" boostWeight="1.0000000000000000e+00" itree="669">
      <Node pos="s" depth="0" NCoef="0" IVar="3" Cut="2.6060399413108826e-01" cType="1" res="-9.0721243850566680e-07" rms="3.2355123758316040e-01" purity="5.9855979681015015e-01" nType="0">
        <Node pos="l" depth="1" NCoef="0" IVar="-1" Cut="0.0000000000000000e+00" cType="1" res="4.1791287367232144e-04" rms="2.8253272175788879e-01" purity="6.1518114805221558e-01" nType="-99"/>
        <Node pos="r" depth="1" NCoef="0" IVar="3" Cut="2.6132345199584961e-01" cType="0" res="-7.5190898496657610e-04" rms="3.6277288198471069e-01" purity="5.8056175708770752e-01" nType="0">
          <Node pos="l" depth="2" NCoef="0" IVar="-1" Cut="0.0000000000000000e+00" cType="1" res="-2.0652390958275646e-04" rms="3.6281639337539673e-01" purity="5.8195835351943970e-01" nType="-99"/>
          <Node pos="r" depth="2" NCoef="0" IVar="-1" Cut="0.0000000000000000e+00" cType="1" res="-2.2621458396315575e-02" rms="3.4872606396675110e-01" purity="2.4761904776096344e-01" nType="-99"/>
        </Node>
      </Node>
    </BinaryTree>
    <BinaryTree type="DecisionTree" boostWeight="1.0000000000000000e+00" itree="670">
      <Node pos="s" depth="0" NCoef="0" IVar="0" Cut="1.6116940975189209e-01" cType="1" res="-8.7712567164999200e-07" rms="3.2354924082756042e-01" purity="5.9855979681015015e-01" nType="0">
        <Node pos="l" depth="1" NCoef="0" IVar="-1" Cut="0.0000000000000000e+00" cType="1" res="2.4514808319509029e-04" rms="3.2278567552566528e-01" purity="8.4581202268600464e-01" nType="-99"/>
        <Node pos="r" depth="1" NCoef="0" IVar="3" Cut="4.0285179018974304e-01" cType="0" res="-9.5820246497169137e-04" rms="3.2495427131652832e-01" purity="1.4138005673885345e-01" nType="0">
          <Node pos="l" depth="2" NCoef="0" IVar="-1" Cut="0.0000000000000000e+00" cType="1" res="1.2466895394027233e-02" rms="4.6113872528076172e-01" purity="3.5897436738014221e-01" nType="-99"/>
          <Node pos="r" depth="2" NCoef="0" IVar="-1" Cut="0.0000000000000000e+00" cType="1" res="-7.4688717722892761e-04" rms="3.2277351617813110e-01" purity="1.3857348263263702e-01" nType="-99"/>
        </Node>
      </Node>
    </BinaryTree>
    <BinaryTree type="DecisionTree" boostWeight="1.0000000000000000e+00" itree="671">
      <Node pos="s" depth="0" NCoef="0" IVar="2" Cut="2.7349281311035156e-01" cType="1" res="-8.9451242502036621e-07" rms="3.2354730367660522e-01" purity="5.9855979681015015e-01" nType="0">
        <Node pos="l" depth="1" NCoef="0" IVar="-1" Cut="0.0000000000000000e+00" cType="1" res="-6.6257943399250507e-04" rms="2.7373507618904114e-01" purity="8.5204869508743286e-01" nType="-99"/>
        <Node pos="r" depth="1" NCoef="0" IVar="2" Cut="2.7713200449943542e-01" cType="1" res="5.0093338359147310e-04" rms="3.4585994482040405e-01" purity="4.7129535675048828e-01" nType="0">
          <Node pos="l" depth="2" NCoef="0" IVar="-1" Cut="0.0000000000000000e+00" cType="1" res="1.8843309953808784e-02" rms="2.8828728199005127e-01" purity="7.5193798542022705e-01" nType="-99"/>
          <Node pos="r" depth="2" NCoef="0" IVar="-1" Cut="0.0000000000000000e+00" cType="1" res="1.4214077964425087e-04" rms="3.4604659676551819e-01" purity="4.7025284171104431e-01" nType="-99"/>
        </Node>
      </Node>
    </BinaryTree>
    <BinaryTree type="DecisionTree" boostWeight="1.0000000000000000e+00" itree="672">
      <Node pos="s" depth="0" NCoef="0" IVar="3" Cut="2.6060399413108826e-01" cType="1" res="-7.3125994504152914e-07" rms="3.2354471087455750e-01" purity="5.9855979681015015e-01" nType="0">
        <Node pos="l" depth="1" NCoef="0" IVar="-1" Cut="0.0000000000000000e+00" cType="1" res="4.1575066279619932e-04" rms="2.8253048658370972e-01" purity="6.1518114805221558e-01" nType="-99"/>
        <Node pos="r" depth="1" NCoef="0" IVar="0" Cut="1.0069965124130249e+00" cType="1" res="-7.4751884676516056e-04" rms="3.6276268959045410e-01" purity="5.8056175708770752e-01" nType="0">
          <Node pos="l" depth="2" NCoef="0" IVar="-1" Cut="0.0000000000000000e+00" cType="1" res="-5.1738537149503827e-04" rms="3.6362564563751221e-01" purity="5.9804451465606689e-01" nType="-99"/>
          <Node pos="r" depth="2" NCoef="0" IVar="-1" Cut="0.0000000000000000e+00" cType="1" res="6.4450209029018879e-03" rms="3.4090453386306763e-01" purity="1.5815815329551697e-01" nType="-99"/>
        </Node>
      </Node>
    </BinaryTree>
    <BinaryTree type="DecisionTree" boostWeight="1.0000000000000000e+00" itree="673">
      <Node pos="s" depth="0" NCoef="0" IVar="0" Cut="4.7851073741912842e-01" cType="1" res="-7.5828535273103626e-07" rms="3.2354217767715454e-01" purity="5.9855979681015015e-01" nType="0">
        <Node pos="l" depth="1" NCoef="0" IVar="-1" Cut="0.0000000000000000e+00" cType="1" res="1.5390505723189563e-04" rms="3.3678820729255676e-01" purity="7.1715843677520752e-01" nType="-99"/>
        <Node pos="r" depth="1" NCoef="0" IVar="2" Cut="9.1414034366607666e-01" cType="0" res="-1.5599018661305308e-03" rms="2.5719833374023438e-01" purity="7.6184578239917755e-02" nType="0">
          <Node pos="l" depth="2" NCoef="0" IVar="-1" Cut="0.0000000000000000e+00" cType="1" res="-3.4315607044845819e-03" rms="2.5928509235382080e-01" purity="7.8959375619888306e-02" nType="-99"/>
          <Node pos="r" depth="2" NCoef="0" IVar="-1" Cut="0.0000000000000000e+00" cType="1" res="4.8852250911295414e-03" rms="2.5257992744445801e-01" purity="7.0327550172805786e-02" nType="-99"/>
        </Node>
      </Node>
    </BinaryTree>
    <BinaryTree type="DecisionTree" boostWeight="1.0000000000000000e+00" itree="674">
      <Node pos="s" depth="0" NCoef="0" IVar="2" Cut="2.9222521185874939e-01" cType="1" res="-9.9098849659640109e-07" rms="3.2354202866554260e-01" purity="5.9855979681015015e-01" nType="0">
        <Node pos="l" depth="1" NCoef="0" IVar="-1" Cut="0.0000000000000000e+00" cType="1" res="-6.5091851865872741e-04" rms="2.7586615085601807e-01" purity="8.4798938035964966e-01" nType="-99"/>
        <Node pos="r" depth="1" NCoef="0" IVar="3" Cut="1.3903661072254181e-01" cType="0" res="5.2505533676594496e-04" rms="3.4609845280647278e-01" purity="4.6671533584594727e-01" nType="0">
          <Node pos="l" depth="2" NCoef="0" IVar="-1" Cut="0.0000000000000000e+00" cType="1" res="3.1745643354952335e-04" rms="3.4734961390495300e-01" purity="4.7285833954811096e-01" nType="-99"/>
          <Node pos="r" depth="2" NCoef="0" IVar="-1" Cut="0.0000000000000000e+00" cType="1" res="-1.0094615630805492e-02" rms="2.5526726245880127e-01" purity="8.1784389913082123e-02" nType="-99"/>
        </Node>
      </Node>
    </BinaryTree>
    <BinaryTree type="DecisionTree" boostWeight="1.0000000000000000e+00" itree="675">
      <Node pos="s" depth="0" NCoef="0" IVar="3" Cut="2.6060399413108826e-01" cType="1" res="-9.9312205747992266e-07" rms="3.2354149222373962e-01" purity="5.9855979681015015e-01" nType="0">
        <Node pos="l" depth="1" NCoef="0" IVar="-1" Cut="0.0000000000000000e+00" cType="1" res="4.0142217767424881e-04" rms="2.8252711892127991e-01" purity="6.1518114805221558e-01" nType="-99"/>
        <Node pos="r" depth="1" NCoef="0" IVar="0" Cut="3.4482759237289429e-01" cType="1" res="-7.2242756141349673e-04" rms="3.6275964975357056e-01" purity="5.8056175708770752e-01" nType="0">
          <Node pos="l" depth="2" NCoef="0" IVar="-1" Cut="0.0000000000000000e+00" cType="1" res="-7.9336710041388869e-04" rms="3.7618803977966309e-01" purity="7.0340603590011597e-01" nType="-99"/>
          <Node pos="r" depth="2" NCoef="0" IVar="-1" Cut="0.0000000000000000e+00" cType="1" res="2.7765573468059301e-03" rms="3.0624198913574219e-01" purity="1.1300191283226013e-01" nType="-99"/>
        </Node>
      </Node>
    </BinaryTree>
    <BinaryTree type="DecisionTree" boostWeight="1.0000000000000000e+00" itree="676">
      <Node pos="s" depth="0" NCoef="0" IVar="0" Cut="4.7851073741912842e-01" cType="1" res="-9.7713746072258800e-07" rms="3.2353866100311279e-01" purity="5.9855979681015015e-01" nType="0">
        <Node pos="l" depth="1" NCoef="0" IVar="-1" Cut="0.0000000000000000e+00" cType="1" res="1.5646917745471001e-04" rms="3.3678498864173889e-01" purity="7.1715843677520752e-01" nType="-99"/>
        <Node pos="r" depth="1" NCoef="0" IVar="1" Cut="1.2868565320968628e-01" cType="0" res="-1.5875141834840178e-03" rms="2.5719270110130310e-01" purity="7.6184578239917755e-02" nType="0">
          <Node pos="l" depth="2" NCoef="0" IVar="-1" Cut="0.0000000000000000e+00" cType="1" res="1.5519032021984458e-03" rms="2.6662352681159973e-01" purity="8.3585098385810852e-02" nType="-99"/>
          <Node pos="r" depth="2" NCoef="0" IVar="-1" Cut="0.0000000000000000e+00" cType="1" res="-5.8520198799669743e-03" rms="2.4123738706111908e-01" purity="6.4360417425632477e-02" nType="-99"/>
        </Node>
      </Node>
    </BinaryTree>
    <BinaryTree type="DecisionTree" boostWeight="1.0000000000000000e+00" itree="677">
      <Node pos="s" depth="0" NCoef="0" IVar="2" Cut="3.0308997631072998e+00" cType="1" res="-1.1705266160788597e-06" rms="3.2353714108467102e-01" purity="5.9855979681015015e-01" nType="0">
        <Node pos="l" depth="1" NCoef="0" IVar="-1" Cut="0.0000000000000000e+00" cType="1" res="3.2289673981722444e-05" rms="3.2344570755958557e-01" purity="6.0254877805709839e-01" nType="-99"/>
        <Node pos="r" depth="1" NCoef="0" IVar="3" Cut="3.4792906045913696e-01" cType="0" res="-7.4383723549544811e-03" rms="3.3306765556335449e-01" purity="1.7283950746059418e-01" nType="0">
          <Node pos="l" depth="2" NCoef="0" IVar="-1" Cut="0.0000000000000000e+00" cType="1" res="6.4680455252528191e-03" rms="4.1731354594230652e-01" purity="3.7735849618911743e-01" nType="-99"/>
          <Node pos="r" depth="2" NCoef="0" IVar="-1" Cut="0.0000000000000000e+00" cType="1" res="-7.8612938523292542e-03" rms="3.0484601855278015e-01" purity="1.1578947305679321e-01" nType="-99"/>
        </Node>
      </Node>
    </BinaryTree>
    <BinaryTree type="DecisionTree" boostWeight="1.0000000000000000e+00" itree="678">
      <Node pos="s" depth="0" NCoef="0" IVar="2" Cut="2.9222521185874939e-01" cType="1" res="-1.1210447610210394e-06" rms="3.2353588938713074e-01" purity="5.9855979681015015e-01" nType="0">
        <Node pos="l" depth="1" NCoef="0" IVar="-1" Cut="0.0000000000000000e+00" cType="1" res="-6.3524348661303520e-04" rms="2.7586567401885986e-01" purity="8.4798938035964966e-01" nType="-99"/>
        <Node pos="r" depth="1" NCoef="0" IVar="2" Cut="2.9943686723709106e-01" cType="1" res="5.1222799811512232e-04" rms="3.4608995914459229e-01" purity="4.6671533584594727e-01" nType="0">
          <Node pos="l" depth="2" NCoef="0" IVar="-1" Cut="0.0000000000000000e+00" cType="1" res="1.1505384929478168e-02" rms="3.0075448751449585e-01" purity="7.0319634675979614e-01" nType="-99"/>
          <Node pos="r" depth="2" NCoef="0" IVar="-1" Cut="0.0000000000000000e+00" cType="1" res="1.4606185141019523e-04" rms="3.4635701775550842e-01" purity="4.6519351005554199e-01" nType="-99"/>
        </Node>
      </Node>
    </BinaryTree>
    <BinaryTree type="DecisionTree" boostWeight="1.0000000000000000e+00" itree="679">
      <Node pos="s" depth="0" NCoef="0" IVar="0" Cut="1.6116940975189209e-01" cType="1" res="-9.6885958100756397e-07" rms="3.2353430986404419e-01" purity="5.9855979681015015e-01" nType="0">
        <Node pos="l" depth="1" NCoef="0" IVar="-1" Cut="0.0000000000000000e+00" cType="1" res="2.4788526934571564e-04" rms="3.2277646660804749e-01" purity="8.4581202268600464e-01" nType="-99"/>
        <Node pos="r" depth="1" NCoef="0" IVar="3" Cut="2.5080457329750061e-01" cType="0" res="-9.6927053527906537e-04" rms="3.2492867112159729e-01" purity="1.4138005673885345e-01" nType="0">
          <Node pos="l" depth="2" NCoef="0" IVar="-1" Cut="0.0000000000000000e+00" cType="1" res="1.4331993879750371e-03" rms="3.6096915602684021e-01" purity="1.8347975611686707e-01" nType="-99"/>
          <Node pos="r" depth="2" NCoef="0" IVar="-1" Cut="0.0000000000000000e+00" cType="1" res="-3.9741457439959049e-03" rms="2.7682191133499146e-01" purity="9.2175140976905823e-02" nType="-99"/>
        </Node>
      </Node>
    </BinaryTree>
    <BinaryTree type="DecisionTree" boostWeight="1.0000000000000000e+00" itree="680">
      <Node pos="s" depth="0" NCoef="0" IVar="3" Cut="2.6060399413108826e-01" cType="1" res="-1.2094058092770865e-06" rms="3.2353022694587708e-01" purity="5.9855979681015015e-01" nType="0">
        <Node pos="l" depth="1" NCoef="0" IVar="-1" Cut="0.0000000000000000e+00" cType="1" res="4.8764023813419044e-04" rms="2.8251475095748901e-01" purity="6.1518114805221558e-01" nType="-99"/>
        <Node pos="r" depth="1" NCoef="0" IVar="3" Cut="2.6479250192642212e-01" cType="0" res="-8.7599386461079121e-04" rms="3.6274847388267517e-01" purity="5.8056175708770752e-01" nType="0">
          <Node pos="l" depth="2" NCoef="0" IVar="-1" Cut="0.0000000000000000e+00" cType="1" res="-1.4864407421555370e-04" rms="3.6364009976387024e-01" purity="5.8746170997619629e-01" nType="-99"/>
          <Node pos="r" depth="2" NCoef="0" IVar="-1" Cut="0.0000000000000000e+00" cType="1" res="-8.4426579996943474e-03" rms="3.2693713903427124e-01" purity="3.2104453444480896e-01" nType="-99"/>
        </Node>
      </Node>
    </BinaryTree>
    <BinaryTree type="DecisionTree" boostWeight="1.0000000000000000e+00" itree="681">
      <Node pos="s" depth="0" NCoef="0" IVar="3" Cut="2.6060399413108826e-01" cType="1" res="-1.1265982493569027e-06" rms="3.2352858781814575e-01" purity="5.9855979681015015e-01" nType="0">
        <Node pos="l" depth="1" NCoef="0" IVar="-1" Cut="0.0000000000000000e+00" cType="1" res="4.3894673581235111e-04" rms="2.8251448273658752e-01" purity="6.1518114805221558e-01" nType="-99"/>
        <Node pos="r" depth="1" NCoef="0" IVar="0" Cut="1.0644677877426147e+00" cType="1" res="-7.8848062548786402e-04" rms="3.6274608969688416e-01" purity="5.8056175708770752e-01" nType="0">
          <Node pos="l" depth="2" NCoef="0" IVar="-1" Cut="0.0000000000000000e+00" cType="1" res="-5.0222576828673482e-04" rms="3.6334261298179626e-01" purity="5.9604668617248535e-01" nType="-99"/>
          <Node pos="r" depth="2" NCoef="0" IVar="-1" Cut="0.0000000000000000e+00" cType="1" res="5.9535498730838299e-03" rms="3.4603899717330933e-01" purity="1.6500553488731384e-01" nType="-99"/>
        </Node>
      </Node>
    </BinaryTree>
    <BinaryTree type="DecisionTree" boostWeight="1.0000000000000000e+00" itree="682">
      <Node pos="s" depth="0" NCoef="0" IVar="2" Cut="1.9256891012191772e+00" cType="1" res="-1.0900835150096100e-06" rms="3.2352641224861145e-01" purity="5.9855979681015015e-01" nType="0">
        <Node pos="l" depth="1" NCoef="0" IVar="-1" Cut="0.0000000000000000e+00" cType="1" res="8.8492772192694247e-05" rms="3.2281810045242310e-01" purity="6.2506610155105591e-01" nType="-99"/>
        <Node pos="r" depth="1" NCoef="0" IVar="0" Cut="1.7116442322731018e-01" cType="1" res="-2.9124796856194735e-03" rms="3.3430358767509460e-01" purity="1.8757881224155426e-01" nType="0">
          <Node pos="l" depth="2" NCoef="0" IVar="-1" Cut="0.0000000000000000e+00" cType="1" res="-9.8274266347289085e-03" rms="4.3682202696800232e-01" purity="6.1092150211334229e-01" nType="-99"/>
          <Node pos="r" depth="2" NCoef="0" IVar="-1" Cut="0.0000000000000000e+00" cType="1" res="3.1932597630657256e-04" rms="3.2182607054710388e-01" purity="1.4449462294578552e-01" nType="-99"/>
        </Node>
      </Node>
    </BinaryTree>
    <BinaryTree type="DecisionTree" boostWeight="1.0000000000000000e+00" itree="683">
      <Node pos="s" depth="0" NCoef="0" IVar="2" Cut="3.4542517662048340e+00" cType="1" res="-9.3053421323929797e-07" rms="3.2352349162101746e-01" purity="5.9855979681015015e-01" nType="0">
        <Node pos="l" depth="1" NCoef="0" IVar="-1" Cut="0.0000000000000000e+00" cType="1" res="2.2406067728297785e-05" rms="3.2337188720703125e-01" purity="6.0029160976409912e-01" nType="-99"/>
        <Node pos="r" depth="1" NCoef="0" IVar="1" Cut="3.2983508706092834e-01" cType="1" res="-1.1179374530911446e-02" rms="3.5660046339035034e-01" purity="1.9911503791809082e-01" nType="0">
          <Node pos="l" depth="2" NCoef="0" IVar="-1" Cut="0.0000000000000000e+00" cType="1" res="2.9919829685240984e-03" rms="3.7565743923187256e-01" purity="2.3140496015548706e-01" nType="-99"/>
          <Node pos="r" depth="2" NCoef="0" IVar="-1" Cut="0.0000000000000000e+00" cType="1" res="-1.2523701414465904e-02" rms="3.3182233572006226e-01" purity="1.6190476715564728e-01" nType="-99"/>
        </Node>
      </Node>
    </BinaryTree>
    <BinaryTree type="DecisionTree" boostWeight="1.0000000000000000e+00" itree="684">
      <Node pos="s" depth="0" NCoef="0" IVar="2" Cut="2.9222521185874939e-01" cType="1" res="-8.8065536374415387e-07" rms="3.2352286577224731e-01" purity="5.9855979681015015e-01" nType="0">
        <Node pos="l" depth="1" NCoef="0" IVar="-1" Cut="0.0000000000000000e+00" cType="1" res="-6.5325270406901836e-04" rms="2.7586370706558228e-01" purity="8.4798938035964966e-01" nType="-99"/>
        <Node pos="r" depth="1" NCoef="0" IVar="3" Cut="1.7966404557228088e-01" cType="0" res="5.2666309056803584e-04" rms="3.4607210755348206e-01" purity="4.6671533584594727e-01" nType="0">
          <Node pos="l" depth="2" NCoef="0" IVar="-1" Cut="0.0000000000000000e+00" cType="1" res="9.7625406851875596e-06" rms="3.4959536790847778e-01" purity="4.8694244027137756e-01" nType="-99"/>
          <Node pos="r" depth="2" NCoef="0" IVar="-1" Cut="0.0000000000000000e+00" cType="1" res="4.7624362632632256e-03" rms="2.8742599487304688e-01" purity="1.6062176227569580e-01" nType="-99"/>
        </Node>
      </Node>
    </BinaryTree>
    <BinaryTree type="DecisionTree" boostWeight="1.0000000000000000e+00" itree="685">
      <Node pos="s" depth="0" NCoef="0" IVar="0" Cut="6.5842080116271973e-01" cType="1" res="-8.6340281768571003e-07" rms="3.2351940870285034e-01" purity="5.9855979681015015e-01" nType="0">
        <Node pos="l" depth="1" NCoef="0" IVar="-1" Cut="0.0000000000000000e+00" cType="1" res="1.2527538638096303e-04" rms="3.3246475458145142e-01" purity="6.7745697498321533e-01" nType="-99"/>
        <Node pos="r" depth="1" NCoef="0" IVar="0" Cut="7.9648286104202271e-01" cType="0" res="-1.8589030951261520e-03" rms="2.5667521357536316e-01" purity="7.7169016003608704e-02" nType="0">
          <Node pos="l" depth="2" NCoef="0" IVar="-1" Cut="0.0000000000000000e+00" cType="1" res="4.7871156129986048e-04" rms="2.6865318417549133e-01" purity="8.5542395710945129e-02" nType="-99"/>
          <Node pos="r" depth="2" NCoef="0" IVar="-1" Cut="0.0000000000000000e+00" cType="1" res="-9.6338549628853798e-03" rms="2.1061030030250549e-01" purity="4.8655569553375244e-02" nType="-99"/>
        </Node>
      </Node>
    </BinaryTree>
    <BinaryTree type="DecisionTree" boostWeight="1.0000000000000000e+00" itree="686">
      <Node pos="s" depth="0" NCoef="0" IVar="0" Cut="1.6116940975189209e-01" cType="1" res="-1.0390672287030611e-06" rms="3.2351905107498169e-01" purity="5.9855979681015015e-01" nType="0">
        <Node pos="l" depth="1" NCoef="0" IVar="-1" Cut="0.0000000000000000e+00" cType="1" res="2.3885584960225970e-04" rms="3.2276776432991028e-01" purity="8.4581202268600464e-01" nType="-99"/>
        <Node pos="r" depth="1" NCoef="0" IVar="3" Cut="3.9234051108360291e-01" cType="0" res="-9.3407923122867942e-04" rms="3.2490158081054688e-01" purity="1.4138005673885345e-01" nType="0">
          <Node pos="l" depth="2" NCoef="0" IVar="-1" Cut="0.0000000000000000e+00" cType="1" res="8.5436496883630753e-03" rms="4.6282273530960083e-01" purity="3.5326087474822998e-01" nType="-99"/>
          <Node pos="r" depth="2" NCoef="0" IVar="-1" Cut="0.0000000000000000e+00" cType="1" res="-7.7791203511878848e-04" rms="3.2142722606658936e-01" purity="1.3705019652843475e-01" nType="-99"/>
        </Node>
      </Node>
    </BinaryTree>
    <BinaryTree type="DecisionTree" boostWeight="1.0000000000000000e+00" itree="687">
      <Node pos="s" depth="0" NCoef="0" IVar="2" Cut="3.5591530799865723e-01" cType="1" res="-1.0196882840318722e-06" rms="3.2351768016815186e-01" purity="5.9855979681015015e-01" nType="0">
        <Node pos="l" depth="1" NCoef="0" IVar="-1" Cut="0.0000000000000000e+00" cType="1" res="-5.4887455189600587e-04" rms="2.8189674019813538e-01" purity="8.3244299888610840e-01" nType="-99"/>
        <Node pos="r" depth="1" NCoef="0" IVar="0" Cut="1.8740630149841309e-01" cType="1" res="5.5944337509572506e-04" rms="3.4749981760978699e-01" purity="4.4918462634086609e-01" nType="0">
          <Node pos="l" depth="2" NCoef="0" IVar="-1" Cut="0.0000000000000000e+00" cType="1" res="9.5136038726195693e-04" rms="3.7734931707382202e-01" purity="7.6515668630599976e-01" nType="-99"/>
          <Node pos="r" depth="2" NCoef="0" IVar="-1" Cut="0.0000000000000000e+00" cType="1" res="-8.3043810445815325e-04" rms="3.1391581892967224e-01" purity="1.2493658065795898e-01" nType="-99"/>
        </Node>
      </Node>
    </BinaryTree>
    <BinaryTree type="DecisionTree" boostWeight="1.0000000000000000e+00" itree="688">
      <Node pos="s" depth="0" NCoef="0" IVar="3" Cut="2.7259728312492371e-01" cType="0" res="-9.0313420741949813e-07" rms="3.2351693511009216e-01" purity="5.9855979681015015e-01" nType="0">
        <Node pos="l" depth="1" NCoef="0" IVar="-1" Cut="0.0000000000000000e+00" cType="1" res="-3.2201051362790167e-04" rms="3.6497098207473755e-01" purity="5.9957766532897949e-01" nType="-99"/>
        <Node pos="r" depth="1" NCoef="0" IVar="3" Cut="2.7177110314369202e-01" cType="1" res="6.7954655969515443e-04" rms="2.8626042604446411e-01" purity="5.9774965047836304e-01" nType="0">
          <Node pos="l" depth="2" NCoef="0" IVar="-1" Cut="0.0000000000000000e+00" cType="1" res="2.1106064377818257e-04" rms="2.8591346740722656e-01" purity="5.9816080331802368e-01" nType="-99"/>
          <Node pos="r" depth="2" NCoef="0" IVar="-1" Cut="0.0000000000000000e+00" cType="1" res="3.1773056834936142e-02" rms="3.5326388478279114e-01" purity="4.9572649598121643e-01" nType="-99"/>
        </Node>
      </Node>
    </BinaryTree>
    <BinaryTree type="DecisionTree" boostWeight="1.0000000000000000e+00" itree="689">
      <Node pos="s" depth="0" NCoef="0" IVar="3" Cut="2.6060399413108826e-01" cType="1" res="-8.6845204805285903e-07" rms="3.2350969314575195e-01" purity="5.9855979681015015e-01" nType="0">
        <Node pos="l" depth="1" NCoef="0" IVar="-1" Cut="0.0000000000000000e+00" cType="1" res="4.1696120752021670e-04" rms="2.8250148892402649e-01" purity="6.1518114805221558e-01" nType="-99"/>
        <Node pos="r" depth="1" NCoef="0" IVar="0" Cut="3.4482759237289429e-01" cType="1" res="-7.4835034320130944e-04" rms="3.6272209882736206e-01" purity="5.8056175708770752e-01" nType="0">
          <Node pos="l" depth="2" NCoef="0" IVar="-1" Cut="0.0000000000000000e+00" cType="1" res="-7.7886547660455108e-04" rms="3.7616136670112610e-01" purity="7.0340603590011597e-01" nType="-99"/>
          <Node pos="r" depth="2" NCoef="0" IVar="-1" Cut="0.0000000000000000e+00" cType="1" res="2.6192376390099525e-03" rms="3.0615878105163574e-01" purity="1.1300191283226013e-01" nType="-99"/>
        </Node>
      </Node>
    </BinaryTree>
    <BinaryTree type="DecisionTree" boostWeight="1.0000000000000000e+00" itree="690">
      <Node pos="s" depth="0" NCoef="0" IVar="2" Cut="2.9222521185874939e-01" cType="1" res="-8.5410812289410387e-07" rms="3.2350707054138184e-01" purity="5.9855979681015015e-01" nType="0">
        <Node pos="l" depth="1" NCoef="0" IVar="-1" Cut="0.0000000000000000e+00" cType="1" res="-6.1643635854125023e-04" rms="2.7586215734481812e-01" purity="8.4798938035964966e-01" nType="-99"/>
        <Node pos="r" depth="1" NCoef="0" IVar="3" Cut="1.0626529902219772e-01" cType="0" res="4.9702799879014492e-04" rms="3.4605032205581665e-01" purity="4.6671533584594727e-01" nType="0">
          <Node pos="l" depth="2" NCoef="0" IVar="-1" Cut="0.0000000000000000e+00" cType="1" res="1.6192984185181558e-04" rms="3.4609341621398926e-01" purity="4.6767204999923706e-01" nType="-99"/>
          <Node pos="r" depth="2" NCoef="0" IVar="-1" Cut="0.0000000000000000e+00" cType="1" res="1.9801033660769463e-02" rms="3.2916572690010071e-01" purity="1.4000000059604645e-01" nType="-99"/>
        </Node>
      </Node>
    </BinaryTree>
    <BinaryTree type="DecisionTree" boostWeight="1.0000000000000000e+00" itree="691">
      <Node pos="s" depth="0" NCoef="0" IVar="0" Cut="2.0439779758453369e+00" cType="1" res="-8.5453996234718943e-07" rms="3.2350510358810425e-01" purity="5.9855979681015015e-01" nType="0">
        <Node pos="l" depth="1" NCoef="0" IVar="-1" Cut="0.0000000000000000e+00" cType="1" res="4.0408365748589858e-05" rms="3.2338181138038635e-01" purity="6.0564202070236206e-01" nType="-99"/>
        <Node pos="r" depth="1" NCoef="0" IVar="3" Cut="1.3391660153865814e-01" cType="1" res="-5.4933079518377781e-03" rms="3.3119198679924011e-01" purity="1.4901477098464966e-01" nType="0">
          <Node pos="l" depth="2" NCoef="0" IVar="-1" Cut="0.0000000000000000e+00" cType="1" res="1.9883845001459122e-02" rms="3.7460580468177795e-01" purity="1.8627451360225677e-01" nType="-99"/>
          <Node pos="r" depth="2" NCoef="0" IVar="-1" Cut="0.0000000000000000e+00" cType="1" res="-5.4023242555558681e-03" rms="3.2379701733589172e-01" purity="1.4366197586059570e-01" nType="-99"/>
        </Node>
      </Node>
    </BinaryTree>
    <BinaryTree type="DecisionTree" boostWeight="1.0000000000000000e+00" itree="692">
      <Node pos="s" depth="0" NCoef="0" IVar="3" Cut="2.6060399413108826e-01" cType="1" res="-9.4850355480957660e-07" rms="3.2350328564643860e-01" purity="5.9855979681015015e-01" nType="0">
        <Node pos="l" depth="1" NCoef="0" IVar="-1" Cut="0.0000000000000000e+00" cType="1" res="3.9475492667406797e-04" rms="2.8249177336692810e-01" purity="6.1518114805221558e-01" nType="-99"/>
        <Node pos="r" depth="1" NCoef="0" IVar="3" Cut="2.6132345199584961e-01" cType="0" res="-7.0902321022003889e-04" rms="3.6271849274635315e-01" purity="5.8056175708770752e-01" nType="0">
          <Node pos="l" depth="2" NCoef="0" IVar="-1" Cut="0.0000000000000000e+00" cType="1" res="-2.0070161554031074e-04" rms="3.6276605725288391e-01" purity="5.8195835351943970e-01" nType="-99"/>
          <Node pos="r" depth="2" NCoef="0" IVar="-1" Cut="0.0000000000000000e+00" cType="1" res="-1.9922573119401932e-02" rms="3.4855630993843079e-01" purity="2.4761904776096344e-01" nType="-99"/>
        </Node>
      </Node>
    </BinaryTree>
    <BinaryTree type="DecisionTree" boostWeight="1.0000000000000000e+00" itree="693">
      <Node pos="s" depth="0" NCoef="0" IVar="1" Cut="1.7991004884243011e-01" cType="1" res="-8.9874799868994160e-07" rms="3.2350176572799683e-01" purity="5.9855979681015015e-01" nType="0">
        <Node pos="l" depth="1" NCoef="0" IVar="-1" Cut="0.0000000000000000e+00" cType="1" res="1.9147525017615408e-04" rms="3.1455534696578979e-01" purity="7.0187205076217651e-01" nType="-99"/>
        <Node pos="r" depth="1" NCoef="0" IVar="2" Cut="5.7695746421813965e-01" cType="1" res="-1.1795574100688100e-03" rms="3.4922561049461365e-01" purity="2.8532922267913818e-01" nType="0">
          <Node pos="l" depth="2" NCoef="0" IVar="-1" Cut="0.0000000000000000e+00" cType="1" res="-3.9302525110542774e-03" rms="3.7718698382377625e-01" purity="4.7295048832893372e-01" nType="-99"/>
          <Node pos="r" depth="2" NCoef="0" IVar="-1" Cut="0.0000000000000000e+00" cType="1" res="2.1393843926489353e-03" rms="3.3155849575996399e-01" purity="1.7508253455162048e-01" nType="-99"/>
        </Node>
      </Node>
    </BinaryTree>
    <BinaryTree type="DecisionTree" boostWeight="1.0000000000000000e+00" itree="694">
      <Node pos="s" depth="0" NCoef="0" IVar="0" Cut="4.7851073741912842e-01" cType="1" res="-8.4988243997941026e-07" rms="3.2349574565887451e-01" purity="5.9855979681015015e-01" nType="0">
        <Node pos="l" depth="1" NCoef="0" IVar="-1" Cut="0.0000000000000000e+00" cType="1" res="1.4869388542138040e-04" rms="3.3674710988998413e-01" purity="7.1715843677520752e-01" nType="-99"/>
        <Node pos="r" depth="1" NCoef="0" IVar="2" Cut="9.1414034366607666e-01" cType="0" res="-1.5078599099069834e-03" rms="2.5711998343467712e-01" purity="7.6184578239917755e-02" nType="0">
          <Node pos="l" depth="2" NCoef="0" IVar="-1" Cut="0.0000000000000000e+00" cType="1" res="-3.2730929087847471e-03" rms="2.5921428203582764e-01" purity="7.8959375619888306e-02" nType="-99"/>
          <Node pos="r" depth="2" NCoef="0" IVar="-1" Cut="0.0000000000000000e+00" cType="1" res="4.5574465766549110e-03" rms="2.5250259041786194e-01" purity="7.0327550172805786e-02" nType="-99"/>
        </Node>
      </Node>
    </BinaryTree>
    <BinaryTree type="DecisionTree" boostWeight="1.0000000000000000e+00" itree="695">
      <Node pos="s" depth="0" NCoef="0" IVar="0" Cut="5.9970013797283173e-02" cType="1" res="-1.0398703125247266e-06" rms="3.2349568605422974e-01" purity="5.9855979681015015e-01" nType="0">
        <Node pos="l" depth="1" NCoef="0" IVar="-1" Cut="0.0000000000000000e+00" cType="1" res="4.0766655001789331e-04" rms="2.8266340494155884e-01" purity="8.9877647161483765e-01" nType="-99"/>
        <Node pos="r" depth="1" NCoef="0" IVar="2" Cut="1.0003093481063843e+00" cType="1" res="-6.9019844522699714e-04" rms="3.6096891760826111e-01" purity="2.8743678331375122e-01" nType="0">
          <Node pos="l" depth="2" NCoef="0" IVar="-1" Cut="0.0000000000000000e+00" cType="1" res="-1.6345351468771696e-03" rms="3.7216156721115112e-01" purity="3.4198909997940063e-01" nType="-99"/>
          <Node pos="r" depth="2" NCoef="0" IVar="-1" Cut="0.0000000000000000e+00" cType="1" res="1.4754065778106451e-03" rms="3.4793147444725037e-01" purity="2.2622977197170258e-01" nType="-99"/>
        </Node>
      </Node>
    </BinaryTree>
    <BinaryTree type="DecisionTree" boostWeight="1.0000000000000000e+00" itree="696">
      <Node pos="s" depth="0" NCoef="0" IVar="3" Cut="2.6060399413108826e-01" cType="1" res="-9.9491285254771356e-07" rms="3.2349106669425964e-01" purity="5.9855979681015015e-01" nType="0">
        <Node pos="l" depth="1" NCoef="0" IVar="-1" Cut="0.0000000000000000e+00" cType="1" res="4.1478840284980834e-04" rms="2.8248363733291626e-01" purity="6.1518114805221558e-01" nType="-99"/>
        <Node pos="r" depth="1" NCoef="0" IVar="0" Cut="3.4482759237289429e-01" cType="1" res="-7.4486120138317347e-04" rms="3.6270254850387573e-01" purity="5.8056175708770752e-01" nType="0">
          <Node pos="l" depth="2" NCoef="0" IVar="-1" Cut="0.0000000000000000e+00" cType="1" res="-7.3382450500503182e-04" rms="3.7614291906356812e-01" purity="7.0340603590011597e-01" nType="-99"/>
          <Node pos="r" depth="2" NCoef="0" IVar="-1" Cut="0.0000000000000000e+00" cType="1" res="2.3566205054521561e-03" rms="3.0614411830902100e-01" purity="1.1300191283226013e-01" nType="-99"/>
        </Node>
      </Node>
    </BinaryTree>
    <BinaryTree type="DecisionTree" boostWeight="1.0000000000000000e+00" itree="697">
      <Node pos="s" depth="0" NCoef="0" IVar="0" Cut="4.7851073741912842e-01" cType="1" res="-9.5247781928264885e-07" rms="3.2348871231079102e-01" purity="5.9855979681015015e-01" nType="0">
        <Node pos="l" depth="1" NCoef="0" IVar="-1" Cut="0.0000000000000000e+00" cType="1" res="1.5857433027122170e-04" rms="3.3673992753028870e-01" purity="7.1715843677520752e-01" nType="-99"/>
        <Node pos="r" depth="1" NCoef="0" IVar="3" Cut="7.6512508094310760e-02" cType="1" res="-1.6082770889624953e-03" rms="2.5711292028427124e-01" purity="7.6184578239917755e-02" nType="0">
          <Node pos="l" depth="2" NCoef="0" IVar="-1" Cut="0.0000000000000000e+00" cType="1" res="2.8701785951852798e-02" rms="2.9574024677276611e-01" purity="9.8159506916999817e-02" nType="-99"/>
          <Node pos="r" depth="2" NCoef="0" IVar="-1" Cut="0.0000000000000000e+00" cType="1" res="-1.6042444622144103e-03" rms="2.5635883212089539e-01" purity="7.5808480381965637e-02" nType="-99"/>
        </Node>
      </Node>
    </BinaryTree>
    <BinaryTree type="DecisionTree" boostWeight="1.0000000000000000e+00" itree="698">
      <Node pos="s" depth="0" NCoef="0" IVar="0" Cut="1.6116940975189209e-01" cType="1" res="-1.1595193427638151e-06" rms="3.2348829507827759e-01" purity="5.9855979681015015e-01" nType="0">
        <Node pos="l" depth="1" NCoef="0" IVar="-1" Cut="0.0000000000000000e+00" cType="1" res="2.4776099598966539e-04" rms="3.2274729013442993e-01" purity="8.4581202268600464e-01" nType="-99"/>
        <Node pos="r" depth="1" NCoef="0" IVar="2" Cut="9.7408398985862732e-02" cType="1" res="-9.6886436222121119e-04" rms="3.2485178112983704e-01" purity="1.4138005673885345e-01" nType="0">
          <Node pos="l" depth="2" NCoef="0" IVar="-1" Cut="0.0000000000000000e+00" cType="1" res="1.7994338646531105e-02" rms="3.5395154356956482e-01" purity="1.8118466436862946e-01" nType="-99"/>
          <Node pos="r" depth="2" NCoef="0" IVar="-1" Cut="0.0000000000000000e+00" cType="1" res="-7.3076330590993166e-04" rms="3.2433262467384338e-01" purity="1.4074851572513580e-01" nType="-99"/>
        </Node>
      </Node>
    </BinaryTree>
    <BinaryTree type="DecisionTree" boostWeight="1.0000000000000000e+00" itree="699">
      <Node pos="s" depth="0" NCoef="0" IVar="3" Cut="1.4491881430149078e-01" cType="1" res="-1.2633438473130809e-06" rms="3.2348620891571045e-01" purity="5.9855979681015015e-01" nType="0">
        <Node pos="l" depth="1" NCoef="0" IVar="-1" Cut="0.0000000000000000e+00" cType="1" res="-8.2546082558110356e-04" rms="2.6064807176589966e-01" purity="8.3438467979431152e-01" nType="-99"/>
        <Node pos="r" depth="1" NCoef="0" IVar="3" Cut="1.5645994246006012e-01" cType="0" res="4.7923272359184921e-04" rms="3.4659954905509949e-01" purity="4.9904936552047729e-01" nType="0">
          <Node pos="l" depth="2" NCoef="0" IVar="-1" Cut="0.0000000000000000e+00" cType="1" res="-9.0073253886657767e-06" rms="3.4677895903587341e-01" purity="5.0051099061965942e-01" nType="-99"/>
          <Node pos="r" depth="2" NCoef="0" IVar="-1" Cut="0.0000000000000000e+00" cType="1" res="1.4139124192297459e-02" rms="3.3454942703247070e-01" purity="4.1300812363624573e-01" nType="-99"/>
        </Node>
      </Node>
    </BinaryTree>
    <BinaryTree type="DecisionTree" boostWeight="1.0000000000000000e+00" itree="700">
      <Node pos="s" depth="0" NCoef="0" IVar="2" Cut="2.3228156566619873e-01" cType="1" res="-1.1881990076290094e-06" rms="3.2348221540451050e-01" purity="5.9855979681015015e-01" nType="0">
        <Node pos="l" depth="1" NCoef="0" IVar="-1" Cut="0.0000000000000000e+00" cType="1" res="-7.0936261909082532e-04" rms="2.6957917213439941e-01" purity="8.6202687025070190e-01" nType="-99"/>
        <Node pos="r" depth="1" NCoef="0" IVar="3" Cut="1.4487259089946747e-01" cType="0" res="4.7110603190958500e-04" rms="3.4524759650230408e-01" purity="4.7859564423561096e-01" nType="0">
          <Node pos="l" depth="2" NCoef="0" IVar="-1" Cut="0.0000000000000000e+00" cType="1" res="3.8672925438731909e-04" rms="3.4696719050407410e-01" purity="4.8760944604873657e-01" nType="-99"/>
          <Node pos="r" depth="2" NCoef="0" IVar="-1" Cut="0.0000000000000000e+00" cType="1" res="-1.0325414128601551e-02" rms="2.6987236738204956e-01" purity="1.3009922206401825e-01" nType="-99"/>
        </Node>
      </Node>
    </BinaryTree>
    <BinaryTree type="DecisionTree" boostWeight="1.0000000000000000e+00" itree="701">
      <Node pos="s" depth="0" NCoef="0" IVar="3" Cut="2.6060399413108826e-01" cType="1" res="-1.2239323723406415e-06" rms="3.2348152995109558e-01" purity="5.9855979681015015e-01" nType="0">
        <Node pos="l" depth="1" NCoef="0" IVar="-1" Cut="0.0000000000000000e+00" cType="1" res="4.1169469477608800e-04" rms="2.8246372938156128e-01" purity="6.1518114805221558e-01" nType="-99"/>
        <Node pos="r" depth="1" NCoef="0" IVar="3" Cut="2.8213772177696228e-01" cType="0" res="-7.3981878813356161e-04" rms="3.6270162463188171e-01" purity="5.8056175708770752e-01" nType="0">
          <Node pos="l" depth="2" NCoef="0" IVar="-1" Cut="0.0000000000000000e+00" cType="1" res="1.0895325249293819e-04" rms="3.6733347177505493e-01" purity="6.1539882421493530e-01" nType="-99"/>
          <Node pos="r" depth="2" NCoef="0" IVar="-1" Cut="0.0000000000000000e+00" cType="1" res="-3.1223630066961050e-03" rms="3.3199414610862732e-01" purity="3.6128845810890198e-01" nType="-99"/>
        </Node>
      </Node>
    </BinaryTree>
    <BinaryTree type="DecisionTree" boostWeight="1.0000000000000000e+00" itree="702">
      <Node pos="s" depth="0" NCoef="0" IVar="3" Cut="2.9058721661567688e-01" cType="0" res="-1.1258150607318385e-06" rms="3.2348108291625977e-01" purity="5.9855979681015015e-01" nType="0">
        <Node pos="l" depth="1" NCoef="0" IVar="-1" Cut="0.0000000000000000e+00" cType="1" res="-3.3116625854745507e-04" rms="3.6838355660438538e-01" purity="6.2768095731735229e-01" nType="-99"/>
        <Node pos="r" depth="1" NCoef="0" IVar="3" Cut="2.8840887546539307e-01" cType="1" res="5.6797510478645563e-04" rms="2.9128271341323853e-01" purity="5.8000564575195312e-01" nType="0">
          <Node pos="l" depth="2" NCoef="0" IVar="-1" Cut="0.0000000000000000e+00" cType="1" res="9.0664907475002110e-05" rms="2.9063111543655396e-01" purity="5.8118307590484619e-01" nType="-99"/>
          <Node pos="r" depth="2" NCoef="0" IVar="-1" Cut="0.0000000000000000e+00" cType="1" res="1.5872027724981308e-02" rms="3.4804847836494446e-01" purity="4.6202531456947327e-01" nType="-99"/>
        </Node>
      </Node>
    </BinaryTree>
    <BinaryTree type="DecisionTree" boostWeight="1.0000000000000000e+00" itree="703">
      <Node pos="s" depth="0" NCoef="0" IVar="2" Cut="2.3228156566619873e-01" cType="1" res="-1.0559571137491730e-06" rms="3.2347628474235535e-01" purity="5.9855979681015015e-01" nType="0">
        <Node pos="l" depth="1" NCoef="0" IVar="-1" Cut="0.0000000000000000e+00" cType="1" res="-6.8848975934088230e-04" rms="2.6957857608795166e-01" purity="8.6202687025070190e-01" nType="-99"/>
        <Node pos="r" depth="1" NCoef="0" IVar="3" Cut="1.4487259089946747e-01" cType="0" res="4.5749827404506505e-04" rms="3.4523978829383850e-01" purity="4.7859564423561096e-01" nType="0">
          <Node pos="l" depth="2" NCoef="0" IVar="-1" Cut="0.0000000000000000e+00" cType="1" res="3.6312005249783397e-04" rms="3.4695899486541748e-01" purity="4.8760944604873657e-01" nType="-99"/>
          <Node pos="r" depth="2" NCoef="0" IVar="-1" Cut="0.0000000000000000e+00" cType="1" res="-9.4462474808096886e-03" rms="2.6999488472938538e-01" purity="1.3009922206401825e-01" nType="-99"/>
        </Node>
      </Node>
    </BinaryTree>
    <BinaryTree type="DecisionTree" boostWeight="1.0000000000000000e+00" itree="704">
      <Node pos="s" depth="0" NCoef="0" IVar="3" Cut="2.7259728312492371e-01" cType="0" res="-1.0772741916298401e-06" rms="3.2347583770751953e-01" purity="5.9855979681015015e-01" nType="0">
        <Node pos="l" depth="1" NCoef="0" IVar="-1" Cut="0.0000000000000000e+00" cType="1" res="-3.1774991657584906e-04" rms="3.6494302749633789e-01" purity="5.9957766532897949e-01" nType="-99"/>
        <Node pos="r" depth="1" NCoef="0" IVar="3" Cut="2.7149865031242371e-01" cType="1" res="6.7090481752529740e-04" rms="2.8620538115501404e-01" purity="5.9774965047836304e-01" nType="0">
          <Node pos="l" depth="2" NCoef="0" IVar="-1" Cut="0.0000000000000000e+00" cType="1" res="1.8589242245070636e-04" rms="2.8582644462585449e-01" purity="5.9834396839141846e-01" nType="-99"/>
          <Node pos="r" depth="2" NCoef="0" IVar="-1" Cut="0.0000000000000000e+00" cType="1" res="2.5046261027455330e-02" rms="3.4040006995201111e-01" purity="4.9397590756416321e-01" nType="-99"/>
        </Node>
      </Node>
    </BinaryTree>
    <BinaryTree type="DecisionTree" boostWeight="1.0000000000000000e+00" itree="705">
      <Node pos="s" depth="0" NCoef="0" IVar="3" Cut="2.6784995198249817e-01" cType="1" res="-1.0097819540533237e-06" rms="3.2346907258033752e-01" purity="5.9855979681015015e-01" nType="0">
        <Node pos="l" depth="1" NCoef="0" IVar="-1" Cut="0.0000000000000000e+00" cType="1" res="3.7477858131751418e-04" rms="2.8491604328155518e-01" purity="6.0393178462982178e-01" nType="-99"/>
        <Node pos="r" depth="1" NCoef="0" IVar="3" Cut="2.8306087851524353e-01" cType="0" res="-7.4756407411769032e-04" rms="3.6387562751770020e-01" purity="5.9219861030578613e-01" nType="0">
          <Node pos="l" depth="2" NCoef="0" IVar="-1" Cut="0.0000000000000000e+00" cType="1" res="1.0300018038833514e-04" rms="3.6752021312713623e-01" purity="6.1644852161407471e-01" nType="-99"/>
          <Node pos="r" depth="2" NCoef="0" IVar="-1" Cut="0.0000000000000000e+00" cType="1" res="-4.2063742876052856e-03" rms="3.2957467436790466e-01" purity="3.7665015459060669e-01" nType="-99"/>
        </Node>
      </Node>
    </BinaryTree>
    <BinaryTree type="DecisionTree" boostWeight="1.0000000000000000e+00" itree="706">
      <Node pos="s" depth="0" NCoef="0" IVar="3" Cut="2.9058721661567688e-01" cType="0" res="-9.3690044877803302e-07" rms="3.2346853613853455e-01" purity="5.9855979681015015e-01" nType="0">
        <Node pos="l" depth="1" NCoef="0" IVar="-1" Cut="0.0000000000000000e+00" cType="1" res="-3.1286597368307412e-04" rms="3.6838334798812866e-01" purity="6.2768095731735229e-01" nType="-99"/>
        <Node pos="r" depth="1" NCoef="0" IVar="3" Cut="2.8884452581405640e-01" cType="1" res="5.3683068836107850e-04" rms="2.9126024246215820e-01" purity="5.8000564575195312e-01" nType="0">
          <Node pos="l" depth="2" NCoef="0" IVar="-1" Cut="0.0000000000000000e+00" cType="1" res="1.1407942656660452e-04" rms="2.9082164168357849e-01" purity="5.8100521564483643e-01" nType="-99"/>
          <Node pos="r" depth="2" NCoef="0" IVar="-1" Cut="0.0000000000000000e+00" cType="1" res="1.5883602201938629e-02" rms="3.3725708723068237e-01" purity="4.6037736535072327e-01" nType="-99"/>
        </Node>
      </Node>
    </BinaryTree>
    <BinaryTree type="DecisionTree" boostWeight="1.0000000000000000e+00" itree="707">
      <Node pos="s" depth="0" NCoef="0" IVar="2" Cut="2.3228156566619873e-01" cType="1" res="-8.7819341842987342e-07" rms="3.2346403598785400e-01" purity="5.9855979681015015e-01" nType="0">
        <Node pos="l" depth="1" NCoef="0" IVar="-1" Cut="0.0000000000000000e+00" cType="1" res="-6.8710499908775091e-04" rms="2.6957854628562927e-01" purity="8.6202687025070190e-01" nType="-99"/>
        <Node pos="r" depth="1" NCoef="0" IVar="3" Cut="1.4487259089946747e-01" cType="0" res="4.5684122596867383e-04" rms="3.4522309899330139e-01" purity="4.7859564423561096e-01" nType="0">
          <Node pos="l" depth="2" NCoef="0" IVar="-1" Cut="0.0000000000000000e+00" cType="1" res="3.4697668161243200e-04" rms="3.4694150090217590e-01" purity="4.8760944604873657e-01" nType="-99"/>
          <Node pos="r" depth="2" NCoef="0" IVar="-1" Cut="0.0000000000000000e+00" cType="1" res="-8.6534563452005386e-03" rms="2.7010777592658997e-01" purity="1.3009922206401825e-01" nType="-99"/>
        </Node>
      </Node>
    </BinaryTree>
    <BinaryTree type="DecisionTree" boostWeight="1.0000000000000000e+00" itree="708">
      <Node pos="s" depth="0" NCoef="0" IVar="3" Cut="2.7259728312492371e-01" cType="0" res="-8.9358212562729022e-07" rms="3.2346373796463013e-01" purity="5.9855979681015015e-01" nType="0">
        <Node pos="l" depth="1" NCoef="0" IVar="-1" Cut="0.0000000000000000e+00" cType="1" res="-2.9478908982127905e-04" rms="3.6493241786956787e-01" purity="5.9957766532897949e-01" nType="-99"/>
        <Node pos="r" depth="1" NCoef="0" IVar="3" Cut="2.7149865031242371e-01" cType="1" res="6.2263052677735686e-04" rms="2.8619182109832764e-01" purity="5.9774965047836304e-01" nType="0">
          <Node pos="l" depth="2" NCoef="0" IVar="-1" Cut="0.0000000000000000e+00" cType="1" res="1.7533572099637240e-04" rms="2.8582409024238586e-01" purity="5.9834396839141846e-01" nType="-99"/>
          <Node pos="r" depth="2" NCoef="0" IVar="-1" Cut="0.0000000000000000e+00" cType="1" res="2.2829592227935791e-02" rms="3.3967515826225281e-01" purity="4.9397590756416321e-01" nType="-99"/>
        </Node>
      </Node>
    </BinaryTree>
    <BinaryTree type="DecisionTree" boostWeight="1.0000000000000000e+00" itree="709">
      <Node pos="s" depth="0" NCoef="0" IVar="2" Cut="1.1876331567764282e+00" cType="1" res="-8.3857560184696922e-07" rms="3.2345792651176453e-01" purity="5.9855979681015015e-01" nType="0">
        <Node pos="l" depth="1" NCoef="0" IVar="-1" Cut="0.0000000000000000e+00" cType="1" res="1.6451926785521209e-04" rms="3.1685319542884827e-01" purity="6.8335270881652832e-01" nType="-99"/>
        <Node pos="r" depth="1" NCoef="0" IVar="0" Cut="5.2473764866590500e-02" cType="1" res="-1.3816386926919222e-03" rms="3.4923797845840454e-01" purity="2.5080385804176331e-01" nType="0">
          <Node pos="l" depth="2" NCoef="0" IVar="-1" Cut="0.0000000000000000e+00" cType="1" res="-1.2211944907903671e-02" rms="3.9525440335273743e-01" purity="7.6255708932876587e-01" nType="-99"/>
          <Node pos="r" depth="2" NCoef="0" IVar="-1" Cut="0.0000000000000000e+00" cType="1" res="3.7433719262480736e-04" rms="3.4574821591377258e-01" purity="2.1580262482166290e-01" nType="-99"/>
        </Node>
      </Node>
    </BinaryTree>
    <BinaryTree type="DecisionTree" boostWeight="1.0000000000000000e+00" itree="710">
      <Node pos="s" depth="0" NCoef="0" IVar="0" Cut="9.4952523708343506e-02" cType="1" res="-4.6960775534898858e-07" rms="3.2345178723335266e-01" purity="5.9855979681015015e-01" nType="0">
        <Node pos="l" depth="1" NCoef="0" IVar="-1" Cut="0.0000000000000000e+00" cType="1" res="3.4345104359090328e-04" rms="2.9985606670379639e-01" purity="8.8115000724792480e-01" nType="-99"/>
        <Node pos="r" depth="1" NCoef="0" IVar="1" Cut="6.6216893494129181e-02" cType="1" res="-8.4936234634369612e-04" rms="3.5291185975074768e-01" purity="2.1568010747432709e-01" nType="0">
          <Node pos="l" depth="2" NCoef="0" IVar="-1" Cut="0.0000000000000000e+00" cType="1" res="-1.7524212598800659e-03" rms="3.8576713204383850e-01" purity="3.0815812945365906e-01" nType="-99"/>
          <Node pos="r" depth="2" NCoef="0" IVar="-1" Cut="0.0000000000000000e+00" cType="1" res="9.5420423895120621e-04" rms="3.2979947328567505e-01" purity="1.5563797950744629e-01" nType="-99"/>
        </Node>
      </Node>
    </BinaryTree>
    <BinaryTree type="DecisionTree" boostWeight="1.0000000000000000e+00" itree="711">
      <Node pos="s" depth="0" NCoef="0" IVar="1" Cut="5.2473764866590500e-02" cType="1" res="-4.7123242552515876e-07" rms="3.2345008850097656e-01" purity="5.9855979681015015e-01" nType="0">
        <Node pos="l" depth="1" NCoef="0" IVar="-1" Cut="0.0000000000000000e+00" cType="1" res="3.6074500530958176e-04" rms="3.0279904603958130e-01" purity="7.4758082628250122e-01" nType="-99"/>
        <Node pos="r" depth="1" NCoef="0" IVar="3" Cut="3.2905402779579163e-01" cType="0" res="-7.7372352825477719e-04" rms="3.4534054994583130e-01" purity="4.2985135316848755e-01" nType="0">
          <Node pos="l" depth="2" NCoef="0" IVar="-1" Cut="0.0000000000000000e+00" cType="1" res="1.4365322422236204e-03" rms="4.0904507040977478e-01" purity="5.7003039121627808e-01" nType="-99"/>
          <Node pos="r" depth="2" NCoef="0" IVar="-1" Cut="0.0000000000000000e+00" cType="1" res="-1.1912185000255704e-03" rms="3.2242846488952637e-01" purity="3.8525953888893127e-01" nType="-99"/>
        </Node>
      </Node>
    </BinaryTree>
    <BinaryTree type="DecisionTree" boostWeight="1.0000000000000000e+00" itree="712">
      <Node pos="s" depth="0" NCoef="0" IVar="3" Cut="2.6060399413108826e-01" cType="1" res="-4.2602303551575460e-07" rms="3.2344892621040344e-01" purity="5.9855979681015015e-01" nType="0">
        <Node pos="l" depth="1" NCoef="0" IVar="-1" Cut="0.0000000000000000e+00" cType="1" res="4.0300888940691948e-04" rms="2.8246030211448669e-01" purity="6.1518114805221558e-01" nType="-99"/>
        <Node pos="r" depth="1" NCoef="0" IVar="0" Cut="5.7721138000488281e-01" cType="1" res="-7.2234345134347677e-04" rms="3.6264404654502869e-01" purity="5.8056175708770752e-01" nType="0">
          <Node pos="l" depth="2" NCoef="0" IVar="-1" Cut="0.0000000000000000e+00" cType="1" res="-5.9642439009621739e-04" rms="3.7014225125312805e-01" purity="6.4039450883865356e-01" nType="-99"/>
          <Node pos="r" depth="2" NCoef="0" IVar="-1" Cut="0.0000000000000000e+00" cType="1" res="3.7990210112184286e-03" rms="2.9691869020462036e-01" purity="1.0914871096611023e-01" nType="-99"/>
        </Node>
      </Node>
    </BinaryTree>
    <BinaryTree type="DecisionTree" boostWeight="1.0000000000000000e+00" itree="713">
      <Node pos="s" depth="0" NCoef="0" IVar="0" Cut="4.7851073741912842e-01" cType="1" res="-4.6927834773669019e-07" rms="3.2344666123390198e-01" purity="5.9855979681015015e-01" nType="0">
        <Node pos="l" depth="1" NCoef="0" IVar="-1" Cut="0.0000000000000000e+00" cType="1" res="1.5291658928617835e-04" rms="3.3669468760490417e-01" purity="7.1715843677520752e-01" nType="-99"/>
        <Node pos="r" depth="1" NCoef="0" IVar="2" Cut="9.1414034366607666e-01" cType="0" res="-1.5482511371374130e-03" rms="2.5708833336830139e-01" purity="7.6184578239917755e-02" nType="0">
          <Node pos="l" depth="2" NCoef="0" IVar="-1" Cut="0.0000000000000000e+00" cType="1" res="-3.2779048196971416e-03" rms="2.5921392440795898e-01" purity="7.8959375619888306e-02" nType="-99"/>
          <Node pos="r" depth="2" NCoef="0" IVar="-1" Cut="0.0000000000000000e+00" cType="1" res="4.4538923539221287e-03" rms="2.5240609049797058e-01" purity="7.0327550172805786e-02" nType="-99"/>
        </Node>
      </Node>
    </BinaryTree>
    <BinaryTree type="DecisionTree" boostWeight="1.0000000000000000e+00" itree="714">
      <Node pos="s" depth="0" NCoef="0" IVar="2" Cut="2.3228156566619873e-01" cType="1" res="-6.9208914510454633e-07" rms="3.2344657182693481e-01" purity="5.9855979681015015e-01" nType="0">
        <Node pos="l" depth="1" NCoef="0" IVar="-1" Cut="0.0000000000000000e+00" cType="1" res="-6.9652480306103826e-04" rms="2.6957514882087708e-01" purity="8.6202687025070190e-01" nType="-99"/>
        <Node pos="r" depth="1" NCoef="0" IVar="3" Cut="1.4487259089946747e-01" cType="0" res="4.6325818402692676e-04" rms="3.4520044922828674e-01" purity="4.7859564423561096e-01" nType="0">
          <Node pos="l" depth="2" NCoef="0" IVar="-1" Cut="0.0000000000000000e+00" cType="1" res="3.3772634924389422e-04" rms="3.4691703319549561e-01" purity="4.8760944604873657e-01" nType="-99"/>
          <Node pos="r" depth="2" NCoef="0" IVar="-1" Cut="0.0000000000000000e+00" cType="1" res="-8.0384705215692520e-03" rms="2.7023711800575256e-01" purity="1.3009922206401825e-01" nType="-99"/>
        </Node>
      </Node>
    </BinaryTree>
    <BinaryTree type="DecisionTree" boostWeight="1.0000000000000000e+00" itree="715">
      <Node pos="s" depth="0" NCoef="0" IVar="0" Cut="2.4575212001800537e+00" cType="1" res="-7.0932929929767852e-07" rms="3.2344636321067810e-01" purity="5.9855979681015015e-01" nType="0">
        <Node pos="l" depth="1" NCoef="0" IVar="-1" Cut="0.0000000000000000e+00" cType="1" res="-3.2843348890310153e-05" rms="3.2307761907577515e-01" purity="6.0261505842208862e-01" nType="-99"/>
        <Node pos="r" depth="1" NCoef="0" IVar="2" Cut="2.3382983207702637e+00" cType="0" res="7.1461787447333336e-03" rms="3.5956972837448120e-01" purity="1.7800000309944153e-01" nType="0">
          <Node pos="l" depth="2" NCoef="0" IVar="-1" Cut="0.0000000000000000e+00" cType="1" res="1.1305119842290878e-02" rms="3.8766494393348694e-01" purity="2.3780487477779388e-01" nType="-99"/>
          <Node pos="r" depth="2" NCoef="0" IVar="-1" Cut="0.0000000000000000e+00" cType="1" res="-1.9846833311021328e-03" rms="3.4438726305961609e-01" purity="1.4880952239036560e-01" nType="-99"/>
        </Node>
      </Node>
    </BinaryTree>
    <BinaryTree type="DecisionTree" boostWeight="1.0000000000000000e+00" itree="716">
      <Node pos="s" depth="0" NCoef="0" IVar="2" Cut="3.1470406055450439e+00" cType="1" res="-6.9603009933416615e-07" rms="3.2344511151313782e-01" purity="5.9855979681015015e-01" nType="0">
        <Node pos="l" depth="1" NCoef="0" IVar="-1" Cut="0.0000000000000000e+00" cType="1" res="2.9971262847539037e-05" rms="3.2330960035324097e-01" purity="6.0167813301086426e-01" nType="-99"/>
        <Node pos="r" depth="1" NCoef="0" IVar="2" Cut="3.3106193542480469e+00" cType="0" res="-8.5406079888343811e-03" rms="3.4086951613426208e-01" purity="1.8414321541786194e-01" nType="0">
          <Node pos="l" depth="2" NCoef="0" IVar="-1" Cut="0.0000000000000000e+00" cType="1" res="1.7700387397781014e-03" rms="3.6277130246162415e-01" purity="2.1951219439506531e-01" nType="-99"/>
          <Node pos="r" depth="2" NCoef="0" IVar="-1" Cut="0.0000000000000000e+00" cType="1" res="-2.2635983303189278e-02" rms="2.6791754364967346e-01" purity="8.6538463830947876e-02" nType="-99"/>
        </Node>
      </Node>
    </BinaryTree>
    <BinaryTree type="DecisionTree" boostWeight="1.0000000000000000e+00" itree="717">
      <Node pos="s" depth="0" NCoef="0" IVar="2" Cut="3.4542517662048340e+00" cType="1" res="-7.5107396924067871e-07" rms="3.2344323396682739e-01" purity="5.9855979681015015e-01" nType="0">
        <Node pos="l" depth="1" NCoef="0" IVar="-1" Cut="0.0000000000000000e+00" cType="1" res="2.2890990294399671e-05" rms="3.2329207658767700e-01" purity="6.0029160976409912e-01" nType="-99"/>
        <Node pos="r" depth="1" NCoef="0" IVar="0" Cut="1.3097455501556396e+00" cType="1" res="-1.1373669840395451e-02" rms="3.5641935467720032e-01" purity="1.9911503791809082e-01" nType="0">
          <Node pos="l" depth="2" NCoef="0" IVar="-1" Cut="0.0000000000000000e+00" cType="1" res="3.1592557206749916e-03" rms="3.6686694622039795e-01" purity="2.1929824352264404e-01" nType="-99"/>
          <Node pos="r" depth="2" NCoef="0" IVar="-1" Cut="0.0000000000000000e+00" cType="1" res="-1.1092766188085079e-02" rms="3.4426054358482361e-01" purity="1.7857143282890320e-01" nType="-99"/>
        </Node>
      </Node>
    </BinaryTree>
    <BinaryTree type="DecisionTree" boostWeight="1.0000000000000000e+00" itree="718">
      <Node pos="s" depth="0" NCoef="0" IVar="3" Cut="2.6060399413108826e-01" cType="1" res="-7.1309204940916970e-07" rms="3.2344254851341248e-01" purity="5.9855979681015015e-01" nType="0">
        <Node pos="l" depth="1" NCoef="0" IVar="-1" Cut="0.0000000000000000e+00" cType="1" res="3.9565158658660948e-04" rms="2.8245601058006287e-01" purity="6.1518114805221558e-01" nType="-99"/>
        <Node pos="r" depth="1" NCoef="0" IVar="0" Cut="5.7721138000488281e-01" cType="1" res="-7.0981855969876051e-04" rms="3.6263582110404968e-01" purity="5.8056175708770752e-01" nType="0">
          <Node pos="l" depth="2" NCoef="0" IVar="-1" Cut="0.0000000000000000e+00" cType="1" res="-5.8114487910643220e-04" rms="3.7013763189315796e-01" purity="6.4039450883865356e-01" nType="-99"/>
          <Node pos="r" depth="2" NCoef="0" IVar="-1" Cut="0.0000000000000000e+00" cType="1" res="3.6640157923102379e-03" rms="2.9688137769699097e-01" purity="1.0914871096611023e-01" nType="-99"/>
        </Node>
      </Node>
    </BinaryTree>
    <BinaryTree type="DecisionTree" boostWeight="1.0000000000000000e+00" itree="719">
      <Node pos="s" depth="0" NCoef="0" IVar="0" Cut="5.3973013162612915e-01" cType="1" res="-7.2198969292003312e-07" rms="3.2344040274620056e-01" purity="5.9855979681015015e-01" nType="0">
        <Node pos="l" depth="1" NCoef="0" IVar="-1" Cut="0.0000000000000000e+00" cType="1" res="1.4577341789845377e-04" rms="3.3504641056060791e-01" purity="7.0156419277191162e-01" nType="-99"/>
        <Node pos="r" depth="1" NCoef="0" IVar="0" Cut="5.7401871681213379e-01" cType="0" res="-1.6836973372846842e-03" rms="2.5664845108985901e-01" purity="7.6396942138671875e-02" nType="0">
          <Node pos="l" depth="2" NCoef="0" IVar="-1" Cut="0.0000000000000000e+00" cType="1" res="3.1378562562167645e-04" rms="2.6012858748435974e-01" purity="7.8829944133758545e-02" nType="-99"/>
          <Node pos="r" depth="2" NCoef="0" IVar="-1" Cut="0.0000000000000000e+00" cType="1" res="-2.4042448028922081e-02" rms="1.9714003801345825e-01" purity="4.1218638420104980e-02" nType="-99"/>
        </Node>
      </Node>
    </BinaryTree>
    <BinaryTree type="DecisionTree" boostWeight="1.0000000000000000e+00" itree="720">
      <Node pos="s" depth="0" NCoef="0" IVar="0" Cut="6.5842080116271973e-01" cType="1" res="-1.3307379731486435e-06" rms="3.2343694567680359e-01" purity="5.9855979681015015e-01" nType="0">
        <Node pos="l" depth="1" NCoef="0" IVar="-1" Cut="0.0000000000000000e+00" cType="1" res="1.2980637256987393e-04" rms="3.3238399028778076e-01" purity="6.7745697498321533e-01" nType="-99"/>
        <Node pos="r" depth="1" NCoef="0" IVar="2" Cut="1.4049288034439087e+00" cType="0" res="-1.9285052549093962e-03" rms="2.5657525658607483e-01" purity="7.7169016003608704e-02" nType="0">
          <Node pos="l" depth="2" NCoef="0" IVar="-1" Cut="0.0000000000000000e+00" cType="1" res="-4.5018340460956097e-03" rms="2.6343730092048645e-01" purity="8.5556276142597198e-02" nType="-99"/>
          <Node pos="r" depth="2" NCoef="0" IVar="-1" Cut="0.0000000000000000e+00" cType="1" res="1.7847479321062565e-03" rms="2.5082132220268250e-01" purity="7.0396639406681061e-02" nType="-99"/>
        </Node>
      </Node>
    </BinaryTree>
    <BinaryTree type="DecisionTree" boostWeight="1.0000000000000000e+00" itree="721">
      <Node pos="s" depth="0" NCoef="0" IVar="0" Cut="2.4575212001800537e+00" cType="1" res="-1.3572339412348811e-06" rms="3.2343721389770508e-01" purity="5.9855979681015015e-01" nType="0">
        <Node pos="l" depth="1" NCoef="0" IVar="-1" Cut="0.0000000000000000e+00" cType="1" res="-3.2471434678882360e-05" rms="3.2307013869285583e-01" purity="6.0261505842208862e-01" nType="-99"/>
        <Node pos="r" depth="1" NCoef="0" IVar="2" Cut="2.3382983207702637e+00" cType="0" res="6.9948933087289333e-03" rms="3.5940647125244141e-01" purity="1.7800000309944153e-01" nType="0">
          <Node pos="l" depth="2" NCoef="0" IVar="-1" Cut="0.0000000000000000e+00" cType="1" res="1.0767639614641666e-02" rms="3.8745665550231934e-01" purity="2.3780487477779388e-01" nType="-99"/>
          <Node pos="r" depth="2" NCoef="0" IVar="-1" Cut="0.0000000000000000e+00" cType="1" res="-1.8064816249534488e-03" rms="3.4431040287017822e-01" purity="1.4880952239036560e-01" nType="-99"/>
        </Node>
      </Node>
    </BinaryTree>
    <BinaryTree type="DecisionTree" boostWeight="1.0000000000000000e+00" itree="722">
      <Node pos="s" depth="0" NCoef="0" IVar="2" Cut="3.4542517662048340e+00" cType="1" res="-1.2734548135995283e-06" rms="3.2343608140945435e-01" purity="5.9855979681015015e-01" nType="0">
        <Node pos="l" depth="1" NCoef="0" IVar="-1" Cut="0.0000000000000000e+00" cType="1" res="2.1288718926371075e-05" rms="3.2328593730926514e-01" purity="6.0029160976409912e-01" nType="-99"/>
        <Node pos="r" depth="1" NCoef="0" IVar="3" Cut="3.2233086228370667e-01" cType="0" res="-1.0708982124924660e-02" rms="3.5621970891952515e-01" purity="1.9911503791809082e-01" nType="0">
          <Node pos="l" depth="2" NCoef="0" IVar="-1" Cut="0.0000000000000000e+00" cType="1" res="-9.3325851485133171e-03" rms="3.7534680962562561e-01" purity="2.5471699237823486e-01" nType="-99"/>
          <Node pos="r" depth="2" NCoef="0" IVar="-1" Cut="0.0000000000000000e+00" cType="1" res="3.4812116064131260e-03" rms="3.3733338117599487e-01" purity="1.5000000596046448e-01" nType="-99"/>
        </Node>
      </Node>
    </BinaryTree>
    <BinaryTree type="DecisionTree" boostWeight="1.0000000000000000e+00" itree="723">
      <Node pos="s" depth="0" NCoef="0" IVar="0" Cut="6.5842080116271973e-01" cType="1" res="-1.1703758673320408e-06" rms="3.2343572378158569e-01" purity="5.9855979681015015e-01" nType="0">
        <Node pos="l" depth="1" NCoef="0" IVar="-1" Cut="0.0000000000000000e+00" cType="1" res="1.1931586050195619e-04" rms="3.3238393068313599e-01" purity="6.7745697498321533e-01" nType="-99"/>
        <Node pos="r" depth="1" NCoef="0" IVar="1" Cut="3.2108944654464722e-01" cType="0" res="-1.7721446929499507e-03" rms="2.5656539201736450e-01" purity="7.7169016003608704e-02" nType="0">
          <Node pos="l" depth="2" NCoef="0" IVar="-1" Cut="0.0000000000000000e+00" cType="1" res="2.2159523796290159e-03" rms="2.8205281496047974e-01" purity="9.5867209136486053e-02" nType="-99"/>
          <Node pos="r" depth="2" NCoef="0" IVar="-1" Cut="0.0000000000000000e+00" cType="1" res="-4.6134064905345440e-03" rms="2.3553176224231720e-01" purity="6.3120387494564056e-02" nType="-99"/>
        </Node>
      </Node>
    </BinaryTree>
    <BinaryTree type="DecisionTree" boostWeight="1.0000000000000000e+00" itree="724">
      <Node pos="s" depth="0" NCoef="0" IVar="1" Cut="4.1854071617126465e-01" cType="1" res="-1.2473520882849698e-06" rms="3.2343521714210510e-01" purity="5.9855979681015015e-01" nType="0">
        <Node pos="l" depth="1" NCoef="0" IVar="-1" Cut="0.0000000000000000e+00" cType="1" res="1.1727159289875999e-04" rms="3.2250496745109558e-01" purity="6.5104132890701294e-01" nType="-99"/>
        <Node pos="r" depth="1" NCoef="0" IVar="2" Cut="3.8214063644409180e-01" cType="1" res="-2.0632590167224407e-03" rms="3.3104014396667480e-01" purity="1.6344277560710907e-01" nType="0">
          <Node pos="l" depth="2" NCoef="0" IVar="-1" Cut="0.0000000000000000e+00" cType="1" res="-6.8162409588694572e-03" rms="3.8408225774765015e-01" purity="2.7246093750000000e-01" nType="-99"/>
          <Node pos="r" depth="2" NCoef="0" IVar="-1" Cut="0.0000000000000000e+00" cType="1" res="9.6160994144156575e-04" rms="3.1792071461677551e-01" purity="1.3923227787017822e-01" nType="-99"/>
        </Node>
      </Node>
    </BinaryTree>
    <BinaryTree type="DecisionTree" boostWeight="1.0000000000000000e+00" itree="725">
      <Node pos="s" depth="0" NCoef="0" IVar="1" Cut="1.3018491268157959e+00" cType="1" res="-1.1871572951349663e-06" rms="3.2343155145645142e-01" purity="5.9855979681015015e-01" nType="0">
        <Node pos="l" depth="1" NCoef="0" IVar="-1" Cut="0.0000000000000000e+00" cType="1" res="3.4894237614935264e-05" rms="3.2329010963439941e-01" purity="6.0432100296020508e-01" nType="-99"/>
        <Node pos="r" depth="1" NCoef="0" IVar="3" Cut="1.8903064727783203e-01" cType="1" res="-5.9534022584557533e-03" rms="3.3438557386398315e-01" purity="1.4241960644721985e-01" nType="0">
          <Node pos="l" depth="2" NCoef="0" IVar="-1" Cut="0.0000000000000000e+00" cType="1" res="1.1890266090631485e-02" rms="3.7089419364929199e-01" purity="1.8032786250114441e-01" nType="-99"/>
          <Node pos="r" depth="2" NCoef="0" IVar="-1" Cut="0.0000000000000000e+00" cType="1" res="-8.4062041714787483e-03" rms="3.1802526116371155e-01" purity="1.2765957415103912e-01" nType="-99"/>
        </Node>
      </Node>
    </BinaryTree>
    <BinaryTree type="DecisionTree" boostWeight="1.0000000000000000e+00" itree="726">
      <Node pos="s" depth="0" NCoef="0" IVar="2" Cut="2.3228156566619873e-01" cType="1" res="-1.2320878113314393e-06" rms="3.2342991232872009e-01" purity="5.9855979681015015e-01" nType="0">
        <Node pos="l" depth="1" NCoef="0" IVar="-1" Cut="0.0000000000000000e+00" cType="1" res="-6.6692655673250556e-04" rms="2.6957201957702637e-01" purity="8.6202687025070190e-01" nType="-99"/>
        <Node pos="r" depth="1" NCoef="0" IVar="2" Cut="2.4680936336517334e-01" cType="1" res="4.4255875400267541e-04" rms="3.4517893195152283e-01" purity="4.7859564423561096e-01" nType="0">
          <Node pos="l" depth="2" NCoef="0" IVar="-1" Cut="0.0000000000000000e+00" cType="1" res="1.0733450762927532e-02" rms="3.2116556167602539e-01" purity="7.4373257160186768e-01" nType="-99"/>
          <Node pos="r" depth="2" NCoef="0" IVar="-1" Cut="0.0000000000000000e+00" cType="1" res="9.3546783318743110e-05" rms="3.4540575742721558e-01" purity="4.7592306137084961e-01" nType="-99"/>
        </Node>
      </Node>
    </BinaryTree>
    <BinaryTree type="DecisionTree" boostWeight="1.0000000000000000e+00" itree="727">
      <Node pos="s" depth="0" NCoef="0" IVar="0" Cut="5.9970013797283173e-02" cType="1" res="-1.0473693237145199e-06" rms="3.2342821359634399e-01" purity="5.9855979681015015e-01" nType="0">
        <Node pos="l" depth="1" NCoef="0" IVar="-1" Cut="0.0000000000000000e+00" cType="1" res="3.9406275027431548e-04" rms="2.8263211250305176e-01" purity="8.9877647161483765e-01" nType="-99"/>
        <Node pos="r" depth="1" NCoef="0" IVar="2" Cut="1.0003093481063843e+00" cType="1" res="-6.6675542620941997e-04" rms="3.6087122559547424e-01" purity="2.8743678331375122e-01" nType="0">
          <Node pos="l" depth="2" NCoef="0" IVar="-1" Cut="0.0000000000000000e+00" cType="1" res="-1.5528473304584622e-03" rms="3.7205156683921814e-01" purity="3.4198909997940063e-01" nType="-99"/>
          <Node pos="r" depth="2" NCoef="0" IVar="-1" Cut="0.0000000000000000e+00" cType="1" res="1.3914314331486821e-03" rms="3.4785377979278564e-01" purity="2.2622977197170258e-01" nType="-99"/>
        </Node>
      </Node>
    </BinaryTree>
    <BinaryTree type="DecisionTree" boostWeight="1.0000000000000000e+00" itree="728">
      <Node pos="s" depth="0" NCoef="0" IVar="3" Cut="2.6060399413108826e-01" cType="1" res="-9.9548401522042695e-07" rms="3.2342404127120972e-01" purity="5.9855979681015015e-01" nType="0">
        <Node pos="l" depth="1" NCoef="0" IVar="-1" Cut="0.0000000000000000e+00" cType="1" res="4.0664235712029040e-04" rms="2.8243684768676758e-01" purity="6.1518114805221558e-01" nType="-99"/>
        <Node pos="r" depth="1" NCoef="0" IVar="0" Cut="3.4482759237289429e-01" cType="1" res="-7.2941998951137066e-04" rms="3.6261755228042603e-01" purity="5.8056175708770752e-01" nType="0">
          <Node pos="l" depth="2" NCoef="0" IVar="-1" Cut="0.0000000000000000e+00" cType="1" res="-7.0669729029759765e-04" rms="3.7606245279312134e-01" purity="7.0340603590011597e-01" nType="-99"/>
          <Node pos="r" depth="2" NCoef="0" IVar="-1" Cut="0.0000000000000000e+00" cType="1" res="2.2345525212585926e-03" rms="3.0604121088981628e-01" purity="1.1300191283226013e-01" nType="-99"/>
        </Node>
      </Node>
    </BinaryTree>
    <BinaryTree type="DecisionTree" boostWeight="1.0000000000000000e+00" itree="729">
      <Node pos="s" depth="0" NCoef="0" IVar="2" Cut="1.9256891012191772e+00" cType="1" res="-9.4640563474968076e-07" rms="3.2342183589935303e-01" purity="5.9855979681015015e-01" nType="0">
        <Node pos="l" depth="1" NCoef="0" IVar="-1" Cut="0.0000000000000000e+00" cType="1" res="8.7167762103490531e-05" rms="3.2271701097488403e-01" purity="6.2506610155105591e-01" nType="-99"/>
        <Node pos="r" depth="1" NCoef="0" IVar="0" Cut="1.7116442322731018e-01" cType="1" res="-2.8660143725574017e-03" rms="3.3414688706398010e-01" purity="1.8757881224155426e-01" nType="0">
          <Node pos="l" depth="2" NCoef="0" IVar="-1" Cut="0.0000000000000000e+00" cType="1" res="-8.9475587010383606e-03" rms="4.3696346879005432e-01" purity="6.1092150211334229e-01" nType="-99"/>
          <Node pos="r" depth="2" NCoef="0" IVar="-1" Cut="0.0000000000000000e+00" cType="1" res="1.9246127340011299e-04" rms="3.2166489958763123e-01" purity="1.4449462294578552e-01" nType="-99"/>
        </Node>
      </Node>
    </BinaryTree>
    <BinaryTree type="DecisionTree" boostWeight="1.0000000000000000e+00" itree="730">
      <Node pos="s" depth="0" NCoef="0" IVar="0" Cut="1.6116940975189209e-01" cType="1" res="-8.0961291359926690e-07" rms="3.2341942191123962e-01" purity="5.9855979681015015e-01" nType="0">
        <Node pos="l" depth="1" NCoef="0" IVar="-1" Cut="0.0000000000000000e+00" cType="1" res="2.5555241154506803e-04" rms="3.2269120216369629e-01" purity="8.4581202268600464e-01" nType="-99"/>
        <Node pos="r" depth="1" NCoef="0" IVar="3" Cut="2.5080457329750061e-01" cType="0" res="-9.9787255749106407e-04" rms="3.2475927472114563e-01" purity="1.4138005673885345e-01" nType="0">
          <Node pos="l" depth="2" NCoef="0" IVar="-1" Cut="0.0000000000000000e+00" cType="1" res="1.2607781682163477e-03" rms="3.6078611016273499e-01" purity="1.8347975611686707e-01" nType="-99"/>
          <Node pos="r" depth="2" NCoef="0" IVar="-1" Cut="0.0000000000000000e+00" cType="1" res="-3.7122853100299835e-03" rms="2.7668660879135132e-01" purity="9.2175140976905823e-02" nType="-99"/>
        </Node>
      </Node>
    </BinaryTree>
    <BinaryTree type="DecisionTree" boostWeight="1.0000000000000000e+00" itree="731">
      <Node pos="s" depth="0" NCoef="0" IVar="3" Cut="2.6060399413108826e-01" cType="1" res="-1.0161337513636681e-06" rms="3.2341596484184265e-01" purity="5.9855979681015015e-01" nType="0">
        <Node pos="l" depth="1" NCoef="0" IVar="-1" Cut="0.0000000000000000e+00" cType="1" res="4.4894931488670409e-04" rms="2.8242984414100647e-01" purity="6.1518114805221558e-01" nType="-99"/>
        <Node pos="r" depth="1" NCoef="0" IVar="3" Cut="2.6479250192642212e-01" cType="0" res="-8.0364226596429944e-04" rms="3.6260816454887390e-01" purity="5.8056175708770752e-01" nType="0">
          <Node pos="l" depth="2" NCoef="0" IVar="-1" Cut="0.0000000000000000e+00" cType="1" res="-1.5000412531662732e-04" rms="3.6350497603416443e-01" purity="5.8746170997619629e-01" nType="-99"/>
          <Node pos="r" depth="2" NCoef="0" IVar="-1" Cut="0.0000000000000000e+00" cType="1" res="-7.1521485224366188e-03" rms="3.2673004269599915e-01" purity="3.2104453444480896e-01" nType="-99"/>
        </Node>
      </Node>
    </BinaryTree>
    <BinaryTree type="DecisionTree" boostWeight="1.0000000000000000e+00" itree="732">
      <Node pos="s" depth="0" NCoef="0" IVar="3" Cut="2.6784995198249817e-01" cType="1" res="-9.4135845074561075e-07" rms="3.2341486215591431e-01" purity="5.9855979681015015e-01" nType="0">
        <Node pos="l" depth="1" NCoef="0" IVar="-1" Cut="0.0000000000000000e+00" cType="1" res="3.9404959534294903e-04" rms="2.8487998247146606e-01" purity="6.0393178462982178e-01" nType="-99"/>
        <Node pos="r" depth="1" NCoef="0" IVar="3" Cut="2.8306087851524353e-01" cType="0" res="-7.8345311339944601e-04" rms="3.6380365490913391e-01" purity="5.9219861030578613e-01" nType="0">
          <Node pos="l" depth="2" NCoef="0" IVar="-1" Cut="0.0000000000000000e+00" cType="1" res="7.0206515374593437e-05" rms="3.6745861172676086e-01" purity="6.1644852161407471e-01" nType="-99"/>
          <Node pos="r" depth="2" NCoef="0" IVar="-1" Cut="0.0000000000000000e+00" cType="1" res="-4.0200301446020603e-03" rms="3.2941329479217529e-01" purity="3.7665015459060669e-01" nType="-99"/>
        </Node>
      </Node>
    </BinaryTree>
    <BinaryTree type="DecisionTree" boostWeight="1.0000000000000000e+00" itree="733">
      <Node pos="s" depth="0" NCoef="0" IVar="2" Cut="2.3228156566619873e-01" cType="1" res="-8.7212526977964444e-07" rms="3.2341441512107849e-01" purity="5.9855979681015015e-01" nType="0">
        <Node pos="l" depth="1" NCoef="0" IVar="-1" Cut="0.0000000000000000e+00" cType="1" res="-7.3504727333784103e-04" rms="2.6957166194915771e-01" purity="8.6202687025070190e-01" nType="-99"/>
        <Node pos="r" depth="1" NCoef="0" IVar="3" Cut="1.3724091649055481e-01" cType="0" res="4.8750772839412093e-04" rms="3.4515774250030518e-01" purity="4.7859564423561096e-01" nType="0">
          <Node pos="l" depth="2" NCoef="0" IVar="-1" Cut="0.0000000000000000e+00" cType="1" res="3.1754776136949658e-04" rms="3.4653109312057495e-01" purity="4.8574021458625793e-01" nType="-99"/>
          <Node pos="r" depth="2" NCoef="0" IVar="-1" Cut="0.0000000000000000e+00" cType="1" res="-8.5575282573699951e-03" rms="2.6655682921409607e-01" purity="1.1857143044471741e-01" nType="-99"/>
        </Node>
      </Node>
    </BinaryTree>
    <BinaryTree type="DecisionTree" boostWeight="1.0000000000000000e+00" itree="734">
      <Node pos="s" depth="0" NCoef="0" IVar="3" Cut="2.9058721661567688e-01" cType="0" res="-8.5931037574482616e-07" rms="3.2341390848159790e-01" purity="5.9855979681015015e-01" nType="0">
        <Node pos="l" depth="1" NCoef="0" IVar="-1" Cut="0.0000000000000000e+00" cType="1" res="-3.5426055546849966e-04" rms="3.6833095550537109e-01" purity="6.2768095731735229e-01" nType="-99"/>
        <Node pos="r" depth="1" NCoef="0" IVar="3" Cut="2.8303569555282593e-01" cType="1" res="6.0872593894600868e-04" rms="2.9120272397994995e-01" purity="5.8000564575195312e-01" nType="0">
          <Node pos="l" depth="2" NCoef="0" IVar="-1" Cut="0.0000000000000000e+00" cType="1" res="-2.8304912120802328e-05" rms="2.8866061568260193e-01" purity="5.8612519502639771e-01" nType="-99"/>
          <Node pos="r" depth="2" NCoef="0" IVar="-1" Cut="0.0000000000000000e+00" cType="1" res="7.3605054058134556e-03" rms="3.5090568661689758e-01" purity="4.1957446932792664e-01" nType="-99"/>
        </Node>
      </Node>
    </BinaryTree>
    <BinaryTree type="DecisionTree" boostWeight="1.0000000000000000e+00" itree="735">
      <Node pos="s" depth="0" NCoef="0" IVar="3" Cut="2.7259728312492371e-01" cType="0" res="-8.1096783333123312e-07" rms="3.2341033220291138e-01" purity="5.9855979681015015e-01" nType="0">
        <Node pos="l" depth="1" NCoef="0" IVar="-1" Cut="0.0000000000000000e+00" cType="1" res="-3.0968646751716733e-04" rms="3.6487147212028503e-01" purity="5.9957766532897949e-01" nType="-99"/>
        <Node pos="r" depth="1" NCoef="0" IVar="3" Cut="2.7177110314369202e-01" cType="1" res="6.5506645478308201e-04" rms="2.8614515066146851e-01" purity="5.9774965047836304e-01" nType="0">
          <Node pos="l" depth="2" NCoef="0" IVar="-1" Cut="0.0000000000000000e+00" cType="1" res="2.3857994528952986e-04" rms="2.8582546114921570e-01" purity="5.9816080331802368e-01" nType="-99"/>
          <Node pos="r" depth="2" NCoef="0" IVar="-1" Cut="0.0000000000000000e+00" cType="1" res="2.4494538083672523e-02" rms="3.5118037462234497e-01" purity="4.9572649598121643e-01" nType="-99"/>
        </Node>
      </Node>
    </BinaryTree>
    <BinaryTree type="DecisionTree" boostWeight="1.0000000000000000e+00" itree="736">
      <Node pos="s" depth="0" NCoef="0" IVar="2" Cut="2.5401113033294678e+00" cType="1" res="-7.6497752843351918e-07" rms="3.2340553402900696e-01" purity="5.9855979681015015e-01" nType="0">
        <Node pos="l" depth="1" NCoef="0" IVar="-1" Cut="0.0000000000000000e+00" cType="1" res="4.8247631639242172e-05" rms="3.2315027713775635e-01" purity="6.0765719413757324e-01" nType="-99"/>
        <Node pos="r" depth="1" NCoef="0" IVar="2" Cut="2.6195185184478760e+00" cType="0" res="-4.7621619887650013e-03" rms="3.3496472239494324e-01" purity="1.7779783904552460e-01" nType="0">
          <Node pos="l" depth="2" NCoef="0" IVar="-1" Cut="0.0000000000000000e+00" cType="1" res="9.8167650867253542e-04" rms="3.4236913919448853e-01" purity="1.8762886524200439e-01" nType="-99"/>
          <Node pos="r" depth="2" NCoef="0" IVar="-1" Cut="0.0000000000000000e+00" cType="1" res="-2.5430388748645782e-02" rms="2.7219846844673157e-01" purity="1.0869564861059189e-01" nType="-99"/>
        </Node>
      </Node>
    </BinaryTree>
    <BinaryTree type="DecisionTree" boostWeight="1.0000000000000000e+00" itree="737">
      <Node pos="s" depth="0" NCoef="0" IVar="2" Cut="3.4542517662048340e+00" cType="1" res="-8.9098034550261218e-07" rms="3.2340288162231445e-01" purity="5.9855979681015015e-01" nType="0">
        <Node pos="l" depth="1" NCoef="0" IVar="-1" Cut="0.0000000000000000e+00" cType="1" res="2.1389472749433480e-05" rms="3.2325339317321777e-01" purity="6.0029160976409912e-01" nType="-99"/>
        <Node pos="r" depth="1" NCoef="0" IVar="1" Cut="3.2983508706092834e-01" cType="1" res="-1.0665701702237129e-02" rms="3.5605117678642273e-01" purity="1.9911503791809082e-01" nType="0">
          <Node pos="l" depth="2" NCoef="0" IVar="-1" Cut="0.0000000000000000e+00" cType="1" res="2.8024427592754364e-03" rms="3.7505906820297241e-01" purity="2.3140496015548706e-01" nType="-99"/>
          <Node pos="r" depth="2" NCoef="0" IVar="-1" Cut="0.0000000000000000e+00" cType="1" res="-1.1964912526309490e-02" rms="3.3148446679115295e-01" purity="1.6190476715564728e-01" nType="-99"/>
        </Node>
      </Node>
    </BinaryTree>
    <BinaryTree type="DecisionTree" boostWeight="1.0000000000000000e+00" itree="738">
      <Node pos="s" depth="0" NCoef="0" IVar="2" Cut="1.9856327772140503e-01" cType="1" res="-8.4155999502399936e-07" rms="3.2340234518051147e-01" purity="5.9855979681015015e-01" nType="0">
        <Node pos="l" depth="1" NCoef="0" IVar="-1" Cut="0.0000000000000000e+00" cType="1" res="-7.3665875243023038e-04" rms="2.6624655723571777e-01" purity="8.7120628356933594e-01" nType="-99"/>
        <Node pos="r" depth="1" NCoef="0" IVar="3" Cut="2.6091894507408142e-01" cType="0" res="4.4176148367114365e-04" rms="3.4471777081489563e-01" purity="4.8334330320358276e-01" nType="0">
          <Node pos="l" depth="2" NCoef="0" IVar="-1" Cut="0.0000000000000000e+00" cType="1" res="-2.7216970920562744e-04" rms="3.6258256435394287e-01" purity="5.8107459545135498e-01" nType="-99"/>
          <Node pos="r" depth="2" NCoef="0" IVar="-1" Cut="0.0000000000000000e+00" cType="1" res="1.4999235281720757e-03" rms="3.0291759967803955e-01" purity="2.7403107285499573e-01" nType="-99"/>
        </Node>
      </Node>
    </BinaryTree>
    <BinaryTree type="DecisionTree" boostWeight="1.0000000000000000e+00" itree="739">
      <Node pos="s" depth="0" NCoef="0" IVar="0" Cut="1.6116940975189209e-01" cType="1" res="-7.7095444339647656e-07" rms="3.2339978218078613e-01" purity="5.9855979681015015e-01" nType="0">
        <Node pos="l" depth="1" NCoef="0" IVar="-1" Cut="0.0000000000000000e+00" cType="1" res="2.4660068447701633e-04" rms="3.2267588376998901e-01" purity="8.4581202268600464e-01" nType="-99"/>
        <Node pos="r" depth="1" NCoef="0" IVar="2" Cut="9.7408398985862732e-02" cType="1" res="-9.6287310589104891e-04" rms="3.2473188638687134e-01" purity="1.4138005673885345e-01" nType="0">
          <Node pos="l" depth="2" NCoef="0" IVar="-1" Cut="0.0000000000000000e+00" cType="1" res="1.6740582883358002e-02" rms="3.5396856069564819e-01" purity="1.8118466436862946e-01" nType="-99"/>
          <Node pos="r" depth="2" NCoef="0" IVar="-1" Cut="0.0000000000000000e+00" cType="1" res="-7.1209209272637963e-04" rms="3.2421439886093140e-01" purity="1.4074851572513580e-01" nType="-99"/>
        </Node>
      </Node>
    </BinaryTree>
    <BinaryTree type="DecisionTree" boostWeight="1.0000000000000000e+00" itree="740">
      <Node pos="s" depth="0" NCoef="0" IVar="2" Cut="2.3228156566619873e-01" cType="1" res="-8.8567787770443829e-07" rms="3.2339805364608765e-01" purity="5.9855979681015015e-01" nType="0">
        <Node pos="l" depth="1" NCoef="0" IVar="-1" Cut="0.0000000000000000e+00" cType="1" res="-6.9404114037752151e-04" rms="2.6955980062484741e-01" purity="8.6202687025070190e-01" nType="-99"/>
        <Node pos="r" depth="1" NCoef="0" IVar="3" Cut="1.1524374037981033e-01" cType="0" res="4.6087382361292839e-04" rms="3.4513977169990540e-01" purity="4.7859564423561096e-01" nType="0">
          <Node pos="l" depth="2" NCoef="0" IVar="-1" Cut="0.0000000000000000e+00" cType="1" res="2.5575468316674232e-04" rms="3.4573587775230408e-01" purity="4.8142758011817932e-01" nType="-99"/>
          <Node pos="r" depth="2" NCoef="0" IVar="-1" Cut="0.0000000000000000e+00" cType="1" res="-1.4893123880028725e-02" rms="2.4392014741897583e-01" purity="7.2289153933525085e-02" nType="-99"/>
        </Node>
      </Node>
    </BinaryTree>
    <BinaryTree type="DecisionTree" boostWeight="1.0000000000000000e+00" itree="741">
      <Node pos="s" depth="0" NCoef="0" IVar="3" Cut="2.6784995198249817e-01" cType="1" res="-8.9615235765450052e-07" rms="3.2339692115783691e-01" purity="5.9855979681015015e-01" nType="0">
        <Node pos="l" depth="1" NCoef="0" IVar="-1" Cut="0.0000000000000000e+00" cType="1" res="3.5794937866739929e-04" rms="2.8486344218254089e-01" purity="6.0393178462982178e-01" nType="-99"/>
        <Node pos="r" depth="1" NCoef="0" IVar="3" Cut="2.8306087851524353e-01" cType="0" res="-7.1243481943383813e-04" rms="3.6378446221351624e-01" purity="5.9219861030578613e-01" nType="0">
          <Node pos="l" depth="2" NCoef="0" IVar="-1" Cut="0.0000000000000000e+00" cType="1" res="7.1674199716653675e-05" rms="3.6744743585586548e-01" purity="6.1644852161407471e-01" nType="-99"/>
          <Node pos="r" depth="2" NCoef="0" IVar="-1" Cut="0.0000000000000000e+00" cType="1" res="-3.7409379146993160e-03" rms="3.2933112978935242e-01" purity="3.7665015459060669e-01" nType="-99"/>
        </Node>
      </Node>
    </BinaryTree>
    <BinaryTree type="DecisionTree" boostWeight="1.0000000000000000e+00" itree="742">
      <Node pos="s" depth="0" NCoef="0" IVar="2" Cut="2.3228156566619873e-01" cType="1" res="-8.2909281218235265e-07" rms="3.2339665293693542e-01" purity="5.9855979681015015e-01" nType="0">
        <Node pos="l" depth="1" NCoef="0" IVar="-1" Cut="0.0000000000000000e+00" cType="1" res="-6.6016212804242969e-04" rms="2.6955887675285339e-01" purity="8.6202687025070190e-01" nType="-99"/>
        <Node pos="r" depth="1" NCoef="0" IVar="2" Cut="2.4680936336517334e-01" cType="1" res="4.3857152923010290e-04" rms="3.4513825178146362e-01" purity="4.7859564423561096e-01" nType="0">
          <Node pos="l" depth="2" NCoef="0" IVar="-1" Cut="0.0000000000000000e+00" cType="1" res="9.6427304670214653e-03" rms="3.2111927866935730e-01" purity="7.4373257160186768e-01" nType="-99"/>
          <Node pos="r" depth="2" NCoef="0" IVar="-1" Cut="0.0000000000000000e+00" cType="1" res="1.0206062870565802e-04" rms="3.4536659717559814e-01" purity="4.7592306137084961e-01" nType="-99"/>
        </Node>
      </Node>
    </BinaryTree>
    <BinaryTree type="DecisionTree" boostWeight="1.0000000000000000e+00" itree="743">
      <Node pos="s" depth="0" NCoef="0" IVar="0" Cut="1.4617690443992615e-01" cType="1" res="-6.9435935756700928e-07" rms="3.2339519262313843e-01" purity="5.9855979681015015e-01" nType="0">
        <Node pos="l" depth="1" NCoef="0" IVar="-1" Cut="0.0000000000000000e+00" cType="1" res="2.3944294662214816e-04" rms="3.1880545616149902e-01" purity="8.5407841205596924e-01" nType="-99"/>
        <Node pos="r" depth="1" NCoef="0" IVar="0" Cut="1.4854422211647034e-01" cType="1" res="-8.6078775348141789e-04" rms="3.3125245571136475e-01" purity="1.5255126357078552e-01" nType="0">
          <Node pos="l" depth="2" NCoef="0" IVar="-1" Cut="0.0000000000000000e+00" cType="1" res="-2.1609880030155182e-02" rms="4.8001122474670410e-01" purity="3.4999999403953552e-01" nType="-99"/>
          <Node pos="r" depth="2" NCoef="0" IVar="-1" Cut="0.0000000000000000e+00" cType="1" res="-1.0654348443495110e-04" rms="3.3000329136848450e-01" purity="1.5130086243152618e-01" nType="-99"/>
        </Node>
      </Node>
    </BinaryTree>
    <BinaryTree type="DecisionTree" boostWeight="1.0000000000000000e+00" itree="744">
      <Node pos="s" depth="0" NCoef="0" IVar="3" Cut="4.7248530387878418e-01" cType="0" res="-6.5971266849373933e-07" rms="3.2338851690292358e-01" purity="5.9855979681015015e-01" nType="0">
        <Node pos="l" depth="1" NCoef="0" IVar="-1" Cut="0.0000000000000000e+00" cType="1" res="-2.1838452666997910e-03" rms="3.1738641858100891e-01" purity="8.6808508634567261e-01" nType="-99"/>
        <Node pos="r" depth="1" NCoef="0" IVar="3" Cut="4.6091490983963013e-01" cType="0" res="9.7344585810787976e-05" rms="3.2352435588836670e-01" purity="5.9237188100814819e-01" nType="0">
          <Node pos="l" depth="2" NCoef="0" IVar="-1" Cut="0.0000000000000000e+00" cType="1" res="7.6342904940247536e-03" rms="3.1458997726440430e-01" purity="8.6779659986495972e-01" nType="-99"/>
          <Node pos="r" depth="2" NCoef="0" IVar="-1" Cut="0.0000000000000000e+00" cType="1" res="-4.6575569285778329e-05" rms="3.2362192869186401e-01" purity="5.8915972709655762e-01" nType="-99"/>
        </Node>
      </Node>
    </BinaryTree>
    <BinaryTree type="DecisionTree" boostWeight="1.0000000000000000e+00" itree="745">
      <Node pos="s" depth="0" NCoef="0" IVar="3" Cut="3.4780514240264893e-01" cType="0" res="-4.9058928652812028e-07" rms="3.2338741421699524e-01" purity="5.9855979681015015e-01" nType="0">
        <Node pos="l" depth="1" NCoef="0" IVar="-1" Cut="0.0000000000000000e+00" cType="1" res="-4.5713552390225232e-04" rms="3.6881703138351440e-01" purity="7.3368912935256958e-01" nType="-99"/>
        <Node pos="r" depth="1" NCoef="0" IVar="3" Cut="3.4571141004562378e-01" cType="0" res="3.4944029175676405e-04" rms="3.0920904874801636e-01" purity="5.6002062559127808e-01" nType="0">
          <Node pos="l" depth="2" NCoef="0" IVar="-1" Cut="0.0000000000000000e+00" cType="1" res="1.1024353094398975e-02" rms="3.5459887981414795e-01" purity="6.1245673894882202e-01" nType="-99"/>
          <Node pos="r" depth="2" NCoef="0" IVar="-1" Cut="0.0000000000000000e+00" cType="1" res="5.5046741181286052e-05" rms="3.0884739756584167e-01" purity="5.5964595079421997e-01" nType="-99"/>
        </Node>
      </Node>
    </BinaryTree>
    <BinaryTree type="DecisionTree" boostWeight="1.0000000000000000e+00" itree="746">
      <Node pos="s" depth="0" NCoef="0" IVar="0" Cut="1.6116940975189209e-01" cType="1" res="-4.2309412151553261e-07" rms="3.2338529825210571e-01" purity="5.9855979681015015e-01" nType="0">
        <Node pos="l" depth="1" NCoef="0" IVar="-1" Cut="0.0000000000000000e+00" cType="1" res="2.2238655947148800e-04" rms="3.2265675067901611e-01" purity="8.4581202268600464e-01" nType="-99"/>
        <Node pos="r" depth="1" NCoef="0" IVar="3" Cut="2.5618246197700500e-01" cType="0" res="-8.6725066648796201e-04" rms="3.2472634315490723e-01" purity="1.4138005673885345e-01" nType="0">
          <Node pos="l" depth="2" NCoef="0" IVar="-1" Cut="0.0000000000000000e+00" cType="1" res="1.3632872141897678e-03" rms="3.6297434568405151e-01" purity="1.8599936366081238e-01" nType="-99"/>
          <Node pos="r" depth="2" NCoef="0" IVar="-1" Cut="0.0000000000000000e+00" cType="1" res="-3.3488611225038767e-03" rms="2.7934309840202332e-01" purity="9.4947248697280884e-02" nType="-99"/>
        </Node>
      </Node>
    </BinaryTree>
    <BinaryTree type="DecisionTree" boostWeight="1.0000000000000000e+00" itree="747">
      <Node pos="s" depth="0" NCoef="0" IVar="3" Cut="2.7884379029273987e-01" cType="0" res="-6.4038994196380372e-07" rms="3.2338225841522217e-01" purity="5.9855979681015015e-01" nType="0">
        <Node pos="l" depth="1" NCoef="0" IVar="-1" Cut="0.0000000000000000e+00" cType="1" res="-3.3683664514683187e-04" rms="3.6636912822723389e-01" purity="6.0930609703063965e-01" nType="-99"/>
        <Node pos="r" depth="1" NCoef="0" IVar="3" Cut="2.7814462780952454e-01" cType="1" res="6.6379015333950520e-04" rms="2.8759053349494934e-01" purity="5.9063452482223511e-01" nType="0">
          <Node pos="l" depth="2" NCoef="0" IVar="-1" Cut="0.0000000000000000e+00" cType="1" res="2.3654707183595747e-04" rms="2.8724443912506104e-01" purity="5.9130287170410156e-01" nType="-99"/>
          <Node pos="r" depth="2" NCoef="0" IVar="-1" Cut="0.0000000000000000e+00" cType="1" res="2.7597241103649139e-02" rms="3.5716235637664795e-01" purity="4.2622950673103333e-01" nType="-99"/>
        </Node>
      </Node>
    </BinaryTree>
    <BinaryTree type="DecisionTree" boostWeight="1.0000000000000000e+00" itree="748">
      <Node pos="s" depth="0" NCoef="0" IVar="3" Cut="2.6784995198249817e-01" cType="1" res="-6.3536793959428906e-07" rms="3.2337781786918640e-01" purity="5.9855979681015015e-01" nType="0">
        <Node pos="l" depth="1" NCoef="0" IVar="-1" Cut="0.0000000000000000e+00" cType="1" res="3.9292359724640846e-04" rms="2.8484749794006348e-01" purity="6.0393178462982178e-01" nType="-99"/>
        <Node pos="r" depth="1" NCoef="0" IVar="2" Cut="4.7021389007568359e-01" cType="1" res="-7.8004319220781326e-04" rms="3.6376184225082397e-01" purity="5.9219861030578613e-01" nType="0">
          <Node pos="l" depth="2" NCoef="0" IVar="-1" Cut="0.0000000000000000e+00" cType="1" res="1.6856488073244691e-03" rms="3.2211756706237793e-01" purity="8.3929979801177979e-01" nType="-99"/>
          <Node pos="r" depth="2" NCoef="0" IVar="-1" Cut="0.0000000000000000e+00" cType="1" res="-8.2507269689813256e-04" rms="3.7760728597640991e-01" purity="5.0331836938858032e-01" nType="-99"/>
        </Node>
      </Node>
    </BinaryTree>
    <BinaryTree type="DecisionTree" boostWeight="1.0000000000000000e+00" itree="749">
      <Node pos="s" depth="0" NCoef="0" IVar="2" Cut="2.7349281311035156e-01" cType="1" res="-5.2888782420268399e-07" rms="3.2337701320648193e-01" purity="5.9855979681015015e-01" nType="0">
        <Node pos="l" depth="1" NCoef="0" IVar="-1" Cut="0.0000000000000000e+00" cType="1" res="-6.3602399313822389e-04" rms="2.7366289496421814e-01" purity="8.5204869508743286e-01" nType="-99"/>
        <Node pos="r" depth="1" NCoef="0" IVar="2" Cut="2.7713200449943542e-01" cType="1" res="4.8004681593738496e-04" rms="3.4564945101737976e-01" purity="4.7129535675048828e-01" nType="0">
          <Node pos="l" depth="2" NCoef="0" IVar="-1" Cut="0.0000000000000000e+00" cType="1" res="1.9444847479462624e-02" rms="2.8803572058677673e-01" purity="7.5193798542022705e-01" nType="-99"/>
          <Node pos="r" depth="2" NCoef="0" IVar="-1" Cut="0.0000000000000000e+00" cType="1" res="1.3183000555727631e-04" rms="3.4583562612533569e-01" purity="4.7025284171104431e-01" nType="-99"/>
        </Node>
      </Node>
    </BinaryTree>
    <BinaryTree type="DecisionTree" boostWeight="1.0000000000000000e+00" itree="750">
      <Node pos="s" depth="0" NCoef="0" IVar="3" Cut="2.6060399413108826e-01" cType="1" res="-3.9922110772749875e-07" rms="3.2337439060211182e-01" purity="5.9855979681015015e-01" nType="0">
        <Node pos="l" depth="1" NCoef="0" IVar="-1" Cut="0.0000000000000000e+00" cType="1" res="4.0473171975463629e-04" rms="2.8239703178405762e-01" purity="6.1518114805221558e-01" nType="-99"/>
        <Node pos="r" depth="1" NCoef="0" IVar="3" Cut="2.6132345199584961e-01" cType="0" res="-7.2302628541365266e-04" rms="3.6255890130996704e-01" purity="5.8056175708770752e-01" nType="0">
          <Node pos="l" depth="2" NCoef="0" IVar="-1" Cut="0.0000000000000000e+00" cType="1" res="-2.1442404249683022e-04" rms="3.6260885000228882e-01" purity="5.8195835351943970e-01" nType="-99"/>
          <Node pos="r" depth="2" NCoef="0" IVar="-1" Cut="0.0000000000000000e+00" cType="1" res="-1.7667757347226143e-02" rms="3.4842243790626526e-01" purity="2.4761904776096344e-01" nType="-99"/>
        </Node>
      </Node>
    </BinaryTree>
    <BinaryTree type="DecisionTree" boostWeight="1.0000000000000000e+00" itree="751">
      <Node pos="s" depth="0" NCoef="0" IVar="0" Cut="2.4575212001800537e+00" cType="1" res="-3.9385361105814809e-07" rms="3.2337319850921631e-01" purity="5.9855979681015015e-01" nType="0">
        <Node pos="l" depth="1" NCoef="0" IVar="-1" Cut="0.0000000000000000e+00" cType="1" res="-3.1236479117069393e-05" rms="3.2300883531570435e-01" purity="6.0261505842208862e-01" nType="-99"/>
        <Node pos="r" depth="1" NCoef="0" IVar="2" Cut="1.3615382909774780e+00" cType="1" res="6.8178353831171989e-03" rms="3.5909464955329895e-01" purity="1.7800000309944153e-01" nType="0">
          <Node pos="l" depth="2" NCoef="0" IVar="-1" Cut="0.0000000000000000e+00" cType="1" res="1.1387716047465801e-02" rms="3.7372031807899475e-01" purity="1.8343195319175720e-01" nType="-99"/>
          <Node pos="r" depth="2" NCoef="0" IVar="-1" Cut="0.0000000000000000e+00" cType="1" res="-1.6775163821876049e-03" rms="3.5086610913276672e-01" purity="1.7522658407688141e-01" nType="-99"/>
        </Node>
      </Node>
    </BinaryTree>
    <BinaryTree type="DecisionTree" boostWeight="1.0000000000000000e+00" itree="752">
      <Node pos="s" depth="0" NCoef="0" IVar="2" Cut="2.7349281311035156e-01" cType="1" res="-4.2563726765365573e-07" rms="3.2337206602096558e-01" purity="5.9855979681015015e-01" nType="0">
        <Node pos="l" depth="1" NCoef="0" IVar="-1" Cut="0.0000000000000000e+00" cType="1" res="-6.0728366952389479e-04" rms="2.7366125583648682e-01" purity="8.5204869508743286e-01" nType="-99"/>
        <Node pos="r" depth="1" NCoef="0" IVar="2" Cut="2.7713200449943542e-01" cType="1" res="4.5862788101658225e-04" rms="3.4564322233200073e-01" purity="4.7129535675048828e-01" nType="0">
          <Node pos="l" depth="2" NCoef="0" IVar="-1" Cut="0.0000000000000000e+00" cType="1" res="1.7725735902786255e-02" rms="2.8780198097229004e-01" purity="7.5193798542022705e-01" nType="-99"/>
          <Node pos="r" depth="2" NCoef="0" IVar="-1" Cut="0.0000000000000000e+00" cType="1" res="1.2955133570358157e-04" rms="3.4583202004432678e-01" purity="4.7025284171104431e-01" nType="-99"/>
        </Node>
      </Node>
    </BinaryTree>
    <BinaryTree type="DecisionTree" boostWeight="1.0000000000000000e+00" itree="753">
      <Node pos="s" depth="0" NCoef="0" IVar="3" Cut="2.6784995198249817e-01" cType="1" res="-3.1874532169240410e-07" rms="3.2336983084678650e-01" purity="5.9855979681015015e-01" nType="0">
        <Node pos="l" depth="1" NCoef="0" IVar="-1" Cut="0.0000000000000000e+00" cType="1" res="3.7180897197686136e-04" rms="2.8484106063842773e-01" purity="6.0393178462982178e-01" nType="-99"/>
        <Node pos="r" depth="1" NCoef="0" IVar="3" Cut="2.8213292360305786e-01" cType="0" res="-7.3803565464913845e-04" rms="3.6375251412391663e-01" purity="5.9219861030578613e-01" nType="0">
          <Node pos="l" depth="2" NCoef="0" IVar="-1" Cut="0.0000000000000000e+00" cType="1" res="4.7439396439585835e-05" rms="3.6728200316429138e-01" purity="6.1537045240402222e-01" nType="-99"/>
          <Node pos="r" depth="2" NCoef="0" IVar="-1" Cut="0.0000000000000000e+00" cType="1" res="-3.8527399301528931e-03" rms="3.2815140485763550e-01" purity="3.7165424227714539e-01" nType="-99"/>
        </Node>
      </Node>
    </BinaryTree>
    <BinaryTree type="DecisionTree" boostWeight="1.0000000000000000e+00" itree="754">
      <Node pos="s" depth="0" NCoef="0" IVar="3" Cut="2.9058721661567688e-01" cType="0" res="-3.0995883548712300e-07" rms="3.2336956262588501e-01" purity="5.9855979681015015e-01" nType="0">
        <Node pos="l" depth="1" NCoef="0" IVar="-1" Cut="0.0000000000000000e+00" cType="1" res="-2.9759728931821883e-04" rms="3.6831137537956238e-01" purity="6.2768095731735229e-01" nType="-99"/>
        <Node pos="r" depth="1" NCoef="0" IVar="3" Cut="2.8840887546539307e-01" cType="1" res="5.1183300092816353e-04" rms="2.9113838076591492e-01" purity="5.8000564575195312e-01" nType="0">
          <Node pos="l" depth="2" NCoef="0" IVar="-1" Cut="0.0000000000000000e+00" cType="1" res="1.1291002010693774e-04" rms="2.9050481319427490e-01" purity="5.8118307590484619e-01" nType="-99"/>
          <Node pos="r" depth="2" NCoef="0" IVar="-1" Cut="0.0000000000000000e+00" cType="1" res="1.2133048847317696e-02" rms="3.4739002585411072e-01" purity="4.6202531456947327e-01" nType="-99"/>
        </Node>
      </Node>
    </BinaryTree>
    <BinaryTree type="DecisionTree" boostWeight="1.0000000000000000e+00" itree="755">
      <Node pos="s" depth="0" NCoef="0" IVar="2" Cut="2.9222521185874939e-01" cType="1" res="-3.0327441891131457e-07" rms="3.2336655259132385e-01" purity="5.9855979681015015e-01" nType="0">
        <Node pos="l" depth="1" NCoef="0" IVar="-1" Cut="0.0000000000000000e+00" cType="1" res="-5.7080434635281563e-04" rms="2.7576467394828796e-01" purity="8.4798938035964966e-01" nType="-99"/>
        <Node pos="r" depth="1" NCoef="0" IVar="3" Cut="1.0626529902219772e-01" cType="0" res="4.6006432967260480e-04" rms="3.4589073061943054e-01" purity="4.6671533584594727e-01" nType="0">
          <Node pos="l" depth="2" NCoef="0" IVar="-1" Cut="0.0000000000000000e+00" cType="1" res="1.4188795466907322e-04" rms="3.4593066573143005e-01" purity="4.6767204999923706e-01" nType="-99"/>
          <Node pos="r" depth="2" NCoef="0" IVar="-1" Cut="0.0000000000000000e+00" cType="1" res="2.2965827956795692e-02" rms="3.2967323064804077e-01" purity="1.4000000059604645e-01" nType="-99"/>
        </Node>
      </Node>
    </BinaryTree>
    <BinaryTree type="DecisionTree" boostWeight="1.0000000000000000e+00" itree="756">
      <Node pos="s" depth="0" NCoef="0" IVar="3" Cut="2.7259728312492371e-01" cType="0" res="-3.9010049590615381e-07" rms="3.2336443662643433e-01" purity="5.9855979681015015e-01" nType="0">
        <Node pos="l" depth="1" NCoef="0" IVar="-1" Cut="0.0000000000000000e+00" cType="1" res="-2.7192092966288328e-04" rms="3.6482810974121094e-01" purity="5.9957766532897949e-01" nType="-99"/>
        <Node pos="r" depth="1" NCoef="0" IVar="3" Cut="2.7149865031242371e-01" cType="1" res="5.7537556858733296e-04" rms="2.8609639406204224e-01" purity="5.9774965047836304e-01" nType="0">
          <Node pos="l" depth="2" NCoef="0" IVar="-1" Cut="0.0000000000000000e+00" cType="1" res="1.7291848780587316e-04" rms="2.8574341535568237e-01" purity="5.9834396839141846e-01" nType="-99"/>
          <Node pos="r" depth="2" NCoef="0" IVar="-1" Cut="0.0000000000000000e+00" cType="1" res="1.9718557596206665e-02" rms="3.3857437968254089e-01" purity="4.9397590756416321e-01" nType="-99"/>
        </Node>
      </Node>
    </BinaryTree>
    <BinaryTree type="DecisionTree" boostWeight="1.0000000000000000e+00" itree="757">
      <Node pos="s" depth="0" NCoef="0" IVar="0" Cut="6.5842080116271973e-01" cType="1" res="-3.7699433619309275e-07" rms="3.2335984706878662e-01" purity="5.9855979681015015e-01" nType="0">
        <Node pos="l" depth="1" NCoef="0" IVar="-1" Cut="0.0000000000000000e+00" cType="1" res="1.1144464951939881e-04" rms="3.3230766654014587e-01" purity="6.7745697498321533e-01" nType="-99"/>
        <Node pos="r" depth="1" NCoef="0" IVar="0" Cut="7.9648286104202271e-01" cType="0" res="-1.6490538837388158e-03" rms="2.5649157166481018e-01" purity="7.7169016003608704e-02" nType="0">
          <Node pos="l" depth="2" NCoef="0" IVar="-1" Cut="0.0000000000000000e+00" cType="1" res="4.9794866936281323e-04" rms="2.6844283938407898e-01" purity="8.5542395710945129e-02" nType="-99"/>
          <Node pos="r" depth="2" NCoef="0" IVar="-1" Cut="0.0000000000000000e+00" cType="1" res="-8.9982617646455765e-03" rms="2.1057015657424927e-01" purity="4.8655569553375244e-02" nType="-99"/>
        </Node>
      </Node>
    </BinaryTree>
    <BinaryTree type="DecisionTree" boostWeight="1.0000000000000000e+00" itree="758">
      <Node pos="s" depth="0" NCoef="0" IVar="0" Cut="2.0439779758453369e+00" cType="1" res="-5.6560458006060799e-07" rms="3.2335957884788513e-01" purity="5.9855979681015015e-01" nType="0">
        <Node pos="l" depth="1" NCoef="0" IVar="-1" Cut="0.0000000000000000e+00" cType="1" res="3.7971312849549577e-05" rms="3.2324051856994629e-01" purity="6.0564202070236206e-01" nType="-99"/>
        <Node pos="r" depth="1" NCoef="0" IVar="3" Cut="1.3391660153865814e-01" cType="1" res="-5.1413830369710922e-03" rms="3.3078992366790771e-01" purity="1.4901477098464966e-01" nType="0">
          <Node pos="l" depth="2" NCoef="0" IVar="-1" Cut="0.0000000000000000e+00" cType="1" res="2.0762009546160698e-02" rms="3.7465608119964600e-01" purity="1.8627451360225677e-01" nType="-99"/>
          <Node pos="r" depth="2" NCoef="0" IVar="-1" Cut="0.0000000000000000e+00" cType="1" res="-5.3438586182892323e-03" rms="3.2328671216964722e-01" purity="1.4366197586059570e-01" nType="-99"/>
        </Node>
      </Node>
    </BinaryTree>
    <BinaryTree type="DecisionTree" boostWeight="1.0000000000000000e+00" itree="759">
      <Node pos="s" depth="0" NCoef="0" IVar="3" Cut="4.2751049995422363e-01" cType="0" res="-6.9692146098532248e-07" rms="3.2335764169692993e-01" purity="5.9855979681015015e-01" nType="0">
        <Node pos="l" depth="1" NCoef="0" IVar="-1" Cut="0.0000000000000000e+00" cType="1" res="9.9248089827597141e-04" rms="3.3445474505424500e-01" purity="8.4197926521301270e-01" nType="-99"/>
        <Node pos="r" depth="1" NCoef="0" IVar="3" Cut="4.2601159214973450e-01" cType="0" res="-1.7559980915393680e-04" rms="3.2248267531394958e-01" purity="5.7973045110702515e-01" nType="0">
          <Node pos="l" depth="2" NCoef="0" IVar="-1" Cut="0.0000000000000000e+00" cType="1" res="-2.0967531949281693e-02" rms="4.0629810094833374e-01" purity="6.9354838132858276e-01" nType="-99"/>
          <Node pos="r" depth="2" NCoef="0" IVar="-1" Cut="0.0000000000000000e+00" cType="1" res="-8.6099335021572188e-06" rms="3.2222524285316467e-01" purity="5.7943922281265259e-01" nType="-99"/>
        </Node>
      </Node>
    </BinaryTree>
    <BinaryTree type="DecisionTree" boostWeight="1.0000000000000000e+00" itree="760">
      <Node pos="s" depth="0" NCoef="0" IVar="2" Cut="1.5360555648803711e+00" cType="1" res="-4.8922788664640393e-07" rms="3.2335424423217773e-01" purity="5.9855979681015015e-01" nType="0">
        <Node pos="l" depth="1" NCoef="0" IVar="-1" Cut="0.0000000000000000e+00" cType="1" res="-1.0875715815927833e-04" rms="3.2067993283271790e-01" purity="6.4864921569824219e-01" nType="-99"/>
        <Node pos="r" depth="1" NCoef="0" IVar="2" Cut="1.5659518241882324e+00" cType="1" res="1.7336803721264005e-03" rms="3.4313842654228210e-01" purity="2.1498262882232666e-01" nType="0">
          <Node pos="l" depth="2" NCoef="0" IVar="-1" Cut="0.0000000000000000e+00" cType="1" res="2.1213235333561897e-02" rms="3.6765640974044800e-01" purity="3.1111112236976624e-01" nType="-99"/>
          <Node pos="r" depth="2" NCoef="0" IVar="-1" Cut="0.0000000000000000e+00" cType="1" res="-2.2205660934560001e-04" rms="3.4178149700164795e-01" purity="2.1048986911773682e-01" nType="-99"/>
        </Node>
      </Node>
    </BinaryTree>
    <BinaryTree type="DecisionTree" boostWeight="1.0000000000000000e+00" itree="761">
      <Node pos="s" depth="0" NCoef="0" IVar="3" Cut="4.1851553320884705e-01" cType="0" res="-5.9906608385063009e-07" rms="3.2334947586059570e-01" purity="5.9855979681015015e-01" nType="0">
        <Node pos="l" depth="1" NCoef="0" IVar="-1" Cut="0.0000000000000000e+00" cType="1" res="8.7514845654368401e-04" rms="3.3805942535400391e-01" purity="8.3232861757278442e-01" nType="-99"/>
        <Node pos="r" depth="1" NCoef="0" IVar="3" Cut="4.1411685943603516e-01" cType="0" res="-1.9162613898515701e-04" rms="3.2193824648857117e-01" purity="5.7668930292129517e-01" nType="0">
          <Node pos="l" depth="2" NCoef="0" IVar="-1" Cut="0.0000000000000000e+00" cType="1" res="-1.0648461058735847e-02" rms="3.8201799988746643e-01" purity="7.3899370431900024e-01" nType="-99"/>
          <Node pos="r" depth="2" NCoef="0" IVar="-1" Cut="0.0000000000000000e+00" cType="1" res="5.3072062655701302e-07" rms="3.2149001955986023e-01" purity="5.7560402154922485e-01" nType="-99"/>
        </Node>
      </Node>
    </BinaryTree>
    <BinaryTree type="DecisionTree" boostWeight="1.0000000000000000e+00" itree="762">
      <Node pos="s" depth="0" NCoef="0" IVar="1" Cut="4.4977512210607529e-02" cType="1" res="-4.5194565245765261e-07" rms="3.2334691286087036e-01" purity="5.9855979681015015e-01" nType="0">
        <Node pos="l" depth="1" NCoef="0" IVar="-1" Cut="0.0000000000000000e+00" cType="1" res="3.2402665237896144e-04" rms="3.0170875787734985e-01" purity="7.4969816207885742e-01" nType="-99"/>
        <Node pos="r" depth="1" NCoef="0" IVar="0" Cut="2.2238880395889282e-01" cType="1" res="-6.2520772917196155e-04" rms="3.4412163496017456e-01" purity="4.4359767436981201e-01" nType="0">
          <Node pos="l" depth="2" NCoef="0" IVar="-1" Cut="0.0000000000000000e+00" cType="1" res="-1.0655100923031569e-03" rms="3.8152426481246948e-01" purity="7.1382123231887817e-01" nType="-99"/>
          <Node pos="r" depth="2" NCoef="0" IVar="-1" Cut="0.0000000000000000e+00" cType="1" res="1.5009141061455011e-03" rms="2.8977075219154358e-01" purity="1.0075478255748749e-01" nType="-99"/>
        </Node>
      </Node>
    </BinaryTree>
    <BinaryTree type="DecisionTree" boostWeight="1.0000000000000000e+00" itree="763">
      <Node pos="s" depth="0" NCoef="0" IVar="0" Cut="1.6116940975189209e-01" cType="1" res="-4.3840071839440498e-07" rms="3.2334399223327637e-01" purity="5.9855979681015015e-01" nType="0">
        <Node pos="l" depth="1" NCoef="0" IVar="-1" Cut="0.0000000000000000e+00" cType="1" res="2.4450576165691018e-04" rms="3.2262155413627625e-01" purity="8.4581202268600464e-01" nType="-99"/>
        <Node pos="r" depth="1" NCoef="0" IVar="3" Cut="4.0285179018974304e-01" cType="0" res="-9.5334229990839958e-04" rms="3.2467338442802429e-01" purity="1.4138005673885345e-01" nType="0">
          <Node pos="l" depth="2" NCoef="0" IVar="-1" Cut="0.0000000000000000e+00" cType="1" res="1.0027804411947727e-02" rms="4.6076184511184692e-01" purity="3.5897436738014221e-01" nType="-99"/>
          <Node pos="r" depth="2" NCoef="0" IVar="-1" Cut="0.0000000000000000e+00" cType="1" res="-6.9184036692604423e-04" rms="3.2251012325286865e-01" purity="1.3857348263263702e-01" nType="-99"/>
        </Node>
      </Node>
    </BinaryTree>
    <BinaryTree type="DecisionTree" boostWeight="1.0000000000000000e+00" itree="764">
      <Node pos="s" depth="0" NCoef="0" IVar="1" Cut="1.2493752874433994e-03" cType="1" res="-4.6475986437144456e-07" rms="3.2334297895431519e-01" purity="5.9855979681015015e-01" nType="0">
        <Node pos="l" depth="1" NCoef="0" IVar="-1" Cut="0.0000000000000000e+00" cType="1" res="-4.3534886208362877e-04" rms="3.0510324239730835e-01" purity="7.4462652206420898e-01" nType="-99"/>
        <Node pos="r" depth="1" NCoef="0" IVar="3" Cut="4.0400937199592590e-01" cType="0" res="5.4120895219966769e-04" rms="3.3477738499641418e-01" purity="5.0265789031982422e-01" nType="0">
          <Node pos="l" depth="2" NCoef="0" IVar="-1" Cut="0.0000000000000000e+00" cType="1" res="3.0117393471300602e-03" rms="3.6731430888175964e-01" purity="7.7033489942550659e-01" nType="-99"/>
          <Node pos="r" depth="2" NCoef="0" IVar="-1" Cut="0.0000000000000000e+00" cType="1" res="-1.1584685125853866e-04" rms="3.3126768469810486e-01" purity="4.7534695267677307e-01" nType="-99"/>
        </Node>
      </Node>
    </BinaryTree>
    <BinaryTree type="DecisionTree" boostWeight="1.0000000000000000e+00" itree="765">
      <Node pos="s" depth="0" NCoef="0" IVar="3" Cut="3.6604493856430054e-01" cType="0" res="-3.5549859944694617e-07" rms="3.2334247231483459e-01" purity="5.9855979681015015e-01" nType="0">
        <Node pos="l" depth="1" NCoef="0" IVar="-1" Cut="0.0000000000000000e+00" cType="1" res="-5.8717990759760141e-04" rms="3.6085930466651917e-01" purity="7.6616013050079346e-01" nType="-99"/>
        <Node pos="r" depth="1" NCoef="0" IVar="3" Cut="3.6510133743286133e-01" cType="0" res="3.3106436603702605e-04" rms="3.1459990143775940e-01" purity="5.6214833259582520e-01" nType="0">
          <Node pos="l" depth="2" NCoef="0" IVar="-1" Cut="0.0000000000000000e+00" cType="1" res="1.2716907076537609e-02" rms="4.0579605102539062e-01" purity="6.6666668653488159e-01" nType="-99"/>
          <Node pos="r" depth="2" NCoef="0" IVar="-1" Cut="0.0000000000000000e+00" cType="1" res="1.0405835928395391e-04" rms="3.1427779793739319e-01" purity="5.6183391809463501e-01" nType="-99"/>
        </Node>
      </Node>
    </BinaryTree>
    <BinaryTree type="DecisionTree" boostWeight="1.0000000000000000e+00" itree="766">
      <Node pos="s" depth="0" NCoef="0" IVar="3" Cut="3.6279675364494324e-01" cType="0" res="-2.9455750905071909e-07" rms="3.2334071397781372e-01" purity="5.9855979681015015e-01" nType="0">
        <Node pos="l" depth="1" NCoef="0" IVar="-1" Cut="0.0000000000000000e+00" cType="1" res="-5.2530772518366575e-04" rms="3.6292234063148499e-01" purity="7.5971221923828125e-01" nType="-99"/>
        <Node pos="r" depth="1" NCoef="0" IVar="3" Cut="3.6080056428909302e-01" cType="0" res="3.1392261735163629e-04" rms="3.1360477209091187e-01" purity="5.6177270412445068e-01" nType="0">
          <Node pos="l" depth="2" NCoef="0" IVar="-1" Cut="0.0000000000000000e+00" cType="1" res="1.4697071164846420e-02" rms="3.6725610494613647e-01" purity="6.7857140302658081e-01" nType="-99"/>
          <Node pos="r" depth="2" NCoef="0" IVar="-1" Cut="0.0000000000000000e+00" cType="1" res="2.6121317205252126e-05" rms="3.1323972344398499e-01" purity="5.6107807159423828e-01" nType="-99"/>
        </Node>
      </Node>
    </BinaryTree>
    <BinaryTree type="DecisionTree" boostWeight="1.0000000000000000e+00" itree="767">
      <Node pos="s" depth="0" NCoef="0" IVar="3" Cut="4.6998670697212219e-01" cType="0" res="-2.1683581508114003e-07" rms="3.2333680987358093e-01" purity="5.9855979681015015e-01" nType="0">
        <Node pos="l" depth="1" NCoef="0" IVar="-1" Cut="0.0000000000000000e+00" cType="1" res="-2.0220482256263494e-03" rms="3.1912627816200256e-01" purity="8.6805558204650879e-01" nType="-99"/>
        <Node pos="r" depth="1" NCoef="0" IVar="3" Cut="4.6080595254898071e-01" cType="0" res="1.0078234481625259e-04" rms="3.2344233989715576e-01" purity="5.9171921014785767e-01" nType="0">
          <Node pos="l" depth="2" NCoef="0" IVar="-1" Cut="0.0000000000000000e+00" cType="1" res="9.6253920346498489e-03" rms="3.0824330449104309e-01" purity="8.6892175674438477e-01" nType="-99"/>
          <Node pos="r" depth="2" NCoef="0" IVar="-1" Cut="0.0000000000000000e+00" cType="1" res="-4.7051493311300874e-05" rms="3.2357436418533325e-01" purity="5.8912718296051025e-01" nType="-99"/>
        </Node>
      </Node>
    </BinaryTree>
    <BinaryTree type="DecisionTree" boostWeight="1.0000000000000000e+00" itree="768">
      <Node pos="s" depth="0" NCoef="0" IVar="3" Cut="2.6784995198249817e-01" cType="1" res="-6.8857993085202907e-08" rms="3.2333558797836304e-01" purity="5.9855979681015015e-01" nType="0">
        <Node pos="l" depth="1" NCoef="0" IVar="-1" Cut="0.0000000000000000e+00" cType="1" res="3.4818085259757936e-04" rms="2.8482186794281006e-01" purity="6.0393178462982178e-01" nType="-99"/>
        <Node pos="r" depth="1" NCoef="0" IVar="3" Cut="2.8213292360305786e-01" cType="0" res="-6.9088989403098822e-04" rms="3.6370396614074707e-01" purity="5.9219861030578613e-01" nType="0">
          <Node pos="l" depth="2" NCoef="0" IVar="-1" Cut="0.0000000000000000e+00" cType="1" res="4.1578663513064384e-05" rms="3.6723846197128296e-01" purity="6.1537045240402222e-01" nType="-99"/>
          <Node pos="r" depth="2" NCoef="0" IVar="-1" Cut="0.0000000000000000e+00" cType="1" res="-3.5799189936369658e-03" rms="3.2806530594825745e-01" purity="3.7165424227714539e-01" nType="-99"/>
        </Node>
      </Node>
    </BinaryTree>
    <BinaryTree type="DecisionTree" boostWeight="1.0000000000000000e+00" itree="769">
      <Node pos="s" depth="0" NCoef="0" IVar="3" Cut="3.4780514240264893e-01" cType="0" res="-8.1417240949122061e-08" rms="3.2333543896675110e-01" purity="5.9855979681015015e-01" nType="0">
        <Node pos="l" depth="1" NCoef="0" IVar="-1" Cut="0.0000000000000000e+00" cType="1" res="-4.4485760736279190e-04" rms="3.6875033378601074e-01" purity="7.3368912935256958e-01" nType="-99"/>
        <Node pos="r" depth="1" NCoef="0" IVar="3" Cut="3.3771607279777527e-01" cType="0" res="3.4065186628140509e-04" rms="3.0916190147399902e-01" purity="5.6002062559127808e-01" nType="0">
          <Node pos="l" depth="2" NCoef="0" IVar="-1" Cut="0.0000000000000000e+00" cType="1" res="4.8343576490879059e-03" rms="3.8109013438224792e-01" purity="5.7616358995437622e-01" nType="-99"/>
          <Node pos="r" depth="2" NCoef="0" IVar="-1" Cut="0.0000000000000000e+00" cType="1" res="-9.2484347987920046e-05" rms="3.0623975396156311e-01" purity="5.5943840742111206e-01" nType="-99"/>
        </Node>
      </Node>
    </BinaryTree>
    <BinaryTree type="DecisionTree" boostWeight="1.0000000000000000e+00" itree="770">
      <Node pos="s" depth="0" NCoef="0" IVar="3" Cut="3.0407965183258057e-01" cType="0" res="-6.0502166832065996e-08" rms="3.2333269715309143e-01" purity="5.9855979681015015e-01" nType="0">
        <Node pos="l" depth="1" NCoef="0" IVar="-1" Cut="0.0000000000000000e+00" cType="1" res="-3.2770779216662049e-04" rms="3.6992260813713074e-01" purity="6.5125590562820435e-01" nType="-99"/>
        <Node pos="r" depth="1" NCoef="0" IVar="3" Cut="3.0314764380455017e-01" cType="1" res="4.7732150414958596e-04" rms="2.9543644189834595e-01" purity="5.7039856910705566e-01" nType="0">
          <Node pos="l" depth="2" NCoef="0" IVar="-1" Cut="0.0000000000000000e+00" cType="1" res="1.0800666495924816e-04" rms="2.9503813385963440e-01" purity="5.7054132223129272e-01" nType="-99"/>
          <Node pos="r" depth="2" NCoef="0" IVar="-1" Cut="0.0000000000000000e+00" cType="1" res="2.6696544140577316e-02" rms="3.7058553099632263e-01" purity="5.3741496801376343e-01" nType="-99"/>
        </Node>
      </Node>
    </BinaryTree>
    <BinaryTree type="DecisionTree" boostWeight="1.0000000000000000e+00" itree="771">
      <Node pos="s" depth="0" NCoef="0" IVar="3" Cut="4.8847633600234985e-01" cType="0" res="-8.2525168920710712e-08" rms="3.2332774996757507e-01" purity="5.9855979681015015e-01" nType="0">
        <Node pos="l" depth="1" NCoef="0" IVar="-1" Cut="0.0000000000000000e+00" cType="1" res="3.3715518657118082e-03" rms="2.9037332534790039e-01" purity="8.7991720438003540e-01" nType="-99"/>
        <Node pos="r" depth="1" NCoef="0" IVar="3" Cut="4.8624518513679504e-01" cType="0" res="-6.0952013882342726e-05" rms="3.2361823320388794e-01" purity="5.9593993425369263e-01" nType="0">
          <Node pos="l" depth="2" NCoef="0" IVar="-1" Cut="0.0000000000000000e+00" cType="1" res="-2.3679520934820175e-02" rms="3.7697142362594604e-01" purity="8.0000001192092896e-01" nType="-99"/>
          <Node pos="r" depth="2" NCoef="0" IVar="-1" Cut="0.0000000000000000e+00" cType="1" res="1.8010430721915327e-05" rms="3.2349875569343567e-01" purity="5.9554576873779297e-01" nType="-99"/>
        </Node>
      </Node>
    </BinaryTree>
    <BinaryTree type="DecisionTree" boostWeight="1.0000000000000000e+00" itree="772">
      <Node pos="s" depth="0" NCoef="0" IVar="0" Cut="1.6116940975189209e-01" cType="1" res="8.7364227852049225e-08" rms="3.2332664728164673e-01" purity="5.9855979681015015e-01" nType="0">
        <Node pos="l" depth="1" NCoef="0" IVar="-1" Cut="0.0000000000000000e+00" cType="1" res="2.2102255024947226e-04" rms="3.2260397076606750e-01" purity="8.4581202268600464e-01" nType="-99"/>
        <Node pos="r" depth="1" NCoef="0" IVar="3" Cut="2.5618246197700500e-01" cType="0" res="-8.6027686484158039e-04" rms="3.2465684413909912e-01" purity="1.4138005673885345e-01" nType="0">
          <Node pos="l" depth="2" NCoef="0" IVar="-1" Cut="0.0000000000000000e+00" cType="1" res="1.3133849715813994e-03" rms="3.6288610100746155e-01" purity="1.8599936366081238e-01" nType="-99"/>
          <Node pos="r" depth="2" NCoef="0" IVar="-1" Cut="0.0000000000000000e+00" cType="1" res="-3.2615531235933304e-03" rms="2.7930220961570740e-01" purity="9.4947248697280884e-02" nType="-99"/>
        </Node>
      </Node>
    </BinaryTree>
    <BinaryTree type="DecisionTree" boostWeight="1.0000000000000000e+00" itree="773">
      <Node pos="s" depth="0" NCoef="0" IVar="3" Cut="2.7884379029273987e-01" cType="0" res="-1.6606826136467134e-07" rms="3.2332378625869751e-01" purity="5.9855979681015015e-01" nType="0">
        <Node pos="l" depth="1" NCoef="0" IVar="-1" Cut="0.0000000000000000e+00" cType="1" res="-3.2471108715981245e-04" rms="3.6630004644393921e-01" purity="6.0930609703063965e-01" nType="-99"/>
        <Node pos="r" depth="1" NCoef="0" IVar="3" Cut="2.7814462780952454e-01" cType="1" res="6.4085033955052495e-04" rms="2.8754130005836487e-01" purity="5.9063452482223511e-01" nType="0">
          <Node pos="l" depth="2" NCoef="0" IVar="-1" Cut="0.0000000000000000e+00" cType="1" res="2.3433784372173250e-04" rms="2.8720068931579590e-01" purity="5.9130287170410156e-01" nType="-99"/>
          <Node pos="r" depth="2" NCoef="0" IVar="-1" Cut="0.0000000000000000e+00" cType="1" res="2.5456571951508522e-02" rms="3.5682946443557739e-01" purity="4.2622950673103333e-01" nType="-99"/>
        </Node>
      </Node>
    </BinaryTree>
    <BinaryTree type="DecisionTree" boostWeight="1.0000000000000000e+00" itree="774">
      <Node pos="s" depth="0" NCoef="0" IVar="3" Cut="2.7259728312492371e-01" cType="0" res="-2.0053765581451444e-07" rms="3.2331988215446472e-01" purity="5.9855979681015015e-01" nType="0">
        <Node pos="l" depth="1" NCoef="0" IVar="-1" Cut="0.0000000000000000e+00" cType="1" res="-2.8723324066959321e-04" rms="3.6476540565490723e-01" purity="5.9957766532897949e-01" nType="-99"/>
        <Node pos="r" depth="1" NCoef="0" IVar="3" Cut="2.7149865031242371e-01" cType="1" res="6.0847908025607467e-04" rms="2.8606942296028137e-01" purity="5.9774965047836304e-01" nType="0">
          <Node pos="l" depth="2" NCoef="0" IVar="-1" Cut="0.0000000000000000e+00" cType="1" res="2.0745639631059021e-04" rms="2.8572377562522888e-01" purity="5.9834396839141846e-01" nType="-99"/>
          <Node pos="r" depth="2" NCoef="0" IVar="-1" Cut="0.0000000000000000e+00" cType="1" res="1.7978232353925705e-02" rms="3.3806899189949036e-01" purity="4.9397590756416321e-01" nType="-99"/>
        </Node>
      </Node>
    </BinaryTree>
    <BinaryTree type="DecisionTree" boostWeight="1.0000000000000000e+00" itree="775">
      <Node pos="s" depth="0" NCoef="0" IVar="2" Cut="2.7349281311035156e-01" cType="1" res="-2.0190149996324180e-07" rms="3.2331588864326477e-01" purity="5.9855979681015015e-01" nType="0">
        <Node pos="l" depth="1" NCoef="0" IVar="-1" Cut="0.0000000000000000e+00" cType="1" res="-6.0403661336749792e-04" rms="2.7365496754646301e-01" purity="8.5204869508743286e-01" nType="-99"/>
        <Node pos="r" depth="1" NCoef="0" IVar="2" Cut="2.7713200449943542e-01" cType="1" res="4.5619992306455970e-04" rms="3.4556677937507629e-01" purity="4.7129535675048828e-01" nType="0">
          <Node pos="l" depth="2" NCoef="0" IVar="-1" Cut="0.0000000000000000e+00" cType="1" res="1.6708081588149071e-02" rms="2.8782096505165100e-01" purity="7.5193798542022705e-01" nType="-99"/>
          <Node pos="r" depth="2" NCoef="0" IVar="-1" Cut="0.0000000000000000e+00" cType="1" res="1.3228533498477191e-04" rms="3.4575626254081726e-01" purity="4.7025284171104431e-01" nType="-99"/>
        </Node>
      </Node>
    </BinaryTree>
    <BinaryTree type="DecisionTree" boostWeight="1.0000000000000000e+00" itree="776">
      <Node pos="s" depth="0" NCoef="0" IVar="3" Cut="2.6085385680198669e-01" cType="1" res="-1.2436983354291442e-07" rms="3.2331386208534241e-01" purity="5.9855979681015015e-01" nType="0">
        <Node pos="l" depth="1" NCoef="0" IVar="-1" Cut="0.0000000000000000e+00" cType="1" res="3.9848117739893496e-04" rms="2.8250819444656372e-01" purity="6.1474961042404175e-01" nType="-99"/>
        <Node pos="r" depth="1" NCoef="0" IVar="0" Cut="1.0069965124130249e+00" cType="1" res="-7.1310461498796940e-04" rms="3.6245739459991455e-01" purity="5.8097934722900391e-01" nType="0">
          <Node pos="l" depth="2" NCoef="0" IVar="-1" Cut="0.0000000000000000e+00" cType="1" res="-4.5619966113008559e-04" rms="3.6330607533454895e-01" purity="5.9838205575942993e-01" nType="-99"/>
          <Node pos="r" depth="2" NCoef="0" IVar="-1" Cut="0.0000000000000000e+00" cType="1" res="5.0140833482146263e-03" rms="3.4100916981697083e-01" purity="1.5895372629165649e-01" nType="-99"/>
        </Node>
      </Node>
    </BinaryTree>
    <BinaryTree type="DecisionTree" boostWeight="1.0000000000000000e+00" itree="777">
      <Node pos="s" depth="0" NCoef="0" IVar="2" Cut="1.1876331567764282e+00" cType="1" res="-1.7096854776355030e-07" rms="3.2331207394599915e-01" purity="5.9855979681015015e-01" nType="0">
        <Node pos="l" depth="1" NCoef="0" IVar="-1" Cut="0.0000000000000000e+00" cType="1" res="1.5493971295654774e-04" rms="3.1673324108123779e-01" purity="6.8335270881652832e-01" nType="-99"/>
        <Node pos="r" depth="1" NCoef="0" IVar="2" Cut="1.2351127862930298e+00" cType="1" res="-1.2956579448655248e-03" rms="3.4899562597274780e-01" purity="2.5080385804176331e-01" nType="0">
          <Node pos="l" depth="2" NCoef="0" IVar="-1" Cut="0.0000000000000000e+00" cType="1" res="-1.2437903322279453e-02" rms="3.4947049617767334e-01" purity="3.0057802796363831e-01" nType="-99"/>
          <Node pos="r" depth="2" NCoef="0" IVar="-1" Cut="0.0000000000000000e+00" cType="1" res="3.5757134901359677e-04" rms="3.4886053204536438e-01" purity="2.4720509350299835e-01" nType="-99"/>
        </Node>
      </Node>
    </BinaryTree>
    <BinaryTree type="DecisionTree" boostWeight="1.0000000000000000e+00" itree="778">
      <Node pos="s" depth="0" NCoef="0" IVar="2" Cut="2.9222521185874939e-01" cType="1" res="-2.3880372168605390e-07" rms="3.2330685853958130e-01" purity="5.9855979681015015e-01" nType="0">
        <Node pos="l" depth="1" NCoef="0" IVar="-1" Cut="0.0000000000000000e+00" cType="1" res="-5.8666151016950607e-04" rms="2.7575621008872986e-01" purity="8.4798938035964966e-01" nType="-99"/>
        <Node pos="r" depth="1" NCoef="0" IVar="3" Cut="1.7966404557228088e-01" cType="0" res="4.7258127597160637e-04" rms="3.4580895304679871e-01" purity="4.6671533584594727e-01" nType="0">
          <Node pos="l" depth="2" NCoef="0" IVar="-1" Cut="0.0000000000000000e+00" cType="1" res="-9.4048855316941626e-06" rms="3.4934359788894653e-01" purity="4.8694244027137756e-01" nType="-99"/>
          <Node pos="r" depth="2" NCoef="0" IVar="-1" Cut="0.0000000000000000e+00" cType="1" res="4.7104572877287865e-03" rms="2.8695055842399597e-01" purity="1.6062176227569580e-01" nType="-99"/>
        </Node>
      </Node>
    </BinaryTree>
    <BinaryTree type="DecisionTree" boostWeight="1.0000000000000000e+00" itree="779">
      <Node pos="s" depth="0" NCoef="0" IVar="0" Cut="6.7716139554977417e-01" cType="1" res="-2.8551744435389992e-07" rms="3.2330361008644104e-01" purity="5.9855979681015015e-01" nType="0">
        <Node pos="l" depth="1" NCoef="0" IVar="-1" Cut="0.0000000000000000e+00" cType="1" res="1.1441021342761815e-04" rms="3.3183047175407410e-01" purity="6.7459064722061157e-01" nType="-99"/>
        <Node pos="r" depth="1" NCoef="0" IVar="0" Cut="6.9269299507141113e-01" cType="0" res="-1.7497851513326168e-03" rms="2.5741156935691833e-01" purity="7.7811092138290405e-02" nType="0">
          <Node pos="l" depth="2" NCoef="0" IVar="-1" Cut="0.0000000000000000e+00" cType="1" res="-5.5289280135184526e-04" rms="2.6003128290176392e-01" purity="7.9487577080726624e-02" nType="-99"/>
          <Node pos="r" depth="2" NCoef="0" IVar="-1" Cut="0.0000000000000000e+00" cType="1" res="-3.3589702099561691e-02" rms="1.3837380707263947e-01" purity="2.0942408591508865e-02" nType="-99"/>
        </Node>
      </Node>
    </BinaryTree>
    <BinaryTree type="DecisionTree" boostWeight="1.0000000000000000e+00" itree="780">
      <Node pos="s" depth="0" NCoef="0" IVar="0" Cut="2.0439779758453369e+00" cType="1" res="-6.2472776107824757e-07" rms="3.2330277562141418e-01" purity="5.9855979681015015e-01" nType="0">
        <Node pos="l" depth="1" NCoef="0" IVar="-1" Cut="0.0000000000000000e+00" cType="1" res="3.7825822801096365e-05" rms="3.2318612933158875e-01" purity="6.0564202070236206e-01" nType="-99"/>
        <Node pos="r" depth="1" NCoef="0" IVar="1" Cut="9.2453771829605103e-01" cType="0" res="-5.1263286732137203e-03" rms="3.3058264851570129e-01" purity="1.4901477098464966e-01" nType="0">
          <Node pos="l" depth="2" NCoef="0" IVar="-1" Cut="0.0000000000000000e+00" cType="1" res="7.1253306232392788e-03" rms="4.0617662668228149e-01" purity="2.3282442986965179e-01" nType="-99"/>
          <Node pos="r" depth="2" NCoef="0" IVar="-1" Cut="0.0000000000000000e+00" cType="1" res="-8.8326763361692429e-03" rms="2.8677275776863098e-01" purity="1.0909090936183929e-01" nType="-99"/>
        </Node>
      </Node>
    </BinaryTree>
    <BinaryTree type="DecisionTree" boostWeight="1.0000000000000000e+00" itree="781">
      <Node pos="s" depth="0" NCoef="0" IVar="1" Cut="8.8330835103988647e-01" cType="1" res="-7.1440825877289171e-07" rms="3.2330152392387390e-01" purity="5.9855979681015015e-01" nType="0">
        <Node pos="l" depth="1" NCoef="0" IVar="-1" Cut="0.0000000000000000e+00" cType="1" res="5.6700129789533094e-05" rms="3.2367116212844849e-01" purity="6.1389672756195068e-01" nType="-99"/>
        <Node pos="r" depth="1" NCoef="0" IVar="2" Cut="1.8170412778854370e+00" cType="0" res="-3.7543738726526499e-03" rms="3.1160828471183777e-01" purity="1.2339645624160767e-01" nType="0">
          <Node pos="l" depth="2" NCoef="0" IVar="-1" Cut="0.0000000000000000e+00" cType="1" res="1.0350758209824562e-02" rms="3.6239713430404663e-01" purity="1.8229167163372040e-01" nType="-99"/>
          <Node pos="r" depth="2" NCoef="0" IVar="-1" Cut="0.0000000000000000e+00" cType="1" res="-6.3919587992131710e-03" rms="2.9373988509178162e-01" purity="1.0534716397523880e-01" nType="-99"/>
        </Node>
      </Node>
    </BinaryTree>
    <BinaryTree type="DecisionTree" boostWeight="1.0000000000000000e+00" itree="782">
      <Node pos="s" depth="0" NCoef="0" IVar="2" Cut="1.7046469449996948e+00" cType="1" res="-8.8301254663747386e-07" rms="3.2329872250556946e-01" purity="5.9855979681015015e-01" nType="0">
        <Node pos="l" depth="1" NCoef="0" IVar="-1" Cut="0.0000000000000000e+00" cType="1" res="1.0101101361215115e-04" rms="3.2175737619400024e-01" purity="6.3696724176406860e-01" nType="-99"/>
        <Node pos="r" depth="1" NCoef="0" IVar="2" Cut="1.7596725225448608e+00" cType="0" res="-2.2039480973035097e-03" rms="3.3884537220001221e-01" purity="2.0069429278373718e-01" nType="0">
          <Node pos="l" depth="2" NCoef="0" IVar="-1" Cut="0.0000000000000000e+00" cType="1" res="5.3996086353436112e-04" rms="3.3834347128868103e-01" purity="2.0233833789825439e-01" nType="-99"/>
          <Node pos="r" depth="2" NCoef="0" IVar="-1" Cut="0.0000000000000000e+00" cType="1" res="-1.5396967530250549e-02" rms="3.4187456965446472e-01" purity="1.8421052396297455e-01" nType="-99"/>
        </Node>
      </Node>
    </BinaryTree>
    <BinaryTree type="DecisionTree" boostWeight="1.0000000000000000e+00" itree="783">
      <Node pos="s" depth="0" NCoef="0" IVar="2" Cut="1.9256891012191772e+00" cType="1" res="-9.5569328095734818e-07" rms="3.2329288125038147e-01" purity="5.9855979681015015e-01" nType="0">
        <Node pos="l" depth="1" NCoef="0" IVar="-1" Cut="0.0000000000000000e+00" cType="1" res="8.5301537183113396e-05" rms="3.2259365916252136e-01" purity="6.2506610155105591e-01" nType="-99"/>
        <Node pos="r" depth="1" NCoef="0" IVar="0" Cut="9.3703150749206543e-02" cType="1" res="-2.8014378622174263e-03" rms="3.3393448591232300e-01" purity="1.8757881224155426e-01" nType="0">
          <Node pos="l" depth="2" NCoef="0" IVar="-1" Cut="0.0000000000000000e+00" cType="1" res="1.3111813925206661e-02" rms="3.7359941005706787e-01" purity="7.9831933975219727e-01" nType="-99"/>
          <Node pos="r" depth="2" NCoef="0" IVar="-1" Cut="0.0000000000000000e+00" cType="1" res="-1.9697381649166346e-03" rms="3.3216524124145508e-01" purity="1.6377334296703339e-01" nType="-99"/>
        </Node>
      </Node>
    </BinaryTree>
    <BinaryTree type="DecisionTree" boostWeight="1.0000000000000000e+00" itree="784">
      <Node pos="s" depth="0" NCoef="0" IVar="1" Cut="2.3250875473022461e+00" cType="1" res="-8.2843865811810247e-07" rms="3.2329151034355164e-01" purity="5.9855979681015015e-01" nType="0">
        <Node pos="l" depth="1" NCoef="0" IVar="1" Cut="1.9307966232299805e+00" cType="1" res="2.9335718863876536e-05" rms="3.2312634587287903e-01" purity="5.9937214851379395e-01" nType="0">
          <Node pos="l" depth="2" NCoef="0" IVar="-1" Cut="0.0000000000000000e+00" cType="1" res="-1.0448661669215653e-05" rms="3.2293045520782471e-01" purity="6.0011124610900879e-01" nType="-99"/>
          <Node pos="r" depth="2" NCoef="0" IVar="-1" Cut="0.0000000000000000e+00" cType="1" res="9.3114590272307396e-03" rms="4.1115108132362366e-01" purity="2.1782177686691284e-01" nType="-99"/>
        </Node>
        <Node pos="r" depth="1" NCoef="0" IVar="-1" Cut="0.0000000000000000e+00" cType="1" res="-4.2692250572144985e-03" rms="3.9314186573028564e-01" purity="2.1621622145175934e-01" nType="-99"/>
      </Node>
    </BinaryTree>
    <BinaryTree type="DecisionTree" boostWeight="1.0000000000000000e+00" itree="785">
      <Node pos="s" depth="0" NCoef="0" IVar="1" Cut="1.4130434989929199e+00" cType="1" res="-7.7823767696827417e-07" rms="3.2329106330871582e-01" purity="5.9855979681015015e-01" nType="0">
        <Node pos="l" depth="1" NCoef="0" IVar="-1" Cut="0.0000000000000000e+00" cType="1" res="3.0764658731641248e-05" rms="3.2311615347862244e-01" purity="6.0298997163772583e-01" nType="-99"/>
        <Node pos="r" depth="1" NCoef="0" IVar="1" Cut="1.5699497461318970e+00" cType="0" res="-6.6511137410998344e-03" rms="3.4040525555610657e-01" purity="1.5175096690654755e-01" nType="0">
          <Node pos="l" depth="2" NCoef="0" IVar="-1" Cut="0.0000000000000000e+00" cType="1" res="2.0012455061078072e-03" rms="3.6865273118019104e-01" purity="1.7839196324348450e-01" nType="-99"/>
          <Node pos="r" depth="2" NCoef="0" IVar="-1" Cut="0.0000000000000000e+00" cType="1" res="-2.6569269597530365e-02" rms="2.1210087835788727e-01" purity="6.0344826430082321e-02" nType="-99"/>
        </Node>
      </Node>
    </BinaryTree>
    <BinaryTree type="DecisionTree" boostWeight="1.0000000000000000e+00" itree="786">
      <Node pos="s" depth="0" NCoef="0" IVar="2" Cut="1.9256891012191772e+00" cType="1" res="-9.0118584239462507e-07" rms="3.2328984141349792e-01" purity="5.9855979681015015e-01" nType="0">
        <Node pos="l" depth="1" NCoef="0" IVar="-1" Cut="0.0000000000000000e+00" cType="1" res="7.6461750722955912e-05" rms="3.2259219884872437e-01" purity="6.2506610155105591e-01" nType="-99"/>
        <Node pos="r" depth="1" NCoef="0" IVar="0" Cut="1.7116442322731018e-01" cType="1" res="-2.5116866454482079e-03" rms="3.3391016721725464e-01" purity="1.8757881224155426e-01" nType="0">
          <Node pos="l" depth="2" NCoef="0" IVar="-1" Cut="0.0000000000000000e+00" cType="1" res="-8.1476131454110146e-03" rms="4.3622523546218872e-01" purity="6.1092150211334229e-01" nType="-99"/>
          <Node pos="r" depth="2" NCoef="0" IVar="-1" Cut="0.0000000000000000e+00" cType="1" res="2.2724461450707167e-04" rms="3.2152551412582397e-01" purity="1.4449462294578552e-01" nType="-99"/>
        </Node>
      </Node>
    </BinaryTree>
    <BinaryTree type="DecisionTree" boostWeight="1.0000000000000000e+00" itree="787">
      <Node pos="s" depth="0" NCoef="0" IVar="2" Cut="3.5591530799865723e-01" cType="1" res="-7.7728810765620437e-07" rms="3.2328778505325317e-01" purity="5.9855979681015015e-01" nType="0">
        <Node pos="l" depth="1" NCoef="0" IVar="-1" Cut="0.0000000000000000e+00" cType="1" res="-5.0477846525609493e-04" rms="2.8175771236419678e-01" purity="8.3244299888610840e-01" nType="-99"/>
        <Node pos="r" depth="1" NCoef="0" IVar="0" Cut="1.8740630149841309e-01" cType="1" res="5.1326333777979016e-04" rms="3.4722131490707397e-01" purity="4.4918462634086609e-01" nType="0">
          <Node pos="l" depth="2" NCoef="0" IVar="-1" Cut="0.0000000000000000e+00" cType="1" res="9.4458524836227298e-04" rms="3.7704101204872131e-01" purity="7.6515668630599976e-01" nType="-99"/>
          <Node pos="r" depth="2" NCoef="0" IVar="-1" Cut="0.0000000000000000e+00" cType="1" res="-8.6587481200695038e-04" rms="3.1367108225822449e-01" purity="1.2493658065795898e-01" nType="-99"/>
        </Node>
      </Node>
    </BinaryTree>
    <BinaryTree type="DecisionTree" boostWeight="1.0000000000000000e+00" itree="788">
      <Node pos="s" depth="0" NCoef="0" IVar="3" Cut="2.6085385680198669e-01" cType="1" res="-6.8923037588319858e-07" rms="3.2328721880912781e-01" purity="5.9855979681015015e-01" nType="0">
        <Node pos="l" depth="1" NCoef="0" IVar="-1" Cut="0.0000000000000000e+00" cType="1" res="3.8440147181972861e-04" rms="2.8248727321624756e-01" purity="6.1474961042404175e-01" nType="-99"/>
        <Node pos="r" depth="1" NCoef="0" IVar="3" Cut="2.6479849219322205e-01" cType="0" res="-6.8875344004482031e-04" rms="3.6242568492889404e-01" purity="5.8097934722900391e-01" nType="0">
          <Node pos="l" depth="2" NCoef="0" IVar="-1" Cut="0.0000000000000000e+00" cType="1" res="-1.1695235298248008e-04" rms="3.6334505677223206e-01" purity="5.8744484186172485e-01" nType="-99"/>
          <Node pos="r" depth="2" NCoef="0" IVar="-1" Cut="0.0000000000000000e+00" cType="1" res="-6.9962437264621258e-03" rms="3.2334730029106140e-01" purity="3.2357722520828247e-01" nType="-99"/>
        </Node>
      </Node>
    </BinaryTree>
    <BinaryTree type="DecisionTree" boostWeight="1.0000000000000000e+00" itree="789">
      <Node pos="s" depth="0" NCoef="0" IVar="2" Cut="6.7811232805252075e-01" cType="1" res="-6.4467928950762143e-07" rms="3.2328623533248901e-01" purity="5.9855979681015015e-01" nType="0">
        <Node pos="l" depth="1" NCoef="0" IVar="-1" Cut="0.0000000000000000e+00" cType="1" res="-2.8933840803802013e-04" rms="3.0152013897895813e-01" purity="7.6505142450332642e-01" nType="-99"/>
        <Node pos="r" depth="1" NCoef="0" IVar="2" Cut="7.0197355747222900e-01" cType="1" res="7.9625204671174288e-04" rms="3.5323169827461243e-01" purity="3.5053262114524841e-01" nType="0">
          <Node pos="l" depth="2" NCoef="0" IVar="-1" Cut="0.0000000000000000e+00" cType="1" res="1.0574499145150185e-02" rms="3.5588642954826355e-01" purity="5.5088853836059570e-01" nType="-99"/>
          <Node pos="r" depth="2" NCoef="0" IVar="-1" Cut="0.0000000000000000e+00" cType="1" res="-2.3715920178801753e-05" rms="3.5311564803123474e-01" purity="3.4445586800575256e-01" nType="-99"/>
        </Node>
      </Node>
    </BinaryTree>
    <BinaryTree type="DecisionTree" boostWeight="1.0000000000000000e+00" itree="790">
      <Node pos="s" depth="0" NCoef="0" IVar="3" Cut="2.6784995198249817e-01" cType="1" res="-5.4902284318814054e-07" rms="3.2328307628631592e-01" purity="5.9855979681015015e-01" nType="0">
        <Node pos="l" depth="1" NCoef="0" IVar="-1" Cut="0.0000000000000000e+00" cType="1" res="3.5358659806661308e-04" rms="2.8478944301605225e-01" purity="6.0393178462982178e-01" nType="-99"/>
        <Node pos="r" depth="1" NCoef="0" IVar="3" Cut="2.8213292360305786e-01" cType="0" res="-7.0145510835573077e-04" rms="3.6363208293914795e-01" purity="5.9219861030578613e-01" nType="0">
          <Node pos="l" depth="2" NCoef="0" IVar="-1" Cut="0.0000000000000000e+00" cType="1" res="4.2605475755408406e-05" rms="3.6718347668647766e-01" purity="6.1537045240402222e-01" nType="-99"/>
          <Node pos="r" depth="2" NCoef="0" IVar="-1" Cut="0.0000000000000000e+00" cType="1" res="-3.6414130590856075e-03" rms="3.2780942320823669e-01" purity="3.7165424227714539e-01" nType="-99"/>
        </Node>
      </Node>
    </BinaryTree>
    <BinaryTree type="DecisionTree" boostWeight="1.0000000000000000e+00" itree="791">
      <Node pos="s" depth="0" NCoef="0" IVar="1" Cut="1.2493752874433994e-03" cType="1" res="-5.1402889766904991e-07" rms="3.2328292727470398e-01" purity="5.9855979681015015e-01" nType="0">
        <Node pos="l" depth="1" NCoef="0" IVar="-1" Cut="0.0000000000000000e+00" cType="1" res="-4.1242540464736521e-04" rms="3.0504065752029419e-01" purity="7.4462652206420898e-01" nType="-99"/>
        <Node pos="r" depth="1" NCoef="0" IVar="1" Cut="5.0218775868415833e-03" cType="1" res="5.1234185229986906e-04" rms="3.3471888303756714e-01" purity="5.0265789031982422e-01" nType="0">
          <Node pos="l" depth="2" NCoef="0" IVar="-1" Cut="0.0000000000000000e+00" cType="1" res="1.2828506529331207e-02" rms="2.7718231081962585e-01" purity="7.7218937873840332e-01" nType="-99"/>
          <Node pos="r" depth="2" NCoef="0" IVar="-1" Cut="0.0000000000000000e+00" cType="1" res="1.1614293180173263e-04" rms="3.3527833223342896e-01" purity="4.9974411725997925e-01" nType="-99"/>
        </Node>
      </Node>
    </BinaryTree>
    <BinaryTree type="DecisionTree" boostWeight="1.0000000000000000e+00" itree="792">
      <Node pos="s" depth="0" NCoef="0" IVar="0" Cut="1.2493752874433994e-03" cType="1" res="-3.9772626792000665e-07" rms="3.2328072190284729e-01" purity="5.9855979681015015e-01" nType="0">
        <Node pos="l" depth="1" NCoef="0" IVar="-1" Cut="0.0000000000000000e+00" cType="1" res="-6.0105614829808474e-04" rms="2.7208009362220764e-01" purity="9.0791207551956177e-01" nType="-99"/>
        <Node pos="r" depth="1" NCoef="0" IVar="0" Cut="2.4653216823935509e-02" cType="1" res="4.4337956933304667e-04" rms="3.4600868821144104e-01" purity="4.4418039917945862e-01" nType="0">
          <Node pos="l" depth="2" NCoef="0" IVar="-1" Cut="0.0000000000000000e+00" cType="1" res="6.4172539860010147e-03" rms="2.4047411978244781e-01" purity="9.3065577745437622e-01" nType="-99"/>
          <Node pos="r" depth="2" NCoef="0" IVar="-1" Cut="0.0000000000000000e+00" cType="1" res="-1.4614887186326087e-04" rms="3.5486599802970886e-01" purity="3.9533051848411560e-01" nType="-99"/>
        </Node>
      </Node>
    </BinaryTree>
    <BinaryTree type="DecisionTree" boostWeight="1.0000000000000000e+00" itree="793">
      <Node pos="s" depth="0" NCoef="0" IVar="3" Cut="2.9058721661567688e-01" cType="0" res="-8.7987764629815501e-08" rms="3.2328024506568909e-01" purity="5.9855979681015015e-01" nType="0">
        <Node pos="l" depth="1" NCoef="0" IVar="-1" Cut="0.0000000000000000e+00" cType="1" res="-2.9844857635907829e-04" rms="3.6820691823959351e-01" purity="6.2768095731735229e-01" nType="-99"/>
        <Node pos="r" depth="1" NCoef="0" IVar="3" Cut="2.8216436505317688e-01" cType="1" res="5.1333964802324772e-04" rms="2.9106017947196960e-01" purity="5.8000564575195312e-01" nType="0">
          <Node pos="l" depth="2" NCoef="0" IVar="-1" Cut="0.0000000000000000e+00" cType="1" res="-6.1453189118765295e-05" rms="2.8827470541000366e-01" purity="5.8664315938949585e-01" nType="-99"/>
          <Node pos="r" depth="2" NCoef="0" IVar="-1" Cut="0.0000000000000000e+00" cType="1" res="6.1595435254275799e-03" rms="3.4955319762229919e-01" purity="4.2498096823692322e-01" nType="-99"/>
        </Node>
      </Node>
    </BinaryTree>
    <BinaryTree type="DecisionTree" boostWeight="1.0000000000000000e+00" itree="794">
      <Node pos="s" depth="0" NCoef="0" IVar="3" Cut="2.7884379029273987e-01" cType="0" res="-1.0656604132464054e-07" rms="3.2327747344970703e-01" purity="5.9855979681015015e-01" nType="0">
        <Node pos="l" depth="1" NCoef="0" IVar="-1" Cut="0.0000000000000000e+00" cType="1" res="-2.7580824098549783e-04" rms="3.6625340580940247e-01" purity="6.0930609703063965e-01" nType="-99"/>
        <Node pos="r" depth="1" NCoef="0" IVar="3" Cut="2.7814462780952454e-01" cType="1" res="5.4383673705160618e-04" rms="2.8749513626098633e-01" purity="5.9063452482223511e-01" nType="0">
          <Node pos="l" depth="2" NCoef="0" IVar="-1" Cut="0.0000000000000000e+00" cType="1" res="1.8914556130766869e-04" rms="2.8716012835502625e-01" purity="5.9130287170410156e-01" nType="-99"/>
          <Node pos="r" depth="2" NCoef="0" IVar="-1" Cut="0.0000000000000000e+00" cType="1" res="2.3234713822603226e-02" rms="3.5643586516380310e-01" purity="4.2622950673103333e-01" nType="-99"/>
        </Node>
      </Node>
    </BinaryTree>
    <BinaryTree type="DecisionTree" boostWeight="1.0000000000000000e+00" itree="795">
      <Node pos="s" depth="0" NCoef="0" IVar="2" Cut="1.5360555648803711e+00" cType="1" res="-1.3985311397846090e-07" rms="3.2327419519424438e-01" purity="5.9855979681015015e-01" nType="0">
        <Node pos="l" depth="1" NCoef="0" IVar="-1" Cut="0.0000000000000000e+00" cType="1" res="-1.1117694521090016e-04" rms="3.2061639428138733e-01" purity="6.4864921569824219e-01" nType="-99"/>
        <Node pos="r" depth="1" NCoef="0" IVar="0" Cut="3.1234383583068848e-02" cType="1" res="1.7737131565809250e-03" rms="3.4293982386589050e-01" purity="2.1498262882232666e-01" nType="0">
          <Node pos="l" depth="2" NCoef="0" IVar="-1" Cut="0.0000000000000000e+00" cType="1" res="-2.5177832692861557e-02" rms="4.0978226065635681e-01" purity="6.9444441795349121e-01" nType="-99"/>
          <Node pos="r" depth="2" NCoef="0" IVar="-1" Cut="0.0000000000000000e+00" cType="1" res="1.3310643844306469e-03" rms="3.4144389629364014e-01" purity="2.0626367628574371e-01" nType="-99"/>
        </Node>
      </Node>
    </BinaryTree>
    <BinaryTree type="DecisionTree" boostWeight="1.0000000000000000e+00" itree="796">
      <Node pos="s" depth="0" NCoef="0" IVar="1" Cut="2.3250875473022461e+00" cType="1" res="4.0775365306444655e-08" rms="3.2326859235763550e-01" purity="5.9855979681015015e-01" nType="0">
        <Node pos="l" depth="1" NCoef="0" IVar="1" Cut="1.9307966232299805e+00" cType="1" res="2.8926535378559493e-05" rms="3.2310339808464050e-01" purity="5.9937214851379395e-01" nType="0">
          <Node pos="l" depth="2" NCoef="0" IVar="-1" Cut="0.0000000000000000e+00" cType="1" res="-7.5800444392370991e-06" rms="3.2290807366371155e-01" purity="6.0011124610900879e-01" nType="-99"/>
          <Node pos="r" depth="2" NCoef="0" IVar="-1" Cut="0.0000000000000000e+00" cType="1" res="8.0339414998888969e-03" rms="4.1109782457351685e-01" purity="2.1782177686691284e-01" nType="-99"/>
        </Node>
        <Node pos="r" depth="1" NCoef="0" IVar="-1" Cut="0.0000000000000000e+00" cType="1" res="-4.0948358364403248e-03" rms="3.9316228032112122e-01" purity="2.1621622145175934e-01" nType="-99"/>
      </Node>
    </BinaryTree>
    <BinaryTree type="DecisionTree" boostWeight="1.0000000000000000e+00" itree="797">
      <Node pos="s" depth="0" NCoef="0" IVar="2" Cut="3.4542517662048340e+00" cType="1" res="1.1504931229922022e-08" rms="3.2326826453208923e-01" purity="5.9855979681015015e-01" nType="0">
        <Node pos="l" depth="1" NCoef="0" IVar="-1" Cut="0.0000000000000000e+00" cType="1" res="1.9429244275670499e-05" rms="3.2311823964118958e-01" purity="6.0029160976409912e-01" nType="-99"/>
        <Node pos="r" depth="1" NCoef="0" IVar="0" Cut="1.3097455501556396e+00" cType="1" res="-9.4878822565078735e-03" rms="3.5606250166893005e-01" purity="1.9911503791809082e-01" nType="0">
          <Node pos="l" depth="2" NCoef="0" IVar="-1" Cut="0.0000000000000000e+00" cType="1" res="3.5473834723234177e-03" rms="3.6638671159744263e-01" purity="2.1929824352264404e-01" nType="-99"/>
          <Node pos="r" depth="2" NCoef="0" IVar="-1" Cut="0.0000000000000000e+00" cType="1" res="-1.0227156803011894e-02" rms="3.4413447976112366e-01" purity="1.7857143282890320e-01" nType="-99"/>
        </Node>
      </Node>
    </BinaryTree>
    <BinaryTree type="DecisionTree" boostWeight="1.0000000000000000e+00" itree="798">
      <Node pos="s" depth="0" NCoef="0" IVar="2" Cut="3.7989275455474854e+00" cType="1" res="-2.2659703446947788e-08" rms="3.2326766848564148e-01" purity="5.9855979681015015e-01" nType="0">
        <Node pos="l" depth="1" NCoef="0" IVar="2" Cut="3.4397087097167969e+00" cType="1" res="-3.1150637369137257e-05" rms="3.2310837507247925e-01" purity="5.9950596094131470e-01" nType="0">
          <Node pos="l" depth="2" NCoef="0" IVar="-1" Cut="0.0000000000000000e+00" cType="1" res="1.5093234651430976e-05" rms="3.2312798500061035e-01" purity="6.0032230615615845e-01" nType="-99"/>
          <Node pos="r" depth="2" NCoef="0" IVar="-1" Cut="0.0000000000000000e+00" cType="1" res="-1.2126130051910877e-02" rms="3.1112259626388550e-01" purity="1.7821782827377319e-01" nType="-99"/>
        </Node>
        <Node pos="r" depth="1" NCoef="0" IVar="-1" Cut="0.0000000000000000e+00" cType="1" res="4.3606860563158989e-03" rms="3.8130295276641846e-01" purity="2.2137404978275299e-01" nType="-99"/>
      </Node>
    </BinaryTree>
    <BinaryTree type="DecisionTree" boostWeight="1.0000000000000000e+00" itree="799">
      <Node pos="s" depth="0" NCoef="0" IVar="0" Cut="2.4575212001800537e+00" cType="1" res="-6.0588909889247589e-08" rms="3.2326713204383850e-01" purity="5.9855979681015015e-01" nType="0">
        <Node pos="l" depth="1" NCoef="0" IVar="-1" Cut="0.0000000000000000e+00" cType="1" res="-2.8658907467615791e-05" rms="3.2290312647819519e-01" purity="6.0261505842208862e-01" nType="-99"/>
        <Node pos="r" depth="1" NCoef="0" IVar="3" Cut="2.1075220406055450e-01" cType="0" res="6.2833065167069435e-03" rms="3.5896441340446472e-01" purity="1.7800000309944153e-01" nType="0">
          <Node pos="l" depth="2" NCoef="0" IVar="-1" Cut="0.0000000000000000e+00" cType="1" res="8.4305945783853531e-03" rms="3.9243587851524353e-01" purity="2.3206751048564911e-01" nType="-99"/>
          <Node pos="r" depth="2" NCoef="0" IVar="-1" Cut="0.0000000000000000e+00" cType="1" res="-4.2671523988246918e-03" rms="3.2502555847167969e-01" purity="1.2927757203578949e-01" nType="-99"/>
        </Node>
      </Node>
    </BinaryTree>
    <BinaryTree type="DecisionTree" boostWeight="1.0000000000000000e+00" itree="800">
      <Node pos="s" depth="0" NCoef="0" IVar="1" Cut="1.4130434989929199e+00" cType="1" res="-1.1275214717443305e-07" rms="3.2326620817184448e-01" purity="5.9855979681015015e-01" nType="0">
        <Node pos="l" depth="1" NCoef="0" IVar="-1" Cut="0.0000000000000000e+00" cType="1" res="2.9068109142826870e-05" rms="3.2309281826019287e-01" purity="6.0298997163772583e-01" nType="-99"/>
        <Node pos="r" depth="1" NCoef="0" IVar="2" Cut="6.0320723056793213e-01" cType="0" res="-6.2191234901547432e-03" rms="3.4024161100387573e-01" purity="1.5175096690654755e-01" nType="0">
          <Node pos="l" depth="2" NCoef="0" IVar="-1" Cut="0.0000000000000000e+00" cType="1" res="2.0306101068854332e-03" rms="3.4703838825225830e-01" purity="1.6209475696086884e-01" nType="-99"/>
          <Node pos="r" depth="2" NCoef="0" IVar="-1" Cut="0.0000000000000000e+00" cType="1" res="-1.8162779510021210e-02" rms="3.1174403429031372e-01" purity="1.1504425108432770e-01" nType="-99"/>
        </Node>
      </Node>
    </BinaryTree>
    <BinaryTree type="DecisionTree" boostWeight="1.0000000000000000e+00" itree="801">
      <Node pos="s" depth="0" NCoef="0" IVar="3" Cut="4.1801580786705017e-01" cType="0" res="-2.1265537952785962e-07" rms="3.2326421141624451e-01" purity="5.9855979681015015e-01" nType="0">
        <Node pos="l" depth="1" NCoef="0" IVar="-1" Cut="0.0000000000000000e+00" cType="1" res="8.6175854085013270e-04" rms="3.3848270773887634e-01" purity="8.3137863874435425e-01" nType="-99"/>
        <Node pos="r" depth="1" NCoef="0" IVar="3" Cut="4.1466757655143738e-01" cType="0" res="-1.9062403589487076e-04" rms="3.2178866863250732e-01" purity="5.7656526565551758e-01" nType="0">
          <Node pos="l" depth="2" NCoef="0" IVar="-1" Cut="0.0000000000000000e+00" cType="1" res="-1.1340928263962269e-02" rms="3.7897455692291260e-01" purity="7.3839664459228516e-01" nType="-99"/>
          <Node pos="r" depth="2" NCoef="0" IVar="-1" Cut="0.0000000000000000e+00" cType="1" res="-1.7037285942933522e-05" rms="3.2147094607353210e-01" purity="5.7575947046279907e-01" nType="-99"/>
        </Node>
      </Node>
    </BinaryTree>
    <BinaryTree type="DecisionTree" boostWeight="1.0000000000000000e+00" itree="802">
      <Node pos="s" depth="0" NCoef="0" IVar="3" Cut="4.9697157740592957e-01" cType="0" res="-1.1481054684736591e-07" rms="3.2326197624206543e-01" purity="5.9855979681015015e-01" nType="0">
        <Node pos="l" depth="1" NCoef="0" IVar="-1" Cut="0.0000000000000000e+00" cType="1" res="-5.2551832050085068e-03" rms="3.4833428263664246e-01" purity="8.3458644151687622e-01" nType="-99"/>
        <Node pos="r" depth="1" NCoef="0" IVar="3" Cut="4.8894721269607544e-01" cType="0" res="3.0835952202323824e-05" rms="3.2319504022598267e-01" purity="5.9795868396759033e-01" nType="0">
          <Node pos="l" depth="2" NCoef="0" IVar="-1" Cut="0.0000000000000000e+00" cType="1" res="7.5909043662250042e-03" rms="2.6433417201042175e-01" purity="9.0153849124908447e-01" nType="-99"/>
          <Node pos="r" depth="2" NCoef="0" IVar="-1" Cut="0.0000000000000000e+00" cType="1" res="-2.5067540263989940e-05" rms="3.2352817058563232e-01" purity="5.9605747461318970e-01" nType="-99"/>
        </Node>
      </Node>
    </BinaryTree>
    <BinaryTree type="DecisionTree" boostWeight="1.0000000000000000e+00" itree="803">
      <Node pos="s" depth="0" NCoef="0" IVar="3" Cut="4.9747130274772644e-01" cType="0" res="-4.8910532512991267e-08" rms="3.2326221466064453e-01" purity="5.9855979681015015e-01" nType="0">
        <Node pos="l" depth="1" NCoef="0" IVar="-1" Cut="0.0000000000000000e+00" cType="1" res="5.8621456846594810e-03" rms="3.1808131933212280e-01" purity="8.5981309413909912e-01" nType="-99"/>
        <Node pos="r" depth="1" NCoef="0" IVar="3" Cut="4.9446254968643188e-01" cType="0" res="-2.7667740141623653e-05" rms="3.2327216863632202e-01" purity="5.9802478551864624e-01" nType="0">
          <Node pos="l" depth="2" NCoef="0" IVar="-1" Cut="0.0000000000000000e+00" cType="1" res="-1.3044843450188637e-02" rms="3.3907121419906616e-01" purity="8.4552848339080811e-01" nType="-99"/>
          <Node pos="r" depth="2" NCoef="0" IVar="-1" Cut="0.0000000000000000e+00" cType="1" res="1.7070322428480722e-05" rms="3.2323130965232849e-01" purity="5.9744071960449219e-01" nType="-99"/>
        </Node>
      </Node>
    </BinaryTree>
    <BinaryTree type="DecisionTree" boostWeight="1.0000000000000000e+00" itree="804">
      <Node pos="s" depth="0" NCoef="0" IVar="1" Cut="4.4977512210607529e-02" cType="1" res="2.4018067534825605e-08" rms="3.2326126098632812e-01" purity="5.9855979681015015e-01" nType="0">
        <Node pos="l" depth="1" NCoef="0" IVar="-1" Cut="0.0000000000000000e+00" cType="1" res="3.1763839069753885e-04" rms="3.0163097381591797e-01" purity="7.4969816207885742e-01" nType="-99"/>
        <Node pos="r" depth="1" NCoef="0" IVar="0" Cut="1.3868066668510437e-01" cType="1" res="-6.1129842652007937e-04" rms="3.4402856230735779e-01" purity="4.4359767436981201e-01" nType="0">
          <Node pos="l" depth="2" NCoef="0" IVar="-1" Cut="0.0000000000000000e+00" cType="1" res="-1.2626058887690306e-03" rms="3.7046474218368530e-01" purity="7.7346742153167725e-01" nType="-99"/>
          <Node pos="r" depth="2" NCoef="0" IVar="-1" Cut="0.0000000000000000e+00" cType="1" res="1.0138081852346659e-03" rms="3.1714072823524475e-01" purity="1.3338838517665863e-01" nType="-99"/>
        </Node>
      </Node>
    </BinaryTree>
    <BinaryTree type="DecisionTree" boostWeight="1.0000000000000000e+00" itree="805">
      <Node pos="s" depth="0" NCoef="0" IVar="0" Cut="1.6116940975189209e-01" cType="1" res="3.5313693302896354e-08" rms="3.2325839996337891e-01" purity="5.9855979681015015e-01" nType="0">
        <Node pos="l" depth="1" NCoef="0" IVar="-1" Cut="0.0000000000000000e+00" cType="1" res="2.2518409241456538e-04" rms="3.2254615426063538e-01" purity="8.4581202268600464e-01" nType="-99"/>
        <Node pos="r" depth="1" NCoef="0" IVar="2" Cut="9.7408398985862732e-02" cType="1" res="-8.7625533342361450e-04" rms="3.2456946372985840e-01" purity="1.4138005673885345e-01" nType="0">
          <Node pos="l" depth="2" NCoef="0" IVar="-1" Cut="0.0000000000000000e+00" cType="1" res="1.5732519328594208e-02" rms="3.5381400585174561e-01" purity="1.8118466436862946e-01" nType="-99"/>
          <Node pos="r" depth="2" NCoef="0" IVar="-1" Cut="0.0000000000000000e+00" cType="1" res="-6.5876438748091459e-04" rms="3.2405513525009155e-01" purity="1.4074851572513580e-01" nType="-99"/>
        </Node>
      </Node>
    </BinaryTree>
    <BinaryTree type="DecisionTree" boostWeight="1.0000000000000000e+00" itree="806">
      <Node pos="s" depth="0" NCoef="0" IVar="1" Cut="1.2493752874433994e-03" cType="1" res="-1.3775448337582930e-07" rms="3.2325690984725952e-01" purity="5.9855979681015015e-01" nType="0">
        <Node pos="l" depth="1" NCoef="0" IVar="-1" Cut="0.0000000000000000e+00" cType="1" res="-4.0361325955018401e-04" rms="3.0501955747604370e-01" purity="7.4462652206420898e-01" nType="-99"/>
        <Node pos="r" depth="1" NCoef="0" IVar="3" Cut="4.0400937199592590e-01" cType="0" res="5.0193862989544868e-04" rms="3.3468994498252869e-01" purity="5.0265789031982422e-01" nType="0">
          <Node pos="l" depth="2" NCoef="0" IVar="-1" Cut="0.0000000000000000e+00" cType="1" res="3.0346261337399483e-03" rms="3.6719104647636414e-01" purity="7.7033489942550659e-01" nType="-99"/>
          <Node pos="r" depth="2" NCoef="0" IVar="-1" Cut="0.0000000000000000e+00" cType="1" res="-1.3807138020638376e-04" rms="3.3118396997451782e-01" purity="4.7534695267677307e-01" nType="-99"/>
        </Node>
      </Node>
    </BinaryTree>
    <BinaryTree type="DecisionTree" boostWeight="1.0000000000000000e+00" itree="807">
      <Node pos="s" depth="0" NCoef="0" IVar="3" Cut="2.7259728312492371e-01" cType="0" res="-6.0729512085799797e-08" rms="3.2325643301010132e-01" purity="5.9855979681015015e-01" nType="0">
        <Node pos="l" depth="1" NCoef="0" IVar="-1" Cut="0.0000000000000000e+00" cType="1" res="-2.6255438569933176e-04" rms="3.6468610167503357e-01" purity="5.9957766532897949e-01" nType="-99"/>
        <Node pos="r" depth="1" NCoef="0" IVar="3" Cut="2.7177110314369202e-01" cType="1" res="5.5583228822797537e-04" rms="2.8602132201194763e-01" purity="5.9774965047836304e-01" nType="0">
          <Node pos="l" depth="2" NCoef="0" IVar="-1" Cut="0.0000000000000000e+00" cType="1" res="2.0934766507707536e-04" rms="2.8571790456771851e-01" purity="5.9816080331802368e-01" nType="-99"/>
          <Node pos="r" depth="2" NCoef="0" IVar="-1" Cut="0.0000000000000000e+00" cType="1" res="1.9496014341711998e-02" rms="3.4974274039268494e-01" purity="4.9572649598121643e-01" nType="-99"/>
        </Node>
      </Node>
    </BinaryTree>
    <BinaryTree type="DecisionTree" boostWeight="1.0000000000000000e+00" itree="808">
      <Node pos="s" depth="0" NCoef="0" IVar="0" Cut="2.0439779758453369e+00" cType="1" res="-7.6993124764612730e-08" rms="3.2325309514999390e-01" purity="5.9855979681015015e-01" nType="0">
        <Node pos="l" depth="1" NCoef="0" IVar="-1" Cut="0.0000000000000000e+00" cType="1" res="3.6261819332139567e-05" rms="3.2313954830169678e-01" purity="6.0564202070236206e-01" nType="-99"/>
        <Node pos="r" depth="1" NCoef="0" IVar="3" Cut="1.3391660153865814e-01" cType="1" res="-4.8774047754704952e-03" rms="3.3034497499465942e-01" purity="1.4901477098464966e-01" nType="0">
          <Node pos="l" depth="2" NCoef="0" IVar="-1" Cut="0.0000000000000000e+00" cType="1" res="1.8963782116770744e-02" rms="3.7419968843460083e-01" purity="1.8627451360225677e-01" nType="-99"/>
          <Node pos="r" depth="2" NCoef="0" IVar="-1" Cut="0.0000000000000000e+00" cType="1" res="-5.0551756285130978e-03" rms="3.2293558120727539e-01" purity="1.4366197586059570e-01" nType="-99"/>
        </Node>
      </Node>
    </BinaryTree>
    <BinaryTree type="DecisionTree" boostWeight="1.0000000000000000e+00" itree="809">
      <Node pos="s" depth="0" NCoef="0" IVar="2" Cut="6.7811232805252075e-01" cType="1" res="-2.2945006605823437e-07" rms="3.2325142621994019e-01" purity="5.9855979681015015e-01" nType="0">
        <Node pos="l" depth="1" NCoef="0" IVar="-1" Cut="0.0000000000000000e+00" cType="1" res="-2.7472278452478349e-04" rms="3.0150163173675537e-01" purity="7.6505142450332642e-01" nType="-99"/>
        <Node pos="r" depth="1" NCoef="0" IVar="2" Cut="7.0197355747222900e-01" cType="1" res="7.5717730214819312e-04" rms="3.5317608714103699e-01" purity="3.5053262114524841e-01" nType="0">
          <Node pos="l" depth="2" NCoef="0" IVar="-1" Cut="0.0000000000000000e+00" cType="1" res="9.5820827409625053e-03" rms="3.5590192675590515e-01" purity="5.5088853836059570e-01" nType="-99"/>
          <Node pos="r" depth="2" NCoef="0" IVar="-1" Cut="0.0000000000000000e+00" cType="1" res="-6.4451237449247856e-06" rms="3.5306429862976074e-01" purity="3.4445586800575256e-01" nType="-99"/>
        </Node>
      </Node>
    </BinaryTree>
    <BinaryTree type="DecisionTree" boostWeight="1.0000000000000000e+00" itree="810">
      <Node pos="s" depth="0" NCoef="0" IVar="2" Cut="1.5360555648803711e+00" cType="1" res="-1.8042916849481117e-07" rms="3.2324889302253723e-01" purity="5.9855979681015015e-01" nType="0">
        <Node pos="l" depth="1" NCoef="0" IVar="-1" Cut="0.0000000000000000e+00" cType="1" res="-1.0486879909876734e-04" rms="3.2059666514396667e-01" purity="6.4864921569824219e-01" nType="-99"/>
        <Node pos="r" depth="1" NCoef="0" IVar="2" Cut="1.5659518241882324e+00" cType="1" res="1.6729905037209392e-03" rms="3.4287506341934204e-01" purity="2.1498262882232666e-01" nType="0">
          <Node pos="l" depth="2" NCoef="0" IVar="-1" Cut="0.0000000000000000e+00" cType="1" res="1.8859853968024254e-02" rms="3.6732974648475647e-01" purity="3.1111112236976624e-01" nType="-99"/>
          <Node pos="r" depth="2" NCoef="0" IVar="-1" Cut="0.0000000000000000e+00" cType="1" res="-1.5153194544836879e-04" rms="3.4155347943305969e-01" purity="2.1048986911773682e-01" nType="-99"/>
        </Node>
      </Node>
    </BinaryTree>
    <BinaryTree type="DecisionTree" boostWeight="1.0000000000000000e+00" itree="811">
      <Node pos="s" depth="0" NCoef="0" IVar="3" Cut="2.6784995198249817e-01" cType="1" res="-2.8916261385347752e-07" rms="3.2324498891830444e-01" purity="5.9855979681015015e-01" nType="0">
        <Node pos="l" depth="1" NCoef="0" IVar="-1" Cut="0.0000000000000000e+00" cType="1" res="3.2973295310512185e-04" rms="2.8476399183273315e-01" purity="6.0393178462982178e-01" nType="-99"/>
        <Node pos="r" depth="1" NCoef="0" IVar="1" Cut="4.4852572679519653e-01" cType="1" res="-6.5413891570642591e-04" rms="3.6358189582824707e-01" purity="5.9219861030578613e-01" nType="0">
          <Node pos="l" depth="2" NCoef="0" IVar="-1" Cut="0.0000000000000000e+00" cType="1" res="-5.3020438645035028e-04" rms="3.6310863494873047e-01" purity="6.2872010469436646e-01" nType="-99"/>
          <Node pos="r" depth="2" NCoef="0" IVar="-1" Cut="0.0000000000000000e+00" cType="1" res="2.6895655319094658e-03" rms="3.6847877502441406e-01" purity="2.0417070388793945e-01" nType="-99"/>
        </Node>
      </Node>
    </BinaryTree>
    <BinaryTree type="DecisionTree" boostWeight="1.0000000000000000e+00" itree="812">
      <Node pos="s" depth="0" NCoef="0" IVar="1" Cut="4.1854071617126465e-01" cType="1" res="-2.9016706548645743e-07" rms="3.2324308156967163e-01" purity="5.9855979681015015e-01" nType="0">
        <Node pos="l" depth="1" NCoef="0" IVar="-1" Cut="0.0000000000000000e+00" cType="1" res="1.0999547521350905e-04" rms="3.2233035564422607e-01" purity="6.5104132890701294e-01" nType="-99"/>
        <Node pos="r" depth="1" NCoef="0" IVar="2" Cut="3.8214063644409180e-01" cType="1" res="-1.9254203652963042e-03" rms="3.3070704340934753e-01" purity="1.6344277560710907e-01" nType="0">
          <Node pos="l" depth="2" NCoef="0" IVar="-1" Cut="0.0000000000000000e+00" cType="1" res="-6.0780225321650505e-03" rms="3.8383957743644714e-01" purity="2.7246093750000000e-01" nType="-99"/>
          <Node pos="r" depth="2" NCoef="0" IVar="-1" Cut="0.0000000000000000e+00" cType="1" res="7.9791049938648939e-04" rms="3.1759330630302429e-01" purity="1.3923227787017822e-01" nType="-99"/>
        </Node>
      </Node>
    </BinaryTree>
    <BinaryTree type="DecisionTree" boostWeight="1.0000000000000000e+00" itree="813">
      <Node pos="s" depth="0" NCoef="0" IVar="0" Cut="1.1081959009170532e+00" cType="1" res="-3.1175170533970231e-07" rms="3.2324016094207764e-01" purity="5.9855979681015015e-01" nType="0">
        <Node pos="l" depth="1" NCoef="0" IVar="-1" Cut="0.0000000000000000e+00" cType="1" res="7.1435431891586632e-05" rms="3.2569366693496704e-01" purity="6.3016062974929810e-01" nType="-99"/>
        <Node pos="r" depth="1" NCoef="0" IVar="1" Cut="1.8215892314910889e+00" cType="0" res="-2.4352995678782463e-03" rms="2.8156006336212158e-01" purity="9.8360657691955566e-02" nType="0">
          <Node pos="l" depth="2" NCoef="0" IVar="-1" Cut="0.0000000000000000e+00" cType="1" res="-1.7625330016016960e-02" rms="3.6097782850265503e-01" purity="1.7730496823787689e-01" nType="-99"/>
          <Node pos="r" depth="2" NCoef="0" IVar="-1" Cut="0.0000000000000000e+00" cType="1" res="1.2759039236698300e-04" rms="2.7694705128669739e-01" purity="9.4612792134284973e-02" nType="-99"/>
        </Node>
      </Node>
    </BinaryTree>
    <BinaryTree type="DecisionTree" boostWeight="1.0000000000000000e+00" itree="814">
      <Node pos="s" depth="0" NCoef="0" IVar="1" Cut="2.1589205265045166e+00" cType="1" res="-4.0740124518379162e-07" rms="3.2323798537254333e-01" purity="5.9855979681015015e-01" nType="0">
        <Node pos="l" depth="1" NCoef="0" IVar="1" Cut="1.5831768512725830e+00" cType="1" res="-3.9337606722256169e-05" rms="3.2296901941299438e-01" purity="5.9953266382217407e-01" nType="0">
          <Node pos="l" depth="2" NCoef="0" IVar="-1" Cut="0.0000000000000000e+00" cType="1" res="1.4582926269213203e-05" rms="3.2296371459960938e-01" purity="6.0174334049224854e-01" nType="-99"/>
          <Node pos="r" depth="2" NCoef="0" IVar="-1" Cut="0.0000000000000000e+00" cType="1" res="-6.4797010272741318e-03" rms="3.2375013828277588e-01" purity="1.3061223924160004e-01" nType="-99"/>
        </Node>
        <Node pos="r" depth="1" NCoef="0" IVar="-1" Cut="0.0000000000000000e+00" cType="1" res="4.4613075442612171e-03" rms="4.1121190786361694e-01" purity="2.3571428656578064e-01" nType="-99"/>
      </Node>
    </BinaryTree>
    <BinaryTree type="DecisionTree" boostWeight="1.0000000000000000e+00" itree="815">
      <Node pos="s" depth="0" NCoef="0" IVar="1" Cut="1.2106447219848633e+00" cType="1" res="-4.0389809896623774e-07" rms="3.2323768734931946e-01" purity="5.9855979681015015e-01" nType="0">
        <Node pos="l" depth="1" NCoef="0" IVar="-1" Cut="0.0000000000000000e+00" cType="1" res="-4.1330466046929359e-05" rms="3.2302954792976379e-01" purity="6.0544127225875854e-01" nType="-99"/>
        <Node pos="r" depth="1" NCoef="0" IVar="1" Cut="1.3020795583724976e+00" cType="1" res="5.7273488491773605e-03" rms="3.3658030629158020e-01" purity="1.4649681746959686e-01" nType="0">
          <Node pos="l" depth="2" NCoef="0" IVar="-1" Cut="0.0000000000000000e+00" cType="1" res="2.7712352573871613e-02" rms="3.4921771287918091e-01" purity="1.6666667163372040e-01" nType="-99"/>
          <Node pos="r" depth="2" NCoef="0" IVar="-1" Cut="0.0000000000000000e+00" cType="1" res="-1.6254051588475704e-03" rms="3.3316665887832642e-01" purity="1.4241960644721985e-01" nType="-99"/>
        </Node>
      </Node>
    </BinaryTree>
    <BinaryTree type="DecisionTree" boostWeight="1.0000000000000000e+00" itree="816">
      <Node pos="s" depth="0" NCoef="0" IVar="1" Cut="2.1589205265045166e+00" cType="1" res="-6.2305753090186045e-07" rms="3.2323417067527771e-01" purity="5.9855979681015015e-01" nType="0">
        <Node pos="l" depth="1" NCoef="0" IVar="0" Cut="1.6166917085647583e+00" cType="1" res="-3.7075678847031668e-05" rms="3.2296532392501831e-01" purity="5.9953266382217407e-01" nType="0">
          <Node pos="l" depth="2" NCoef="0" IVar="-1" Cut="0.0000000000000000e+00" cType="1" res="-9.6296076662838459e-05" rms="3.2316049933433533e-01" purity="6.1233967542648315e-01" nType="-99"/>
          <Node pos="r" depth="2" NCoef="0" IVar="-1" Cut="0.0000000000000000e+00" cType="1" res="3.0530970543622971e-03" rms="3.1566303968429565e-01" purity="1.2987013161182404e-01" nType="-99"/>
        </Node>
        <Node pos="r" depth="1" NCoef="0" IVar="-1" Cut="0.0000000000000000e+00" cType="1" res="4.1652824729681015e-03" rms="4.1120043396949768e-01" purity="2.3571428656578064e-01" nType="-99"/>
      </Node>
    </BinaryTree>
    <BinaryTree type="DecisionTree" boostWeight="1.0000000000000000e+00" itree="817">
      <Node pos="s" depth="0" NCoef="0" IVar="1" Cut="2.1589205265045166e+00" cType="1" res="-6.0114479083495098e-07" rms="3.2323297858238220e-01" purity="5.9855979681015015e-01" nType="0">
        <Node pos="l" depth="1" NCoef="0" IVar="1" Cut="1.8215161561965942e+00" cType="1" res="-3.3400909160263836e-05" rms="3.2296434044837952e-01" purity="5.9953266382217407e-01" nType="0">
          <Node pos="l" depth="2" NCoef="0" IVar="-1" Cut="0.0000000000000000e+00" cType="1" res="4.9458831199444830e-06" rms="3.2290115952491760e-01" purity="6.0055667161941528e-01" nType="-99"/>
          <Node pos="r" depth="2" NCoef="0" IVar="-1" Cut="0.0000000000000000e+00" cType="1" res="-7.4803535826504230e-03" rms="3.4899434447288513e-01" purity="1.5126051008701324e-01" nType="-99"/>
        </Node>
        <Node pos="r" depth="1" NCoef="0" IVar="-1" Cut="0.0000000000000000e+00" cType="1" res="3.7321038544178009e-03" rms="4.1118374466896057e-01" purity="2.3571428656578064e-01" nType="-99"/>
      </Node>
    </BinaryTree>
    <BinaryTree type="DecisionTree" boostWeight="1.0000000000000000e+00" itree="818">
      <Node pos="s" depth="0" NCoef="0" IVar="0" Cut="1.1081959009170532e+00" cType="1" res="-5.6588993402328924e-07" rms="3.2323259115219116e-01" purity="5.9855979681015015e-01" nType="0">
        <Node pos="l" depth="1" NCoef="0" IVar="-1" Cut="0.0000000000000000e+00" cType="1" res="7.3481656727381051e-05" rms="3.2569113373756409e-01" purity="6.3016062974929810e-01" nType="-99"/>
        <Node pos="r" depth="1" NCoef="0" IVar="1" Cut="1.8215892314910889e+00" cType="0" res="-2.5093066506087780e-03" rms="2.8145939111709595e-01" purity="9.8360657691955566e-02" nType="0">
          <Node pos="l" depth="2" NCoef="0" IVar="-1" Cut="0.0000000000000000e+00" cType="1" res="-1.6343714669346809e-02" rms="3.6090362071990967e-01" purity="1.7730496823787689e-01" nType="-99"/>
          <Node pos="r" depth="2" NCoef="0" IVar="-1" Cut="0.0000000000000000e+00" cType="1" res="-6.8413966801017523e-05" rms="2.7689287066459656e-01" purity="9.4612792134284973e-02" nType="-99"/>
        </Node>
      </Node>
    </BinaryTree>
    <BinaryTree type="DecisionTree" boostWeight="1.0000000000000000e+00" itree="819">
      <Node pos="s" depth="0" NCoef="0" IVar="1" Cut="1.7341328859329224e+00" cType="1" res="-6.1889448943475145e-07" rms="3.2323089241981506e-01" purity="5.9855979681015015e-01" nType="0">
        <Node pos="l" depth="1" NCoef="0" IVar="-1" Cut="0.0000000000000000e+00" cType="1" res="-2.9117207304807380e-05" rms="3.2285240292549133e-01" purity="6.0092604160308838e-01" nType="-99"/>
        <Node pos="r" depth="1" NCoef="0" IVar="0" Cut="1.4305347204208374e+00" cType="0" res="1.0380601510405540e-02" rms="3.8205248117446899e-01" purity="1.9607843458652496e-01" nType="0">
          <Node pos="l" depth="2" NCoef="0" IVar="-1" Cut="0.0000000000000000e+00" cType="1" res="-8.5650226101279259e-03" rms="3.8368701934814453e-01" purity="2.0000000298023224e-01" nType="-99"/>
          <Node pos="r" depth="2" NCoef="0" IVar="-1" Cut="0.0000000000000000e+00" cType="1" res="1.7348412424325943e-02" rms="3.7770116329193115e-01" purity="1.9277107715606689e-01" nType="-99"/>
        </Node>
      </Node>
    </BinaryTree>
    <BinaryTree type="DecisionTree" boostWeight="1.0000000000000000e+00" itree="820">
      <Node pos="s" depth="0" NCoef="0" IVar="1" Cut="2.0239880084991455e+00" cType="1" res="-7.3864373462129151e-07" rms="3.2322800159454346e-01" purity="5.9855979681015015e-01" nType="0">
        <Node pos="l" depth="1" NCoef="0" IVar="1" Cut="1.5837377309799194e+00" cType="1" res="-4.2670199036365375e-05" rms="3.2291361689567566e-01" purity="5.9982752799987793e-01" nType="0">
          <Node pos="l" depth="2" NCoef="0" IVar="-1" Cut="0.0000000000000000e+00" cType="1" res="8.4974290075479075e-06" rms="3.2295650243759155e-01" purity="6.0173177719116211e-01" nType="-99"/>
          <Node pos="r" depth="2" NCoef="0" IVar="-1" Cut="0.0000000000000000e+00" cType="1" res="-7.1618938818573952e-03" rms="3.1146755814552307e-01" purity="1.1707317084074020e-01" nType="-99"/>
        </Node>
        <Node pos="r" depth="1" NCoef="0" IVar="-1" Cut="0.0000000000000000e+00" cType="1" res="3.8207953330129385e-03" rms="4.0439644455909729e-01" purity="2.2905027866363525e-01" nType="-99"/>
      </Node>
    </BinaryTree>
    <BinaryTree type="DecisionTree" boostWeight="1.0000000000000000e+00" itree="821">
      <Node pos="s" depth="0" NCoef="0" IVar="1" Cut="1.5704647302627563e+00" cType="1" res="-7.0210046487773070e-07" rms="3.2322755455970764e-01" purity="5.9855979681015015e-01" nType="0">
        <Node pos="l" depth="1" NCoef="0" IVar="-1" Cut="0.0000000000000000e+00" cType="1" res="-3.0471908758045174e-05" rms="3.2286587357521057e-01" purity="6.0177844762802124e-01" nType="-99"/>
        <Node pos="r" depth="1" NCoef="0" IVar="3" Cut="2.7439603209495544e-01" cType="1" res="8.3315288648009300e-03" rms="3.6730182170867920e-01" purity="1.7839196324348450e-01" nType="0">
          <Node pos="l" depth="2" NCoef="0" IVar="-1" Cut="0.0000000000000000e+00" cType="1" res="8.6325518786907196e-03" rms="3.7385329604148865e-01" purity="1.9117647409439087e-01" nType="-99"/>
          <Node pos="r" depth="2" NCoef="0" IVar="-1" Cut="0.0000000000000000e+00" cType="1" res="-9.1749308630824089e-03" rms="3.5067421197891235e-01" purity="1.5079365670681000e-01" nType="-99"/>
        </Node>
      </Node>
    </BinaryTree>
    <BinaryTree type="DecisionTree" boostWeight="1.0000000000000000e+00" itree="822">
      <Node pos="s" depth="0" NCoef="0" IVar="0" Cut="2.4575212001800537e+00" cType="1" res="-7.2128813144445303e-07" rms="3.2322552800178528e-01" purity="5.9855979681015015e-01" nType="0">
        <Node pos="l" depth="1" NCoef="0" IVar="-1" Cut="0.0000000000000000e+00" cType="1" res="-3.1220679375110194e-05" rms="3.2286858558654785e-01" purity="6.0261505842208862e-01" nType="-99"/>
        <Node pos="r" depth="1" NCoef="0" IVar="3" Cut="2.1075220406055450e-01" cType="0" res="6.7796534858644009e-03" rms="3.5825330018997192e-01" purity="1.7800000309944153e-01" nType="0">
          <Node pos="l" depth="2" NCoef="0" IVar="-1" Cut="0.0000000000000000e+00" cType="1" res="8.2402834668755531e-03" rms="3.9125987887382507e-01" purity="2.3206751048564911e-01" nType="-99"/>
          <Node pos="r" depth="2" NCoef="0" IVar="-1" Cut="0.0000000000000000e+00" cType="1" res="-3.7045632489025593e-03" rms="3.2489830255508423e-01" purity="1.2927757203578949e-01" nType="-99"/>
        </Node>
      </Node>
    </BinaryTree>
    <BinaryTree type="DecisionTree" boostWeight="1.0000000000000000e+00" itree="823">
      <Node pos="s" depth="0" NCoef="0" IVar="1" Cut="1.5704647302627563e+00" cType="1" res="-7.0227974902081769e-07" rms="3.2322463393211365e-01" purity="5.9855979681015015e-01" nType="0">
        <Node pos="l" depth="1" NCoef="0" IVar="-1" Cut="0.0000000000000000e+00" cType="1" res="-2.6787505703396164e-05" rms="3.2286468148231506e-01" purity="6.0177844762802124e-01" nType="-99"/>
        <Node pos="r" depth="1" NCoef="0" IVar="0" Cut="1.1031984090805054e+00" cType="0" res="7.3132240213453770e-03" rms="3.6712139844894409e-01" purity="1.7839196324348450e-01" nType="0">
          <Node pos="l" depth="2" NCoef="0" IVar="-1" Cut="0.0000000000000000e+00" cType="1" res="-4.6361973509192467e-03" rms="3.7300375103950500e-01" purity="1.9191919267177582e-01" nType="-99"/>
          <Node pos="r" depth="2" NCoef="0" IVar="-1" Cut="0.0000000000000000e+00" cType="1" res="1.2646903283894062e-02" rms="3.5996404290199280e-01" purity="1.6500000655651093e-01" nType="-99"/>
        </Node>
      </Node>
    </BinaryTree>
    <BinaryTree type="DecisionTree" boostWeight="1.0000000000000000e+00" itree="824">
      <Node pos="s" depth="0" NCoef="0" IVar="0" Cut="2.4575212001800537e+00" cType="1" res="-7.3601523808974889e-07" rms="3.2322347164154053e-01" purity="5.9855979681015015e-01" nType="0">
        <Node pos="l" depth="1" NCoef="0" IVar="-1" Cut="0.0000000000000000e+00" cType="1" res="-2.9518778319470584e-05" rms="3.2286736369132996e-01" purity="6.0261505842208862e-01" nType="-99"/>
        <Node pos="r" depth="1" NCoef="0" IVar="2" Cut="2.3382983207702637e+00" cType="0" res="6.4048892818391323e-03" rms="3.5818159580230713e-01" purity="1.7800000309944153e-01" nType="0">
          <Node pos="l" depth="2" NCoef="0" IVar="-1" Cut="0.0000000000000000e+00" cType="1" res="9.8196454346179962e-03" rms="3.8573372364044189e-01" purity="2.3780487477779388e-01" nType="-99"/>
          <Node pos="r" depth="2" NCoef="0" IVar="-1" Cut="0.0000000000000000e+00" cType="1" res="-1.6830530948936939e-03" rms="3.4344205260276794e-01" purity="1.4880952239036560e-01" nType="-99"/>
        </Node>
      </Node>
    </BinaryTree>
    <BinaryTree type="DecisionTree" boostWeight="1.0000000000000000e+00" itree="825">
      <Node pos="s" depth="0" NCoef="0" IVar="1" Cut="4.1854071617126465e-01" cType="1" res="-7.0580932742814184e-07" rms="3.2322251796722412e-01" purity="5.9855979681015015e-01" nType="0">
        <Node pos="l" depth="1" NCoef="0" IVar="-1" Cut="0.0000000000000000e+00" cType="1" res="1.0428079986013472e-04" rms="3.2232838869094849e-01" purity="6.5104132890701294e-01" nType="-99"/>
        <Node pos="r" depth="1" NCoef="0" IVar="3" Cut="3.8188418745994568e-01" cType="0" res="-1.8295148620381951e-03" rms="3.3053666353225708e-01" purity="1.6344277560710907e-01" nType="0">
          <Node pos="l" depth="2" NCoef="0" IVar="-1" Cut="0.0000000000000000e+00" cType="1" res="6.1137010343372822e-03" rms="4.4068261981010437e-01" purity="3.5323384404182434e-01" nType="-99"/>
          <Node pos="r" depth="2" NCoef="0" IVar="-1" Cut="0.0000000000000000e+00" cType="1" res="-1.7934767529368401e-03" rms="3.2043024897575378e-01" purity="1.4886298775672913e-01" nType="-99"/>
        </Node>
      </Node>
    </BinaryTree>
    <BinaryTree type="DecisionTree" boostWeight="1.0000000000000000e+00" itree="826">
      <Node pos="s" depth="0" NCoef="0" IVar="2" Cut="3.0308997631072998e+00" cType="1" res="-7.0098241167215747e-07" rms="3.2322087883949280e-01" purity="5.9855979681015015e-01" nType="0">
        <Node pos="l" depth="1" NCoef="0" IVar="-1" Cut="0.0000000000000000e+00" cType="1" res="2.7174084607395343e-05" rms="3.2313844561576843e-01" purity="6.0254877805709839e-01" nType="-99"/>
        <Node pos="r" depth="1" NCoef="0" IVar="0" Cut="7.6633840799331665e-01" cType="1" res="-6.2191043980419636e-03" rms="3.3184364438056946e-01" purity="1.7283950746059418e-01" nType="0">
          <Node pos="l" depth="2" NCoef="0" IVar="-1" Cut="0.0000000000000000e+00" cType="1" res="5.8650812134146690e-03" rms="3.8841810822486877e-01" purity="2.5748503208160400e-01" nType="-99"/>
          <Node pos="r" depth="2" NCoef="0" IVar="-1" Cut="0.0000000000000000e+00" cType="1" res="-8.4391199052333832e-03" rms="2.9723706841468811e-01" purity="1.2852664291858673e-01" nType="-99"/>
        </Node>
      </Node>
    </BinaryTree>
    <BinaryTree type="DecisionTree" boostWeight="1.0000000000000000e+00" itree="827">
      <Node pos="s" depth="0" NCoef="0" IVar="0" Cut="2.4575212001800537e+00" cType="1" res="-6.9882361231066170e-07" rms="3.2322046160697937e-01" purity="5.9855979681015015e-01" nType="0">
        <Node pos="l" depth="1" NCoef="0" IVar="-1" Cut="0.0000000000000000e+00" cType="1" res="-2.9823348086210899e-05" rms="3.2286518812179565e-01" purity="6.0261505842208862e-01" nType="-99"/>
        <Node pos="r" depth="1" NCoef="0" IVar="2" Cut="1.3615382909774780e+00" cType="1" res="6.4743892289698124e-03" rms="3.5809552669525146e-01" purity="1.7800000309944153e-01" nType="0">
          <Node pos="l" depth="2" NCoef="0" IVar="-1" Cut="0.0000000000000000e+00" cType="1" res="1.0643815621733665e-02" rms="3.7371665239334106e-01" purity="1.8343195319175720e-01" nType="-99"/>
          <Node pos="r" depth="2" NCoef="0" IVar="-1" Cut="0.0000000000000000e+00" cType="1" res="-1.5614411095157266e-03" rms="3.4938266873359680e-01" purity="1.7522658407688141e-01" nType="-99"/>
        </Node>
      </Node>
    </BinaryTree>
    <BinaryTree type="DecisionTree" boostWeight="1.0000000000000000e+00" itree="828">
      <Node pos="s" depth="0" NCoef="0" IVar="0" Cut="1.6116940975189209e-01" cType="1" res="-6.9089219323359430e-07" rms="3.2321944832801819e-01" purity="5.9855979681015015e-01" nType="0">
        <Node pos="l" depth="1" NCoef="0" IVar="-1" Cut="0.0000000000000000e+00" cType="1" res="2.0797592878807336e-04" rms="3.2252806425094604e-01" purity="8.4581202268600464e-01" nType="-99"/>
        <Node pos="r" depth="1" NCoef="0" IVar="3" Cut="2.5080457329750061e-01" cType="0" res="-8.1134797073900700e-04" rms="3.2449239492416382e-01" purity="1.4138005673885345e-01" nType="0">
          <Node pos="l" depth="2" NCoef="0" IVar="-1" Cut="0.0000000000000000e+00" cType="1" res="1.2125030625611544e-03" rms="3.6047133803367615e-01" purity="1.8347975611686707e-01" nType="-99"/>
          <Node pos="r" depth="2" NCoef="0" IVar="-1" Cut="0.0000000000000000e+00" cType="1" res="-3.3906742464751005e-03" rms="2.7649885416030884e-01" purity="9.2175140976905823e-02" nType="-99"/>
        </Node>
      </Node>
    </BinaryTree>
    <BinaryTree type="DecisionTree" boostWeight="1.0000000000000000e+00" itree="829">
      <Node pos="s" depth="0" NCoef="0" IVar="3" Cut="2.6784995198249817e-01" cType="1" res="-8.6464410742337350e-07" rms="3.2321643829345703e-01" purity="5.9855979681015015e-01" nType="0">
        <Node pos="l" depth="1" NCoef="0" IVar="-1" Cut="0.0000000000000000e+00" cType="1" res="3.9380678208544850e-04" rms="2.8473868966102600e-01" purity="6.0393178462982178e-01" nType="-99"/>
        <Node pos="r" depth="1" NCoef="0" IVar="3" Cut="2.8306087851524353e-01" cType="0" res="-7.8119774116203189e-04" rms="3.6354941129684448e-01" purity="5.9219861030578613e-01" nType="0">
          <Node pos="l" depth="2" NCoef="0" IVar="-1" Cut="0.0000000000000000e+00" cType="1" res="1.5279600120265968e-05" rms="3.6725723743438721e-01" purity="6.1644852161407471e-01" nType="-99"/>
          <Node pos="r" depth="2" NCoef="0" IVar="-1" Cut="0.0000000000000000e+00" cType="1" res="-3.4658235963433981e-03" rms="3.2866907119750977e-01" purity="3.7665015459060669e-01" nType="-99"/>
        </Node>
      </Node>
    </BinaryTree>
    <BinaryTree type="DecisionTree" boostWeight="1.0000000000000000e+00" itree="830">
      <Node pos="s" depth="0" NCoef="0" IVar="3" Cut="2.7884379029273987e-01" cType="0" res="-7.9660702567707631e-07" rms="3.2321625947952271e-01" purity="5.9855979681015015e-01" nType="0">
        <Node pos="l" depth="1" NCoef="0" IVar="-1" Cut="0.0000000000000000e+00" cType="1" res="-2.8934481088072062e-04" rms="3.6618542671203613e-01" purity="6.0930609703063965e-01" nType="-99"/>
        <Node pos="r" depth="1" NCoef="0" IVar="3" Cut="2.7814462780952454e-01" cType="1" res="5.6982913520187140e-04" rms="2.8743931651115417e-01" purity="5.9063452482223511e-01" nType="0">
          <Node pos="l" depth="2" NCoef="0" IVar="-1" Cut="0.0000000000000000e+00" cType="1" res="2.1569398813880980e-04" rms="2.8710955381393433e-01" purity="5.9130287170410156e-01" nType="-99"/>
          <Node pos="r" depth="2" NCoef="0" IVar="-1" Cut="0.0000000000000000e+00" cType="1" res="2.1094251424074173e-02" rms="3.5602495074272156e-01" purity="4.2622950673103333e-01" nType="-99"/>
        </Node>
      </Node>
    </BinaryTree>
    <BinaryTree type="DecisionTree" boostWeight="1.0000000000000000e+00" itree="831">
      <Node pos="s" depth="0" NCoef="0" IVar="0" Cut="1.6604198217391968e+00" cType="1" res="-7.5292695100870333e-07" rms="3.2321339845657349e-01" purity="5.9855979681015015e-01" nType="0">
        <Node pos="l" depth="1" NCoef="0" IVar="-1" Cut="0.0000000000000000e+00" cType="1" res="-4.8327405238524079e-05" rms="3.2321557402610779e-01" purity="6.1094874143600464e-01" nType="-99"/>
        <Node pos="r" depth="1" NCoef="0" IVar="2" Cut="2.1320495605468750e+00" cType="0" res="3.7816509138792753e-03" rms="3.2310977578163147e-01" purity="1.3785557448863983e-01" nType="0">
          <Node pos="l" depth="2" NCoef="0" IVar="-1" Cut="0.0000000000000000e+00" cType="1" res="-7.4128624983131886e-03" rms="3.1689286231994629e-01" purity="1.4976958930492401e-01" nType="-99"/>
          <Node pos="r" depth="2" NCoef="0" IVar="-1" Cut="0.0000000000000000e+00" cType="1" res="7.0380847901105881e-03" rms="3.2545059919357300e-01" purity="1.3233724236488342e-01" nType="-99"/>
        </Node>
      </Node>
    </BinaryTree>
    <BinaryTree type="DecisionTree" boostWeight="1.0000000000000000e+00" itree="832">
      <Node pos="s" depth="0" NCoef="0" IVar="2" Cut="3.7989275455474854e+00" cType="1" res="-8.6093029949552147e-07" rms="3.2321140170097351e-01" purity="5.9855979681015015e-01" nType="0">
        <Node pos="l" depth="1" NCoef="0" IVar="2" Cut="3.4397087097167969e+00" cType="1" res="-3.2079828088171780e-05" rms="3.2305428385734558e-01" purity="5.9950596094131470e-01" nType="0">
          <Node pos="l" depth="2" NCoef="0" IVar="-1" Cut="0.0000000000000000e+00" cType="1" res="1.1186870324308984e-05" rms="3.2307505607604980e-01" purity="6.0032230615615845e-01" nType="-99"/>
          <Node pos="r" depth="2" NCoef="0" IVar="-1" Cut="0.0000000000000000e+00" cType="1" res="-1.0868316516280174e-02" rms="3.1081390380859375e-01" purity="1.7821782827377319e-01" nType="-99"/>
        </Node>
        <Node pos="r" depth="1" NCoef="0" IVar="-1" Cut="0.0000000000000000e+00" cType="1" res="4.3712840415537357e-03" rms="3.8051563501358032e-01" purity="2.2137404978275299e-01" nType="-99"/>
      </Node>
    </BinaryTree>
    <BinaryTree type="DecisionTree" boostWeight="1.0000000000000000e+00" itree="833">
      <Node pos="s" depth="0" NCoef="0" IVar="2" Cut="3.2781672477722168e+00" cType="1" res="-8.0865981999522774e-07" rms="3.2321101427078247e-01" purity="5.9855979681015015e-01" nType="0">
        <Node pos="l" depth="1" NCoef="0" IVar="-1" Cut="0.0000000000000000e+00" cType="1" res="-2.3758888346492313e-05" rms="3.2297465205192566e-01" purity="6.0073769092559814e-01" nType="-99"/>
        <Node pos="r" depth="1" NCoef="0" IVar="1" Cut="1.2243878096342087e-01" cType="0" res="8.6441934108734131e-03" rms="3.6203286051750183e-01" purity="2.1812079846858978e-01" nType="0">
          <Node pos="l" depth="2" NCoef="0" IVar="-1" Cut="0.0000000000000000e+00" cType="1" res="9.8600527271628380e-03" rms="3.7159791588783264e-01" purity="2.2448979318141937e-01" nType="-99"/>
          <Node pos="r" depth="2" NCoef="0" IVar="-1" Cut="0.0000000000000000e+00" cType="1" res="-8.5123265162110329e-03" rms="3.4039917588233948e-01" purity="2.0588235557079315e-01" nType="-99"/>
        </Node>
      </Node>
    </BinaryTree>
    <BinaryTree type="DecisionTree" boostWeight="1.0000000000000000e+00" itree="834">
      <Node pos="s" depth="0" NCoef="0" IVar="1" Cut="4.4977512210607529e-02" cType="1" res="-7.9095212868196541e-07" rms="3.2320991158485413e-01" purity="5.9855979681015015e-01" nType="0">
        <Node pos="l" depth="1" NCoef="0" IVar="-1" Cut="0.0000000000000000e+00" cType="1" res="3.1377148116007447e-04" rms="3.0161073803901672e-01" purity="7.4969816207885742e-01" nType="-99"/>
        <Node pos="r" depth="1" NCoef="0" IVar="0" Cut="2.6611694693565369e-01" cType="1" res="-6.0514966025948524e-04" rms="3.4394907951354980e-01" purity="4.4359767436981201e-01" nType="0">
          <Node pos="l" depth="2" NCoef="0" IVar="-1" Cut="0.0000000000000000e+00" cType="1" res="-9.6051103901118040e-04" rms="3.8132476806640625e-01" purity="6.8539470434188843e-01" nType="-99"/>
          <Node pos="r" depth="2" NCoef="0" IVar="-1" Cut="0.0000000000000000e+00" cType="1" res="1.6351139638572931e-03" rms="2.8114145994186401e-01" purity="9.3551747500896454e-02" nType="-99"/>
        </Node>
      </Node>
    </BinaryTree>
    <BinaryTree type="DecisionTree" boostWeight="1.0000000000000000e+00" itree="835">
      <Node pos="s" depth="0" NCoef="0" IVar="0" Cut="1.6116940975189209e-01" cType="1" res="-7.5495586315810215e-07" rms="3.2320737838745117e-01" purity="5.9855979681015015e-01" nType="0">
        <Node pos="l" depth="1" NCoef="0" IVar="-1" Cut="0.0000000000000000e+00" cType="1" res="2.2516545141115785e-04" rms="3.2252413034439087e-01" purity="8.4581202268600464e-01" nType="-99"/>
        <Node pos="r" depth="1" NCoef="0" IVar="3" Cut="3.9234051108360291e-01" cType="0" res="-8.7834015721455216e-04" rms="3.2446512579917908e-01" purity="1.4138005673885345e-01" nType="0">
          <Node pos="l" depth="2" NCoef="0" IVar="-1" Cut="0.0000000000000000e+00" cType="1" res="6.9627668708562851e-03" rms="4.6204352378845215e-01" purity="3.5326087474822998e-01" nType="-99"/>
          <Node pos="r" depth="2" NCoef="0" IVar="-1" Cut="0.0000000000000000e+00" cType="1" res="-6.9429725408554077e-04" rms="3.2101243734359741e-01" purity="1.3705019652843475e-01" nType="-99"/>
        </Node>
      </Node>
    </BinaryTree>
    <BinaryTree type="DecisionTree" boostWeight="1.0000000000000000e+00" itree="836">
      <Node pos="s" depth="0" NCoef="0" IVar="1" Cut="1.2493752874433994e-03" cType="1" res="-7.3756018537096679e-07" rms="3.2320669293403625e-01" purity="5.9855979681015015e-01" nType="0">
        <Node pos="l" depth="1" NCoef="0" IVar="-1" Cut="0.0000000000000000e+00" cType="1" res="-3.9390067104250193e-04" rms="3.0499857664108276e-01" purity="7.4462652206420898e-01" nType="-99"/>
        <Node pos="r" depth="1" NCoef="0" IVar="1" Cut="4.1235275566577911e-02" cType="1" res="4.8863276606425643e-04" rms="3.3462220430374146e-01" purity="5.0265789031982422e-01" nType="0">
          <Node pos="l" depth="2" NCoef="0" IVar="-1" Cut="0.0000000000000000e+00" cType="1" res="3.1020564492791891e-03" rms="2.8548976778984070e-01" purity="7.6980537176132202e-01" nType="-99"/>
          <Node pos="r" depth="2" NCoef="0" IVar="-1" Cut="0.0000000000000000e+00" cType="1" res="-2.0630785729736090e-04" rms="3.4323605895042419e-01" purity="4.5140853524208069e-01" nType="-99"/>
        </Node>
      </Node>
    </BinaryTree>
    <BinaryTree type="DecisionTree" boostWeight="1.0000000000000000e+00" itree="837">
      <Node pos="s" depth="0" NCoef="0" IVar="3" Cut="2.7259728312492371e-01" cType="0" res="-6.0278358660070808e-07" rms="3.2320627570152283e-01" purity="5.9855979681015015e-01" nType="0">
        <Node pos="l" depth="1" NCoef="0" IVar="-1" Cut="0.0000000000000000e+00" cType="1" res="-2.5274281506426632e-04" rms="3.6463376879692078e-01" purity="5.9957766532897949e-01" nType="-99"/>
        <Node pos="r" depth="1" NCoef="0" IVar="3" Cut="2.7149865031242371e-01" cType="1" res="5.3452205611392856e-04" rms="2.8597274422645569e-01" purity="5.9774965047836304e-01" nType="0">
          <Node pos="l" depth="2" NCoef="0" IVar="-1" Cut="0.0000000000000000e+00" cType="1" res="1.8532774993218482e-04" rms="2.8563651442527771e-01" purity="5.9834396839141846e-01" nType="-99"/>
          <Node pos="r" depth="2" NCoef="0" IVar="-1" Cut="0.0000000000000000e+00" cType="1" res="1.5361186116933823e-02" rms="3.3737733960151672e-01" purity="4.9397590756416321e-01" nType="-99"/>
        </Node>
      </Node>
    </BinaryTree>
    <BinaryTree type="DecisionTree" boostWeight="1.0000000000000000e+00" itree="838">
      <Node pos="s" depth="0" NCoef="0" IVar="2" Cut="2.3228156566619873e-01" cType="1" res="-5.5856850167401717e-07" rms="3.2320314645767212e-01" purity="5.9855979681015015e-01" nType="0">
        <Node pos="l" depth="1" NCoef="0" IVar="-1" Cut="0.0000000000000000e+00" cType="1" res="-6.0864718398079276e-04" rms="2.6952004432678223e-01" purity="8.6202687025070190e-01" nType="-99"/>
        <Node pos="r" depth="1" NCoef="0" IVar="3" Cut="1.1524374037981033e-01" cType="0" res="4.0385898319073021e-04" rms="3.4488832950592041e-01" purity="4.7859564423561096e-01" nType="0">
          <Node pos="l" depth="2" NCoef="0" IVar="-1" Cut="0.0000000000000000e+00" cType="1" res="2.3749597312416881e-04" rms="3.4548458456993103e-01" purity="4.8142758011817932e-01" nType="-99"/>
          <Node pos="r" depth="2" NCoef="0" IVar="-1" Cut="0.0000000000000000e+00" cType="1" res="-1.5852151438593864e-02" rms="2.4345707893371582e-01" purity="7.2289153933525085e-02" nType="-99"/>
        </Node>
      </Node>
    </BinaryTree>
    <BinaryTree type="DecisionTree" boostWeight="1.0000000000000000e+00" itree="839">
      <Node pos="s" depth="0" NCoef="0" IVar="3" Cut="2.6784995198249817e-01" cType="1" res="-6.2018386870477116e-07" rms="3.2320201396942139e-01" purity="5.9855979681015015e-01" nType="0">
        <Node pos="l" depth="1" NCoef="0" IVar="-1" Cut="0.0000000000000000e+00" cType="1" res="3.3991062082350254e-04" rms="2.8472870588302612e-01" purity="6.0393178462982178e-01" nType="-99"/>
        <Node pos="r" depth="1" NCoef="0" IVar="2" Cut="4.7021389007568359e-01" cType="1" res="-6.7423778818920255e-04" rms="3.6353105306625366e-01" purity="5.9219861030578613e-01" nType="0">
          <Node pos="l" depth="2" NCoef="0" IVar="-1" Cut="0.0000000000000000e+00" cType="1" res="1.5668111154809594e-03" rms="3.2199457287788391e-01" purity="8.3929979801177979e-01" nType="-99"/>
          <Node pos="r" depth="2" NCoef="0" IVar="-1" Cut="0.0000000000000000e+00" cType="1" res="-7.4181426316499710e-04" rms="3.7734466791152954e-01" purity="5.0331836938858032e-01" nType="-99"/>
        </Node>
      </Node>
    </BinaryTree>
    <BinaryTree type="DecisionTree" boostWeight="1.0000000000000000e+00" itree="840">
      <Node pos="s" depth="0" NCoef="0" IVar="1" Cut="1.5704647302627563e+00" cType="1" res="-5.2150699048070237e-07" rms="3.2320138812065125e-01" purity="5.9855979681015015e-01" nType="0">
        <Node pos="l" depth="1" NCoef="0" IVar="-1" Cut="0.0000000000000000e+00" cType="1" res="-2.4455675884382799e-05" rms="3.2284346222877502e-01" purity="6.0177844762802124e-01" nType="-99"/>
        <Node pos="r" depth="1" NCoef="0" IVar="0" Cut="6.1844080686569214e-01" cType="0" res="6.6880313679575920e-03" rms="3.6687815189361572e-01" purity="1.7839196324348450e-01" nType="0">
          <Node pos="l" depth="2" NCoef="0" IVar="-1" Cut="0.0000000000000000e+00" cType="1" res="7.6131080277264118e-03" rms="3.8593548536300659e-01" purity="2.0300751924514771e-01" nType="-99"/>
          <Node pos="r" depth="2" NCoef="0" IVar="-1" Cut="0.0000000000000000e+00" cType="1" res="-9.0734688565135002e-03" rms="3.2320374250411987e-01" purity="1.2878787517547607e-01" nType="-99"/>
        </Node>
      </Node>
    </BinaryTree>
    <BinaryTree type="DecisionTree" boostWeight="1.0000000000000000e+00" itree="841">
      <Node pos="s" depth="0" NCoef="0" IVar="0" Cut="2.0439779758453369e+00" cType="1" res="-5.4614798727925518e-07" rms="3.2320001721382141e-01" purity="5.9855979681015015e-01" nType="0">
        <Node pos="l" depth="1" NCoef="0" IVar="-1" Cut="0.0000000000000000e+00" cType="1" res="3.6436624213820323e-05" rms="3.2309579849243164e-01" purity="6.0564202070236206e-01" nType="-99"/>
        <Node pos="r" depth="1" NCoef="0" IVar="1" Cut="9.2453771829605103e-01" cType="0" res="-4.9302238039672375e-03" rms="3.2970920205116272e-01" purity="1.4901477098464966e-01" nType="0">
          <Node pos="l" depth="2" NCoef="0" IVar="-1" Cut="0.0000000000000000e+00" cType="1" res="6.9436491467058659e-03" rms="4.0466219186782837e-01" purity="2.3282442986965179e-01" nType="-99"/>
          <Node pos="r" depth="2" NCoef="0" IVar="-1" Cut="0.0000000000000000e+00" cType="1" res="-8.6070671677589417e-03" rms="2.8635409474372864e-01" purity="1.0909090936183929e-01" nType="-99"/>
        </Node>
      </Node>
    </BinaryTree>
    <BinaryTree type="DecisionTree" boostWeight="1.0000000000000000e+00" itree="842">
      <Node pos="s" depth="0" NCoef="0" IVar="1" Cut="8.8330835103988647e-01" cType="1" res="-6.3558815099895583e-07" rms="3.2319879531860352e-01" purity="5.9855979681015015e-01" nType="0">
        <Node pos="l" depth="1" NCoef="0" IVar="-1" Cut="0.0000000000000000e+00" cType="1" res="5.4078678658697754e-05" rms="3.2359632849693298e-01" purity="6.1389672756195068e-01" nType="-99"/>
        <Node pos="r" depth="1" NCoef="0" IVar="3" Cut="1.3765561580657959e-01" cType="1" res="-3.5762693732976913e-03" rms="3.1060913205146790e-01" purity="1.2339645624160767e-01" nType="0">
          <Node pos="l" depth="2" NCoef="0" IVar="-1" Cut="0.0000000000000000e+00" cType="1" res="1.4833339489996433e-02" rms="3.7239807844161987e-01" purity="1.9431279599666595e-01" nType="-99"/>
          <Node pos="r" depth="2" NCoef="0" IVar="-1" Cut="0.0000000000000000e+00" cType="1" res="-4.7052339650690556e-03" rms="2.9994836449623108e-01" purity="1.1290322244167328e-01" nType="-99"/>
        </Node>
      </Node>
    </BinaryTree>
    <BinaryTree type="DecisionTree" boostWeight="1.0000000000000000e+00" itree="843">
      <Node pos="s" depth="0" NCoef="0" IVar="2" Cut="2.9222521185874939e-01" cType="1" res="-7.7250990671018371e-07" rms="3.2319676876068115e-01" purity="5.9855979681015015e-01" nType="0">
        <Node pos="l" depth="1" NCoef="0" IVar="-1" Cut="0.0000000000000000e+00" cType="1" res="-5.4782017832621932e-04" rms="2.7572432160377502e-01" purity="8.4798938035964966e-01" nType="-99"/>
        <Node pos="r" depth="1" NCoef="0" IVar="3" Cut="1.0626529902219772e-01" cType="0" res="4.4019089546054602e-04" rms="3.4566518664360046e-01" purity="4.6671533584594727e-01" nType="0">
          <Node pos="l" depth="2" NCoef="0" IVar="-1" Cut="0.0000000000000000e+00" cType="1" res="1.3976250193081796e-04" rms="3.4570866823196411e-01" purity="4.6767204999923706e-01" nType="-99"/>
          <Node pos="r" depth="2" NCoef="0" IVar="-1" Cut="0.0000000000000000e+00" cType="1" res="1.9398150965571404e-02" rms="3.2872307300567627e-01" purity="1.4000000059604645e-01" nType="-99"/>
        </Node>
      </Node>
    </BinaryTree>
    <BinaryTree type="DecisionTree" boostWeight="1.0000000000000000e+00" itree="844">
      <Node pos="s" depth="0" NCoef="0" IVar="1" Cut="2.3250875473022461e+00" cType="1" res="-7.7702492262687883e-07" rms="3.2319504022598267e-01" purity="5.9855979681015015e-01" nType="0">
        <Node pos="l" depth="1" NCoef="0" IVar="1" Cut="1.7344640493392944e+00" cType="1" res="2.6816003810381517e-05" rms="3.2303690910339355e-01" purity="5.9937214851379395e-01" nType="0">
          <Node pos="l" depth="2" NCoef="0" IVar="-1" Cut="0.0000000000000000e+00" cType="1" res="-1.8920365619123913e-05" rms="3.2282435894012451e-01" purity="6.0092604160308838e-01" nType="-99"/>
          <Node pos="r" depth="2" NCoef="0" IVar="-1" Cut="0.0000000000000000e+00" cType="1" res="6.9340723566710949e-03" rms="3.7506189942359924e-01" purity="1.8461538851261139e-01" nType="-99"/>
        </Node>
        <Node pos="r" depth="1" NCoef="0" IVar="-1" Cut="0.0000000000000000e+00" cType="1" res="-3.9074732922017574e-03" rms="3.9036142826080322e-01" purity="2.1621622145175934e-01" nType="-99"/>
      </Node>
    </BinaryTree>
    <BinaryTree type="DecisionTree" boostWeight="1.0000000000000000e+00" itree="845">
      <Node pos="s" depth="0" NCoef="0" IVar="1" Cut="8.8330835103988647e-01" cType="1" res="-7.3190415150747867e-07" rms="3.2319441437721252e-01" purity="5.9855979681015015e-01" nType="0">
        <Node pos="l" depth="1" NCoef="0" IVar="-1" Cut="0.0000000000000000e+00" cType="1" res="5.1809580327244475e-05" rms="3.2359591126441956e-01" purity="6.1389672756195068e-01" nType="-99"/>
        <Node pos="r" depth="1" NCoef="0" IVar="2" Cut="1.8170412778854370e+00" cType="0" res="-3.4307502210140228e-03" rms="3.1047916412353516e-01" purity="1.2339645624160767e-01" nType="0">
          <Node pos="l" depth="2" NCoef="0" IVar="-1" Cut="0.0000000000000000e+00" cType="1" res="9.8519669845700264e-03" rms="3.6035272479057312e-01" purity="1.8229167163372040e-01" nType="-99"/>
          <Node pos="r" depth="2" NCoef="0" IVar="-1" Cut="0.0000000000000000e+00" cType="1" res="-6.0511836782097816e-03" rms="2.9299953579902649e-01" purity="1.0534716397523880e-01" nType="-99"/>
        </Node>
      </Node>
    </BinaryTree>
    <BinaryTree type="DecisionTree" boostWeight="1.0000000000000000e+00" itree="846">
      <Node pos="s" depth="0" NCoef="0" IVar="0" Cut="2.0439779758453369e+00" cType="1" res="-8.7495578782181838e-07" rms="3.2319182157516479e-01" purity="5.9855979681015015e-01" nType="0">
        <Node pos="l" depth="1" NCoef="0" IVar="-1" Cut="0.0000000000000000e+00" cType="1" res="3.5222670703660697e-05" rms="3.2309201359748840e-01" purity="6.0564202070236206e-01" nType="-99"/>
        <Node pos="r" depth="1" NCoef="0" IVar="2" Cut="1.4992284774780273e+00" cType="1" res="-4.7882832586765289e-03" rms="3.2943037152290344e-01" purity="1.4901477098464966e-01" nType="0">
          <Node pos="l" depth="2" NCoef="0" IVar="-1" Cut="0.0000000000000000e+00" cType="1" res="6.5099317580461502e-03" rms="3.4113886952400208e-01" purity="1.5277777612209320e-01" nType="-99"/>
          <Node pos="r" depth="2" NCoef="0" IVar="-1" Cut="0.0000000000000000e+00" cType="1" res="-8.2711279392242432e-03" rms="3.1894853711128235e-01" purity="1.4601770043373108e-01" nType="-99"/>
        </Node>
      </Node>
    </BinaryTree>
    <BinaryTree type="DecisionTree" boostWeight="1.0000000000000000e+00" itree="847">
      <Node pos="s" depth="0" NCoef="0" IVar="3" Cut="3.1907123327255249e-01" cType="0" res="-9.1216037390040583e-07" rms="3.2319030165672302e-01" purity="5.9855979681015015e-01" nType="0">
        <Node pos="l" depth="1" NCoef="0" IVar="-1" Cut="0.0000000000000000e+00" cType="1" res="-3.2969753374345601e-04" rms="3.7092486023902893e-01" purity="6.7848116159439087e-01" nType="-99"/>
        <Node pos="r" depth="1" NCoef="0" IVar="3" Cut="3.1842893362045288e-01" cType="0" res="3.9098929846659303e-04" rms="3.0015602707862854e-01" purity="5.6392705440521240e-01" nType="0">
          <Node pos="l" depth="2" NCoef="0" IVar="-1" Cut="0.0000000000000000e+00" cType="1" res="1.3920373283326626e-02" rms="4.0001672506332397e-01" purity="6.4285713434219360e-01" nType="-99"/>
          <Node pos="r" depth="2" NCoef="0" IVar="-1" Cut="0.0000000000000000e+00" cType="1" res="1.4851441665086895e-04" rms="2.9979017376899719e-01" purity="5.6368428468704224e-01" nType="-99"/>
        </Node>
      </Node>
    </BinaryTree>
    <BinaryTree type="DecisionTree" boostWeight="1.0000000000000000e+00" itree="848">
      <Node pos="s" depth="0" NCoef="0" IVar="2" Cut="3.2781672477722168e+00" cType="1" res="-8.0623152598491288e-07" rms="3.2318881154060364e-01" purity="5.9855979681015015e-01" nType="0">
        <Node pos="l" depth="1" NCoef="0" IVar="-1" Cut="0.0000000000000000e+00" cType="1" res="-2.1709909560740925e-05" rms="3.2295268774032593e-01" purity="6.0073769092559814e-01" nType="-99"/>
        <Node pos="r" depth="1" NCoef="0" IVar="1" Cut="1.2243878096342087e-01" cType="0" res="7.8857699409127235e-03" rms="3.6199256777763367e-01" purity="2.1812079846858978e-01" nType="0">
          <Node pos="l" depth="2" NCoef="0" IVar="-1" Cut="0.0000000000000000e+00" cType="1" res="8.7567064911127090e-03" rms="3.7170958518981934e-01" purity="2.2448979318141937e-01" nType="-99"/>
          <Node pos="r" depth="2" NCoef="0" IVar="-1" Cut="0.0000000000000000e+00" cType="1" res="-7.5690569356083870e-03" rms="3.4056645631790161e-01" purity="2.0588235557079315e-01" nType="-99"/>
        </Node>
      </Node>
    </BinaryTree>
    <BinaryTree type="DecisionTree" boostWeight="1.0000000000000000e+00" itree="849">
      <Node pos="s" depth="0" NCoef="0" IVar="0" Cut="4.7851073741912842e-01" cType="1" res="-7.7542421195175848e-07" rms="3.2318794727325439e-01" purity="5.9855979681015015e-01" nType="0">
        <Node pos="l" depth="1" NCoef="0" IVar="-1" Cut="0.0000000000000000e+00" cType="1" res="1.2229016283527017e-04" rms="3.3647221326828003e-01" purity="7.1715843677520752e-01" nType="-99"/>
        <Node pos="r" depth="1" NCoef="0" IVar="2" Cut="9.1414034366607666e-01" cType="0" res="-1.2383759021759033e-03" rms="2.5661444664001465e-01" purity="7.6184578239917755e-02" nType="0">
          <Node pos="l" depth="2" NCoef="0" IVar="-1" Cut="0.0000000000000000e+00" cType="1" res="-2.9411250725388527e-03" rms="2.5865676999092102e-01" purity="7.8959375619888306e-02" nType="-99"/>
          <Node pos="r" depth="2" NCoef="0" IVar="-1" Cut="0.0000000000000000e+00" cType="1" res="4.3408586643636227e-03" rms="2.5212955474853516e-01" purity="7.0327550172805786e-02" nType="-99"/>
        </Node>
      </Node>
    </BinaryTree>
    <BinaryTree type="DecisionTree" boostWeight="1.0000000000000000e+00" itree="850">
      <Node pos="s" depth="0" NCoef="0" IVar="2" Cut="9.9656283855438232e-01" cType="1" res="-9.3095138709031744e-07" rms="3.2318803668022156e-01" purity="5.9855979681015015e-01" nType="0">
        <Node pos="l" depth="1" NCoef="0" IVar="-1" Cut="0.0000000000000000e+00" cType="1" res="-1.9615064957179129e-04" rms="3.1317228078842163e-01" purity="7.0853638648986816e-01" nType="-99"/>
        <Node pos="r" depth="1" NCoef="0" IVar="0" Cut="5.4972514510154724e-02" cType="1" res="1.1365540558472276e-03" rms="3.5076579451560974e-01" purity="2.7782765030860901e-01" nType="0">
          <Node pos="l" depth="2" NCoef="0" IVar="-1" Cut="0.0000000000000000e+00" cType="1" res="-9.6476543694734573e-03" rms="3.7851691246032715e-01" purity="7.9266053438186646e-01" nType="-99"/>
          <Node pos="r" depth="2" NCoef="0" IVar="-1" Cut="0.0000000000000000e+00" cType="1" res="1.4176641125231981e-03" rms="3.4809610247612000e-01" purity="2.3212249577045441e-01" nType="-99"/>
        </Node>
      </Node>
    </BinaryTree>
    <BinaryTree type="DecisionTree" boostWeight="1.0000000000000000e+00" itree="851">
      <Node pos="s" depth="0" NCoef="0" IVar="0" Cut="9.4952523708343506e-02" cType="1" res="-5.8571168892740388e-07" rms="3.2317978143692017e-01" purity="5.9855979681015015e-01" nType="0">
        <Node pos="l" depth="1" NCoef="0" IVar="-1" Cut="0.0000000000000000e+00" cType="1" res="3.1731749186292291e-04" rms="2.9972487688064575e-01" purity="8.8115000724792480e-01" nType="-99"/>
        <Node pos="r" depth="1" NCoef="0" IVar="0" Cut="9.8583877086639404e-02" cType="1" res="-7.8352913260459900e-04" rms="3.5247600078582764e-01" purity="2.1568010747432709e-01" nType="0">
          <Node pos="l" depth="2" NCoef="0" IVar="-1" Cut="0.0000000000000000e+00" cType="1" res="-7.7789360657334328e-03" rms="4.5048409700393677e-01" purity="6.2807017564773560e-01" nType="-99"/>
          <Node pos="r" depth="2" NCoef="0" IVar="-1" Cut="0.0000000000000000e+00" cType="1" res="-1.5276910562533885e-04" rms="3.5100558400154114e-01" purity="2.1032486855983734e-01" nType="-99"/>
        </Node>
      </Node>
    </BinaryTree>
    <BinaryTree type="DecisionTree" boostWeight="1.0000000000000000e+00" itree="852">
      <Node pos="s" depth="0" NCoef="0" IVar="0" Cut="1.6116940975189209e-01" cType="1" res="-4.8066777935673599e-07" rms="3.2317841053009033e-01" purity="5.9855979681015015e-01" nType="0">
        <Node pos="l" depth="1" NCoef="0" IVar="-1" Cut="0.0000000000000000e+00" cType="1" res="2.2206438006833196e-04" rms="3.2250425219535828e-01" purity="8.4581202268600464e-01" nType="-99"/>
        <Node pos="r" depth="1" NCoef="0" IVar="1" Cut="4.1229385882616043e-02" cType="1" res="-8.6525024380534887e-04" rms="3.2441943883895874e-01" purity="1.4138005673885345e-01" nType="0">
          <Node pos="l" depth="2" NCoef="0" IVar="-1" Cut="0.0000000000000000e+00" cType="1" res="-2.6697954162955284e-03" rms="3.5724800825119019e-01" purity="1.8640072643756866e-01" nType="-99"/>
          <Node pos="r" depth="2" NCoef="0" IVar="-1" Cut="0.0000000000000000e+00" cType="1" res="9.4731582794338465e-04" rms="3.0923733115196228e-01" purity="1.2207449227571487e-01" nType="-99"/>
        </Node>
      </Node>
    </BinaryTree>
    <BinaryTree type="DecisionTree" boostWeight="1.0000000000000000e+00" itree="853">
      <Node pos="s" depth="0" NCoef="0" IVar="2" Cut="9.9656283855438232e-01" cType="1" res="-5.4890534784135525e-07" rms="3.2317635416984558e-01" purity="5.9855979681015015e-01" nType="0">
        <Node pos="l" depth="1" NCoef="0" IVar="-1" Cut="0.0000000000000000e+00" cType="1" res="-1.8921348964795470e-04" rms="3.1316912174224854e-01" purity="7.0853638648986816e-01" nType="-99"/>
        <Node pos="r" depth="1" NCoef="0" IVar="0" Cut="5.4972514510154724e-02" cType="1" res="1.0973272146657109e-03" rms="3.5073199868202209e-01" purity="2.7782765030860901e-01" nType="0">
          <Node pos="l" depth="2" NCoef="0" IVar="-1" Cut="0.0000000000000000e+00" cType="1" res="-8.6426772177219391e-03" rms="3.7847107648849487e-01" purity="7.9266053438186646e-01" nType="-99"/>
          <Node pos="r" depth="2" NCoef="0" IVar="-1" Cut="0.0000000000000000e+00" cType="1" res="1.3122826348990202e-03" rms="3.4808093309402466e-01" purity="2.3212249577045441e-01" nType="-99"/>
        </Node>
      </Node>
    </BinaryTree>
    <BinaryTree type="DecisionTree" boostWeight="1.0000000000000000e+00" itree="854">
      <Node pos="s" depth="0" NCoef="0" IVar="0" Cut="5.9970013797283173e-02" cType="1" res="-2.9283978619787376e-07" rms="3.2316926121711731e-01" purity="5.9855979681015015e-01" nType="0">
        <Node pos="l" depth="1" NCoef="0" IVar="-1" Cut="0.0000000000000000e+00" cType="1" res="4.2453492642380297e-04" rms="2.8252217173576355e-01" purity="8.9877647161483765e-01" nType="-99"/>
        <Node pos="r" depth="1" NCoef="0" IVar="2" Cut="6.8935173749923706e-01" cType="1" res="-7.1593787288293242e-04" rms="3.6048766970634460e-01" purity="2.8743678331375122e-01" nType="0">
          <Node pos="l" depth="2" NCoef="0" IVar="-1" Cut="0.0000000000000000e+00" cType="1" res="-2.0434607286006212e-03" rms="3.7593913078308105e-01" purity="3.6898520588874817e-01" nType="-99"/>
          <Node pos="r" depth="2" NCoef="0" IVar="-1" Cut="0.0000000000000000e+00" cType="1" res="7.2257022839039564e-04" rms="3.5246214270591736e-01" purity="2.4656973779201508e-01" nType="-99"/>
        </Node>
      </Node>
    </BinaryTree>
    <BinaryTree type="DecisionTree" boostWeight="1.0000000000000000e+00" itree="855">
      <Node pos="s" depth="0" NCoef="0" IVar="0" Cut="1.6116940975189209e-01" cType="1" res="-2.8126063966738002e-07" rms="3.2316640019416809e-01" purity="5.9855979681015015e-01" nType="0">
        <Node pos="l" depth="1" NCoef="0" IVar="-1" Cut="0.0000000000000000e+00" cType="1" res="2.3624680761713535e-04" rms="3.2249394059181213e-01" purity="8.4581202268600464e-01" nType="-99"/>
        <Node pos="r" depth="1" NCoef="0" IVar="2" Cut="9.7408398985862732e-02" cType="1" res="-9.1991043882444501e-04" rms="3.2440418004989624e-01" purity="1.4138005673885345e-01" nType="0">
          <Node pos="l" depth="2" NCoef="0" IVar="-1" Cut="0.0000000000000000e+00" cType="1" res="1.4518343843519688e-02" rms="3.5389879345893860e-01" purity="1.8118466436862946e-01" nType="-99"/>
          <Node pos="r" depth="2" NCoef="0" IVar="-1" Cut="0.0000000000000000e+00" cType="1" res="-6.6299655009061098e-04" rms="3.2388904690742493e-01" purity="1.4074851572513580e-01" nType="-99"/>
        </Node>
      </Node>
    </BinaryTree>
    <BinaryTree type="DecisionTree" boostWeight="1.0000000000000000e+00" itree="856">
      <Node pos="s" depth="0" NCoef="0" IVar="2" Cut="1.9856327772140503e-01" cType="1" res="-4.0043619264906738e-07" rms="3.2316526770591736e-01" purity="5.9855979681015015e-01" nType="0">
        <Node pos="l" depth="1" NCoef="0" IVar="-1" Cut="0.0000000000000000e+00" cType="1" res="-6.7986699286848307e-04" rms="2.6618173718452454e-01" purity="8.7120628356933594e-01" nType="-99"/>
        <Node pos="r" depth="1" NCoef="0" IVar="2" Cut="2.0953430235385895e-01" cType="1" res="4.0810852078720927e-04" rms="3.4442263841629028e-01" purity="4.8334330320358276e-01" nType="0">
          <Node pos="l" depth="2" NCoef="0" IVar="-1" Cut="0.0000000000000000e+00" cType="1" res="8.7366495281457901e-03" rms="3.2072192430496216e-01" purity="6.9056606292724609e-01" nType="-99"/>
          <Node pos="r" depth="2" NCoef="0" IVar="-1" Cut="0.0000000000000000e+00" cType="1" res="1.1285368236713111e-04" rms="3.4458491206169128e-01" purity="4.8184031248092651e-01" nType="-99"/>
        </Node>
      </Node>
    </BinaryTree>
    <BinaryTree type="DecisionTree" boostWeight="1.0000000000000000e+00" itree="857">
      <Node pos="s" depth="0" NCoef="0" IVar="0" Cut="4.7851073741912842e-01" cType="1" res="-3.2376456715610402e-07" rms="3.2316392660140991e-01" purity="5.9855979681015015e-01" nType="0">
        <Node pos="l" depth="1" NCoef="0" IVar="-1" Cut="0.0000000000000000e+00" cType="1" res="1.3165388372726738e-04" rms="3.3644506335258484e-01" purity="7.1715843677520752e-01" nType="-99"/>
        <Node pos="r" depth="1" NCoef="0" IVar="0" Cut="4.8970958590507507e-01" cType="0" res="-1.3306882465258241e-03" rms="2.5660723447799683e-01" purity="7.6184578239917755e-02" nType="0">
          <Node pos="l" depth="2" NCoef="0" IVar="-1" Cut="0.0000000000000000e+00" cType="1" res="-5.3845456568524241e-04" rms="2.5733625888824463e-01" purity="7.6761305332183838e-02" nType="-99"/>
          <Node pos="r" depth="2" NCoef="0" IVar="-1" Cut="0.0000000000000000e+00" cType="1" res="-2.3417949676513672e-02" rms="2.1137383580207825e-01" purity="4.5197740197181702e-02" nType="-99"/>
        </Node>
      </Node>
    </BinaryTree>
    <BinaryTree type="DecisionTree" boostWeight="1.0000000000000000e+00" itree="858">
      <Node pos="s" depth="0" NCoef="0" IVar="0" Cut="1.1081959009170532e+00" cType="1" res="-5.0916969485115260e-07" rms="3.2316264510154724e-01" purity="5.9855979681015015e-01" nType="0">
        <Node pos="l" depth="1" NCoef="0" IVar="-1" Cut="0.0000000000000000e+00" cType="1" res="7.0197682362049818e-05" rms="3.2563689351081848e-01" purity="6.3016062974929810e-01" nType="-99"/>
        <Node pos="r" depth="1" NCoef="0" IVar="1" Cut="1.8215892314910889e+00" cType="0" res="-2.3954845964908600e-03" rms="2.8110200166702271e-01" purity="9.8360657691955566e-02" nType="0">
          <Node pos="l" depth="2" NCoef="0" IVar="-1" Cut="0.0000000000000000e+00" cType="1" res="-1.5749050304293633e-02" rms="3.5952407121658325e-01" purity="1.7730496823787689e-01" nType="-99"/>
          <Node pos="r" depth="2" NCoef="0" IVar="-1" Cut="0.0000000000000000e+00" cType="1" res="-6.1304861446842551e-05" rms="2.7661678194999695e-01" purity="9.4612792134284973e-02" nType="-99"/>
        </Node>
      </Node>
    </BinaryTree>
    <BinaryTree type="DecisionTree" boostWeight="1.0000000000000000e+00" itree="859">
      <Node pos="s" depth="0" NCoef="0" IVar="1" Cut="2.1589205265045166e+00" cType="1" res="-5.5965671208468848e-07" rms="3.2316115498542786e-01" purity="5.9855979681015015e-01" nType="0">
        <Node pos="l" depth="1" NCoef="0" IVar="0" Cut="1.5004997253417969e+00" cType="1" res="-3.6081557482248172e-05" rms="3.2290011644363403e-01" purity="5.9953266382217407e-01" nType="0">
          <Node pos="l" depth="2" NCoef="0" IVar="-1" Cut="0.0000000000000000e+00" cType="1" res="-9.6961077360901982e-05" rms="3.2340073585510254e-01" purity="6.1489343643188477e-01" nType="-99"/>
          <Node pos="r" depth="2" NCoef="0" IVar="-1" Cut="0.0000000000000000e+00" cType="1" res="2.7511673979461193e-03" rms="3.0689111351966858e-01" purity="1.2223587185144424e-01" nType="-99"/>
        </Node>
        <Node pos="r" depth="1" NCoef="0" IVar="-1" Cut="0.0000000000000000e+00" cType="1" res="4.0461840108036995e-03" rms="4.0884789824485779e-01" purity="2.3571428656578064e-01" nType="-99"/>
      </Node>
    </BinaryTree>
    <BinaryTree type="DecisionTree" boostWeight="1.0000000000000000e+00" itree="860">
      <Node pos="s" depth="0" NCoef="0" IVar="0" Cut="1.1081959009170532e+00" cType="1" res="-5.4075769639894133e-07" rms="3.2315990328788757e-01" purity="5.9855979681015015e-01" nType="0">
        <Node pos="l" depth="1" NCoef="0" IVar="-1" Cut="0.0000000000000000e+00" cType="1" res="7.2218586865346879e-05" rms="3.2563650608062744e-01" purity="6.3016062974929810e-01" nType="-99"/>
        <Node pos="r" depth="1" NCoef="0" IVar="1" Cut="1.8215892314910889e+00" cType="0" res="-2.4647740647196770e-03" rms="2.8105536103248596e-01" purity="9.8360657691955566e-02" nType="0">
          <Node pos="l" depth="2" NCoef="0" IVar="-1" Cut="0.0000000000000000e+00" cType="1" res="-1.4699520543217659e-02" rms="3.5963326692581177e-01" purity="1.7730496823787689e-01" nType="-99"/>
          <Node pos="r" depth="2" NCoef="0" IVar="-1" Cut="0.0000000000000000e+00" cType="1" res="-2.2206395806279033e-04" rms="2.7659380435943604e-01" purity="9.4612792134284973e-02" nType="-99"/>
        </Node>
      </Node>
    </BinaryTree>
    <BinaryTree type="DecisionTree" boostWeight="1.0000000000000000e+00" itree="861">
      <Node pos="s" depth="0" NCoef="0" IVar="1" Cut="2.1589205265045166e+00" cType="1" res="-5.7576556855565286e-07" rms="3.2315874099731445e-01" purity="5.9855979681015015e-01" nType="0">
        <Node pos="l" depth="1" NCoef="0" IVar="1" Cut="1.5831768512725830e+00" cType="1" res="-4.0700455429032445e-05" rms="3.2289835810661316e-01" purity="5.9953266382217407e-01" nType="0">
          <Node pos="l" depth="2" NCoef="0" IVar="-1" Cut="0.0000000000000000e+00" cType="1" res="9.5085615612333640e-06" rms="3.2289952039718628e-01" purity="6.0174334049224854e-01" nType="-99"/>
          <Node pos="r" depth="2" NCoef="0" IVar="-1" Cut="0.0000000000000000e+00" cType="1" res="-5.6649665348231792e-03" rms="3.2239234447479248e-01" purity="1.3061223924160004e-01" nType="-99"/>
        </Node>
        <Node pos="r" depth="1" NCoef="0" IVar="-1" Cut="0.0000000000000000e+00" cType="1" res="4.5918077230453491e-03" rms="4.0858680009841919e-01" purity="2.3571428656578064e-01" nType="-99"/>
      </Node>
    </BinaryTree>
    <BinaryTree type="DecisionTree" boostWeight="1.0000000000000000e+00" itree="862">
      <Node pos="s" depth="0" NCoef="0" IVar="1" Cut="1.7341328859329224e+00" cType="1" res="-5.4958314876785153e-07" rms="3.2315847277641296e-01" purity="5.9855979681015015e-01" nType="0">
        <Node pos="l" depth="1" NCoef="0" IVar="-1" Cut="0.0000000000000000e+00" cType="1" res="-2.7346070055500604e-05" rms="3.2279202342033386e-01" purity="6.0092604160308838e-01" nType="-99"/>
        <Node pos="r" depth="1" NCoef="0" IVar="0" Cut="1.4305347204208374e+00" cType="0" res="9.7494907677173615e-03" rms="3.8025659322738647e-01" purity="1.9607843458652496e-01" nType="0">
          <Node pos="l" depth="2" NCoef="0" IVar="-1" Cut="0.0000000000000000e+00" cType="1" res="-7.1377465501427650e-03" rms="3.8192394375801086e-01" purity="2.0000000298023224e-01" nType="-99"/>
          <Node pos="r" depth="2" NCoef="0" IVar="-1" Cut="0.0000000000000000e+00" cType="1" res="1.4779049903154373e-02" rms="3.7667602300643921e-01" purity="1.9277107715606689e-01" nType="-99"/>
        </Node>
      </Node>
    </BinaryTree>
    <BinaryTree type="DecisionTree" boostWeight="1.0000000000000000e+00" itree="863">
      <Node pos="s" depth="0" NCoef="0" IVar="1" Cut="1.7341328859329224e+00" cType="1" res="-6.2623502117276075e-07" rms="3.2315626740455627e-01" purity="5.9855979681015015e-01" nType="0">
        <Node pos="l" depth="1" NCoef="0" IVar="-1" Cut="0.0000000000000000e+00" cType="1" res="-2.4611104890936986e-05" rms="3.2279202342033386e-01" purity="6.0092604160308838e-01" nType="-99"/>
        <Node pos="r" depth="1" NCoef="0" IVar="0" Cut="1.4305347204208374e+00" cType="0" res="8.7519623339176178e-03" rms="3.7996020913124084e-01" purity="1.9607843458652496e-01" nType="0">
          <Node pos="l" depth="2" NCoef="0" IVar="-1" Cut="0.0000000000000000e+00" cType="1" res="-6.4709684811532497e-03" rms="3.8199329376220703e-01" purity="2.0000000298023224e-01" nType="-99"/>
          <Node pos="r" depth="2" NCoef="0" IVar="-1" Cut="0.0000000000000000e+00" cType="1" res="1.3040823861956596e-02" rms="3.7648034095764160e-01" purity="1.9277107715606689e-01" nType="-99"/>
        </Node>
      </Node>
    </BinaryTree>
    <BinaryTree type="DecisionTree" boostWeight="1.0000000000000000e+00" itree="864">
      <Node pos="s" depth="0" NCoef="0" IVar="0" Cut="2.4575212001800537e+00" cType="1" res="-6.6764050643541850e-07" rms="3.2315444946289062e-01" purity="5.9855979681015015e-01" nType="0">
        <Node pos="l" depth="1" NCoef="0" IVar="-1" Cut="0.0000000000000000e+00" cType="1" res="-3.2769352401373908e-05" rms="3.2280492782592773e-01" purity="6.0261505842208862e-01" nType="-99"/>
        <Node pos="r" depth="1" NCoef="0" IVar="2" Cut="2.3382983207702637e+00" cType="0" res="7.1220272220671177e-03" rms="3.5748139023780823e-01" purity="1.7800000309944153e-01" nType="0">
          <Node pos="l" depth="2" NCoef="0" IVar="-1" Cut="0.0000000000000000e+00" cType="1" res="1.0844878852367401e-02" rms="3.8508355617523193e-01" purity="2.3780487477779388e-01" nType="-99"/>
          <Node pos="r" depth="2" NCoef="0" IVar="-1" Cut="0.0000000000000000e+00" cType="1" res="-1.7638063291087747e-03" rms="3.4262144565582275e-01" purity="1.4880952239036560e-01" nType="-99"/>
        </Node>
      </Node>
    </BinaryTree>
    <BinaryTree type="DecisionTree" boostWeight="1.0000000000000000e+00" itree="865">
      <Node pos="s" depth="0" NCoef="0" IVar="0" Cut="2.4575212001800537e+00" cType="1" res="-6.5358602796550258e-07" rms="3.2315328717231750e-01" purity="5.9855979681015015e-01" nType="0">
        <Node pos="l" depth="1" NCoef="0" IVar="-1" Cut="0.0000000000000000e+00" cType="1" res="-2.9492215617210604e-05" rms="3.2280492782592773e-01" purity="6.0261505842208862e-01" nType="-99"/>
        <Node pos="r" depth="1" NCoef="0" IVar="3" Cut="1.6980570554733276e-01" cType="0" res="6.4043211750686169e-03" rms="3.5738497972488403e-01" purity="1.7800000309944153e-01" nType="0">
          <Node pos="l" depth="2" NCoef="0" IVar="-1" Cut="0.0000000000000000e+00" cType="1" res="6.1851614154875278e-03" rms="3.6687824130058289e-01" purity="1.9498607516288757e-01" nType="-99"/>
          <Node pos="r" depth="2" NCoef="0" IVar="-1" Cut="0.0000000000000000e+00" cType="1" res="-7.2810491546988487e-03" rms="3.3071023225784302e-01" purity="1.3475176692008972e-01" nType="-99"/>
        </Node>
      </Node>
    </BinaryTree>
    <BinaryTree type="DecisionTree" boostWeight="1.0000000000000000e+00" itree="866">
      <Node pos="s" depth="0" NCoef="0" IVar="2" Cut="3.8813500404357910e+00" cType="1" res="-6.4899256813077955e-07" rms="3.2315233349800110e-01" purity="5.9855979681015015e-01" nType="0">
        <Node pos="l" depth="1" NCoef="0" IVar="2" Cut="3.2772457599639893e+00" cType="1" res="2.8442656912375242e-05" rms="3.2305228710174561e-01" purity="5.9940659999847412e-01" nType="0">
          <Node pos="l" depth="2" NCoef="0" IVar="-1" Cut="0.0000000000000000e+00" cType="1" res="-1.7933485651155934e-05" rms="3.2291862368583679e-01" purity="6.0073769092559814e-01" nType="-99"/>
          <Node pos="r" depth="2" NCoef="0" IVar="-1" Cut="0.0000000000000000e+00" cType="1" res="7.1603357791900635e-03" rms="3.5837832093238831e-01" purity="2.2282609343528748e-01" nType="-99"/>
        </Node>
        <Node pos="r" depth="1" NCoef="0" IVar="-1" Cut="0.0000000000000000e+00" cType="1" res="-4.4722319580614567e-03" rms="3.6588504910469055e-01" purity="2.1052631735801697e-01" nType="-99"/>
      </Node>
    </BinaryTree>
    <BinaryTree type="DecisionTree" boostWeight="1.0000000000000000e+00" itree="867">
      <Node pos="s" depth="0" NCoef="0" IVar="2" Cut="3.1470406055450439e+00" cType="1" res="-6.1155924413469620e-07" rms="3.2315167784690857e-01" purity="5.9855979681015015e-01" nType="0">
        <Node pos="l" depth="1" NCoef="0" IVar="-1" Cut="0.0000000000000000e+00" cType="1" res="2.5730185370775871e-05" rms="3.2302600145339966e-01" purity="6.0167813301086426e-01" nType="-99"/>
        <Node pos="r" depth="1" NCoef="0" IVar="2" Cut="3.3106193542480469e+00" cType="0" res="-7.3223635554313660e-03" rms="3.3936101198196411e-01" purity="1.8414321541786194e-01" nType="0">
          <Node pos="l" depth="2" NCoef="0" IVar="-1" Cut="0.0000000000000000e+00" cType="1" res="2.0204137545078993e-03" rms="3.6089703440666199e-01" purity="2.1951219439506531e-01" nType="-99"/>
          <Node pos="r" depth="2" NCoef="0" IVar="-1" Cut="0.0000000000000000e+00" cType="1" res="-2.1718768402934074e-02" rms="2.6797699928283691e-01" purity="8.6538463830947876e-02" nType="-99"/>
        </Node>
      </Node>
    </BinaryTree>
    <BinaryTree type="DecisionTree" boostWeight="1.0000000000000000e+00" itree="868">
      <Node pos="s" depth="0" NCoef="0" IVar="2" Cut="3.4542517662048340e+00" cType="1" res="-6.6358478534311871e-07" rms="3.2314991950988770e-01" purity="5.9855979681015015e-01" nType="0">
        <Node pos="l" depth="1" NCoef="0" IVar="-1" Cut="0.0000000000000000e+00" cType="1" res="1.8844266378437169e-05" rms="3.2300531864166260e-01" purity="6.0029160976409912e-01" nType="-99"/>
        <Node pos="r" depth="1" NCoef="0" IVar="1" Cut="3.2983508706092834e-01" cType="1" res="-9.3586370348930359e-03" rms="3.5481160879135132e-01" purity="1.9911503791809082e-01" nType="0">
          <Node pos="l" depth="2" NCoef="0" IVar="-1" Cut="0.0000000000000000e+00" cType="1" res="3.5137250088155270e-03" rms="3.7370678782463074e-01" purity="2.3140496015548706e-01" nType="-99"/>
          <Node pos="r" depth="2" NCoef="0" IVar="-1" Cut="0.0000000000000000e+00" cType="1" res="-1.1763488873839378e-02" rms="3.3028501272201538e-01" purity="1.6190476715564728e-01" nType="-99"/>
        </Node>
      </Node>
    </BinaryTree>
    <BinaryTree type="DecisionTree" boostWeight="1.0000000000000000e+00" itree="869">
      <Node pos="s" depth="0" NCoef="0" IVar="0" Cut="5.9970013797283173e-02" cType="1" res="-6.3730237798154121e-07" rms="3.2314938306808472e-01" purity="5.9855979681015015e-01" nType="0">
        <Node pos="l" depth="1" NCoef="0" IVar="-1" Cut="0.0000000000000000e+00" cType="1" res="3.6212836857885122e-04" rms="2.8252333402633667e-01" purity="8.9877647161483765e-01" nType="-99"/>
        <Node pos="r" depth="1" NCoef="0" IVar="2" Cut="1.0003093481063843e+00" cType="1" res="-6.1102543259039521e-04" rms="3.6045077443122864e-01" purity="2.8743678331375122e-01" nType="0">
          <Node pos="l" depth="2" NCoef="0" IVar="-1" Cut="0.0000000000000000e+00" cType="1" res="-1.3613748596981168e-03" rms="3.7169024348258972e-01" purity="3.4198909997940063e-01" nType="-99"/>
          <Node pos="r" depth="2" NCoef="0" IVar="-1" Cut="0.0000000000000000e+00" cType="1" res="1.1908212909474969e-03" rms="3.4737321734428406e-01" purity="2.2622977197170258e-01" nType="-99"/>
        </Node>
      </Node>
    </BinaryTree>
    <BinaryTree type="DecisionTree" boostWeight="1.0000000000000000e+00" itree="870">
      <Node pos="s" depth="0" NCoef="0" IVar="2" Cut="1.9256891012191772e+00" cType="1" res="-6.1191701661300613e-07" rms="3.2314601540565491e-01" purity="5.9855979681015015e-01" nType="0">
        <Node pos="l" depth="1" NCoef="0" IVar="-1" Cut="0.0000000000000000e+00" cType="1" res="7.6866635936312377e-05" rms="3.2247361540794373e-01" purity="6.2506610155105591e-01" nType="-99"/>
        <Node pos="r" depth="1" NCoef="0" IVar="0" Cut="9.3703150749206543e-02" cType="1" res="-2.5188014842569828e-03" rms="3.3338829874992371e-01" purity="1.8757881224155426e-01" nType="0">
          <Node pos="l" depth="2" NCoef="0" IVar="-1" Cut="0.0000000000000000e+00" cType="1" res="1.3541526161134243e-02" rms="3.7319302558898926e-01" purity="7.9831933975219727e-01" nType="-99"/>
          <Node pos="r" depth="2" NCoef="0" IVar="-1" Cut="0.0000000000000000e+00" cType="1" res="-1.8721682718023658e-03" rms="3.3160483837127686e-01" purity="1.6377334296703339e-01" nType="-99"/>
        </Node>
      </Node>
    </BinaryTree>
    <BinaryTree type="DecisionTree" boostWeight="1.0000000000000000e+00" itree="871">
      <Node pos="s" depth="0" NCoef="0" IVar="3" Cut="2.6784995198249817e-01" cType="1" res="-5.1261474709463073e-07" rms="3.2314461469650269e-01" purity="5.9855979681015015e-01" nType="0">
        <Node pos="l" depth="1" NCoef="0" IVar="-1" Cut="0.0000000000000000e+00" cType="1" res="3.4762959694489837e-04" rms="2.8467765450477600e-01" purity="6.0393178462982178e-01" nType="-99"/>
        <Node pos="r" depth="1" NCoef="0" IVar="3" Cut="2.8306087851524353e-01" cType="0" res="-6.8885530345141888e-04" rms="3.6346691846847534e-01" purity="5.9219861030578613e-01" nType="0">
          <Node pos="l" depth="2" NCoef="0" IVar="-1" Cut="0.0000000000000000e+00" cType="1" res="3.9953476516529918e-05" rms="3.6718559265136719e-01" purity="6.1644852161407471e-01" nType="-99"/>
          <Node pos="r" depth="2" NCoef="0" IVar="-1" Cut="0.0000000000000000e+00" cType="1" res="-3.3300272189080715e-03" rms="3.2848361134529114e-01" purity="3.7665015459060669e-01" nType="-99"/>
        </Node>
      </Node>
    </BinaryTree>
    <BinaryTree type="DecisionTree" boostWeight="1.0000000000000000e+00" itree="872">
      <Node pos="s" depth="0" NCoef="0" IVar="0" Cut="1.2493752874433994e-03" cType="1" res="-4.7835840177867794e-07" rms="3.2314449548721313e-01" purity="5.9855979681015015e-01" nType="0">
        <Node pos="l" depth="1" NCoef="0" IVar="-1" Cut="0.0000000000000000e+00" cType="1" res="-6.2143750255927444e-04" rms="2.7204915881156921e-01" purity="9.0791207551956177e-01" nType="-99"/>
        <Node pos="r" depth="1" NCoef="0" IVar="0" Cut="2.4653216823935509e-02" cType="1" res="4.5792732271365821e-04" rms="3.4582999348640442e-01" purity="4.4418039917945862e-01" nType="0">
          <Node pos="l" depth="2" NCoef="0" IVar="-1" Cut="0.0000000000000000e+00" cType="1" res="6.0077481903135777e-03" rms="2.4037006497383118e-01" purity="9.3065577745437622e-01" nType="-99"/>
          <Node pos="r" depth="2" NCoef="0" IVar="-1" Cut="0.0000000000000000e+00" cType="1" res="-1.1569231719477102e-04" rms="3.5468289256095886e-01" purity="3.9533051848411560e-01" nType="-99"/>
        </Node>
      </Node>
    </BinaryTree>
    <BinaryTree type="DecisionTree" boostWeight="1.0000000000000000e+00" itree="873">
      <Node pos="s" depth="0" NCoef="0" IVar="3" Cut="3.1557321548461914e-01" cType="0" res="-1.9306240517380502e-07" rms="3.2314416766166687e-01" purity="5.9855979681015015e-01" nType="0">
        <Node pos="l" depth="1" NCoef="0" IVar="-1" Cut="0.0000000000000000e+00" cType="1" res="-3.4758800757117569e-04" rms="3.7087568640708923e-01" purity="6.7276829481124878e-01" nType="-99"/>
        <Node pos="r" depth="1" NCoef="0" IVar="3" Cut="3.1494051218032837e-01" cType="1" res="4.3393438681960106e-04" rms="2.9887449741363525e-01" purity="5.6474351882934570e-01" nType="0">
          <Node pos="l" depth="2" NCoef="0" IVar="-1" Cut="0.0000000000000000e+00" cType="1" res="1.4553230721503496e-04" rms="2.9875719547271729e-01" purity="5.6481480598449707e-01" nType="-99"/>
          <Node pos="r" depth="2" NCoef="0" IVar="-1" Cut="0.0000000000000000e+00" cType="1" res="2.0743569359183311e-02" rms="3.3069059252738953e-01" purity="5.4128438234329224e-01" nType="-99"/>
        </Node>
      </Node>
    </BinaryTree>
    <BinaryTree type="DecisionTree" boostWeight="1.0000000000000000e+00" itree="874">
      <Node pos="s" depth="0" NCoef="0" IVar="2" Cut="2.1354918181896210e-01" cType="1" res="-1.8301990678537550e-07" rms="3.2314044237136841e-01" purity="5.9855979681015015e-01" nType="0">
        <Node pos="l" depth="1" NCoef="0" IVar="-1" Cut="0.0000000000000000e+00" cType="1" res="-6.6617591073736548e-04" rms="2.6786804199218750e-01" purity="8.6649495363235474e-01" nType="-99"/>
        <Node pos="r" depth="1" NCoef="0" IVar="2" Cut="2.2453777492046356e-01" cType="1" res="4.1848135879263282e-04" rms="3.4451279044151306e-01" purity="4.8151603341102600e-01" nType="0">
          <Node pos="l" depth="2" NCoef="0" IVar="-1" Cut="0.0000000000000000e+00" cType="1" res="1.2973774224519730e-02" rms="3.1093272566795349e-01" purity="7.4806201457977295e-01" nType="-99"/>
          <Node pos="r" depth="2" NCoef="0" IVar="-1" Cut="0.0000000000000000e+00" cType="1" res="9.0033958258572966e-05" rms="3.4473225474357605e-01" purity="4.7961524128913879e-01" nType="-99"/>
        </Node>
      </Node>
    </BinaryTree>
    <BinaryTree type="DecisionTree" boostWeight="1.0000000000000000e+00" itree="875">
      <Node pos="s" depth="0" NCoef="0" IVar="3" Cut="3.0407965183258057e-01" cType="0" res="-8.8753616012127168e-08" rms="3.2313868403434753e-01" purity="5.9855979681015015e-01" nType="0">
        <Node pos="l" depth="1" NCoef="0" IVar="-1" Cut="0.0000000000000000e+00" cType="1" res="-3.0754395993426442e-04" rms="3.6970707774162292e-01" purity="6.5125590562820435e-01" nType="-99"/>
        <Node pos="r" depth="1" NCoef="0" IVar="3" Cut="3.0314764380455017e-01" cType="1" res="4.4793161214329302e-04" rms="2.9525500535964966e-01" purity="5.7039856910705566e-01" nType="0">
          <Node pos="l" depth="2" NCoef="0" IVar="-1" Cut="0.0000000000000000e+00" cType="1" res="1.0531739098951221e-04" rms="2.9486125707626343e-01" purity="5.7054132223129272e-01" nType="-99"/>
          <Node pos="r" depth="2" NCoef="0" IVar="-1" Cut="0.0000000000000000e+00" cType="1" res="2.4368861690163612e-02" rms="3.7050613760948181e-01" purity="5.3741496801376343e-01" nType="-99"/>
        </Node>
      </Node>
    </BinaryTree>
    <BinaryTree type="DecisionTree" boostWeight="1.0000000000000000e+00" itree="876">
      <Node pos="s" depth="0" NCoef="0" IVar="2" Cut="2.3228156566619873e-01" cType="1" res="-1.0377601000755021e-07" rms="3.2313448190689087e-01" purity="5.9855979681015015e-01" nType="0">
        <Node pos="l" depth="1" NCoef="0" IVar="-1" Cut="0.0000000000000000e+00" cType="1" res="-6.1906990595161915e-04" rms="2.6949188113212585e-01" purity="8.6202687025070190e-01" nType="-99"/>
        <Node pos="r" depth="1" NCoef="0" IVar="3" Cut="1.1524374037981033e-01" cType="0" res="4.1146297007799149e-04" rms="3.4480467438697815e-01" purity="4.7859564423561096e-01" nType="0">
          <Node pos="l" depth="2" NCoef="0" IVar="-1" Cut="0.0000000000000000e+00" cType="1" res="2.3863879323471338e-04" rms="3.4540292620658875e-01" purity="4.8142758011817932e-01" nType="-99"/>
          <Node pos="r" depth="2" NCoef="0" IVar="-1" Cut="0.0000000000000000e+00" cType="1" res="-1.5466397628188133e-02" rms="2.4302951991558075e-01" purity="7.2289153933525085e-02" nType="-99"/>
        </Node>
      </Node>
    </BinaryTree>
    <BinaryTree type="DecisionTree" boostWeight="1.0000000000000000e+00" itree="877">
      <Node pos="s" depth="0" NCoef="0" IVar="3" Cut="2.7884379029273987e-01" cType="0" res="-2.0399978950536024e-07" rms="3.2313337922096252e-01" purity="5.9855979681015015e-01" nType="0">
        <Node pos="l" depth="1" NCoef="0" IVar="-1" Cut="0.0000000000000000e+00" cType="1" res="-2.7956604026257992e-04" rms="3.6609461903572083e-01" purity="6.0930609703063965e-01" nType="-99"/>
        <Node pos="r" depth="1" NCoef="0" IVar="0" Cut="1.6991503536701202e-01" cType="1" res="5.5141176562756300e-04" rms="2.8736281394958496e-01" purity="5.9063452482223511e-01" nType="0">
          <Node pos="l" depth="2" NCoef="0" IVar="-1" Cut="0.0000000000000000e+00" cType="1" res="1.6217641532421112e-03" rms="2.8940510749816895e-01" purity="8.7822836637496948e-01" nType="-99"/>
          <Node pos="r" depth="2" NCoef="0" IVar="-1" Cut="0.0000000000000000e+00" cType="1" res="-1.9500707276165485e-03" rms="2.8379637002944946e-01" purity="9.9001891911029816e-02" nType="-99"/>
        </Node>
      </Node>
    </BinaryTree>
    <BinaryTree type="DecisionTree" boostWeight="1.0000000000000000e+00" itree="878">
      <Node pos="s" depth="0" NCoef="0" IVar="2" Cut="2.9222521185874939e-01" cType="1" res="-1.8213296471003559e-07" rms="3.2313230633735657e-01" purity="5.9855979681015015e-01" nType="0">
        <Node pos="l" depth="1" NCoef="0" IVar="-1" Cut="0.0000000000000000e+00" cType="1" res="-6.2273797811940312e-04" rms="2.7570119500160217e-01" purity="8.4798938035964966e-01" nType="-99"/>
        <Node pos="r" depth="1" NCoef="0" IVar="3" Cut="1.7966404557228088e-01" cType="0" res="5.0042301882058382e-04" rms="3.4558257460594177e-01" purity="4.6671533584594727e-01" nType="0">
          <Node pos="l" depth="2" NCoef="0" IVar="-1" Cut="0.0000000000000000e+00" cType="1" res="8.8926572061609477e-07" rms="3.4912630915641785e-01" purity="4.8694244027137756e-01" nType="-99"/>
          <Node pos="r" depth="2" NCoef="0" IVar="-1" Cut="0.0000000000000000e+00" cType="1" res="4.7624092549085617e-03" rms="2.8655147552490234e-01" purity="1.6062176227569580e-01" nType="-99"/>
        </Node>
      </Node>
    </BinaryTree>
    <BinaryTree type="DecisionTree" boostWeight="1.0000000000000000e+00" itree="879">
      <Node pos="s" depth="0" NCoef="0" IVar="2" Cut="2.3228156566619873e-01" cType="1" res="-2.3505727142492105e-07" rms="3.2312896847724915e-01" purity="5.9855979681015015e-01" nType="0">
        <Node pos="l" depth="1" NCoef="0" IVar="-1" Cut="0.0000000000000000e+00" cType="1" res="-6.3450314337387681e-04" rms="2.6949200034141541e-01" purity="8.6202687025070190e-01" nType="-99"/>
        <Node pos="r" depth="1" NCoef="0" IVar="3" Cut="1.4487259089946747e-01" cType="0" res="4.2122078593820333e-04" rms="3.4479707479476929e-01" purity="4.7859564423561096e-01" nType="0">
          <Node pos="l" depth="2" NCoef="0" IVar="-1" Cut="0.0000000000000000e+00" cType="1" res="3.0113654793240130e-04" rms="3.4652113914489746e-01" purity="4.8760944604873657e-01" nType="-99"/>
          <Node pos="r" depth="2" NCoef="0" IVar="-1" Cut="0.0000000000000000e+00" cType="1" res="-7.0711490698158741e-03" rms="2.6954340934753418e-01" purity="1.3009922206401825e-01" nType="-99"/>
        </Node>
      </Node>
    </BinaryTree>
    <BinaryTree type="DecisionTree" boostWeight="1.0000000000000000e+00" itree="880">
      <Node pos="s" depth="0" NCoef="0" IVar="3" Cut="2.7884379029273987e-01" cType="0" res="-2.7594450102697010e-07" rms="3.2312902808189392e-01" purity="5.9855979681015015e-01" nType="0">
        <Node pos="l" depth="1" NCoef="0" IVar="-1" Cut="0.0000000000000000e+00" cType="1" res="-2.8110350831411779e-04" rms="3.6609470844268799e-01" purity="6.0930609703063965e-01" nType="-99"/>
        <Node pos="r" depth="1" NCoef="0" IVar="3" Cut="2.7814462780952454e-01" cType="1" res="5.5432150838896632e-04" rms="2.8735414147377014e-01" purity="5.9063452482223511e-01" nType="0">
          <Node pos="l" depth="2" NCoef="0" IVar="-1" Cut="0.0000000000000000e+00" cType="1" res="2.1703043603338301e-04" rms="2.8702858090400696e-01" purity="5.9130287170410156e-01" nType="-99"/>
          <Node pos="r" depth="2" NCoef="0" IVar="-1" Cut="0.0000000000000000e+00" cType="1" res="1.9229004159569740e-02" rms="3.5568544268608093e-01" purity="4.2622950673103333e-01" nType="-99"/>
        </Node>
      </Node>
    </BinaryTree>
    <BinaryTree type="DecisionTree" boostWeight="1.0000000000000000e+00" itree="881">
      <Node pos="s" depth="0" NCoef="0" IVar="0" Cut="2.4575212001800537e+00" cType="1" res="-2.7879258368557203e-07" rms="3.2312655448913574e-01" purity="5.9855979681015015e-01" nType="0">
        <Node pos="l" depth="1" NCoef="0" IVar="-1" Cut="0.0000000000000000e+00" cType="1" res="-2.9466900741681457e-05" rms="3.2278069853782654e-01" purity="6.0261505842208862e-01" nType="-99"/>
        <Node pos="r" depth="1" NCoef="0" IVar="3" Cut="2.1075220406055450e-01" cType="0" res="6.4331805333495140e-03" rms="3.5712137818336487e-01" purity="1.7800000309944153e-01" nType="0">
          <Node pos="l" depth="2" NCoef="0" IVar="-1" Cut="0.0000000000000000e+00" cType="1" res="7.4587650597095490e-03" rms="3.8979378342628479e-01" purity="2.3206751048564911e-01" nType="-99"/>
          <Node pos="r" depth="2" NCoef="0" IVar="-1" Cut="0.0000000000000000e+00" cType="1" res="-3.1765582971274853e-03" rms="3.2426729798316956e-01" purity="1.2927757203578949e-01" nType="-99"/>
        </Node>
      </Node>
    </BinaryTree>
    <BinaryTree type="DecisionTree" boostWeight="1.0000000000000000e+00" itree="882">
      <Node pos="s" depth="0" NCoef="0" IVar="1" Cut="2.1589205265045166e+00" cType="1" res="-2.9340193918869772e-07" rms="3.2312580943107605e-01" purity="5.9855979681015015e-01" nType="0">
        <Node pos="l" depth="1" NCoef="0" IVar="1" Cut="1.5831768512725830e+00" cType="1" res="-3.1349853088613600e-05" rms="3.2286974787712097e-01" purity="5.9953266382217407e-01" nType="0">
          <Node pos="l" depth="2" NCoef="0" IVar="-1" Cut="0.0000000000000000e+00" cType="1" res="1.4575608474842738e-05" rms="3.2287085056304932e-01" purity="6.0174334049224854e-01" nType="-99"/>
          <Node pos="r" depth="2" NCoef="0" IVar="-1" Cut="0.0000000000000000e+00" cType="1" res="-5.7680401951074600e-03" rms="3.2236576080322266e-01" purity="1.3061223924160004e-01" nType="-99"/>
        </Node>
        <Node pos="r" depth="1" NCoef="0" IVar="-1" Cut="0.0000000000000000e+00" cType="1" res="3.5117911174893379e-03" rms="4.0739139914512634e-01" purity="2.3571428656578064e-01" nType="-99"/>
      </Node>
    </BinaryTree>
    <BinaryTree type="DecisionTree" boostWeight="1.0000000000000000e+00" itree="883">
      <Node pos="s" depth="0" NCoef="0" IVar="1" Cut="1.5704647302627563e+00" cType="1" res="-2.9240817411846365e-07" rms="3.2312563061714172e-01" purity="5.9855979681015015e-01" nType="0">
        <Node pos="l" depth="1" NCoef="0" IVar="-1" Cut="0.0000000000000000e+00" cType="1" res="-2.5767118131625466e-05" rms="3.2277888059616089e-01" purity="6.0177844762802124e-01" nType="-99"/>
        <Node pos="r" depth="1" NCoef="0" IVar="0" Cut="6.1844080686569214e-01" cType="0" res="7.0762438699603081e-03" rms="3.6551034450531006e-01" purity="1.7839196324348450e-01" nType="0">
          <Node pos="l" depth="2" NCoef="0" IVar="-1" Cut="0.0000000000000000e+00" cType="1" res="8.2911392673850060e-03" rms="3.8421726226806641e-01" purity="2.0300751924514771e-01" nType="-99"/>
          <Node pos="r" depth="2" NCoef="0" IVar="-1" Cut="0.0000000000000000e+00" cType="1" res="-9.9524548277258873e-03" rms="3.2227629423141479e-01" purity="1.2878787517547607e-01" nType="-99"/>
        </Node>
      </Node>
    </BinaryTree>
    <BinaryTree type="DecisionTree" boostWeight="1.0000000000000000e+00" itree="884">
      <Node pos="s" depth="0" NCoef="0" IVar="2" Cut="1.9256891012191772e+00" cType="1" res="-3.5464398706608335e-07" rms="3.2312393188476562e-01" purity="5.9855979681015015e-01" nType="0">
        <Node pos="l" depth="1" NCoef="0" IVar="-1" Cut="0.0000000000000000e+00" cType="1" res="7.1468180976808071e-05" rms="3.2245361804962158e-01" purity="6.2506610155105591e-01" nType="-99"/>
        <Node pos="r" depth="1" NCoef="0" IVar="2" Cut="1.9620925188064575e+00" cType="0" res="-2.3371963761746883e-03" rms="3.3333557844161987e-01" purity="1.8757881224155426e-01" nType="0">
          <Node pos="l" depth="2" NCoef="0" IVar="-1" Cut="0.0000000000000000e+00" cType="1" res="-1.2152178533142433e-04" rms="3.3419665694236755e-01" purity="1.8872305750846863e-01" nType="-99"/>
          <Node pos="r" depth="2" NCoef="0" IVar="-1" Cut="0.0000000000000000e+00" cType="1" res="-1.6914438456296921e-02" rms="3.1375342607498169e-01" purity="1.6560509800910950e-01" nType="-99"/>
        </Node>
      </Node>
    </BinaryTree>
    <BinaryTree type="DecisionTree" boostWeight="1.0000000000000000e+00" itree="885">
      <Node pos="s" depth="0" NCoef="0" IVar="2" Cut="3.4542517662048340e+00" cType="1" res="-4.0639173448653310e-07" rms="3.2312250137329102e-01" purity="5.9855979681015015e-01" nType="0">
        <Node pos="l" depth="1" NCoef="0" IVar="-1" Cut="0.0000000000000000e+00" cType="1" res="1.8139229723601602e-05" rms="3.2297879457473755e-01" purity="6.0029160976409912e-01" nType="-99"/>
        <Node pos="r" depth="1" NCoef="0" IVar="1" Cut="3.2983508706092834e-01" cType="1" res="-8.9476546272635460e-03" rms="3.5460090637207031e-01" purity="1.9911503791809082e-01" nType="0">
          <Node pos="l" depth="2" NCoef="0" IVar="-1" Cut="0.0000000000000000e+00" cType="1" res="3.2192931976169348e-03" rms="3.7362974882125854e-01" purity="2.3140496015548706e-01" nType="-99"/>
          <Node pos="r" depth="2" NCoef="0" IVar="-1" Cut="0.0000000000000000e+00" cType="1" res="-1.1182042770087719e-02" rms="3.3007350564002991e-01" purity="1.6190476715564728e-01" nType="-99"/>
        </Node>
      </Node>
    </BinaryTree>
    <BinaryTree type="DecisionTree" boostWeight="1.0000000000000000e+00" itree="886">
      <Node pos="s" depth="0" NCoef="0" IVar="2" Cut="2.3228156566619873e-01" cType="1" res="-4.0134091250365600e-07" rms="3.2312202453613281e-01" purity="5.9855979681015015e-01" nType="0">
        <Node pos="l" depth="1" NCoef="0" IVar="-1" Cut="0.0000000000000000e+00" cType="1" res="-5.9418054297566414e-04" rms="2.6948958635330200e-01" purity="8.6202687025070190e-01" nType="-99"/>
        <Node pos="r" depth="1" NCoef="0" IVar="3" Cut="1.3724091649055481e-01" cType="0" res="3.9434971404261887e-04" rms="3.4478855133056641e-01" purity="4.7859564423561096e-01" nType="0">
          <Node pos="l" depth="2" NCoef="0" IVar="-1" Cut="0.0000000000000000e+00" cType="1" res="2.6386583340354264e-04" rms="3.4616854786872864e-01" purity="4.8574021458625793e-01" nType="-99"/>
          <Node pos="r" depth="2" NCoef="0" IVar="-1" Cut="0.0000000000000000e+00" cType="1" res="-7.5317136943340302e-03" rms="2.6583865284919739e-01" purity="1.1857143044471741e-01" nType="-99"/>
        </Node>
      </Node>
    </BinaryTree>
    <BinaryTree type="DecisionTree" boostWeight="1.0000000000000000e+00" itree="887">
      <Node pos="s" depth="0" NCoef="0" IVar="3" Cut="2.6085385680198669e-01" cType="1" res="-4.1907165382326639e-07" rms="3.2312184572219849e-01" purity="5.9855979681015015e-01" nType="0">
        <Node pos="l" depth="1" NCoef="0" IVar="-1" Cut="0.0000000000000000e+00" cType="1" res="3.7910914397798479e-04" rms="2.8235682845115662e-01" purity="6.1474961042404175e-01" nType="-99"/>
        <Node pos="r" depth="1" NCoef="0" IVar="0" Cut="1.0069965124130249e+00" cType="1" res="-6.7765830317512155e-04" rms="3.6222842335700989e-01" purity="5.8097934722900391e-01" nType="0">
          <Node pos="l" depth="2" NCoef="0" IVar="-1" Cut="0.0000000000000000e+00" cType="1" res="-4.3588879634626210e-04" rms="3.6311799287796021e-01" purity="5.9838205575942993e-01" nType="-99"/>
          <Node pos="r" depth="2" NCoef="0" IVar="-1" Cut="0.0000000000000000e+00" cType="1" res="4.8160986043512821e-03" rms="3.3973842859268188e-01" purity="1.5895372629165649e-01" nType="-99"/>
        </Node>
      </Node>
    </BinaryTree>
    <BinaryTree type="DecisionTree" boostWeight="1.0000000000000000e+00" itree="888">
      <Node pos="s" depth="0" NCoef="0" IVar="0" Cut="6.6341829299926758e-01" cType="1" res="-4.3197084664825525e-07" rms="3.2312011718750000e-01" purity="5.9855979681015015e-01" nType="0">
        <Node pos="l" depth="1" NCoef="0" IVar="-1" Cut="0.0000000000000000e+00" cType="1" res="1.0509806452319026e-04" rms="3.3201465010643005e-01" purity="6.7677879333496094e-01" nType="-99"/>
        <Node pos="r" depth="1" NCoef="0" IVar="2" Cut="1.3187599182128906e+00" cType="0" res="-1.5658080810680985e-03" rms="2.5606814026832581e-01" purity="7.7294684946537018e-02" nType="0">
          <Node pos="l" depth="2" NCoef="0" IVar="-1" Cut="0.0000000000000000e+00" cType="1" res="-4.0775211527943611e-03" rms="2.6115602254867554e-01" purity="8.4179103374481201e-02" nType="-99"/>
          <Node pos="r" depth="2" NCoef="0" IVar="-1" Cut="0.0000000000000000e+00" cType="1" res="2.4120216257870197e-03" rms="2.5099155306816101e-01" purity="7.0669345557689667e-02" nType="-99"/>
        </Node>
      </Node>
    </BinaryTree>
    <BinaryTree type="DecisionTree" boostWeight="1.0000000000000000e+00" itree="889">
      <Node pos="s" depth="0" NCoef="0" IVar="1" Cut="1.2106447219848633e+00" cType="1" res="-5.4805400395707693e-07" rms="3.2312047481536865e-01" purity="5.9855979681015015e-01" nType="0">
        <Node pos="l" depth="1" NCoef="0" IVar="-1" Cut="0.0000000000000000e+00" cType="1" res="-3.4702374250628054e-05" rms="3.2294207811355591e-01" purity="6.0544127225875854e-01" nType="-99"/>
        <Node pos="r" depth="1" NCoef="0" IVar="1" Cut="1.3020795583724976e+00" cType="1" res="4.7895521856844425e-03" rms="3.3459785580635071e-01" purity="1.4649681746959686e-01" nType="0">
          <Node pos="l" depth="2" NCoef="0" IVar="-1" Cut="0.0000000000000000e+00" cType="1" res="2.4209510535001755e-02" rms="3.4782114624977112e-01" purity="1.6666667163372040e-01" nType="-99"/>
          <Node pos="r" depth="2" NCoef="0" IVar="-1" Cut="0.0000000000000000e+00" cType="1" res="-1.6657324740663171e-03" rms="3.3119153976440430e-01" purity="1.4241960644721985e-01" nType="-99"/>
        </Node>
      </Node>
    </BinaryTree>
    <BinaryTree type="DecisionTree" boostWeight="1.0000000000000000e+00" itree="890">
      <Node pos="s" depth="0" NCoef="0" IVar="1" Cut="1.5704647302627563e+00" cType="1" res="-6.9534524982373114e-07" rms="3.2311758399009705e-01" purity="5.9855979681015015e-01" nType="0">
        <Node pos="l" depth="1" NCoef="0" IVar="-1" Cut="0.0000000000000000e+00" cType="1" res="-2.6198340492555872e-05" rms="3.2277223467826843e-01" purity="6.0177844762802124e-01" nType="-99"/>
        <Node pos="r" depth="1" NCoef="0" IVar="3" Cut="1.8912068009376526e-01" cType="1" res="7.1425186470150948e-03" rms="3.6533969640731812e-01" purity="1.7839196324348450e-01" nType="0">
          <Node pos="l" depth="2" NCoef="0" IVar="-1" Cut="0.0000000000000000e+00" cType="1" res="1.4869203791022301e-02" rms="3.9637655019760132e-01" purity="2.2330096364021301e-01" nType="-99"/>
          <Node pos="r" depth="2" NCoef="0" IVar="-1" Cut="0.0000000000000000e+00" cType="1" res="-1.8788252491503954e-03" rms="3.5307705402374268e-01" purity="1.6271185874938965e-01" nType="-99"/>
        </Node>
      </Node>
    </BinaryTree>
    <BinaryTree type="DecisionTree" boostWeight="1.0000000000000000e+00" itree="891">
      <Node pos="s" depth="0" NCoef="0" IVar="1" Cut="4.1854071617126465e-01" cType="1" res="-6.9658750589951524e-07" rms="3.2311621308326721e-01" purity="5.9855979681015015e-01" nType="0">
        <Node pos="l" depth="1" NCoef="0" IVar="-1" Cut="0.0000000000000000e+00" cType="1" res="9.7134201496373862e-05" rms="3.2224628329277039e-01" purity="6.5104132890701294e-01" nType="-99"/>
        <Node pos="r" depth="1" NCoef="0" IVar="0" Cut="3.8980510830879211e-01" cType="1" res="-1.7024927074089646e-03" rms="3.3023554086685181e-01" purity="1.6344277560710907e-01" nType="0">
          <Node pos="l" depth="2" NCoef="0" IVar="-1" Cut="0.0000000000000000e+00" cType="1" res="-3.0517745763063431e-03" rms="3.9088156819343567e-01" purity="2.6170212030410767e-01" nType="-99"/>
          <Node pos="r" depth="2" NCoef="0" IVar="-1" Cut="0.0000000000000000e+00" cType="1" res="2.6876397896558046e-03" rms="2.7872845530509949e-01" purity="9.3150682747364044e-02" nType="-99"/>
        </Node>
      </Node>
    </BinaryTree>
    <BinaryTree type="DecisionTree" boostWeight="1.0000000000000000e+00" itree="892">
      <Node pos="s" depth="0" NCoef="0" IVar="0" Cut="6.6341829299926758e-01" cType="1" res="-7.2310092491534306e-07" rms="3.2311475276947021e-01" purity="5.9855979681015015e-01" nType="0">
        <Node pos="l" depth="1" NCoef="0" IVar="-1" Cut="0.0000000000000000e+00" cType="1" res="1.0811250831466168e-04" rms="3.3201178908348083e-01" purity="6.7677879333496094e-01" nType="-99"/>
        <Node pos="r" depth="1" NCoef="0" IVar="2" Cut="1.3187599182128906e+00" cType="0" res="-1.6126469708979130e-03" rms="2.5604045391082764e-01" purity="7.7294684946537018e-02" nType="0">
          <Node pos="l" depth="2" NCoef="0" IVar="-1" Cut="0.0000000000000000e+00" cType="1" res="-3.8223380688577890e-03" rms="2.6116350293159485e-01" purity="8.4179103374481201e-02" nType="-99"/>
          <Node pos="r" depth="2" NCoef="0" IVar="-1" Cut="0.0000000000000000e+00" cType="1" res="1.9970790017396212e-03" rms="2.5094416737556458e-01" purity="7.0669345557689667e-02" nType="-99"/>
        </Node>
      </Node>
    </BinaryTree>
    <BinaryTree type="DecisionTree" boostWeight="1.0000000000000000e+00" itree="893">
      <Node pos="s" depth="0" NCoef="0" IVar="2" Cut="1.2363374233245850e+00" cType="1" res="-7.8331424901989521e-07" rms="3.2311522960662842e-01" purity="5.9855979681015015e-01" nType="0">
        <Node pos="l" depth="1" NCoef="0" IVar="-1" Cut="0.0000000000000000e+00" cType="1" res="-1.3889615365769714e-04" rms="3.1718859076499939e-01" purity="6.7695432901382446e-01" nType="-99"/>
        <Node pos="r" depth="1" NCoef="0" IVar="2" Cut="1.2707720994949341e+00" cType="1" res="1.2666311813518405e-03" rms="3.4843364357948303e-01" purity="2.4727804958820343e-01" nType="0">
          <Node pos="l" depth="2" NCoef="0" IVar="-1" Cut="0.0000000000000000e+00" cType="1" res="1.3121329247951508e-02" rms="3.6979669332504272e-01" purity="3.7425741553306580e-01" nType="-99"/>
          <Node pos="r" depth="2" NCoef="0" IVar="-1" Cut="0.0000000000000000e+00" cType="1" res="-2.5045077200047672e-04" rms="3.4710606932640076e-01" purity="2.4019011855125427e-01" nType="-99"/>
        </Node>
      </Node>
    </BinaryTree>
    <BinaryTree type="DecisionTree" boostWeight="1.0000000000000000e+00" itree="894">
      <Node pos="s" depth="0" NCoef="0" IVar="2" Cut="1.5360555648803711e+00" cType="1" res="-7.7765537298546406e-07" rms="3.2311111688613892e-01" purity="5.9855979681015015e-01" nType="0">
        <Node pos="l" depth="1" NCoef="0" IVar="-1" Cut="0.0000000000000000e+00" cType="1" res="-1.0788466897793114e-04" rms="3.2050138711929321e-01" purity="6.4864921569824219e-01" nType="-99"/>
        <Node pos="r" depth="1" NCoef="0" IVar="0" Cut="3.1234383583068848e-02" cType="1" res="1.7145925667136908e-03" rms="3.4243249893188477e-01" purity="2.1498262882232666e-01" nType="0">
          <Node pos="l" depth="2" NCoef="0" IVar="-1" Cut="0.0000000000000000e+00" cType="1" res="-2.0689250901341438e-02" rms="4.0881422162055969e-01" purity="6.9444441795349121e-01" nType="-99"/>
          <Node pos="r" depth="2" NCoef="0" IVar="-1" Cut="0.0000000000000000e+00" cType="1" res="1.2215136084705591e-03" rms="3.4098944067955017e-01" purity="2.0626367628574371e-01" nType="-99"/>
        </Node>
      </Node>
    </BinaryTree>
    <BinaryTree type="DecisionTree" boostWeight="1.0000000000000000e+00" itree="895">
      <Node pos="s" depth="0" NCoef="0" IVar="1" Cut="8.8330835103988647e-01" cType="1" res="-5.9163409105167375e-07" rms="3.2310682535171509e-01" purity="5.9855979681015015e-01" nType="0">
        <Node pos="l" depth="1" NCoef="0" IVar="-1" Cut="0.0000000000000000e+00" cType="1" res="4.9560174375073984e-05" rms="3.2352462410926819e-01" purity="6.1389672756195068e-01" nType="-99"/>
        <Node pos="r" depth="1" NCoef="0" IVar="0" Cut="1.9365317821502686e+00" cType="0" res="-3.2767655793577433e-03" rms="3.0986517667770386e-01" purity="1.2339645624160767e-01" nType="0">
          <Node pos="l" depth="2" NCoef="0" IVar="-1" Cut="0.0000000000000000e+00" cType="1" res="9.1930376365780830e-03" rms="4.0138247609138489e-01" purity="2.2977346181869507e-01" nType="-99"/>
          <Node pos="r" depth="2" NCoef="0" IVar="-1" Cut="0.0000000000000000e+00" cType="1" res="-5.7002054527401924e-03" rms="2.8390029072761536e-01" purity="9.8644576966762543e-02" nType="-99"/>
        </Node>
      </Node>
    </BinaryTree>
    <BinaryTree type="DecisionTree" boostWeight="1.0000000000000000e+00" itree="896">
      <Node pos="s" depth="0" NCoef="0" IVar="0" Cut="2.0439779758453369e+00" cType="1" res="-7.1739270879334072e-07" rms="3.2310497760772705e-01" purity="5.9855979681015015e-01" nType="0">
        <Node pos="l" depth="1" NCoef="0" IVar="-1" Cut="0.0000000000000000e+00" cType="1" res="4.0384613384958357e-05" rms="3.2301554083824158e-01" purity="6.0564202070236206e-01" nType="-99"/>
        <Node pos="r" depth="1" NCoef="0" IVar="3" Cut="1.3391660153865814e-01" cType="1" res="-5.4685370996594429e-03" rms="3.2868677377700806e-01" purity="1.4901477098464966e-01" nType="0">
          <Node pos="l" depth="2" NCoef="0" IVar="-1" Cut="0.0000000000000000e+00" cType="1" res="1.6846312209963799e-02" rms="3.7265595793724060e-01" purity="1.8627451360225677e-01" nType="-99"/>
          <Node pos="r" depth="2" NCoef="0" IVar="-1" Cut="0.0000000000000000e+00" cType="1" res="-5.0955978222191334e-03" rms="3.2133704423904419e-01" purity="1.4366197586059570e-01" nType="-99"/>
        </Node>
      </Node>
    </BinaryTree>
    <BinaryTree type="DecisionTree" boostWeight="1.0000000000000000e+00" itree="897">
      <Node pos="s" depth="0" NCoef="0" IVar="0" Cut="2.0439779758453369e+00" cType="1" res="-7.8416559290417354e-07" rms="3.2310357689857483e-01" purity="5.9855979681015015e-01" nType="0">
        <Node pos="l" depth="1" NCoef="0" IVar="-1" Cut="0.0000000000000000e+00" cType="1" res="3.6346467823022977e-05" rms="3.2301554083824158e-01" purity="6.0564202070236206e-01" nType="-99"/>
        <Node pos="r" depth="1" NCoef="0" IVar="1" Cut="9.2453771829605103e-01" cType="0" res="-4.9305986613035202e-03" rms="3.2860663533210754e-01" purity="1.4901477098464966e-01" nType="0">
          <Node pos="l" depth="2" NCoef="0" IVar="-1" Cut="0.0000000000000000e+00" cType="1" res="6.0643870383501053e-03" rms="4.0269199013710022e-01" purity="2.3282442986965179e-01" nType="-99"/>
          <Node pos="r" depth="2" NCoef="0" IVar="-1" Cut="0.0000000000000000e+00" cType="1" res="-8.0825164914131165e-03" rms="2.8596320748329163e-01" purity="1.0909090936183929e-01" nType="-99"/>
        </Node>
      </Node>
    </BinaryTree>
    <BinaryTree type="DecisionTree" boostWeight="1.0000000000000000e+00" itree="898">
      <Node pos="s" depth="0" NCoef="0" IVar="1" Cut="2.3250875473022461e+00" cType="1" res="-8.2751427044058801e-07" rms="3.2310262322425842e-01" purity="5.9855979681015015e-01" nType="0">
        <Node pos="l" depth="1" NCoef="0" IVar="1" Cut="1.7344640493392944e+00" cType="1" res="2.7851840059156530e-05" rms="3.2294866442680359e-01" purity="5.9937214851379395e-01" nType="0">
          <Node pos="l" depth="2" NCoef="0" IVar="-1" Cut="0.0000000000000000e+00" cType="1" res="-1.8221508071292192e-05" rms="3.2274374365806580e-01" purity="6.0092604160308838e-01" nType="-99"/>
          <Node pos="r" depth="2" NCoef="0" IVar="-1" Cut="0.0000000000000000e+00" cType="1" res="6.8691559135913849e-03" rms="3.7322852015495300e-01" purity="1.8461538851261139e-01" nType="-99"/>
        </Node>
        <Node pos="r" depth="1" NCoef="0" IVar="-1" Cut="0.0000000000000000e+00" cType="1" res="-4.0528462268412113e-03" rms="3.8861095905303955e-01" purity="2.1621622145175934e-01" nType="-99"/>
      </Node>
    </BinaryTree>
    <BinaryTree type="DecisionTree" boostWeight="1.0000000000000000e+00" itree="899">
      <Node pos="s" depth="0" NCoef="0" IVar="1" Cut="8.8330835103988647e-01" cType="1" res="-7.7732522640872048e-07" rms="3.2310196757316589e-01" purity="5.9855979681015015e-01" nType="0">
        <Node pos="l" depth="1" NCoef="0" IVar="-1" Cut="0.0000000000000000e+00" cType="1" res="4.9340029363520443e-05" rms="3.2352524995803833e-01" purity="6.1389672756195068e-01" nType="-99"/>
        <Node pos="r" depth="1" NCoef="0" IVar="2" Cut="1.8170412778854370e+00" cType="0" res="-3.2676765695214272e-03" rms="3.0968371033668518e-01" purity="1.2339645624160767e-01" nType="0">
          <Node pos="l" depth="2" NCoef="0" IVar="-1" Cut="0.0000000000000000e+00" cType="1" res="9.0667996555566788e-03" rms="3.5873055458068848e-01" purity="1.8229167163372040e-01" nType="-99"/>
          <Node pos="r" depth="2" NCoef="0" IVar="-1" Cut="0.0000000000000000e+00" cType="1" res="-5.7005984708666801e-03" rms="2.9257747530937195e-01" purity="1.0534716397523880e-01" nType="-99"/>
        </Node>
      </Node>
    </BinaryTree>
    <BinaryTree type="DecisionTree" boostWeight="1.0000000000000000e+00" itree="900">
      <Node pos="s" depth="0" NCoef="0" IVar="0" Cut="2.0439779758453369e+00" cType="1" res="-8.8684322463450371e-07" rms="3.2309973239898682e-01" purity="5.9855979681015015e-01" nType="0">
        <Node pos="l" depth="1" NCoef="0" IVar="-1" Cut="0.0000000000000000e+00" cType="1" res="3.4698798117460683e-05" rms="3.2301351428031921e-01" purity="6.0564202070236206e-01" nType="-99"/>
        <Node pos="r" depth="1" NCoef="0" IVar="2" Cut="1.4992284774780273e+00" cType="1" res="-4.7155572101473808e-03" rms="3.2849091291427612e-01" purity="1.4901477098464966e-01" nType="0">
          <Node pos="l" depth="2" NCoef="0" IVar="-1" Cut="0.0000000000000000e+00" cType="1" res="6.0570081695914268e-03" rms="3.4081622958183289e-01" purity="1.5277777612209320e-01" nType="-99"/>
          <Node pos="r" depth="2" NCoef="0" IVar="-1" Cut="0.0000000000000000e+00" cType="1" res="-7.9686287790536880e-03" rms="3.1756687164306641e-01" purity="1.4601770043373108e-01" nType="-99"/>
        </Node>
      </Node>
    </BinaryTree>
    <BinaryTree type="DecisionTree" boostWeight="1.0000000000000000e+00" itree="901">
      <Node pos="s" depth="0" NCoef="0" IVar="2" Cut="3.7989275455474854e+00" cType="1" res="-9.1040215011162218e-07" rms="3.2309839129447937e-01" purity="5.9855979681015015e-01" nType="0">
        <Node pos="l" depth="1" NCoef="0" IVar="2" Cut="3.3657162189483643e+00" cType="1" res="-3.0064109523664229e-05" rms="3.2294303178787231e-01" purity="5.9950596094131470e-01" nType="0">
          <Node pos="l" depth="2" NCoef="0" IVar="-1" Cut="0.0000000000000000e+00" cType="1" res="1.5678197087254375e-05" rms="3.2294711470603943e-01" purity="6.0052978992462158e-01" nType="-99"/>
          <Node pos="r" depth="2" NCoef="0" IVar="-1" Cut="0.0000000000000000e+00" cType="1" res="-9.4408141449093819e-03" rms="3.2026770710945129e-01" purity="1.8604651093482971e-01" nType="-99"/>
        </Node>
        <Node pos="r" depth="1" NCoef="0" IVar="-1" Cut="0.0000000000000000e+00" cType="1" res="4.0795193053781986e-03" rms="3.7983369827270508e-01" purity="2.2137404978275299e-01" nType="-99"/>
      </Node>
    </BinaryTree>
    <BinaryTree type="DecisionTree" boostWeight="1.0000000000000000e+00" itree="902">
      <Node pos="s" depth="0" NCoef="0" IVar="2" Cut="2.7723929882049561e+00" cType="1" res="-8.5205778077579453e-07" rms="3.2309800386428833e-01" purity="5.9855979681015015e-01" nType="0">
        <Node pos="l" depth="1" NCoef="0" IVar="-1" Cut="0.0000000000000000e+00" cType="1" res="-3.4107571991626173e-05" rms="3.2289111614227295e-01" purity="6.0449886322021484e-01" nType="-99"/>
        <Node pos="r" depth="1" NCoef="0" IVar="3" Cut="3.4811067581176758e-01" cType="0" res="4.9641672521829605e-03" rms="3.3715945482254028e-01" purity="1.8488529324531555e-01" nType="0">
          <Node pos="l" depth="2" NCoef="0" IVar="-1" Cut="0.0000000000000000e+00" cType="1" res="1.2717519886791706e-02" rms="4.2456313967704773e-01" purity="4.1618496179580688e-01" nType="-99"/>
          <Node pos="r" depth="2" NCoef="0" IVar="-1" Cut="0.0000000000000000e+00" cType="1" res="-4.0639233775436878e-03" rms="3.0442890524864197e-01" purity="1.1443661898374557e-01" nType="-99"/>
        </Node>
      </Node>
    </BinaryTree>
    <BinaryTree type="DecisionTree" boostWeight="1.0000000000000000e+00" itree="903">
      <Node pos="s" depth="0" NCoef="0" IVar="3" Cut="4.9697157740592957e-01" cType="0" res="-8.3399436334730126e-07" rms="3.2309481501579285e-01" purity="5.9855979681015015e-01" nType="0">
        <Node pos="l" depth="1" NCoef="0" IVar="-1" Cut="0.0000000000000000e+00" cType="1" res="-4.9072839319705963e-03" rms="3.4818828105926514e-01" purity="8.3458644151687622e-01" nType="-99"/>
        <Node pos="r" depth="1" NCoef="0" IVar="3" Cut="4.8894721269607544e-01" cType="0" res="2.8199536245665513e-05" rms="3.2302790880203247e-01" purity="5.9795868396759033e-01" nType="0">
          <Node pos="l" depth="2" NCoef="0" IVar="-1" Cut="0.0000000000000000e+00" cType="1" res="7.2989901527762413e-03" rms="2.6425760984420776e-01" purity="9.0153849124908447e-01" nType="-99"/>
          <Node pos="r" depth="2" NCoef="0" IVar="-1" Cut="0.0000000000000000e+00" cType="1" res="-2.4649136321386322e-05" rms="3.2336071133613586e-01" purity="5.9605747461318970e-01" nType="-99"/>
        </Node>
      </Node>
    </BinaryTree>
    <BinaryTree type="DecisionTree" boostWeight="1.0000000000000000e+00" itree="904">
      <Node pos="s" depth="0" NCoef="0" IVar="3" Cut="4.9747130274772644e-01" cType="0" res="-7.0025697596065584e-07" rms="3.2309511303901672e-01" purity="5.9855979681015015e-01" nType="0">
        <Node pos="l" depth="1" NCoef="0" IVar="-1" Cut="0.0000000000000000e+00" cType="1" res="5.7728062383830547e-03" rms="3.1809869408607483e-01" purity="8.5981309413909912e-01" nType="-99"/>
        <Node pos="r" depth="1" NCoef="0" IVar="3" Cut="4.9446254968643188e-01" cType="0" res="-2.7881626010639593e-05" rms="3.2310470938682556e-01" purity="5.9802478551864624e-01" nType="0">
          <Node pos="l" depth="2" NCoef="0" IVar="-1" Cut="0.0000000000000000e+00" cType="1" res="-1.2010344304144382e-02" rms="3.3890190720558167e-01" purity="8.4552848339080811e-01" nType="-99"/>
          <Node pos="r" depth="2" NCoef="0" IVar="-1" Cut="0.0000000000000000e+00" cType="1" res="1.4926287803973537e-05" rms="3.2306417822837830e-01" purity="5.9744071960449219e-01" nType="-99"/>
        </Node>
      </Node>
    </BinaryTree>
    <BinaryTree type="DecisionTree" boostWeight="1.0000000000000000e+00" itree="905">
      <Node pos="s" depth="0" NCoef="0" IVar="3" Cut="2.9058721661567688e-01" cType="0" res="-5.7155330068781041e-07" rms="3.2309421896934509e-01" purity="5.9855979681015015e-01" nType="0">
        <Node pos="l" depth="1" NCoef="0" IVar="-1" Cut="0.0000000000000000e+00" cType="1" res="-2.6644344325177372e-04" rms="3.6800992488861084e-01" purity="6.2768095731735229e-01" nType="-99"/>
        <Node pos="r" depth="1" NCoef="0" IVar="0" Cut="2.3863068222999573e-01" cType="1" res="4.5773905003443360e-04" rms="2.9088091850280762e-01" purity="5.8000564575195312e-01" nType="0">
          <Node pos="l" depth="2" NCoef="0" IVar="-1" Cut="0.0000000000000000e+00" cType="1" res="1.3350031804293394e-03" rms="3.0298662185668945e-01" purity="8.4151339530944824e-01" nType="-99"/>
          <Node pos="r" depth="2" NCoef="0" IVar="-1" Cut="0.0000000000000000e+00" cType="1" res="-2.3298643063753843e-03" rms="2.6620259881019592e-01" purity="8.0778680741786957e-02" nType="-99"/>
        </Node>
      </Node>
    </BinaryTree>
    <BinaryTree type="DecisionTree" boostWeight="1.0000000000000000e+00" itree="906">
      <Node pos="s" depth="0" NCoef="0" IVar="2" Cut="2.3228156566619873e-01" cType="1" res="-5.8356295085104648e-07" rms="3.2309278845787048e-01" purity="5.9855979681015015e-01" nType="0">
        <Node pos="l" depth="1" NCoef="0" IVar="-1" Cut="0.0000000000000000e+00" cType="1" res="-6.7914597457274795e-04" rms="2.6949092745780945e-01" purity="8.6202687025070190e-01" nType="-99"/>
        <Node pos="r" depth="1" NCoef="0" IVar="3" Cut="1.1524374037981033e-01" cType="0" res="4.4974457705393434e-04" rms="3.4474802017211914e-01" purity="4.7859564423561096e-01" nType="0">
          <Node pos="l" depth="2" NCoef="0" IVar="-1" Cut="0.0000000000000000e+00" cType="1" res="2.4834187934175134e-04" rms="3.4534895420074463e-01" purity="4.8142758011817932e-01" nType="-99"/>
          <Node pos="r" depth="2" NCoef="0" IVar="-1" Cut="0.0000000000000000e+00" cType="1" res="-1.4336154796183109e-02" rms="2.4263161420822144e-01" purity="7.2289153933525085e-02" nType="-99"/>
        </Node>
      </Node>
    </BinaryTree>
    <BinaryTree type="DecisionTree" boostWeight="1.0000000000000000e+00" itree="907">
      <Node pos="s" depth="0" NCoef="0" IVar="0" Cut="1.6604198217391968e+00" cType="1" res="-6.1411640217556851e-07" rms="3.2309177517890930e-01" purity="5.9855979681015015e-01" nType="0">
        <Node pos="l" depth="1" NCoef="0" IVar="-1" Cut="0.0000000000000000e+00" cType="1" res="-5.0315986300120130e-05" rms="3.2312011718750000e-01" purity="6.1094874143600464e-01" nType="-99"/>
        <Node pos="r" depth="1" NCoef="0" IVar="1" Cut="1.8215892314910889e+00" cType="0" res="3.9374036714434624e-03" rms="3.2201081514358521e-01" purity="1.3785557448863983e-01" nType="0">
          <Node pos="l" depth="2" NCoef="0" IVar="-1" Cut="0.0000000000000000e+00" cType="1" res="-1.2675696983933449e-02" rms="3.9527487754821777e-01" purity="2.1568627655506134e-01" nType="-99"/>
          <Node pos="r" depth="2" NCoef="0" IVar="-1" Cut="0.0000000000000000e+00" cType="1" res="3.9568697102367878e-03" rms="3.1504604220390320e-01" purity="1.3159967958927155e-01" nType="-99"/>
        </Node>
      </Node>
    </BinaryTree>
    <BinaryTree type="DecisionTree" boostWeight="1.0000000000000000e+00" itree="908">
      <Node pos="s" depth="0" NCoef="0" IVar="1" Cut="2.1589205265045166e+00" cType="1" res="-6.5210997490794398e-07" rms="3.2308939099311829e-01" purity="5.9855979681015015e-01" nType="0">
        <Node pos="l" depth="1" NCoef="0" IVar="0" Cut="1.5004997253417969e+00" cType="1" res="-3.3977827115450054e-05" rms="3.2283544540405273e-01" purity="5.9953266382217407e-01" nType="0">
          <Node pos="l" depth="2" NCoef="0" IVar="-1" Cut="0.0000000000000000e+00" cType="1" res="-9.5379109552595764e-05" rms="3.2335177063941956e-01" purity="6.1489343643188477e-01" nType="-99"/>
          <Node pos="r" depth="2" NCoef="0" IVar="-1" Cut="0.0000000000000000e+00" cType="1" res="2.7299167122691870e-03" rms="3.0631202459335327e-01" purity="1.2223587185144424e-01" nType="-99"/>
        </Node>
        <Node pos="r" depth="1" NCoef="0" IVar="-1" Cut="0.0000000000000000e+00" cType="1" res="3.7818346172571182e-03" rms="4.0670251846313477e-01" purity="2.3571428656578064e-01" nType="-99"/>
      </Node>
    </BinaryTree>
    <BinaryTree type="DecisionTree" boostWeight="1.0000000000000000e+00" itree="909">
      <Node pos="s" depth="0" NCoef="0" IVar="2" Cut="2.3228156566619873e-01" cType="1" res="-6.2304229686560575e-07" rms="3.2308807969093323e-01" purity="5.9855979681015015e-01" nType="0">
        <Node pos="l" depth="1" NCoef="0" IVar="-1" Cut="0.0000000000000000e+00" cType="1" res="-5.9788825456053019e-04" rms="2.6948866248130798e-01" purity="8.6202687025070190e-01" nType="-99"/>
        <Node pos="r" depth="1" NCoef="0" IVar="2" Cut="2.4680936336517334e-01" cType="1" res="3.9617402944713831e-04" rms="3.4474259614944458e-01" purity="4.7859564423561096e-01" nType="0">
          <Node pos="l" depth="2" NCoef="0" IVar="-1" Cut="0.0000000000000000e+00" cType="1" res="8.8690891861915588e-03" rms="3.2113757729530334e-01" purity="7.4373257160186768e-01" nType="-99"/>
          <Node pos="r" depth="2" NCoef="0" IVar="-1" Cut="0.0000000000000000e+00" cType="1" res="9.2592679720837623e-05" rms="3.4496802091598511e-01" purity="4.7592306137084961e-01" nType="-99"/>
        </Node>
      </Node>
    </BinaryTree>
    <BinaryTree type="DecisionTree" boostWeight="1.0000000000000000e+00" itree="910">
      <Node pos="s" depth="0" NCoef="0" IVar="1" Cut="1.5704647302627563e+00" cType="1" res="-5.1851299076588475e-07" rms="3.2308685779571533e-01" purity="5.9855979681015015e-01" nType="0">
        <Node pos="l" depth="1" NCoef="0" IVar="-1" Cut="0.0000000000000000e+00" cType="1" res="-2.4431201381958090e-05" rms="3.2274824380874634e-01" purity="6.0177844762802124e-01" nType="-99"/>
        <Node pos="r" depth="1" NCoef="0" IVar="0" Cut="6.1844080686569214e-01" cType="0" res="6.6732275299727917e-03" rms="3.6453846096992493e-01" purity="1.7839196324348450e-01" nType="0">
          <Node pos="l" depth="2" NCoef="0" IVar="-1" Cut="0.0000000000000000e+00" cType="1" res="7.2319959290325642e-03" rms="3.8324767351150513e-01" purity="2.0300751924514771e-01" nType="-99"/>
          <Node pos="r" depth="2" NCoef="0" IVar="-1" Cut="0.0000000000000000e+00" cType="1" res="-8.4187593311071396e-03" rms="3.2190468907356262e-01" purity="1.2878787517547607e-01" nType="-99"/>
        </Node>
      </Node>
    </BinaryTree>
    <BinaryTree type="DecisionTree" boostWeight="1.0000000000000000e+00" itree="911">
      <Node pos="s" depth="0" NCoef="0" IVar="0" Cut="1.1081959009170532e+00" cType="1" res="-5.3408717803904437e-07" rms="3.2308551669120789e-01" purity="5.9855979681015015e-01" nType="0">
        <Node pos="l" depth="1" NCoef="0" IVar="-1" Cut="0.0000000000000000e+00" cType="1" res="6.9930501922499388e-05" rms="3.2558137178421021e-01" purity="6.3016062974929810e-01" nType="-99"/>
        <Node pos="r" depth="1" NCoef="0" IVar="1" Cut="1.8215892314910889e+00" cType="0" res="-2.3837704211473465e-03" rms="2.8062751889228821e-01" purity="9.8360657691955566e-02" nType="0">
          <Node pos="l" depth="2" NCoef="0" IVar="-1" Cut="0.0000000000000000e+00" cType="1" res="-1.4170370064675808e-02" rms="3.5857552289962769e-01" purity="1.7730496823787689e-01" nType="-99"/>
          <Node pos="r" depth="2" NCoef="0" IVar="-1" Cut="0.0000000000000000e+00" cType="1" res="-2.2746674949303269e-04" rms="2.7621835470199585e-01" purity="9.4612792134284973e-02" nType="-99"/>
        </Node>
      </Node>
    </BinaryTree>
    <BinaryTree type="DecisionTree" boostWeight="1.0000000000000000e+00" itree="912">
      <Node pos="s" depth="0" NCoef="0" IVar="1" Cut="2.0239880084991455e+00" cType="1" res="-5.6351251487285481e-07" rms="3.2308450341224670e-01" purity="5.9855979681015015e-01" nType="0">
        <Node pos="l" depth="1" NCoef="0" IVar="1" Cut="1.5837377309799194e+00" cType="1" res="-4.1054965549847111e-05" rms="3.2278424501419067e-01" purity="5.9982752799987793e-01" nType="0">
          <Node pos="l" depth="2" NCoef="0" IVar="-1" Cut="0.0000000000000000e+00" cType="1" res="9.8843356681754813e-06" rms="3.2283648848533630e-01" purity="6.0173177719116211e-01" nType="-99"/>
          <Node pos="r" depth="2" NCoef="0" IVar="-1" Cut="0.0000000000000000e+00" cType="1" res="-7.3110470548272133e-03" rms="3.0885639786720276e-01" purity="1.1707317084074020e-01" nType="-99"/>
        </Node>
        <Node pos="r" depth="1" NCoef="0" IVar="-1" Cut="0.0000000000000000e+00" cType="1" res="3.6802145186811686e-03" rms="4.0096300840377808e-01" purity="2.2905027866363525e-01" nType="-99"/>
      </Node>
    </BinaryTree>
    <BinaryTree type="DecisionTree" boostWeight="1.0000000000000000e+00" itree="913">
      <Node pos="s" depth="0" NCoef="0" IVar="1" Cut="1.5704647302627563e+00" cType="1" res="-5.4418433137470856e-07" rms="3.2308411598205566e-01" purity="5.9855979681015015e-01" nType="0">
        <Node pos="l" depth="1" NCoef="0" IVar="-1" Cut="0.0000000000000000e+00" cType="1" res="-2.8715541702695191e-05" rms="3.2274830341339111e-01" purity="6.0177844762802124e-01" nType="-99"/>
        <Node pos="r" depth="1" NCoef="0" IVar="0" Cut="1.1031984090805054e+00" cType="0" res="7.8517813235521317e-03" rms="3.6418583989143372e-01" purity="1.7839196324348450e-01" nType="0">
          <Node pos="l" depth="2" NCoef="0" IVar="-1" Cut="0.0000000000000000e+00" cType="1" res="-3.6072693765163422e-03" rms="3.7009358406066895e-01" purity="1.9191919267177582e-01" nType="-99"/>
          <Node pos="r" depth="2" NCoef="0" IVar="-1" Cut="0.0000000000000000e+00" cType="1" res="1.1586648412048817e-02" rms="3.5728812217712402e-01" purity="1.6500000655651093e-01" nType="-99"/>
        </Node>
      </Node>
    </BinaryTree>
    <BinaryTree type="DecisionTree" boostWeight="1.0000000000000000e+00" itree="914">
      <Node pos="s" depth="0" NCoef="0" IVar="1" Cut="1.7341328859329224e+00" cType="1" res="-5.7432401945334277e-07" rms="3.2308307290077209e-01" purity="5.9855979681015015e-01" nType="0">
        <Node pos="l" depth="1" NCoef="0" IVar="-1" Cut="0.0000000000000000e+00" cType="1" res="-2.2708249161951244e-05" rms="3.2272970676422119e-01" purity="6.0092604160308838e-01" nType="-99"/>
        <Node pos="r" depth="1" NCoef="0" IVar="0" Cut="1.4305347204208374e+00" cType="0" res="8.0646928399801254e-03" rms="3.7832829356193542e-01" purity="1.9607843458652496e-01" nType="0">
          <Node pos="l" depth="2" NCoef="0" IVar="-1" Cut="0.0000000000000000e+00" cType="1" res="-6.2186610884964466e-03" rms="3.8062757253646851e-01" purity="2.0000000298023224e-01" nType="-99"/>
          <Node pos="r" depth="2" NCoef="0" IVar="-1" Cut="0.0000000000000000e+00" cType="1" res="1.2152778916060925e-02" rms="3.7479528784751892e-01" purity="1.9277107715606689e-01" nType="-99"/>
        </Node>
      </Node>
    </BinaryTree>
    <BinaryTree type="DecisionTree" boostWeight="1.0000000000000000e+00" itree="915">
      <Node pos="s" depth="0" NCoef="0" IVar="0" Cut="2.4575212001800537e+00" cType="1" res="-6.0791580835939385e-07" rms="3.2308140397071838e-01" purity="5.9855979681015015e-01" nType="0">
        <Node pos="l" depth="1" NCoef="0" IVar="-1" Cut="0.0000000000000000e+00" cType="1" res="-2.9446293410728686e-05" rms="3.2274267077445984e-01" purity="6.0261505842208862e-01" nType="-99"/>
        <Node pos="r" depth="1" NCoef="0" IVar="2" Cut="2.3382983207702637e+00" cType="0" res="6.3901697285473347e-03" rms="3.5641121864318848e-01" purity="1.7800000309944153e-01" nType="0">
          <Node pos="l" depth="2" NCoef="0" IVar="-1" Cut="0.0000000000000000e+00" cType="1" res="1.0018018074333668e-02" rms="3.8362678885459900e-01" purity="2.3780487477779388e-01" nType="-99"/>
          <Node pos="r" depth="2" NCoef="0" IVar="-1" Cut="0.0000000000000000e+00" cType="1" res="-1.7723533092066646e-03" rms="3.4183001518249512e-01" purity="1.4880952239036560e-01" nType="-99"/>
        </Node>
      </Node>
    </BinaryTree>
    <BinaryTree type="DecisionTree" boostWeight="1.0000000000000000e+00" itree="916">
      <Node pos="s" depth="0" NCoef="0" IVar="3" Cut="1.2742861174046993e-02" cType="1" res="-5.9251260609016754e-07" rms="3.2308039069175720e-01" purity="5.9855979681015015e-01" nType="0">
        <Node pos="l" depth="1" NCoef="0" IVar="-1" Cut="0.0000000000000000e+00" cType="1" res="8.0065085785463452e-04" rms="2.4899864196777344e-01" purity="9.2308878898620605e-01" nType="-99"/>
        <Node pos="r" depth="1" NCoef="0" IVar="2" Cut="1.9981436431407928e-01" cType="1" res="-3.3313978929072618e-04" rms="3.4398740530014038e-01" purity="4.9176207184791565e-01" nType="0">
          <Node pos="l" depth="2" NCoef="0" IVar="-1" Cut="0.0000000000000000e+00" cType="1" res="-4.0390421636402607e-03" rms="3.3857715129852295e-01" purity="6.1206567287445068e-01" nType="-99"/>
          <Node pos="r" depth="2" NCoef="0" IVar="-1" Cut="0.0000000000000000e+00" cType="1" res="1.1834233009722084e-04" rms="3.4436115622520447e-01" purity="4.8319372534751892e-01" nType="-99"/>
        </Node>
      </Node>
    </BinaryTree>
    <BinaryTree type="DecisionTree" boostWeight="1.0000000000000000e+00" itree="917">
      <Node pos="s" depth="0" NCoef="0" IVar="3" Cut="2.6060399413108826e-01" cType="1" res="-4.7539103320559661e-07" rms="3.2307794690132141e-01" purity="5.9855979681015015e-01" nType="0">
        <Node pos="l" depth="1" NCoef="0" IVar="-1" Cut="0.0000000000000000e+00" cType="1" res="3.5532156471163034e-04" rms="2.8216946125030518e-01" purity="6.1518114805221558e-01" nType="-99"/>
        <Node pos="r" depth="1" NCoef="0" IVar="0" Cut="5.7721138000488281e-01" cType="1" res="-6.3260598108172417e-04" rms="3.6220046877861023e-01" purity="5.8056175708770752e-01" nType="0">
          <Node pos="l" depth="2" NCoef="0" IVar="-1" Cut="0.0000000000000000e+00" cType="1" res="-5.3176202345639467e-04" rms="3.6976346373558044e-01" purity="6.4039450883865356e-01" nType="-99"/>
          <Node pos="r" depth="2" NCoef="0" IVar="-1" Cut="0.0000000000000000e+00" cType="1" res="3.4349679481238127e-03" rms="2.9584619402885437e-01" purity="1.0914871096611023e-01" nType="-99"/>
        </Node>
      </Node>
    </BinaryTree>
    <BinaryTree type="DecisionTree" boostWeight="1.0000000000000000e+00" itree="918">
      <Node pos="s" depth="0" NCoef="0" IVar="2" Cut="2.5476043224334717e+00" cType="1" res="-4.9840957672131481e-07" rms="3.2307595014572144e-01" purity="5.9855979681015015e-01" nType="0">
        <Node pos="l" depth="1" NCoef="0" IVar="-1" Cut="0.0000000000000000e+00" cType="1" res="4.2640665924409404e-05" rms="3.2284268736839294e-01" purity="6.0753786563873291e-01" nType="-99"/>
        <Node pos="r" depth="1" NCoef="0" IVar="2" Cut="2.6208620071411133e+00" cType="0" res="-4.2500467970967293e-03" rms="3.3380478620529175e-01" purity="1.7749314010143280e-01" nType="0">
          <Node pos="l" depth="2" NCoef="0" IVar="-1" Cut="0.0000000000000000e+00" cType="1" res="1.0612431215122342e-03" rms="3.4136629104614258e-01" purity="1.8821096420288086e-01" nType="-99"/>
          <Node pos="r" depth="2" NCoef="0" IVar="-1" Cut="0.0000000000000000e+00" cType="1" res="-2.7487276121973991e-02" rms="2.6301822066307068e-01" purity="9.5238097012042999e-02" nType="-99"/>
        </Node>
      </Node>
    </BinaryTree>
    <BinaryTree type="DecisionTree" boostWeight="1.0000000000000000e+00" itree="919">
      <Node pos="s" depth="0" NCoef="0" IVar="2" Cut="3.8813500404357910e+00" cType="1" res="-6.6102376194976387e-07" rms="3.2307317852973938e-01" purity="5.9855979681015015e-01" nType="0">
        <Node pos="l" depth="1" NCoef="0" IVar="2" Cut="3.2772457599639893e+00" cType="1" res="2.7882166250492446e-05" rms="3.2297518849372864e-01" purity="5.9940659999847412e-01" nType="0">
          <Node pos="l" depth="2" NCoef="0" IVar="-1" Cut="0.0000000000000000e+00" cType="1" res="-1.5621522834408097e-05" rms="3.2284456491470337e-01" purity="6.0073769092559814e-01" nType="-99"/>
          <Node pos="r" depth="2" NCoef="0" IVar="-1" Cut="0.0000000000000000e+00" cType="1" res="6.5740491263568401e-03" rms="3.5760480165481567e-01" purity="2.2282609343528748e-01" nType="-99"/>
        </Node>
        <Node pos="r" depth="1" NCoef="0" IVar="-1" Cut="0.0000000000000000e+00" cType="1" res="-4.4070696458220482e-03" rms="3.6498785018920898e-01" purity="2.1052631735801697e-01" nType="-99"/>
      </Node>
    </BinaryTree>
    <BinaryTree type="DecisionTree" boostWeight="1.0000000000000000e+00" itree="920">
      <Node pos="s" depth="0" NCoef="0" IVar="2" Cut="3.0308997631072998e+00" cType="1" res="-6.1863801192885148e-07" rms="3.2307264208793640e-01" purity="5.9855979681015015e-01" nType="0">
        <Node pos="l" depth="1" NCoef="0" IVar="-1" Cut="0.0000000000000000e+00" cType="1" res="2.8312351787462831e-05" rms="3.2300147414207458e-01" purity="6.0254877805709839e-01" nType="-99"/>
        <Node pos="r" depth="1" NCoef="0" IVar="3" Cut="3.2239890098571777e-01" cType="0" res="-6.4579425379633904e-03" rms="3.3051750063896179e-01" purity="1.7283950746059418e-01" nType="0">
          <Node pos="l" depth="2" NCoef="0" IVar="-1" Cut="0.0000000000000000e+00" cType="1" res="-7.9625295475125313e-03" rms="3.6309042572975159e-01" purity="2.4875621497631073e-01" nType="-99"/>
          <Node pos="r" depth="2" NCoef="0" IVar="-1" Cut="0.0000000000000000e+00" cType="1" res="3.9274920709431171e-03" rms="3.0471643805503845e-01" purity="1.1929824203252792e-01" nType="-99"/>
        </Node>
      </Node>
    </BinaryTree>
    <BinaryTree type="DecisionTree" boostWeight="1.0000000000000000e+00" itree="921">
      <Node pos="s" depth="0" NCoef="0" IVar="0" Cut="6.6341829299926758e-01" cType="1" res="-5.9499689086806029e-07" rms="3.2307210564613342e-01" purity="5.9855979681015015e-01" nType="0">
        <Node pos="l" depth="1" NCoef="0" IVar="-1" Cut="0.0000000000000000e+00" cType="1" res="1.0451943671796471e-04" rms="3.3198595046997070e-01" purity="6.7677879333496094e-01" nType="-99"/>
        <Node pos="r" depth="1" NCoef="0" IVar="0" Cut="6.9832116365432739e-01" cType="0" res="-1.5575205907225609e-03" rms="2.5585174560546875e-01" purity="7.7294684946537018e-02" nType="0">
          <Node pos="l" depth="2" NCoef="0" IVar="-1" Cut="0.0000000000000000e+00" cType="1" res="-3.6428365274332464e-04" rms="2.5972640514373779e-01" purity="7.9837828874588013e-02" nType="-99"/>
          <Node pos="r" depth="2" NCoef="0" IVar="-1" Cut="0.0000000000000000e+00" cType="1" res="-1.6972925513982773e-02" rms="1.8583784997463226e-01" purity="3.8277510553598404e-02" nType="-99"/>
        </Node>
      </Node>
    </BinaryTree>
    <BinaryTree type="DecisionTree" boostWeight="1.0000000000000000e+00" itree="922">
      <Node pos="s" depth="0" NCoef="0" IVar="3" Cut="4.1251888871192932e-01" cType="0" res="-7.4163426688755862e-07" rms="3.2307204604148865e-01" purity="5.9855979681015015e-01" nType="0">
        <Node pos="l" depth="1" NCoef="0" IVar="-1" Cut="0.0000000000000000e+00" cType="1" res="7.5957691296935081e-04" rms="3.4059605002403259e-01" purity="8.2630831003189087e-01" nType="-99"/>
        <Node pos="r" depth="1" NCoef="0" IVar="3" Cut="4.1106268763542175e-01" cType="0" res="-1.8724743858911097e-04" rms="3.2120290398597717e-01" purity="5.7498472929000854e-01" nType="0">
          <Node pos="l" depth="2" NCoef="0" IVar="-1" Cut="0.0000000000000000e+00" cType="1" res="-1.6397519037127495e-02" rms="3.9601150155067444e-01" purity="6.6972476243972778e-01" nType="-99"/>
          <Node pos="r" depth="2" NCoef="0" IVar="-1" Cut="0.0000000000000000e+00" cType="1" res="-3.5290988307679072e-05" rms="3.2100176811218262e-01" purity="5.7476657629013062e-01" nType="-99"/>
        </Node>
      </Node>
    </BinaryTree>
    <BinaryTree type="DecisionTree" boostWeight="1.0000000000000000e+00" itree="923">
      <Node pos="s" depth="0" NCoef="0" IVar="3" Cut="4.8672732710838318e-01" cType="0" res="-5.9896638049394824e-07" rms="3.2307004928588867e-01" purity="5.9855979681015015e-01" nType="0">
        <Node pos="l" depth="1" NCoef="0" IVar="-1" Cut="0.0000000000000000e+00" cType="1" res="-2.8074020519852638e-03" rms="3.0862563848495483e-01" purity="8.6452764272689819e-01" nType="-99"/>
        <Node pos="r" depth="1" NCoef="0" IVar="3" Cut="4.8136416077613831e-01" cType="0" res="5.9133020840818062e-05" rms="3.2322245836257935e-01" purity="5.9567892551422119e-01" nType="0">
          <Node pos="l" depth="2" NCoef="0" IVar="-1" Cut="0.0000000000000000e+00" cType="1" res="1.4557403512299061e-02" rms="2.7627688646316528e-01" purity="9.1363638639450073e-01" nType="-99"/>
          <Node pos="r" depth="2" NCoef="0" IVar="-1" Cut="0.0000000000000000e+00" cType="1" res="-2.3245203919941559e-05" rms="3.2340383529663086e-01" purity="5.9432262182235718e-01" nType="-99"/>
        </Node>
      </Node>
    </BinaryTree>
    <BinaryTree type="DecisionTree" boostWeight="1.0000000000000000e+00" itree="924">
      <Node pos="s" depth="0" NCoef="0" IVar="3" Cut="4.8847633600234985e-01" cType="0" res="-4.2348918327661522e-07" rms="3.2306814193725586e-01" purity="5.9855979681015015e-01" nType="0">
        <Node pos="l" depth="1" NCoef="0" IVar="-1" Cut="0.0000000000000000e+00" cType="1" res="3.1162870582193136e-03" rms="2.9016929864883423e-01" purity="8.7991720438003540e-01" nType="-99"/>
        <Node pos="r" depth="1" NCoef="0" IVar="3" Cut="4.8624518513679504e-01" cType="0" res="-5.6433636927977204e-05" rms="3.2335820794105530e-01" purity="5.9593993425369263e-01" nType="0">
          <Node pos="l" depth="2" NCoef="0" IVar="-1" Cut="0.0000000000000000e+00" cType="1" res="-2.0735785365104675e-02" rms="3.7674689292907715e-01" purity="8.0000001192092896e-01" nType="-99"/>
          <Node pos="r" depth="2" NCoef="0" IVar="-1" Cut="0.0000000000000000e+00" cType="1" res="1.5540010281256400e-05" rms="3.2324016094207764e-01" purity="5.9554576873779297e-01" nType="-99"/>
        </Node>
      </Node>
    </BinaryTree>
    <BinaryTree type="DecisionTree" boostWeight="1.0000000000000000e+00" itree="925">
      <Node pos="s" depth="0" NCoef="0" IVar="0" Cut="1.1081959009170532e+00" cType="1" res="-2.5394092517672107e-07" rms="3.2306727766990662e-01" purity="5.9855979681015015e-01" nType="0">
        <Node pos="l" depth="1" NCoef="0" IVar="-1" Cut="0.0000000000000000e+00" cType="1" res="6.6726548539008945e-05" rms="3.2556623220443726e-01" purity="6.3016062974929810e-01" nType="-99"/>
        <Node pos="r" depth="1" NCoef="0" IVar="0" Cut="1.1743897199630737e+00" cType="0" res="-2.2700696717947721e-03" rms="2.8055346012115479e-01" purity="9.8360657691955566e-02" nType="0">
          <Node pos="l" depth="2" NCoef="0" IVar="-1" Cut="0.0000000000000000e+00" cType="1" res="3.0637843883596361e-04" rms="2.8872463107109070e-01" purity="1.0505557805299759e-01" nType="-99"/>
          <Node pos="r" depth="2" NCoef="0" IVar="-1" Cut="0.0000000000000000e+00" cType="1" res="-2.1566608920693398e-02" rms="1.9432878494262695e-01" purity="4.0372669696807861e-02" nType="-99"/>
        </Node>
      </Node>
    </BinaryTree>
    <BinaryTree type="DecisionTree" boostWeight="1.0000000000000000e+00" itree="926">
      <Node pos="s" depth="0" NCoef="0" IVar="2" Cut="1.5360555648803711e+00" cType="1" res="-5.2259696303735836e-07" rms="3.2306593656539917e-01" purity="5.9855979681015015e-01" nType="0">
        <Node pos="l" depth="1" NCoef="0" IVar="-1" Cut="0.0000000000000000e+00" cType="1" res="-1.0145520354853943e-04" rms="3.2048025727272034e-01" purity="6.4864921569824219e-01" nType="-99"/>
        <Node pos="r" depth="1" NCoef="0" IVar="2" Cut="1.5659518241882324e+00" cType="1" res="1.6125539550557733e-03" rms="3.4221544861793518e-01" purity="2.1498262882232666e-01" nType="0">
          <Node pos="l" depth="2" NCoef="0" IVar="-1" Cut="0.0000000000000000e+00" cType="1" res="1.6499927267432213e-02" rms="3.6699783802032471e-01" purity="3.1111112236976624e-01" nType="-99"/>
          <Node pos="r" depth="2" NCoef="0" IVar="-1" Cut="0.0000000000000000e+00" cType="1" res="-7.8414654126390815e-05" rms="3.4090673923492432e-01" purity="2.1048986911773682e-01" nType="-99"/>
        </Node>
      </Node>
    </BinaryTree>
    <BinaryTree type="DecisionTree" boostWeight="1.0000000000000000e+00" itree="927">
      <Node pos="s" depth="0" NCoef="0" IVar="0" Cut="1.2493752874433994e-03" cType="1" res="-5.6743044751783600e-07" rms="3.2306289672851562e-01" purity="5.9855979681015015e-01" nType="0">
        <Node pos="l" depth="1" NCoef="0" IVar="-1" Cut="0.0000000000000000e+00" cType="1" res="-5.3894764278084040e-04" rms="2.7201864123344421e-01" purity="9.0791207551956177e-01" nType="-99"/>
        <Node pos="r" depth="1" NCoef="0" IVar="0" Cut="1.2195507064461708e-02" cType="1" res="3.9702796493656933e-04" rms="3.4572789072990417e-01" purity="4.4418039917945862e-01" nType="0">
          <Node pos="l" depth="2" NCoef="0" IVar="-1" Cut="0.0000000000000000e+00" cType="1" res="2.9295384883880615e-02" rms="1.2234577536582947e-01" purity="9.8249453306198120e-01" nType="-99"/>
          <Node pos="r" depth="2" NCoef="0" IVar="-1" Cut="0.0000000000000000e+00" cType="1" res="5.2613886509789154e-05" rms="3.4771916270256042e-01" purity="4.3704304099082947e-01" nType="-99"/>
        </Node>
      </Node>
    </BinaryTree>
    <BinaryTree type="DecisionTree" boostWeight="1.0000000000000000e+00" itree="928">
      <Node pos="s" depth="0" NCoef="0" IVar="3" Cut="2.6060399413108826e-01" cType="1" res="-4.9919702149736622e-08" rms="3.2306161522865295e-01" purity="5.9855979681015015e-01" nType="0">
        <Node pos="l" depth="1" NCoef="0" IVar="-1" Cut="0.0000000000000000e+00" cType="1" res="3.3838034141808748e-04" rms="2.8216019272804260e-01" purity="6.1518114805221558e-01" nType="-99"/>
        <Node pos="r" depth="1" NCoef="0" IVar="3" Cut="2.6132345199584961e-01" cType="0" res="-6.0145684983581305e-04" rms="3.6217802762985229e-01" purity="5.8056175708770752e-01" nType="0">
          <Node pos="l" depth="2" NCoef="0" IVar="-1" Cut="0.0000000000000000e+00" cType="1" res="-1.7139835108537227e-04" rms="3.6222892999649048e-01" purity="5.8195835351943970e-01" nType="-99"/>
          <Node pos="r" depth="2" NCoef="0" IVar="-1" Cut="0.0000000000000000e+00" cType="1" res="-1.6819667071104050e-02" rms="3.4799939393997192e-01" purity="2.4761904776096344e-01" nType="-99"/>
        </Node>
      </Node>
    </BinaryTree>
    <BinaryTree type="DecisionTree" boostWeight="1.0000000000000000e+00" itree="929">
      <Node pos="s" depth="0" NCoef="0" IVar="2" Cut="2.9222521185874939e-01" cType="1" res="-7.6343262378486543e-08" rms="3.2306060194969177e-01" purity="5.9855979681015015e-01" nType="0">
        <Node pos="l" depth="1" NCoef="0" IVar="-1" Cut="0.0000000000000000e+00" cType="1" res="-5.1046279259026051e-04" rms="2.7568450570106506e-01" purity="8.4798938035964966e-01" nType="-99"/>
        <Node pos="r" depth="1" NCoef="0" IVar="3" Cut="1.0626529902219772e-01" cType="0" res="4.1013475856743753e-04" rms="3.4548744559288025e-01" purity="4.6671533584594727e-01" nType="0">
          <Node pos="l" depth="2" NCoef="0" IVar="-1" Cut="0.0000000000000000e+00" cType="1" res="1.2532855907920748e-04" rms="3.4552934765815735e-01" purity="4.6767204999923706e-01" nType="-99"/>
          <Node pos="r" depth="2" NCoef="0" IVar="-1" Cut="0.0000000000000000e+00" cType="1" res="2.0732605829834938e-02" rms="3.2891377806663513e-01" purity="1.4000000059604645e-01" nType="-99"/>
        </Node>
      </Node>
    </BinaryTree>
    <BinaryTree type="DecisionTree" boostWeight="1.0000000000000000e+00" itree="930">
      <Node pos="s" depth="0" NCoef="0" IVar="0" Cut="2.0439779758453369e+00" cType="1" res="-1.6351506815226458e-07" rms="3.2305881381034851e-01" purity="5.9855979681015015e-01" nType="0">
        <Node pos="l" depth="1" NCoef="0" IVar="-1" Cut="0.0000000000000000e+00" cType="1" res="3.4851742384489626e-05" rms="3.2297673821449280e-01" purity="6.0564202070236206e-01" nType="-99"/>
        <Node pos="r" depth="1" NCoef="0" IVar="1" Cut="1.5004997253417969e+00" cType="0" res="-4.6871835365891457e-03" rms="3.2819241285324097e-01" purity="1.4901477098464966e-01" nType="0">
          <Node pos="l" depth="2" NCoef="0" IVar="-1" Cut="0.0000000000000000e+00" cType="1" res="1.0534432716667652e-02" rms="4.3196311593055725e-01" purity="2.8455284237861633e-01" nType="-99"/>
          <Node pos="r" depth="2" NCoef="0" IVar="-1" Cut="0.0000000000000000e+00" cType="1" res="-5.5988351814448833e-03" rms="3.0539381504058838e-01" purity="1.2481857836246490e-01" nType="-99"/>
        </Node>
      </Node>
    </BinaryTree>
    <BinaryTree type="DecisionTree" boostWeight="1.0000000000000000e+00" itree="931">
      <Node pos="s" depth="0" NCoef="0" IVar="1" Cut="2.3250875473022461e+00" cType="1" res="-2.4657873609612579e-07" rms="3.2305756211280823e-01" purity="5.9855979681015015e-01" nType="0">
        <Node pos="l" depth="1" NCoef="0" IVar="1" Cut="1.7344640493392944e+00" cType="1" res="2.6850113499676809e-05" rms="3.2290604710578918e-01" purity="5.9937214851379395e-01" nType="0">
          <Node pos="l" depth="2" NCoef="0" IVar="-1" Cut="0.0000000000000000e+00" cType="1" res="-1.5586663721478544e-05" rms="3.2270619273185730e-01" purity="6.0092604160308838e-01" nType="-99"/>
          <Node pos="r" depth="2" NCoef="0" IVar="-1" Cut="0.0000000000000000e+00" cType="1" res="6.1278501525521278e-03" rms="3.7209606170654297e-01" purity="1.8461538851261139e-01" nType="-99"/>
        </Node>
        <Node pos="r" depth="1" NCoef="0" IVar="-1" Cut="0.0000000000000000e+00" cType="1" res="-3.8335104472935200e-03" rms="3.8764435052871704e-01" purity="2.1621622145175934e-01" nType="-99"/>
      </Node>
    </BinaryTree>
    <BinaryTree type="DecisionTree" boostWeight="1.0000000000000000e+00" itree="932">
      <Node pos="s" depth="0" NCoef="0" IVar="1" Cut="1.5829585790634155e+00" cType="1" res="-2.4822099931043340e-07" rms="3.2305699586868286e-01" purity="5.9855979681015015e-01" nType="0">
        <Node pos="l" depth="1" NCoef="0" IVar="-1" Cut="0.0000000000000000e+00" cType="1" res="2.4453149308101274e-05" rms="3.2282111048698425e-01" purity="6.0176652669906616e-01" nType="-99"/>
        <Node pos="r" depth="1" NCoef="0" IVar="2" Cut="9.8254376649856567e-01" cType="0" res="-6.9738826714456081e-03" rms="3.5323736071586609e-01" purity="1.6795866191387177e-01" nType="0">
          <Node pos="l" depth="2" NCoef="0" IVar="-1" Cut="0.0000000000000000e+00" cType="1" res="5.2725896239280701e-03" rms="3.7313288450241089e-01" purity="1.9066147506237030e-01" nType="-99"/>
          <Node pos="r" depth="2" NCoef="0" IVar="-1" Cut="0.0000000000000000e+00" cType="1" res="-1.8319359049201012e-02" rms="3.0590960383415222e-01" purity="1.2307692319154739e-01" nType="-99"/>
        </Node>
      </Node>
    </BinaryTree>
    <BinaryTree type="DecisionTree" boostWeight="1.0000000000000000e+00" itree="933">
      <Node pos="s" depth="0" NCoef="0" IVar="3" Cut="2.7259728312492371e-01" cType="0" res="-3.7261739294081053e-07" rms="3.2305502891540527e-01" purity="5.9855979681015015e-01" nType="0">
        <Node pos="l" depth="1" NCoef="0" IVar="-1" Cut="0.0000000000000000e+00" cType="1" res="-2.3715861607342958e-04" rms="3.6447915434837341e-01" purity="5.9957766532897949e-01" nType="-99"/>
        <Node pos="r" depth="1" NCoef="0" IVar="3" Cut="2.7177110314369202e-01" cType="1" res="5.0155381904914975e-04" rms="2.8582277894020081e-01" purity="5.9774965047836304e-01" nType="0">
          <Node pos="l" depth="2" NCoef="0" IVar="-1" Cut="0.0000000000000000e+00" cType="1" res="1.9479620095808059e-04" rms="2.8552594780921936e-01" purity="5.9816080331802368e-01" nType="-99"/>
          <Node pos="r" depth="2" NCoef="0" IVar="-1" Cut="0.0000000000000000e+00" cType="1" res="1.6697520390152931e-02" rms="3.4915122389793396e-01" purity="4.9572649598121643e-01" nType="-99"/>
        </Node>
      </Node>
    </BinaryTree>
    <BinaryTree type="DecisionTree" boostWeight="1.0000000000000000e+00" itree="934">
      <Node pos="s" depth="0" NCoef="0" IVar="3" Cut="4.1201916337013245e-01" cType="0" res="-3.5174329582332575e-07" rms="3.2305240631103516e-01" purity="5.9855979681015015e-01" nType="0">
        <Node pos="l" depth="1" NCoef="0" IVar="-1" Cut="0.0000000000000000e+00" cType="1" res="7.4528617551550269e-04" rms="3.4094813466072083e-01" purity="8.2571774721145630e-01" nType="-99"/>
        <Node pos="r" depth="1" NCoef="0" IVar="3" Cut="4.0850508213043213e-01" cType="0" res="-1.8501955491956323e-04" rms="3.2112738490104675e-01" purity="5.7486081123352051e-01" nType="0">
          <Node pos="l" depth="2" NCoef="0" IVar="-1" Cut="0.0000000000000000e+00" cType="1" res="-8.2461331039667130e-03" rms="4.0208283066749573e-01" purity="7.3214286565780640e-01" nType="-99"/>
          <Node pos="r" depth="2" NCoef="0" IVar="-1" Cut="0.0000000000000000e+00" cType="1" res="-2.1711384761147201e-05" rms="3.2058015465736389e-01" purity="5.7392632961273193e-01" nType="-99"/>
        </Node>
      </Node>
    </BinaryTree>
    <BinaryTree type="DecisionTree" boostWeight="1.0000000000000000e+00" itree="935">
      <Node pos="s" depth="0" NCoef="0" IVar="3" Cut="4.0727183222770691e-01" cType="0" res="-2.6522272378315392e-07" rms="3.2305148243904114e-01" purity="5.9855979681015015e-01" nType="0">
        <Node pos="l" depth="1" NCoef="0" IVar="-1" Cut="0.0000000000000000e+00" cType="1" res="6.8478804314509034e-04" rms="3.4427461028099060e-01" purity="8.2049363851547241e-01" nType="-99"/>
        <Node pos="r" depth="1" NCoef="0" IVar="3" Cut="4.0600001811981201e-01" cType="0" res="-1.8797084339894354e-04" rms="3.2054731249809265e-01" purity="5.7330977916717529e-01" nType="0">
          <Node pos="l" depth="2" NCoef="0" IVar="-1" Cut="0.0000000000000000e+00" cType="1" res="-2.3576786741614342e-02" rms="4.5317181944847107e-01" purity="6.7857140302658081e-01" nType="-99"/>
          <Node pos="r" depth="2" NCoef="0" IVar="-1" Cut="0.0000000000000000e+00" cType="1" res="-8.2150218077003956e-06" rms="3.2014566659927368e-01" purity="5.7305836677551270e-01" nType="-99"/>
        </Node>
      </Node>
    </BinaryTree>
    <BinaryTree type="DecisionTree" boostWeight="1.0000000000000000e+00" itree="936">
      <Node pos="s" depth="0" NCoef="0" IVar="3" Cut="4.6998670697212219e-01" cType="0" res="-9.1632593068879942e-08" rms="3.2304823398590088e-01" purity="5.9855979681015015e-01" nType="0">
        <Node pos="l" depth="1" NCoef="0" IVar="-1" Cut="0.0000000000000000e+00" cType="1" res="-1.7844201065599918e-03" rms="3.1876662373542786e-01" purity="8.6805558204650879e-01" nType="-99"/>
        <Node pos="r" depth="1" NCoef="0" IVar="3" Cut="4.6080595254898071e-01" cType="0" res="8.9250410383101553e-05" rms="3.2315567135810852e-01" purity="5.9171921014785767e-01" nType="0">
          <Node pos="l" depth="2" NCoef="0" IVar="-1" Cut="0.0000000000000000e+00" cType="1" res="8.9168269187211990e-03" rms="3.0842441320419312e-01" purity="8.6892175674438477e-01" nType="-99"/>
          <Node pos="r" depth="2" NCoef="0" IVar="-1" Cut="0.0000000000000000e+00" cType="1" res="-4.4653854274656624e-05" rms="3.2328462600708008e-01" purity="5.8912718296051025e-01" nType="-99"/>
        </Node>
      </Node>
    </BinaryTree>
    <BinaryTree type="DecisionTree" boostWeight="1.0000000000000000e+00" itree="937">
      <Node pos="s" depth="0" NCoef="0" IVar="2" Cut="3.4542517662048340e+00" cType="1" res="2.3652754421732425e-08" rms="3.2304719090461731e-01" purity="5.9855979681015015e-01" nType="0">
        <Node pos="l" depth="1" NCoef="0" IVar="-1" Cut="0.0000000000000000e+00" cType="1" res="1.7232028767466545e-05" rms="3.2290592789649963e-01" purity="6.0029160976409912e-01" nType="-99"/>
        <Node pos="r" depth="1" NCoef="0" IVar="1" Cut="3.2983508706092834e-01" cType="1" res="-8.3996830508112907e-03" rms="3.5402792692184448e-01" purity="1.9911503791809082e-01" nType="0">
          <Node pos="l" depth="2" NCoef="0" IVar="-1" Cut="0.0000000000000000e+00" cType="1" res="3.1351249199360609e-03" rms="3.7286701798439026e-01" purity="2.3140496015548706e-01" nType="-99"/>
          <Node pos="r" depth="2" NCoef="0" IVar="-1" Cut="0.0000000000000000e+00" cType="1" res="-1.0697607882320881e-02" rms="3.2985150814056396e-01" purity="1.6190476715564728e-01" nType="-99"/>
        </Node>
      </Node>
    </BinaryTree>
    <BinaryTree type="DecisionTree" boostWeight="1.0000000000000000e+00" itree="938">
      <Node pos="s" depth="0" NCoef="0" IVar="2" Cut="1.7608441114425659e+00" cType="1" res="-1.0800630612095574e-08" rms="3.2304677367210388e-01" purity="5.9855979681015015e-01" nType="0">
        <Node pos="l" depth="1" NCoef="0" IVar="-1" Cut="0.0000000000000000e+00" cType="1" res="-7.8495628258679062e-05" rms="3.2174772024154663e-01" purity="6.3296103477478027e-01" nType="-99"/>
        <Node pos="r" depth="1" NCoef="0" IVar="0" Cut="3.6356821656227112e-01" cType="1" res="1.8945633200928569e-03" rms="3.3764472603797913e-01" purity="2.0229555666446686e-01" nType="0">
          <Node pos="l" depth="2" NCoef="0" IVar="-1" Cut="0.0000000000000000e+00" cType="1" res="4.8304400406777859e-03" rms="4.4398343563079834e-01" purity="4.6562227606773376e-01" nType="-99"/>
          <Node pos="r" depth="2" NCoef="0" IVar="-1" Cut="0.0000000000000000e+00" cType="1" res="-2.5340185966342688e-03" rms="2.8699463605880737e-01" purity="1.0253874212503433e-01" nType="-99"/>
        </Node>
      </Node>
    </BinaryTree>
    <BinaryTree type="DecisionTree" boostWeight="1.0000000000000000e+00" itree="939">
      <Node pos="s" depth="0" NCoef="0" IVar="2" Cut="3.7989275455474854e+00" cType="1" res="-7.6546534444332792e-08" rms="3.2304456830024719e-01" purity="5.9855979681015015e-01" nType="0">
        <Node pos="l" depth="1" NCoef="0" IVar="2" Cut="3.4397087097167969e+00" cType="1" res="-2.9342389098019339e-05" rms="3.2289218902587891e-01" purity="5.9950596094131470e-01" nType="0">
          <Node pos="l" depth="2" NCoef="0" IVar="-1" Cut="0.0000000000000000e+00" cType="1" res="1.2057485946570523e-05" rms="3.2291379570960999e-01" purity="6.0032230615615845e-01" nType="-99"/>
          <Node pos="r" depth="2" NCoef="0" IVar="-1" Cut="0.0000000000000000e+00" cType="1" res="-1.0754206217825413e-02" rms="3.1026315689086914e-01" purity="1.7821782827377319e-01" nType="-99"/>
        </Node>
        <Node pos="r" depth="1" NCoef="0" IVar="-1" Cut="0.0000000000000000e+00" cType="1" res="4.1012093424797058e-03" rms="3.7875261902809143e-01" purity="2.2137404978275299e-01" nType="-99"/>
      </Node>
    </BinaryTree>
    <BinaryTree type="DecisionTree" boostWeight="1.0000000000000000e+00" itree="940">
      <Node pos="s" depth="0" NCoef="0" IVar="0" Cut="2.4575212001800537e+00" cType="1" res="-1.0034268882463948e-07" rms="3.2304418087005615e-01" purity="5.9855979681015015e-01" nType="0">
        <Node pos="l" depth="1" NCoef="0" IVar="-1" Cut="0.0000000000000000e+00" cType="1" res="-2.6730456738732755e-05" rms="3.2270765304565430e-01" purity="6.0261505842208862e-01" nType="-99"/>
        <Node pos="r" depth="1" NCoef="0" IVar="1" Cut="3.7106445431709290e-01" cType="0" res="5.8466349728405476e-03" rms="3.5617330670356750e-01" purity="1.7800000309944153e-01" nType="0">
          <Node pos="l" depth="2" NCoef="0" IVar="-1" Cut="0.0000000000000000e+00" cType="1" res="-1.6047701938077807e-03" rms="3.6715376377105713e-01" purity="1.8497109413146973e-01" nType="-99"/>
          <Node pos="r" depth="2" NCoef="0" IVar="-1" Cut="0.0000000000000000e+00" cType="1" res="1.4433052390813828e-02" rms="3.2898309826850891e-01" purity="1.6233766078948975e-01" nType="-99"/>
        </Node>
      </Node>
    </BinaryTree>
    <BinaryTree type="DecisionTree" boostWeight="1.0000000000000000e+00" itree="941">
      <Node pos="s" depth="0" NCoef="0" IVar="2" Cut="1.1876331567764282e+00" cType="1" res="-1.7240124350337283e-07" rms="3.2304295897483826e-01" purity="5.9855979681015015e-01" nType="0">
        <Node pos="l" depth="1" NCoef="0" IVar="-1" Cut="0.0000000000000000e+00" cType="1" res="1.3733713421970606e-04" rms="3.1656801700592041e-01" purity="6.8335270881652832e-01" nType="-99"/>
        <Node pos="r" depth="1" NCoef="0" IVar="3" Cut="3.6601009964942932e-01" cType="0" res="-1.1455004569143057e-03" rms="3.4833914041519165e-01" purity="2.5080385804176331e-01" nType="0">
          <Node pos="l" depth="2" NCoef="0" IVar="-1" Cut="0.0000000000000000e+00" cType="1" res="-4.9189692363142967e-03" rms="4.3073907494544983e-01" purity="5.5264621973037720e-01" nType="-99"/>
          <Node pos="r" depth="2" NCoef="0" IVar="-1" Cut="0.0000000000000000e+00" cType="1" res="1.0616120416671038e-03" rms="3.2811859250068665e-01" purity="1.8682096898555756e-01" nType="-99"/>
        </Node>
      </Node>
    </BinaryTree>
    <BinaryTree type="DecisionTree" boostWeight="1.0000000000000000e+00" itree="942">
      <Node pos="s" depth="0" NCoef="0" IVar="3" Cut="3.7054240703582764e-01" cType="0" res="-1.4059210684536083e-07" rms="3.2303765416145325e-01" purity="5.9855979681015015e-01" nType="0">
        <Node pos="l" depth="1" NCoef="0" IVar="-1" Cut="0.0000000000000000e+00" cType="1" res="5.4991716751828790e-04" rms="3.5830330848693848e-01" purity="7.7580922842025757e-01" nType="-99"/>
        <Node pos="r" depth="1" NCoef="0" IVar="3" Cut="3.6776071786880493e-01" cType="0" res="-2.8740966808982193e-04" rms="3.1542783975601196e-01" purity="5.6272244453430176e-01" nType="0">
          <Node pos="l" depth="2" NCoef="0" IVar="-1" Cut="0.0000000000000000e+00" cType="1" res="-1.7809972167015076e-02" rms="4.0435594320297241e-01" purity="5.8912384510040283e-01" nType="-99"/>
          <Node pos="r" depth="2" NCoef="0" IVar="-1" Cut="0.0000000000000000e+00" cType="1" res="6.0954014770686626e-05" rms="3.1461459398269653e-01" purity="5.6252026557922363e-01" nType="-99"/>
        </Node>
      </Node>
    </BinaryTree>
    <BinaryTree type="DecisionTree" boostWeight="1.0000000000000000e+00" itree="943">
      <Node pos="s" depth="0" NCoef="0" IVar="3" Cut="3.3206397294998169e-01" cType="0" res="-1.4734141018379887e-08" rms="3.2303151488304138e-01" purity="5.9855979681015015e-01" nType="0">
        <Node pos="l" depth="1" NCoef="0" IVar="-1" Cut="0.0000000000000000e+00" cType="1" res="3.5360155743546784e-04" rms="3.6973679065704346e-01" purity="7.0609885454177856e-01" nType="-99"/>
        <Node pos="r" depth="1" NCoef="0" IVar="3" Cut="3.3122923970222473e-01" cType="1" res="-3.4753658110275865e-04" rms="3.0447444319725037e-01" purity="5.5985867977142334e-01" nType="0">
          <Node pos="l" depth="2" NCoef="0" IVar="-1" Cut="0.0000000000000000e+00" cType="1" res="-8.4700957813765854e-05" rms="3.0408674478530884e-01" purity="5.6018650531768799e-01" nType="-99"/>
          <Node pos="r" depth="2" NCoef="0" IVar="-1" Cut="0.0000000000000000e+00" cType="1" res="-2.3070346564054489e-02" rms="4.1323822736740112e-01" purity="4.4545453786849976e-01" nType="-99"/>
        </Node>
      </Node>
    </BinaryTree>
    <BinaryTree type="DecisionTree" boostWeight="1.0000000000000000e+00" itree="944">
      <Node pos="s" depth="0" NCoef="0" IVar="0" Cut="1.2493752874433994e-03" cType="1" res="-1.0392854576934951e-08" rms="3.2302823662757874e-01" purity="5.9855979681015015e-01" nType="0">
        <Node pos="l" depth="1" NCoef="0" IVar="-1" Cut="0.0000000000000000e+00" cType="1" res="-5.4465385619550943e-04" rms="2.7200809121131897e-01" purity="9.0791207551956177e-01" nType="-99"/>
        <Node pos="r" depth="1" NCoef="0" IVar="3" Cut="4.0249881148338318e-01" cType="0" res="4.0204040124081075e-04" rms="3.4568345546722412e-01" purity="4.4418039917945862e-01" nType="0">
          <Node pos="l" depth="2" NCoef="0" IVar="-1" Cut="0.0000000000000000e+00" cType="1" res="3.3797384239733219e-03" rms="3.9762553572654724e-01" purity="6.8990558385848999e-01" nType="-99"/>
          <Node pos="r" depth="2" NCoef="0" IVar="-1" Cut="0.0000000000000000e+00" cType="1" res="-1.4343553630169481e-05" rms="3.4337657690048218e-01" purity="4.3409442901611328e-01" nType="-99"/>
        </Node>
      </Node>
    </BinaryTree>
    <BinaryTree type="DecisionTree" boostWeight="1.0000000000000000e+00" itree="945">
      <Node pos="s" depth="0" NCoef="0" IVar="3" Cut="1.2742861174046993e-02" cType="1" res="2.7432479399180920e-08" rms="3.2302787899971008e-01" purity="5.9855979681015015e-01" nType="0">
        <Node pos="l" depth="1" NCoef="0" IVar="-1" Cut="0.0000000000000000e+00" cType="1" res="7.8412180300801992e-04" rms="2.4899546802043915e-01" purity="9.2308878898620605e-01" nType="-99"/>
        <Node pos="r" depth="1" NCoef="0" IVar="2" Cut="1.9981436431407928e-01" cType="1" res="-3.2535378704778850e-04" rms="3.4392261505126953e-01" purity="4.9176207184791565e-01" nType="0">
          <Node pos="l" depth="2" NCoef="0" IVar="-1" Cut="0.0000000000000000e+00" cType="1" res="-3.6986740306019783e-03" rms="3.3854019641876221e-01" purity="6.1206567287445068e-01" nType="-99"/>
          <Node pos="r" depth="2" NCoef="0" IVar="-1" Cut="0.0000000000000000e+00" cType="1" res="9.9597149528563023e-05" rms="3.4429576992988586e-01" purity="4.8319372534751892e-01" nType="-99"/>
        </Node>
      </Node>
    </BinaryTree>
    <BinaryTree type="DecisionTree" boostWeight="1.0000000000000000e+00" itree="946">
      <Node pos="s" depth="0" NCoef="0" IVar="3" Cut="2.6085385680198669e-01" cType="1" res="7.4992158261011355e-08" rms="3.2302576303482056e-01" purity="5.9855979681015015e-01" nType="0">
        <Node pos="l" depth="1" NCoef="0" IVar="-1" Cut="0.0000000000000000e+00" cType="1" res="3.4113173023797572e-04" rms="2.8228372335433960e-01" purity="6.1474961042404175e-01" nType="-99"/>
        <Node pos="r" depth="1" NCoef="0" IVar="0" Cut="1.0644677877426147e+00" cType="1" res="-6.0822122031822801e-04" rms="3.6211171746253967e-01" purity="5.8097934722900391e-01" nType="0">
          <Node pos="l" depth="2" NCoef="0" IVar="-1" Cut="0.0000000000000000e+00" cType="1" res="-4.0198149508796632e-04" rms="3.6275300383567810e-01" purity="5.9640496969223022e-01" nType="-99"/>
          <Node pos="r" depth="2" NCoef="0" IVar="-1" Cut="0.0000000000000000e+00" cType="1" res="5.0006164237856865e-03" rms="3.4417426586151123e-01" purity="1.6573971509933472e-01" nType="-99"/>
        </Node>
      </Node>
    </BinaryTree>
    <BinaryTree type="DecisionTree" boostWeight="1.0000000000000000e+00" itree="947">
      <Node pos="s" depth="0" NCoef="0" IVar="0" Cut="2.0439779758453369e+00" cType="1" res="1.2891899103806281e-08" rms="3.2302406430244446e-01" purity="5.9855979681015015e-01" nType="0">
        <Node pos="l" depth="1" NCoef="0" IVar="-1" Cut="0.0000000000000000e+00" cType="1" res="3.6191177059663460e-05" rms="3.2294565439224243e-01" purity="6.0564202070236206e-01" nType="-99"/>
        <Node pos="r" depth="1" NCoef="0" IVar="2" Cut="8.7674933671951294e-01" cType="0" res="-4.8554390668869019e-03" rms="3.2792559266090393e-01" purity="1.4901477098464966e-01" nType="0">
          <Node pos="l" depth="2" NCoef="0" IVar="-1" Cut="0.0000000000000000e+00" cType="1" res="1.1342606740072370e-03" rms="3.3203151822090149e-01" purity="1.5813252329826355e-01" nType="-99"/>
          <Node pos="r" depth="2" NCoef="0" IVar="-1" Cut="0.0000000000000000e+00" cType="1" res="-1.6137292608618736e-02" rms="3.0656656622886658e-01" purity="1.0810811072587967e-01" nType="-99"/>
        </Node>
      </Node>
    </BinaryTree>
    <BinaryTree type="DecisionTree" boostWeight="1.0000000000000000e+00" itree="948">
      <Node pos="s" depth="0" NCoef="0" IVar="0" Cut="1.1081959009170532e+00" cType="1" res="-1.0560407304183173e-07" rms="3.2302251458168030e-01" purity="5.9855979681015015e-01" nType="0">
        <Node pos="l" depth="1" NCoef="0" IVar="-1" Cut="0.0000000000000000e+00" cType="1" res="6.7639331973623484e-05" rms="3.2552871108055115e-01" purity="6.3016062974929810e-01" nType="-99"/>
        <Node pos="r" depth="1" NCoef="0" IVar="1" Cut="1.8215892314910889e+00" cType="0" res="-2.2987865377217531e-03" rms="2.8037467598915100e-01" purity="9.8360657691955566e-02" nType="0">
          <Node pos="l" depth="2" NCoef="0" IVar="-1" Cut="0.0000000000000000e+00" cType="1" res="-1.3352841138839722e-02" rms="3.5780039429664612e-01" purity="1.7730496823787689e-01" nType="-99"/>
          <Node pos="r" depth="2" NCoef="0" IVar="-1" Cut="0.0000000000000000e+00" cType="1" res="-2.6168546173721552e-04" rms="2.7601882815361023e-01" purity="9.4612792134284973e-02" nType="-99"/>
        </Node>
      </Node>
    </BinaryTree>
    <BinaryTree type="DecisionTree" boostWeight="1.0000000000000000e+00" itree="949">
      <Node pos="s" depth="0" NCoef="0" IVar="1" Cut="2.1589205265045166e+00" cType="1" res="-1.6855128137649444e-07" rms="3.2302170991897583e-01" purity="5.9855979681015015e-01" nType="0">
        <Node pos="l" depth="1" NCoef="0" IVar="1" Cut="1.5831768512725830e+00" cType="1" res="-3.4070799301844090e-05" rms="3.2277363538742065e-01" purity="5.9953266382217407e-01" nType="0">
          <Node pos="l" depth="2" NCoef="0" IVar="-1" Cut="0.0000000000000000e+00" cType="1" res="1.3623083759739529e-05" rms="3.2278466224670410e-01" purity="6.0174334049224854e-01" nType="-99"/>
          <Node pos="r" depth="2" NCoef="0" IVar="-1" Cut="0.0000000000000000e+00" cType="1" res="-5.8366456069052219e-03" rms="3.2014718651771545e-01" purity="1.3061223924160004e-01" nType="-99"/>
        </Node>
        <Node pos="r" depth="1" NCoef="0" IVar="-1" Cut="0.0000000000000000e+00" cType="1" res="3.8448865525424480e-03" rms="4.0489262342453003e-01" purity="2.3571428656578064e-01" nType="-99"/>
      </Node>
    </BinaryTree>
    <BinaryTree type="DecisionTree" boostWeight="1.0000000000000000e+00" itree="950">
      <Node pos="s" depth="0" NCoef="0" IVar="1" Cut="1.5704647302627563e+00" cType="1" res="-1.8162558035328402e-07" rms="3.2302153110504150e-01" purity="5.9855979681015015e-01" nType="0">
        <Node pos="l" depth="1" NCoef="0" IVar="-1" Cut="0.0000000000000000e+00" cType="1" res="-2.6118770620087162e-05" rms="3.2269474864006042e-01" purity="6.0177844762802124e-01" nType="-99"/>
        <Node pos="r" depth="1" NCoef="0" IVar="3" Cut="1.8912068009376526e-01" cType="1" res="7.1823196485638618e-03" rms="3.6309403181076050e-01" purity="1.7839196324348450e-01" nType="0">
          <Node pos="l" depth="2" NCoef="0" IVar="-1" Cut="0.0000000000000000e+00" cType="1" res="1.4675331301987171e-02" rms="3.9363440871238708e-01" purity="2.2330096364021301e-01" nType="-99"/>
          <Node pos="r" depth="2" NCoef="0" IVar="-1" Cut="0.0000000000000000e+00" cType="1" res="-1.7932952614501119e-03" rms="3.5104101896286011e-01" purity="1.6271185874938965e-01" nType="-99"/>
        </Node>
      </Node>
    </BinaryTree>
    <BinaryTree type="DecisionTree" boostWeight="1.0000000000000000e+00" itree="951">
      <Node pos="s" depth="0" NCoef="0" IVar="0" Cut="1.2493752874433994e-03" cType="1" res="-2.3237100776896114e-07" rms="3.2302010059356689e-01" purity="5.9855979681015015e-01" nType="0">
        <Node pos="l" depth="1" NCoef="0" IVar="-1" Cut="0.0000000000000000e+00" cType="1" res="-5.5762496776878834e-04" rms="2.7200660109519958e-01" purity="9.0791207551956177e-01" nType="-99"/>
        <Node pos="r" depth="1" NCoef="0" IVar="0" Cut="2.4653216823935509e-02" cType="1" res="4.1117594810202718e-04" rms="3.4567263722419739e-01" purity="4.4418039917945862e-01" nType="0">
          <Node pos="l" depth="2" NCoef="0" IVar="-1" Cut="0.0000000000000000e+00" cType="1" res="5.4292674176394939e-03" rms="2.4032790958881378e-01" purity="9.3065577745437622e-01" nType="-99"/>
          <Node pos="r" depth="2" NCoef="0" IVar="-1" Cut="0.0000000000000000e+00" cType="1" res="-1.0267805919284001e-04" rms="3.5451868176460266e-01" purity="3.9533051848411560e-01" nType="-99"/>
        </Node>
      </Node>
    </BinaryTree>
    <BinaryTree type="DecisionTree" boostWeight="1.0000000000000000e+00" itree="952">
      <Node pos="s" depth="0" NCoef="0" IVar="3" Cut="1.7964935302734375e-01" cType="1" res="-1.7198816593122501e-08" rms="3.2301992177963257e-01" purity="5.9855979681015015e-01" nType="0">
        <Node pos="l" depth="1" NCoef="0" IVar="-1" Cut="0.0000000000000000e+00" cType="1" res="5.5745278950780630e-04" rms="2.6750195026397705e-01" purity="7.7575480937957764e-01" nType="-99"/>
        <Node pos="r" depth="1" NCoef="0" IVar="3" Cut="1.8253375589847565e-01" cType="0" res="-4.1175488149747252e-04" rms="3.4794619679450989e-01" purity="5.0816315412521362e-01" nType="0">
          <Node pos="l" depth="2" NCoef="0" IVar="-1" Cut="0.0000000000000000e+00" cType="1" res="-1.8166807421948761e-05" rms="3.4847354888916016e-01" purity="5.0971847772598267e-01" nType="-99"/>
          <Node pos="r" depth="2" NCoef="0" IVar="-1" Cut="0.0000000000000000e+00" cType="1" res="-2.6712624356150627e-02" rms="2.6020401716232300e-01" purity="2.9317268729209900e-01" nType="-99"/>
        </Node>
      </Node>
    </BinaryTree>
    <BinaryTree type="DecisionTree" boostWeight="1.0000000000000000e+00" itree="953">
      <Node pos="s" depth="0" NCoef="0" IVar="1" Cut="1.5704647302627563e+00" cType="1" res="-1.1362452312368987e-07" rms="3.2301348447799683e-01" purity="5.9855979681015015e-01" nType="0">
        <Node pos="l" depth="1" NCoef="0" IVar="-1" Cut="0.0000000000000000e+00" cType="1" res="-2.3949854949023575e-05" rms="3.2268747687339783e-01" purity="6.0177844762802124e-01" nType="-99"/>
        <Node pos="r" depth="1" NCoef="0" IVar="0" Cut="6.1844080686569214e-01" cType="0" res="6.5910234116017818e-03" rms="3.6300653219223022e-01" purity="1.7839196324348450e-01" nType="0">
          <Node pos="l" depth="2" NCoef="0" IVar="-1" Cut="0.0000000000000000e+00" cType="1" res="7.4235224165022373e-03" rms="3.8149181008338928e-01" purity="2.0300751924514771e-01" nType="-99"/>
          <Node pos="r" depth="2" NCoef="0" IVar="-1" Cut="0.0000000000000000e+00" cType="1" res="-8.9070443063974380e-03" rms="3.2073426246643066e-01" purity="1.2878787517547607e-01" nType="-99"/>
        </Node>
      </Node>
    </BinaryTree>
    <BinaryTree type="DecisionTree" boostWeight="1.0000000000000000e+00" itree="954">
      <Node pos="s" depth="0" NCoef="0" IVar="0" Cut="1.2493752874433994e-03" cType="1" res="-1.7554718567680538e-07" rms="3.2301199436187744e-01" purity="5.9855979681015015e-01" nType="0">
        <Node pos="l" depth="1" NCoef="0" IVar="-1" Cut="0.0000000000000000e+00" cType="1" res="-5.3103500977158546e-04" rms="2.7200451493263245e-01" purity="9.0791207551956177e-01" nType="-99"/>
        <Node pos="r" depth="1" NCoef="0" IVar="0" Cut="1.2195507064461708e-02" cType="1" res="3.9175621350295842e-04" rms="3.4566214680671692e-01" purity="4.4418039917945862e-01" nType="0">
          <Node pos="l" depth="2" NCoef="0" IVar="-1" Cut="0.0000000000000000e+00" cType="1" res="2.7586022391915321e-02" rms="1.2241335958242416e-01" purity="9.8249453306198120e-01" nType="-99"/>
          <Node pos="r" depth="2" NCoef="0" IVar="-1" Cut="0.0000000000000000e+00" cType="1" res="6.2917904870118946e-05" rms="3.4765431284904480e-01" purity="4.3704304099082947e-01" nType="-99"/>
        </Node>
      </Node>
    </BinaryTree>
    <BinaryTree type="DecisionTree" boostWeight="1.0000000000000000e+00" itree="955">
      <Node pos="s" depth="0" NCoef="0" IVar="3" Cut="2.6085385680198669e-01" cType="1" res="2.3116251668398036e-07" rms="3.2301098108291626e-01" purity="5.9855979681015015e-01" nType="0">
        <Node pos="l" depth="1" NCoef="0" IVar="-1" Cut="0.0000000000000000e+00" cType="1" res="3.2893655588850379e-04" rms="2.8226152062416077e-01" purity="6.1474961042404175e-01" nType="-99"/>
        <Node pos="r" depth="1" NCoef="0" IVar="3" Cut="2.6479849219322205e-01" cType="0" res="-5.8593181893229485e-04" rms="3.6210310459136963e-01" purity="5.8097934722900391e-01" nType="0">
          <Node pos="l" depth="2" NCoef="0" IVar="-1" Cut="0.0000000000000000e+00" cType="1" res="-8.5765575931873173e-05" rms="3.6303043365478516e-01" purity="5.8744484186172485e-01" nType="-99"/>
          <Node pos="r" depth="2" NCoef="0" IVar="-1" Cut="0.0000000000000000e+00" cType="1" res="-6.6183698363602161e-03" rms="3.2270443439483643e-01" purity="3.2357722520828247e-01" nType="-99"/>
        </Node>
      </Node>
    </BinaryTree>
    <BinaryTree type="DecisionTree" boostWeight="1.0000000000000000e+00" itree="956">
      <Node pos="s" depth="0" NCoef="0" IVar="3" Cut="4.8847633600234985e-01" cType="0" res="1.8571476800843811e-07" rms="3.2301014661788940e-01" purity="5.9855979681015015e-01" nType="0">
        <Node pos="l" depth="1" NCoef="0" IVar="-1" Cut="0.0000000000000000e+00" cType="1" res="3.0280745122581720e-03" rms="2.9014891386032104e-01" purity="8.7991720438003540e-01" nType="-99"/>
        <Node pos="r" depth="1" NCoef="0" IVar="3" Cut="4.8624518513679504e-01" cType="0" res="-5.4152085795067251e-05" rms="3.2329994440078735e-01" purity="5.9593993425369263e-01" nType="0">
          <Node pos="l" depth="2" NCoef="0" IVar="-1" Cut="0.0000000000000000e+00" cType="1" res="-1.7896732315421104e-02" rms="3.7680166959762573e-01" purity="8.0000001192092896e-01" nType="-99"/>
          <Node pos="r" depth="2" NCoef="0" IVar="-1" Cut="0.0000000000000000e+00" cType="1" res="1.1906249710591510e-05" rms="3.2318297028541565e-01" purity="5.9554576873779297e-01" nType="-99"/>
        </Node>
      </Node>
    </BinaryTree>
    <BinaryTree type="DecisionTree" boostWeight="1.0000000000000000e+00" itree="957">
      <Node pos="s" depth="0" NCoef="0" IVar="3" Cut="4.7873181104660034e-01" cType="0" res="2.6609112069309049e-07" rms="3.2300952076911926e-01" purity="5.9855979681015015e-01" nType="0">
        <Node pos="l" depth="1" NCoef="0" IVar="-1" Cut="0.0000000000000000e+00" cType="1" res="2.2726459428668022e-03" rms="2.9825684428215027e-01" purity="8.8079470396041870e-01" nType="-99"/>
        <Node pos="r" depth="1" NCoef="0" IVar="3" Cut="4.7561800479888916e-01" cType="0" res="-7.5649841164704412e-05" rms="3.2342794537544250e-01" purity="5.9358966350555420e-01" nType="0">
          <Node pos="l" depth="2" NCoef="0" IVar="-1" Cut="0.0000000000000000e+00" cType="1" res="-2.3833109065890312e-02" rms="4.0547659993171692e-01" purity="7.9545456171035767e-01" nType="-99"/>
          <Node pos="r" depth="2" NCoef="0" IVar="-1" Cut="0.0000000000000000e+00" cType="1" res="3.0009459806024097e-05" rms="3.2317832112312317e-01" purity="5.9307038784027100e-01" nType="-99"/>
        </Node>
      </Node>
    </BinaryTree>
    <BinaryTree type="DecisionTree" boostWeight="1.0000000000000000e+00" itree="958">
      <Node pos="s" depth="0" NCoef="0" IVar="3" Cut="4.9697157740592957e-01" cType="0" res="4.5730348574579693e-07" rms="3.2300755381584167e-01" purity="5.9855979681015015e-01" nType="0">
        <Node pos="l" depth="1" NCoef="0" IVar="-1" Cut="0.0000000000000000e+00" cType="1" res="-5.0106979906558990e-03" rms="3.4800139069557190e-01" purity="8.3458644151687622e-01" nType="-99"/>
        <Node pos="r" depth="1" NCoef="0" IVar="3" Cut="4.8894721269607544e-01" cType="0" res="3.0061895813560113e-05" rms="3.2294088602066040e-01" purity="5.9795868396759033e-01" nType="0">
          <Node pos="l" depth="2" NCoef="0" IVar="-1" Cut="0.0000000000000000e+00" cType="1" res="6.6342591308057308e-03" rms="2.6431083679199219e-01" purity="9.0153849124908447e-01" nType="-99"/>
          <Node pos="r" depth="2" NCoef="0" IVar="-1" Cut="0.0000000000000000e+00" cType="1" res="-1.9978035197709687e-05" rms="3.2327324151992798e-01" purity="5.9605747461318970e-01" nType="-99"/>
        </Node>
      </Node>
    </BinaryTree>
    <BinaryTree type="DecisionTree" boostWeight="1.0000000000000000e+00" itree="959">
      <Node pos="s" depth="0" NCoef="0" IVar="3" Cut="4.9122479557991028e-01" cType="0" res="4.5438477513926046e-07" rms="3.2300782203674316e-01" purity="5.9855979681015015e-01" nType="0">
        <Node pos="l" depth="1" NCoef="0" IVar="-1" Cut="0.0000000000000000e+00" cType="1" res="-3.6489679478108883e-03" rms="3.0632430315017700e-01" purity="8.6760562658309937e-01" nType="-99"/>
        <Node pos="r" depth="1" NCoef="0" IVar="3" Cut="4.8899042606353760e-01" cType="0" res="4.9419246352044865e-05" rms="3.2311820983886719e-01" purity="5.9672302007675171e-01" nType="0">
          <Node pos="l" depth="2" NCoef="0" IVar="-1" Cut="0.0000000000000000e+00" cType="1" res="2.5119993835687637e-02" rms="2.3117874562740326e-01" purity="9.3000000715255737e-01" nType="-99"/>
          <Node pos="r" depth="2" NCoef="0" IVar="-1" Cut="0.0000000000000000e+00" cType="1" res="-1.5592571799061261e-05" rms="3.2326465845108032e-01" purity="5.9608083963394165e-01" nType="-99"/>
        </Node>
      </Node>
    </BinaryTree>
    <BinaryTree type="DecisionTree" boostWeight="1.0000000000000000e+00" itree="960">
      <Node pos="s" depth="0" NCoef="0" IVar="3" Cut="4.9747130274772644e-01" cType="0" res="5.5740531479386846e-07" rms="3.2300627231597900e-01" purity="5.9855979681015015e-01" nType="0">
        <Node pos="l" depth="1" NCoef="0" IVar="-1" Cut="0.0000000000000000e+00" cType="1" res="5.6842793710529804e-03" rms="3.1809628009796143e-01" purity="8.5981309413909912e-01" nType="-99"/>
        <Node pos="r" depth="1" NCoef="0" IVar="3" Cut="4.9446254968643188e-01" cType="0" res="-2.6170991986873560e-05" rms="3.2301571965217590e-01" purity="5.9802478551864624e-01" nType="0">
          <Node pos="l" depth="2" NCoef="0" IVar="-1" Cut="0.0000000000000000e+00" cType="1" res="-1.1084912344813347e-02" rms="3.3879345655441284e-01" purity="8.4552848339080811e-01" nType="-99"/>
          <Node pos="r" depth="2" NCoef="0" IVar="-1" Cut="0.0000000000000000e+00" cType="1" res="1.3856450095772743e-05" rms="3.2297554612159729e-01" purity="5.9744071960449219e-01" nType="-99"/>
        </Node>
      </Node>
    </BinaryTree>
    <BinaryTree type="DecisionTree" boostWeight="1.0000000000000000e+00" itree="961">
      <Node pos="s" depth="0" NCoef="0" IVar="0" Cut="1.1081959009170532e+00" cType="1" res="5.5322624348264071e-07" rms="3.2300546765327454e-01" purity="5.9855979681015015e-01" nType="0">
        <Node pos="l" depth="1" NCoef="0" IVar="-1" Cut="0.0000000000000000e+00" cType="1" res="6.5536536567378789e-05" rms="3.2551243901252747e-01" purity="6.3016062974929810e-01" nType="-99"/>
        <Node pos="r" depth="1" NCoef="0" IVar="1" Cut="1.8215892314910889e+00" cType="0" res="-2.2155826445668936e-03" rms="2.8034439682960510e-01" purity="9.8360657691955566e-02" nType="0">
          <Node pos="l" depth="2" NCoef="0" IVar="-1" Cut="0.0000000000000000e+00" cType="1" res="-1.3151865452528000e-02" rms="3.5758760571479797e-01" purity="1.7730496823787689e-01" nType="-99"/>
          <Node pos="r" depth="2" NCoef="0" IVar="-1" Cut="0.0000000000000000e+00" cType="1" res="-2.2863215417601168e-04" rms="2.7600413560867310e-01" purity="9.4612792134284973e-02" nType="-99"/>
        </Node>
      </Node>
    </BinaryTree>
    <BinaryTree type="DecisionTree" boostWeight="1.0000000000000000e+00" itree="962">
      <Node pos="s" depth="0" NCoef="0" IVar="1" Cut="1.7341328859329224e+00" cType="1" res="4.2685888956839335e-07" rms="3.2300472259521484e-01" purity="5.9855979681015015e-01" nType="0">
        <Node pos="l" depth="1" NCoef="0" IVar="-1" Cut="0.0000000000000000e+00" cType="1" res="-2.3624794266652316e-05" rms="3.2265973091125488e-01" purity="6.0092604160308838e-01" nType="-99"/>
        <Node pos="r" depth="1" NCoef="0" IVar="0" Cut="1.4305347204208374e+00" cType="0" res="8.5620498284697533e-03" rms="3.7702330946922302e-01" purity="1.9607843458652496e-01" nType="0">
          <Node pos="l" depth="2" NCoef="0" IVar="-1" Cut="0.0000000000000000e+00" cType="1" res="-5.6302878074347973e-03" rms="3.7932416796684265e-01" purity="2.0000000298023224e-01" nType="-99"/>
          <Node pos="r" depth="2" NCoef="0" IVar="-1" Cut="0.0000000000000000e+00" cType="1" res="1.1823136359453201e-02" rms="3.7364763021469116e-01" purity="1.9277107715606689e-01" nType="-99"/>
        </Node>
      </Node>
    </BinaryTree>
    <BinaryTree type="DecisionTree" boostWeight="1.0000000000000000e+00" itree="963">
      <Node pos="s" depth="0" NCoef="0" IVar="1" Cut="2.1589205265045166e+00" cType="1" res="2.9983738158989581e-07" rms="3.2300314307212830e-01" purity="5.9855979681015015e-01" nType="0">
        <Node pos="l" depth="1" NCoef="0" IVar="1" Cut="1.5831768512725830e+00" cType="1" res="-3.1109233532333747e-05" rms="3.2275766134262085e-01" purity="5.9953266382217407e-01" nType="0">
          <Node pos="l" depth="2" NCoef="0" IVar="-1" Cut="0.0000000000000000e+00" cType="1" res="1.4252472283260431e-05" rms="3.2277062535285950e-01" purity="6.0174334049224854e-01" nType="-99"/>
          <Node pos="r" depth="2" NCoef="0" IVar="-1" Cut="0.0000000000000000e+00" cType="1" res="-5.6887576356530190e-03" rms="3.1973001360893250e-01" purity="1.3061223924160004e-01" nType="-99"/>
        </Node>
        <Node pos="r" depth="1" NCoef="0" IVar="-1" Cut="0.0000000000000000e+00" cType="1" res="3.5504887346178293e-03" rms="4.0412345528602600e-01" purity="2.3571428656578064e-01" nType="-99"/>
      </Node>
    </BinaryTree>
    <BinaryTree type="DecisionTree" boostWeight="1.0000000000000000e+00" itree="964">
      <Node pos="s" depth="0" NCoef="0" IVar="1" Cut="1.5704647302627563e+00" cType="1" res="2.4232656414824305e-07" rms="3.2300296425819397e-01" purity="5.9855979681015015e-01" nType="0">
        <Node pos="l" depth="1" NCoef="0" IVar="-1" Cut="0.0000000000000000e+00" cType="1" res="-2.5456189177930355e-05" rms="3.2268109917640686e-01" purity="6.0177844762802124e-01" nType="-99"/>
        <Node pos="r" depth="1" NCoef="0" IVar="0" Cut="6.1844080686569214e-01" cType="0" res="7.0531503297388554e-03" rms="3.6250814795494080e-01" purity="1.7839196324348450e-01" nType="0">
          <Node pos="l" depth="2" NCoef="0" IVar="-1" Cut="0.0000000000000000e+00" cType="1" res="7.6564867049455643e-03" rms="3.8089069724082947e-01" purity="2.0300751924514771e-01" nType="-99"/>
          <Node pos="r" depth="2" NCoef="0" IVar="-1" Cut="0.0000000000000000e+00" cType="1" res="-8.8653406128287315e-03" rms="3.2043200731277466e-01" purity="1.2878787517547607e-01" nType="-99"/>
        </Node>
      </Node>
    </BinaryTree>
    <BinaryTree type="DecisionTree" boostWeight="1.0000000000000000e+00" itree="965">
      <Node pos="s" depth="0" NCoef="0" IVar="1" Cut="1.5704647302627563e+00" cType="1" res="1.4218292676559940e-07" rms="3.2300138473510742e-01" purity="5.9855979681015015e-01" nType="0">
        <Node pos="l" depth="1" NCoef="0" IVar="-1" Cut="0.0000000000000000e+00" cType="1" res="-2.2910633560968563e-05" rms="3.2268109917640686e-01" purity="6.0177844762802124e-01" nType="-99"/>
        <Node pos="r" depth="1" NCoef="0" IVar="3" Cut="1.8912068009376526e-01" cType="1" res="6.3379122875630856e-03" rms="3.6233642697334290e-01" purity="1.7839196324348450e-01" nType="0">
          <Node pos="l" depth="2" NCoef="0" IVar="-1" Cut="0.0000000000000000e+00" cType="1" res="1.3253019191324711e-02" rms="3.9312365651130676e-01" purity="2.2330096364021301e-01" nType="-99"/>
          <Node pos="r" depth="2" NCoef="0" IVar="-1" Cut="0.0000000000000000e+00" cType="1" res="-1.7677575815469027e-03" rms="3.5029771924018860e-01" purity="1.6271185874938965e-01" nType="-99"/>
        </Node>
      </Node>
    </BinaryTree>
    <BinaryTree type="DecisionTree" boostWeight="1.0000000000000000e+00" itree="966">
      <Node pos="s" depth="0" NCoef="0" IVar="2" Cut="3.2781672477722168e+00" cType="1" res="7.1213321461982559e-08" rms="3.2300019264221191e-01" purity="5.9855979681015015e-01" nType="0">
        <Node pos="l" depth="1" NCoef="0" IVar="-1" Cut="0.0000000000000000e+00" cType="1" res="-1.9681297999341041e-05" rms="3.2277375459671021e-01" purity="6.0073769092559814e-01" nType="-99"/>
        <Node pos="r" depth="1" NCoef="0" IVar="0" Cut="7.6633840799331665e-01" cType="1" res="7.2783119976520538e-03" rms="3.6030578613281250e-01" purity="2.1812079846858978e-01" nType="0">
          <Node pos="l" depth="2" NCoef="0" IVar="-1" Cut="0.0000000000000000e+00" cType="1" res="1.1399978771805763e-02" rms="4.0930435061454773e-01" purity="3.1372550129890442e-01" nType="-99"/>
          <Node pos="r" depth="2" NCoef="0" IVar="-1" Cut="0.0000000000000000e+00" cType="1" res="-3.2155262306332588e-03" rms="3.3092445135116577e-01" purity="1.6836734116077423e-01" nType="-99"/>
        </Node>
      </Node>
    </BinaryTree>
    <BinaryTree type="DecisionTree" boostWeight="1.0000000000000000e+00" itree="967">
      <Node pos="s" depth="0" NCoef="0" IVar="0" Cut="6.7716139554977417e-01" cType="1" res="3.0518577887050924e-08" rms="3.2299926877021790e-01" purity="5.9855979681015015e-01" nType="0">
        <Node pos="l" depth="1" NCoef="0" IVar="-1" Cut="0.0000000000000000e+00" cType="1" res="9.2982911155559123e-05" rms="3.3159035444259644e-01" purity="6.7459064722061157e-01" nType="-99"/>
        <Node pos="r" depth="1" NCoef="0" IVar="0" Cut="6.9815862178802490e-01" cType="0" res="-1.4164894819259644e-03" rms="2.5653254985809326e-01" purity="7.7811092138290405e-02" nType="0">
          <Node pos="l" depth="2" NCoef="0" IVar="-1" Cut="0.0000000000000000e+00" cType="1" res="-2.9329911922104657e-04" rms="2.5956994295120239e-01" purity="7.9837828874588013e-02" nType="-99"/>
          <Node pos="r" depth="2" NCoef="0" IVar="-1" Cut="0.0000000000000000e+00" cType="1" res="-2.6568654924631119e-02" rms="1.6135439276695251e-01" purity="2.7237353846430779e-02" nType="-99"/>
        </Node>
      </Node>
    </BinaryTree>
    <BinaryTree type="DecisionTree" boostWeight="1.0000000000000000e+00" itree="968">
      <Node pos="s" depth="0" NCoef="0" IVar="2" Cut="3.5591530799865723e-01" cType="1" res="-2.6836494271265110e-07" rms="3.2299831509590149e-01" purity="5.9855979681015015e-01" nType="0">
        <Node pos="l" depth="1" NCoef="0" IVar="-1" Cut="0.0000000000000000e+00" cType="1" res="-4.3282285332679749e-04" rms="2.8165709972381592e-01" purity="8.3244299888610840e-01" nType="-99"/>
        <Node pos="r" depth="1" NCoef="0" IVar="2" Cut="3.9160147309303284e-01" cType="1" res="4.3906227801926434e-04" rms="3.4683203697204590e-01" purity="4.4918462634086609e-01" nType="0">
          <Node pos="l" depth="2" NCoef="0" IVar="-1" Cut="0.0000000000000000e+00" cType="1" res="4.7803013585507870e-03" rms="3.1206005811691284e-01" purity="7.3533421754837036e-01" nType="-99"/>
          <Node pos="r" depth="2" NCoef="0" IVar="-1" Cut="0.0000000000000000e+00" cType="1" res="-1.7029620721586980e-05" rms="3.4840962290763855e-01" purity="4.3542301654815674e-01" nType="-99"/>
        </Node>
      </Node>
    </BinaryTree>
    <BinaryTree type="DecisionTree" boostWeight="1.0000000000000000e+00" itree="969">
      <Node pos="s" depth="0" NCoef="0" IVar="3" Cut="2.6784995198249817e-01" cType="1" res="-1.8573655324871652e-07" rms="3.2299709320068359e-01" purity="5.9855979681015015e-01" nType="0">
        <Node pos="l" depth="1" NCoef="0" IVar="-1" Cut="0.0000000000000000e+00" cType="1" res="3.1422617030330002e-04" rms="2.8455236554145813e-01" purity="6.0393178462982178e-01" nType="-99"/>
        <Node pos="r" depth="1" NCoef="0" IVar="1" Cut="4.4852572679519653e-01" cType="1" res="-6.2079943018034101e-04" rms="3.6329686641693115e-01" purity="5.9219861030578613e-01" nType="0">
          <Node pos="l" depth="2" NCoef="0" IVar="-1" Cut="0.0000000000000000e+00" cType="1" res="-5.1364919636398554e-04" rms="3.6287963390350342e-01" purity="6.2872010469436646e-01" nType="-99"/>
          <Node pos="r" depth="2" NCoef="0" IVar="-1" Cut="0.0000000000000000e+00" cType="1" res="2.6604742743074894e-03" rms="3.6760929226875305e-01" purity="2.0417070388793945e-01" nType="-99"/>
        </Node>
      </Node>
    </BinaryTree>
    <BinaryTree type="DecisionTree" boostWeight="1.0000000000000000e+00" itree="970">
      <Node pos="s" depth="0" NCoef="0" IVar="1" Cut="4.4977512210607529e-02" cType="1" res="-1.9665981199068483e-07" rms="3.2299515604972839e-01" purity="5.9855979681015015e-01" nType="0">
        <Node pos="l" depth="1" NCoef="0" IVar="-1" Cut="0.0000000000000000e+00" cType="1" res="2.9276427812874317e-04" rms="3.0145511031150818e-01" purity="7.4969816207885742e-01" nType="-99"/>
        <Node pos="r" depth="1" NCoef="0" IVar="3" Cut="4.5323005318641663e-01" cType="0" res="-5.6188489543274045e-04" rms="3.4368044137954712e-01" purity="4.4359767436981201e-01" nType="0">
          <Node pos="l" depth="2" NCoef="0" IVar="-1" Cut="0.0000000000000000e+00" cType="1" res="5.0813853740692139e-03" rms="3.6431223154067993e-01" purity="8.0122697353363037e-01" nType="-99"/>
          <Node pos="r" depth="2" NCoef="0" IVar="-1" Cut="0.0000000000000000e+00" cType="1" res="-4.4022276415489614e-04" rms="3.4297746419906616e-01" purity="4.3195524811744690e-01" nType="-99"/>
        </Node>
      </Node>
    </BinaryTree>
    <BinaryTree type="DecisionTree" boostWeight="1.0000000000000000e+00" itree="971">
      <Node pos="s" depth="0" NCoef="0" IVar="3" Cut="4.8672732710838318e-01" cType="0" res="-1.2099378920993331e-07" rms="3.2299435138702393e-01" purity="5.9855979681015015e-01" nType="0">
        <Node pos="l" depth="1" NCoef="0" IVar="-1" Cut="0.0000000000000000e+00" cType="1" res="-2.8818000573664904e-03" rms="3.0822628736495972e-01" purity="8.6452764272689819e-01" nType="-99"/>
        <Node pos="r" depth="1" NCoef="0" IVar="3" Cut="4.8136416077613831e-01" cType="0" res="6.1134946008678526e-05" rms="3.2315006852149963e-01" purity="5.9567892551422119e-01" nType="0">
          <Node pos="l" depth="2" NCoef="0" IVar="-1" Cut="0.0000000000000000e+00" cType="1" res="1.3570628128945827e-02" rms="2.7595514059066772e-01" purity="9.1363638639450073e-01" nType="-99"/>
          <Node pos="r" depth="2" NCoef="0" IVar="-1" Cut="0.0000000000000000e+00" cType="1" res="-1.8102495232596993e-05" rms="3.2333302497863770e-01" purity="5.9432262182235718e-01" nType="-99"/>
        </Node>
      </Node>
    </BinaryTree>
    <BinaryTree type="DecisionTree" boostWeight="1.0000000000000000e+00" itree="972">
      <Node pos="s" depth="0" NCoef="0" IVar="3" Cut="4.8397886753082275e-01" cType="0" res="-7.3242434339704232e-09" rms="3.2299259305000305e-01" purity="5.9855979681015015e-01" nType="0">
        <Node pos="l" depth="1" NCoef="0" IVar="-1" Cut="0.0000000000000000e+00" cType="1" res="-2.4903775192797184e-03" rms="3.1246820092201233e-01" purity="8.6547082662582397e-01" nType="-99"/>
        <Node pos="r" depth="1" NCoef="0" IVar="3" Cut="4.7889819741249084e-01" cType="0" res="6.3406972913071513e-05" rms="3.2312607765197754e-01" purity="5.9510499238967896e-01" nType="0">
          <Node pos="l" depth="2" NCoef="0" IVar="-1" Cut="0.0000000000000000e+00" cType="1" res="1.6540437936782837e-02" rms="2.4888443946838379e-01" purity="9.2640691995620728e-01" nType="-99"/>
          <Node pos="r" depth="2" NCoef="0" IVar="-1" Cut="0.0000000000000000e+00" cType="1" res="-2.6700363378040493e-05" rms="3.2341599464416504e-01" purity="5.9361761808395386e-01" nType="-99"/>
        </Node>
      </Node>
    </BinaryTree>
    <BinaryTree type="DecisionTree" boostWeight="1.0000000000000000e+00" itree="973">
      <Node pos="s" depth="0" NCoef="0" IVar="3" Cut="4.6998670697212219e-01" cType="0" res="1.4199710562934342e-07" rms="3.2299083471298218e-01" purity="5.9855979681015015e-01" nType="0">
        <Node pos="l" depth="1" NCoef="0" IVar="-1" Cut="0.0000000000000000e+00" cType="1" res="-1.8414490623399615e-03" rms="3.1839308142662048e-01" purity="8.6805558204650879e-01" nType="-99"/>
        <Node pos="r" depth="1" NCoef="0" IVar="3" Cut="4.6338945627212524e-01" cType="0" res="9.2304660938680172e-05" rms="3.2310616970062256e-01" purity="5.9171921014785767e-01" nType="0">
          <Node pos="l" depth="2" NCoef="0" IVar="-1" Cut="0.0000000000000000e+00" cType="1" res="1.0194875299930573e-02" rms="2.8511962294578552e-01" purity="8.8095235824584961e-01" nType="-99"/>
          <Node pos="r" depth="2" NCoef="0" IVar="-1" Cut="0.0000000000000000e+00" cType="1" res="-2.1477491827681661e-05" rms="3.2333844900131226e-01" purity="5.8980321884155273e-01" nType="-99"/>
        </Node>
      </Node>
    </BinaryTree>
    <BinaryTree type="DecisionTree" boostWeight="1.0000000000000000e+00" itree="974">
      <Node pos="s" depth="0" NCoef="0" IVar="3" Cut="4.9747130274772644e-01" cType="0" res="2.2383817110949167e-07" rms="3.2299017906188965e-01" purity="5.9855979681015015e-01" nType="0">
        <Node pos="l" depth="1" NCoef="0" IVar="-1" Cut="0.0000000000000000e+00" cType="1" res="5.6515838950872421e-03" rms="3.1811919808387756e-01" purity="8.5981309413909912e-01" nType="-99"/>
        <Node pos="r" depth="1" NCoef="0" IVar="3" Cut="4.9446254968643188e-01" cType="0" res="-2.6367595637566410e-05" rms="3.2299956679344177e-01" purity="5.9802478551864624e-01" nType="0">
          <Node pos="l" depth="2" NCoef="0" IVar="-1" Cut="0.0000000000000000e+00" cType="1" res="-9.2454906553030014e-03" rms="3.3855780959129333e-01" purity="8.4552848339080811e-01" nType="-99"/>
          <Node pos="r" depth="2" NCoef="0" IVar="-1" Cut="0.0000000000000000e+00" cType="1" res="9.9075286925653927e-06" rms="3.2296046614646912e-01" purity="5.9744071960449219e-01" nType="-99"/>
        </Node>
      </Node>
    </BinaryTree>
    <BinaryTree type="DecisionTree" boostWeight="1.0000000000000000e+00" itree="975">
      <Node pos="s" depth="0" NCoef="0" IVar="0" Cut="1.2493752874433994e-03" cType="1" res="2.4101760232042579e-07" rms="3.2298955321311951e-01" purity="5.9855979681015015e-01" nType="0">
        <Node pos="l" depth="1" NCoef="0" IVar="-1" Cut="0.0000000000000000e+00" cType="1" res="-5.2890012739226222e-04" rms="2.7197277545928955e-01" purity="9.0791207551956177e-01" nType="-99"/>
        <Node pos="r" depth="1" NCoef="0" IVar="3" Cut="4.0249881148338318e-01" cType="0" res="3.9085038588382304e-04" rms="3.4564319252967834e-01" purity="4.4418039917945862e-01" nType="0">
          <Node pos="l" depth="2" NCoef="0" IVar="-1" Cut="0.0000000000000000e+00" cType="1" res="3.0008254107087851e-03" rms="3.9756605029106140e-01" purity="6.8990558385848999e-01" nType="-99"/>
          <Node pos="r" depth="2" NCoef="0" IVar="-1" Cut="0.0000000000000000e+00" cType="1" res="2.3520033209933899e-06" rms="3.4333875775337219e-01" purity="4.3409442901611328e-01" nType="-99"/>
        </Node>
      </Node>
    </BinaryTree>
    <BinaryTree type="DecisionTree" boostWeight="1.0000000000000000e+00" itree="976">
      <Node pos="s" depth="0" NCoef="0" IVar="3" Cut="2.6784995198249817e-01" cType="1" res="2.4757702021815930e-07" rms="3.2298931479454041e-01" purity="5.9855979681015015e-01" nType="0">
        <Node pos="l" depth="1" NCoef="0" IVar="-1" Cut="0.0000000000000000e+00" cType="1" res="3.1885175849311054e-04" rms="2.8455200791358948e-01" purity="6.0393178462982178e-01" nType="-99"/>
        <Node pos="r" depth="1" NCoef="0" IVar="3" Cut="2.8213292360305786e-01" cType="0" res="-6.2904338119551539e-04" rms="3.6328205466270447e-01" purity="5.9219861030578613e-01" nType="0">
          <Node pos="l" depth="2" NCoef="0" IVar="-1" Cut="0.0000000000000000e+00" cType="1" res="4.0541552152717486e-05" rms="3.6685478687286377e-01" purity="6.1537045240402222e-01" nType="-99"/>
          <Node pos="r" depth="2" NCoef="0" IVar="-1" Cut="0.0000000000000000e+00" cType="1" res="-3.3045273739844561e-03" rms="3.2724851369857788e-01" purity="3.7165424227714539e-01" nType="-99"/>
        </Node>
      </Node>
    </BinaryTree>
    <BinaryTree type="DecisionTree" boostWeight="1.0000000000000000e+00" itree="977">
      <Node pos="s" depth="0" NCoef="0" IVar="3" Cut="2.9058721661567688e-01" cType="0" res="2.0576487713697134e-07" rms="3.2298928499221802e-01" purity="5.9855979681015015e-01" nType="0">
        <Node pos="l" depth="1" NCoef="0" IVar="-1" Cut="0.0000000000000000e+00" cType="1" res="-2.6949081802740693e-04" rms="3.6787480115890503e-01" purity="6.2768095731735229e-01" nType="-99"/>
        <Node pos="r" depth="1" NCoef="0" IVar="3" Cut="2.8216436505317688e-01" cType="1" res="4.6396598918363452e-04" rms="2.9079899191856384e-01" purity="5.8000564575195312e-01" nType="0">
          <Node pos="l" depth="2" NCoef="0" IVar="-1" Cut="0.0000000000000000e+00" cType="1" res="-6.8932451540604234e-05" rms="2.8800952434539795e-01" purity="5.8664315938949585e-01" nType="-99"/>
          <Node pos="r" depth="2" NCoef="0" IVar="-1" Cut="0.0000000000000000e+00" cType="1" res="5.7882191613316536e-03" rms="3.4939998388290405e-01" purity="4.2498096823692322e-01" nType="-99"/>
        </Node>
      </Node>
    </BinaryTree>
    <BinaryTree type="DecisionTree" boostWeight="1.0000000000000000e+00" itree="978">
      <Node pos="s" depth="0" NCoef="0" IVar="3" Cut="2.7884379029273987e-01" cType="0" res="1.6066819341631344e-07" rms="3.2298678159713745e-01" purity="5.9855979681015015e-01" nType="0">
        <Node pos="l" depth="1" NCoef="0" IVar="-1" Cut="0.0000000000000000e+00" cType="1" res="-2.4825125001370907e-04" rms="3.6592346429824829e-01" purity="6.0930609703063965e-01" nType="-99"/>
        <Node pos="r" depth="1" NCoef="0" IVar="0" Cut="1.6991503536701202e-01" cType="1" res="4.8985437024384737e-04" rms="2.8723746538162231e-01" purity="5.9063452482223511e-01" nType="0">
          <Node pos="l" depth="2" NCoef="0" IVar="-1" Cut="0.0000000000000000e+00" cType="1" res="1.4855406479910016e-03" rms="2.8934133052825928e-01" purity="8.7822836637496948e-01" nType="-99"/>
          <Node pos="r" depth="2" NCoef="0" IVar="-1" Cut="0.0000000000000000e+00" cType="1" res="-1.8106853822246194e-03" rms="2.8356996178627014e-01" purity="9.9001891911029816e-02" nType="-99"/>
        </Node>
      </Node>
    </BinaryTree>
    <BinaryTree type="DecisionTree" boostWeight="1.0000000000000000e+00" itree="979">
      <Node pos="s" depth="0" NCoef="0" IVar="2" Cut="2.9222521185874939e-01" cType="1" res="1.4408172432922584e-07" rms="3.2298600673675537e-01" purity="5.9855979681015015e-01" nType="0">
        <Node pos="l" depth="1" NCoef="0" IVar="-1" Cut="0.0000000000000000e+00" cType="1" res="-5.6814798153936863e-04" rms="2.7566495537757874e-01" purity="8.4798938035964966e-01" nType="-99"/>
        <Node pos="r" depth="1" NCoef="0" IVar="3" Cut="1.0626529902219772e-01" cType="0" res="4.5595748815685511e-04" rms="3.4538891911506653e-01" purity="4.6671533584594727e-01" nType="0">
          <Node pos="l" depth="2" NCoef="0" IVar="-1" Cut="0.0000000000000000e+00" cType="1" res="1.4736600860487670e-04" rms="3.4543189406394958e-01" purity="4.6767204999923706e-01" nType="-99"/>
          <Node pos="r" depth="2" NCoef="0" IVar="-1" Cut="0.0000000000000000e+00" cType="1" res="1.8891150131821632e-02" rms="3.2869443297386169e-01" purity="1.4000000059604645e-01" nType="-99"/>
        </Node>
      </Node>
    </BinaryTree>
    <BinaryTree type="DecisionTree" boostWeight="1.0000000000000000e+00" itree="980">
      <Node pos="s" depth="0" NCoef="0" IVar="2" Cut="6.7811232805252075e-01" cType="1" res="5.2152639540281598e-08" rms="3.2298430800437927e-01" purity="5.9855979681015015e-01" nType="0">
        <Node pos="l" depth="1" NCoef="0" IVar="-1" Cut="0.0000000000000000e+00" cType="1" res="-2.5145465042442083e-04" rms="3.0134889483451843e-01" purity="7.6505142450332642e-01" nType="-99"/>
        <Node pos="r" depth="1" NCoef="0" IVar="2" Cut="7.0197355747222900e-01" cType="1" res="6.9066585274413228e-04" rms="3.5276177525520325e-01" purity="3.5053262114524841e-01" nType="0">
          <Node pos="l" depth="2" NCoef="0" IVar="-1" Cut="0.0000000000000000e+00" cType="1" res="8.8060200214385986e-03" rms="3.5575315356254578e-01" purity="5.5088853836059570e-01" nType="-99"/>
          <Node pos="r" depth="2" NCoef="0" IVar="-1" Cut="0.0000000000000000e+00" cType="1" res="-7.2579196057631634e-06" rms="3.5264644026756287e-01" purity="3.4445586800575256e-01" nType="-99"/>
        </Node>
      </Node>
    </BinaryTree>
    <BinaryTree type="DecisionTree" boostWeight="1.0000000000000000e+00" itree="981">
      <Node pos="s" depth="0" NCoef="0" IVar="3" Cut="2.7884379029273987e-01" cType="0" res="6.9024196136524552e-08" rms="3.2298219203948975e-01" purity="5.9855979681015015e-01" nType="0">
        <Node pos="l" depth="1" NCoef="0" IVar="-1" Cut="0.0000000000000000e+00" cType="1" res="-2.4546671193093061e-04" rms="3.6592024564743042e-01" purity="6.0930609703063965e-01" nType="-99"/>
        <Node pos="r" depth="1" NCoef="0" IVar="3" Cut="2.7814462780952454e-01" cType="1" res="4.8421387327834964e-04" rms="2.8723153471946716e-01" purity="5.9063452482223511e-01" nType="0">
          <Node pos="l" depth="2" NCoef="0" IVar="-1" Cut="0.0000000000000000e+00" cType="1" res="1.8365646246820688e-04" rms="2.8690904378890991e-01" purity="5.9130287170410156e-01" nType="-99"/>
          <Node pos="r" depth="2" NCoef="0" IVar="-1" Cut="0.0000000000000000e+00" cType="1" res="1.7932418733835220e-02" rms="3.5531976819038391e-01" purity="4.2622950673103333e-01" nType="-99"/>
        </Node>
      </Node>
    </BinaryTree>
    <BinaryTree type="DecisionTree" boostWeight="1.0000000000000000e+00" itree="982">
      <Node pos="s" depth="0" NCoef="0" IVar="2" Cut="1.5360555648803711e+00" cType="1" res="3.5458281644196177e-08" rms="3.2298004627227783e-01" purity="5.9855979681015015e-01" nType="0">
        <Node pos="l" depth="1" NCoef="0" IVar="-1" Cut="0.0000000000000000e+00" cType="1" res="-9.7784432000480592e-05" rms="3.2040107250213623e-01" purity="6.4864921569824219e-01" nType="-99"/>
        <Node pos="r" depth="1" NCoef="0" IVar="0" Cut="3.1234383583068848e-02" cType="1" res="1.5576425939798355e-03" rms="3.4208145737648010e-01" purity="2.1498262882232666e-01" nType="0">
          <Node pos="l" depth="2" NCoef="0" IVar="-1" Cut="0.0000000000000000e+00" cType="1" res="-1.8727920949459076e-02" rms="4.0787950158119202e-01" purity="6.9444441795349121e-01" nType="-99"/>
          <Node pos="r" depth="2" NCoef="0" IVar="-1" Cut="0.0000000000000000e+00" cType="1" res="1.1151385260745883e-03" rms="3.4066924452781677e-01" purity="2.0626367628574371e-01" nType="-99"/>
        </Node>
      </Node>
    </BinaryTree>
    <BinaryTree type="DecisionTree" boostWeight="1.0000000000000000e+00" itree="983">
      <Node pos="s" depth="0" NCoef="0" IVar="3" Cut="4.8847633600234985e-01" cType="0" res="1.2031486562591454e-07" rms="3.2297635078430176e-01" purity="5.9855979681015015e-01" nType="0">
        <Node pos="l" depth="1" NCoef="0" IVar="-1" Cut="0.0000000000000000e+00" cType="1" res="2.9834148008376360e-03" rms="2.8986048698425293e-01" purity="8.7991720438003540e-01" nType="-99"/>
        <Node pos="r" depth="1" NCoef="0" IVar="3" Cut="4.8478057980537415e-01" cType="0" res="-5.3433668654179201e-05" rms="3.2326826453208923e-01" purity="5.9593993425369263e-01" nType="0">
          <Node pos="l" depth="2" NCoef="0" IVar="-1" Cut="0.0000000000000000e+00" cType="1" res="-1.4233454130589962e-02" rms="3.7078744173049927e-01" purity="8.2165604829788208e-01" nType="-99"/>
          <Node pos="r" depth="2" NCoef="0" IVar="-1" Cut="0.0000000000000000e+00" cType="1" res="1.8580776668386534e-05" rms="3.2310897111892700e-01" purity="5.9525465965270996e-01" nType="-99"/>
        </Node>
      </Node>
    </BinaryTree>
    <BinaryTree type="DecisionTree" boostWeight="1.0000000000000000e+00" itree="984">
      <Node pos="s" depth="0" NCoef="0" IVar="2" Cut="2.9222521185874939e-01" cType="1" res="2.0058253369370505e-07" rms="3.2297632098197937e-01" purity="5.9855979681015015e-01" nType="0">
        <Node pos="l" depth="1" NCoef="0" IVar="-1" Cut="0.0000000000000000e+00" cType="1" res="-4.9818574916571379e-04" rms="2.7566441893577576e-01" purity="8.4798938035964966e-01" nType="-99"/>
        <Node pos="r" depth="1" NCoef="0" IVar="2" Cut="2.9943686723709106e-01" cType="1" res="4.0023654582910240e-04" rms="3.4537547826766968e-01" purity="4.6671533584594727e-01" nType="0">
          <Node pos="l" depth="2" NCoef="0" IVar="-1" Cut="0.0000000000000000e+00" cType="1" res="1.0468452237546444e-02" rms="3.0032202601432800e-01" purity="7.0319634675979614e-01" nType="-99"/>
          <Node pos="r" depth="2" NCoef="0" IVar="-1" Cut="0.0000000000000000e+00" cType="1" res="1.0661548731150106e-04" rms="3.4564191102981567e-01" purity="4.6519351005554199e-01" nType="-99"/>
        </Node>
      </Node>
    </BinaryTree>
    <BinaryTree type="DecisionTree" boostWeight="1.0000000000000000e+00" itree="985">
      <Node pos="s" depth="0" NCoef="0" IVar="3" Cut="2.7884379029273987e-01" cType="0" res="2.1036127861862042e-07" rms="3.2297512888908386e-01" purity="5.9855979681015015e-01" nType="0">
        <Node pos="l" depth="1" NCoef="0" IVar="-1" Cut="0.0000000000000000e+00" cType="1" res="-2.3775140289217234e-04" rms="3.6591237783432007e-01" purity="6.0930609703063965e-01" nType="-99"/>
        <Node pos="r" depth="1" NCoef="0" IVar="0" Cut="1.6991503536701202e-01" cType="1" res="4.6938750892877579e-04" rms="2.8722518682479858e-01" purity="5.9063452482223511e-01" nType="0">
          <Node pos="l" depth="2" NCoef="0" IVar="-1" Cut="0.0000000000000000e+00" cType="1" res="1.4119555708020926e-03" rms="2.8933241963386536e-01" purity="8.7822836637496948e-01" nType="-99"/>
          <Node pos="r" depth="2" NCoef="0" IVar="-1" Cut="0.0000000000000000e+00" cType="1" res="-1.7156471731141210e-03" rms="2.8355532884597778e-01" purity="9.9001891911029816e-02" nType="-99"/>
        </Node>
      </Node>
    </BinaryTree>
    <BinaryTree type="DecisionTree" boostWeight="1.0000000000000000e+00" itree="986">
      <Node pos="s" depth="0" NCoef="0" IVar="2" Cut="3.5591530799865723e-01" cType="1" res="1.8901896225997916e-07" rms="3.2297450304031372e-01" purity="5.9855979681015015e-01" nType="0">
        <Node pos="l" depth="1" NCoef="0" IVar="-1" Cut="0.0000000000000000e+00" cType="1" res="-4.9281975952908397e-04" rms="2.8165119886398315e-01" purity="8.3244299888610840e-01" nType="-99"/>
        <Node pos="r" depth="1" NCoef="0" IVar="2" Cut="3.9160147309303284e-01" cType="1" res="4.9995566951110959e-04" rms="3.4679856896400452e-01" purity="4.4918462634086609e-01" nType="0">
          <Node pos="l" depth="2" NCoef="0" IVar="-1" Cut="0.0000000000000000e+00" cType="1" res="4.4038915075361729e-03" rms="3.1207486987113953e-01" purity="7.3533421754837036e-01" nType="-99"/>
          <Node pos="r" depth="2" NCoef="0" IVar="-1" Cut="0.0000000000000000e+00" cType="1" res="2.5400453523616306e-05" rms="3.4837532043457031e-01" purity="4.3542301654815674e-01" nType="-99"/>
        </Node>
      </Node>
    </BinaryTree>
    <BinaryTree type="DecisionTree" boostWeight="1.0000000000000000e+00" itree="987">
      <Node pos="s" depth="0" NCoef="0" IVar="2" Cut="7.9050660133361816e-01" cType="1" res="2.1996487475917093e-07" rms="3.2297334074974060e-01" purity="5.9855979681015015e-01" nType="0">
        <Node pos="l" depth="1" NCoef="0" IVar="-1" Cut="0.0000000000000000e+00" cType="1" res="-2.2218850790522993e-04" rms="3.0702683329582214e-01" purity="7.4346238374710083e-01" nType="-99"/>
        <Node pos="r" depth="1" NCoef="0" IVar="2" Cut="7.9391616582870483e-01" cType="1" res="8.0043589696288109e-04" rms="3.5110798478126526e-01" purity="3.2500413060188293e-01" nType="0">
          <Node pos="l" depth="2" NCoef="0" IVar="-1" Cut="0.0000000000000000e+00" cType="1" res="2.7868060395121574e-02" rms="3.4725940227508545e-01" purity="5.6000000238418579e-01" nType="-99"/>
          <Node pos="r" depth="2" NCoef="0" IVar="-1" Cut="0.0000000000000000e+00" cType="1" res="1.7497022054158151e-04" rms="3.5109546780586243e-01" purity="3.2370069622993469e-01" nType="-99"/>
        </Node>
      </Node>
    </BinaryTree>
    <BinaryTree type="DecisionTree" boostWeight="1.0000000000000000e+00" itree="988">
      <Node pos="s" depth="0" NCoef="0" IVar="0" Cut="2.4575212001800537e+00" cType="1" res="2.2845952685202064e-07" rms="3.2296913862228394e-01" purity="5.9855979681015015e-01" nType="0">
        <Node pos="l" depth="1" NCoef="0" IVar="-1" Cut="0.0000000000000000e+00" cType="1" res="-2.6092477128258906e-05" rms="3.2263618707656860e-01" purity="6.0261505842208862e-01" nType="-99"/>
        <Node pos="r" depth="1" NCoef="0" IVar="3" Cut="1.6980570554733276e-01" cType="0" res="5.7348469272255898e-03" rms="3.5576432943344116e-01" purity="1.7800000309944153e-01" nType="0">
          <Node pos="l" depth="2" NCoef="0" IVar="-1" Cut="0.0000000000000000e+00" cType="1" res="5.6461957283318043e-03" rms="3.6505341529846191e-01" purity="1.9498607516288757e-01" nType="-99"/>
          <Node pos="r" depth="2" NCoef="0" IVar="-1" Cut="0.0000000000000000e+00" cType="1" res="-6.8958853371441364e-03" rms="3.2983523607254028e-01" purity="1.3475176692008972e-01" nType="-99"/>
        </Node>
      </Node>
    </BinaryTree>
    <BinaryTree type="DecisionTree" boostWeight="1.0000000000000000e+00" itree="989">
      <Node pos="s" depth="0" NCoef="0" IVar="2" Cut="3.0308997631072998e+00" cType="1" res="1.5369181483038119e-07" rms="3.2296830415725708e-01" purity="5.9855979681015015e-01" nType="0">
        <Node pos="l" depth="1" NCoef="0" IVar="-1" Cut="0.0000000000000000e+00" cType="1" res="2.5458042728132568e-05" rms="3.2290056347846985e-01" purity="6.0254877805709839e-01" nType="-99"/>
        <Node pos="r" depth="1" NCoef="0" IVar="3" Cut="3.0195000767707825e-01" cType="0" res="-5.7218684814870358e-03" rms="3.3006501197814941e-01" purity="1.7283950746059418e-01" nType="0">
          <Node pos="l" depth="2" NCoef="0" IVar="-1" Cut="0.0000000000000000e+00" cType="1" res="-6.4864386804401875e-03" rms="3.4251797199249268e-01" purity="2.1126760542392731e-01" nType="-99"/>
          <Node pos="r" depth="2" NCoef="0" IVar="-1" Cut="0.0000000000000000e+00" cType="1" res="7.0431269705295563e-03" rms="3.1080099940299988e-01" purity="1.1881188303232193e-01" nType="-99"/>
        </Node>
      </Node>
    </BinaryTree>
    <BinaryTree type="DecisionTree" boostWeight="1.0000000000000000e+00" itree="990">
      <Node pos="s" depth="0" NCoef="0" IVar="2" Cut="9.9656283855438232e-01" cType="1" res="8.7566718320886139e-08" rms="3.2296806573867798e-01" purity="5.9855979681015015e-01" nType="0">
        <Node pos="l" depth="1" NCoef="0" IVar="-1" Cut="0.0000000000000000e+00" cType="1" res="-1.6191632312256843e-04" rms="3.1303140521049500e-01" purity="7.0853638648986816e-01" nType="-99"/>
        <Node pos="r" depth="1" NCoef="0" IVar="0" Cut="5.7471264153718948e-02" cType="1" res="9.3776360154151917e-04" rms="3.5033959150314331e-01" purity="2.7782765030860901e-01" nType="0">
          <Node pos="l" depth="2" NCoef="0" IVar="-1" Cut="0.0000000000000000e+00" cType="1" res="-7.2919367812573910e-03" rms="3.7976559996604919e-01" purity="7.9280823469161987e-01" nType="-99"/>
          <Node pos="r" depth="2" NCoef="0" IVar="-1" Cut="0.0000000000000000e+00" cType="1" res="1.1833809548988938e-03" rms="3.4732663631439209e-01" purity="2.2852459549903870e-01" nType="-99"/>
        </Node>
      </Node>
    </BinaryTree>
    <BinaryTree type="DecisionTree" boostWeight="1.0000000000000000e+00" itree="991">
      <Node pos="s" depth="0" NCoef="0" IVar="2" Cut="1.9256891012191772e+00" cType="1" res="2.3070816723702592e-07" rms="3.2296252250671387e-01" purity="5.9855979681015015e-01" nType="0">
        <Node pos="l" depth="1" NCoef="0" IVar="-1" Cut="0.0000000000000000e+00" cType="1" res="6.8569999712053686e-05" rms="3.2231321930885315e-01" purity="6.2506610155105591e-01" nType="-99"/>
        <Node pos="r" depth="1" NCoef="0" IVar="0" Cut="9.3703150749206543e-02" cType="1" res="-2.2298572584986687e-03" rms="3.3286008238792419e-01" purity="1.8757881224155426e-01" nType="0">
          <Node pos="l" depth="2" NCoef="0" IVar="-1" Cut="0.0000000000000000e+00" cType="1" res="1.3155872002243996e-02" rms="3.7307509779930115e-01" purity="7.9831933975219727e-01" nType="-99"/>
          <Node pos="r" depth="2" NCoef="0" IVar="-1" Cut="0.0000000000000000e+00" cType="1" res="-1.7265288624912500e-03" rms="3.3106818795204163e-01" purity="1.6377334296703339e-01" nType="-99"/>
        </Node>
      </Node>
    </BinaryTree>
    <BinaryTree type="DecisionTree" boostWeight="1.0000000000000000e+00" itree="992">
      <Node pos="s" depth="0" NCoef="0" IVar="1" Cut="2.3250875473022461e+00" cType="1" res="2.4567373202444287e-07" rms="3.2296121120452881e-01" purity="5.9855979681015015e-01" nType="0">
        <Node pos="l" depth="1" NCoef="0" IVar="1" Cut="1.7344640493392944e+00" cType="1" res="2.5475639631622471e-05" rms="3.2281401753425598e-01" purity="5.9937214851379395e-01" nType="0">
          <Node pos="l" depth="2" NCoef="0" IVar="-1" Cut="0.0000000000000000e+00" cType="1" res="-1.7704758647596464e-05" rms="3.2261937856674194e-01" purity="6.0092604160308838e-01" nType="-99"/>
          <Node pos="r" depth="2" NCoef="0" IVar="-1" Cut="0.0000000000000000e+00" cType="1" res="6.4605432562530041e-03" rms="3.7074902653694153e-01" purity="1.8461538851261139e-01" nType="-99"/>
        </Node>
        <Node pos="r" depth="1" NCoef="0" IVar="-1" Cut="0.0000000000000000e+00" cType="1" res="-3.5769075620919466e-03" rms="3.8587728142738342e-01" purity="2.1621622145175934e-01" nType="-99"/>
      </Node>
    </BinaryTree>
    <BinaryTree type="DecisionTree" boostWeight="1.0000000000000000e+00" itree="993">
      <Node pos="s" depth="0" NCoef="0" IVar="3" Cut="3.7054240703582764e-01" cType="0" res="1.9333189982262411e-07" rms="3.2296055555343628e-01" purity="5.9855979681015015e-01" nType="0">
        <Node pos="l" depth="1" NCoef="0" IVar="-1" Cut="0.0000000000000000e+00" cType="1" res="4.6804730664007366e-04" rms="3.5817357897758484e-01" purity="7.7580922842025757e-01" nType="-99"/>
        <Node pos="r" depth="1" NCoef="0" IVar="3" Cut="3.6757552623748779e-01" cType="0" res="-2.4427569587714970e-04" rms="3.1536293029785156e-01" purity="5.6272244453430176e-01" nType="0">
          <Node pos="l" depth="2" NCoef="0" IVar="-1" Cut="0.0000000000000000e+00" cType="1" res="-1.5631046146154404e-02" rms="4.0481352806091309e-01" purity="5.9103643894195557e-01" nType="-99"/>
          <Node pos="r" depth="2" NCoef="0" IVar="-1" Cut="0.0000000000000000e+00" cType="1" res="7.1190865128301084e-05" rms="3.1448847055435181e-01" purity="5.6248843669891357e-01" nType="-99"/>
        </Node>
      </Node>
    </BinaryTree>
    <BinaryTree type="DecisionTree" boostWeight="1.0000000000000000e+00" itree="994">
      <Node pos="s" depth="0" NCoef="0" IVar="2" Cut="2.7349281311035156e-01" cType="1" res="2.6246695483678195e-07" rms="3.2295548915863037e-01" purity="5.9855979681015015e-01" nType="0">
        <Node pos="l" depth="1" NCoef="0" IVar="-1" Cut="0.0000000000000000e+00" cType="1" res="-5.1071576308459044e-04" rms="2.7356570959091187e-01" purity="8.5204869508743286e-01" nType="-99"/>
        <Node pos="r" depth="1" NCoef="0" IVar="2" Cut="2.7713200449943542e-01" cType="1" res="3.8468494312837720e-04" rms="3.4509605169296265e-01" purity="4.7129535675048828e-01" nType="0">
          <Node pos="l" depth="2" NCoef="0" IVar="-1" Cut="0.0000000000000000e+00" cType="1" res="1.6772858798503876e-02" rms="2.8751528263092041e-01" purity="7.5193798542022705e-01" nType="-99"/>
          <Node pos="r" depth="2" NCoef="0" IVar="-1" Cut="0.0000000000000000e+00" cType="1" res="1.0342110181227326e-04" rms="3.4528502821922302e-01" purity="4.7025284171104431e-01" nType="-99"/>
        </Node>
      </Node>
    </BinaryTree>
    <BinaryTree type="DecisionTree" boostWeight="1.0000000000000000e+00" itree="995">
      <Node pos="s" depth="0" NCoef="0" IVar="3" Cut="1.7964935302734375e-01" cType="1" res="2.9085549613228068e-07" rms="3.2295361161231995e-01" purity="5.9855979681015015e-01" nType="0">
        <Node pos="l" depth="1" NCoef="0" IVar="-1" Cut="0.0000000000000000e+00" cType="1" res="5.2376341773197055e-04" rms="2.6748323440551758e-01" purity="7.7575480937957764e-01" nType="-99"/>
        <Node pos="r" depth="1" NCoef="0" IVar="3" Cut="1.8253375589847565e-01" cType="0" res="-3.8592398050241172e-04" rms="3.4786063432693481e-01" purity="5.0816315412521362e-01" nType="0">
          <Node pos="l" depth="2" NCoef="0" IVar="-1" Cut="0.0000000000000000e+00" cType="1" res="-2.0315224901423790e-05" rms="3.4839594364166260e-01" purity="5.0971847772598267e-01" nType="-99"/>
          <Node pos="r" depth="2" NCoef="0" IVar="-1" Cut="0.0000000000000000e+00" cType="1" res="-2.4680830538272858e-02" rms="2.5945192575454712e-01" purity="2.9317268729209900e-01" nType="-99"/>
        </Node>
      </Node>
    </BinaryTree>
    <BinaryTree type="DecisionTree" boostWeight="1.0000000000000000e+00" itree="996">
      <Node pos="s" depth="0" NCoef="0" IVar="2" Cut="2.9597166180610657e-01" cType="1" res="1.8300239901236637e-07" rms="3.2294812798500061e-01" purity="5.9855979681015015e-01" nType="0">
        <Node pos="l" depth="1" NCoef="0" IVar="-1" Cut="0.0000000000000000e+00" cType="1" res="-4.8381328815594316e-04" rms="2.7563521265983582e-01" purity="8.4702396392822266e-01" nType="-99"/>
        <Node pos="r" depth="1" NCoef="0" IVar="3" Cut="1.6484962403774261e-01" cType="0" res="3.9294880116358399e-04" rms="3.4554576873779297e-01" purity="4.6602424979209900e-01" nType="0">
          <Node pos="l" depth="2" NCoef="0" IVar="-1" Cut="0.0000000000000000e+00" cType="1" res="1.0003978786699008e-05" rms="3.4763380885124207e-01" purity="4.7906380891799927e-01" nType="-99"/>
          <Node pos="r" depth="2" NCoef="0" IVar="-1" Cut="0.0000000000000000e+00" cType="1" res="5.8600073680281639e-03" rms="2.8905338048934937e-01" purity="1.4382530748844147e-01" nType="-99"/>
        </Node>
      </Node>
    </BinaryTree>
    <BinaryTree type="DecisionTree" boostWeight="1.0000000000000000e+00" itree="997">
      <Node pos="s" depth="0" NCoef="0" IVar="0" Cut="2.0439779758453369e+00" cType="1" res="8.8145036158948642e-08" rms="3.2294553518295288e-01" purity="5.9855979681015015e-01" nType="0">
        <Node pos="l" depth="1" NCoef="0" IVar="-1" Cut="0.0000000000000000e+00" cType="1" res="3.3629683457547799e-05" rms="3.2286959886550903e-01" purity="6.0564202070236206e-01" nType="-99"/>
        <Node pos="r" depth="1" NCoef="0" IVar="2" Cut="1.4992284774780273e+00" cType="1" res="-4.5034871436655521e-03" rms="3.2769891619682312e-01" purity="1.4901477098464966e-01" nType="0">
          <Node pos="l" depth="2" NCoef="0" IVar="-1" Cut="0.0000000000000000e+00" cType="1" res="5.9856334701180458e-03" rms="3.3993566036224365e-01" purity="1.5277777612209320e-01" nType="-99"/>
          <Node pos="r" depth="2" NCoef="0" IVar="-1" Cut="0.0000000000000000e+00" cType="1" res="-7.7854166738688946e-03" rms="3.1687813997268677e-01" purity="1.4601770043373108e-01" nType="-99"/>
        </Node>
      </Node>
    </BinaryTree>
    <BinaryTree type="DecisionTree" boostWeight="1.0000000000000000e+00" itree="998">
      <Node pos="s" depth="0" NCoef="0" IVar="2" Cut="3.2781672477722168e+00" cType="1" res="-2.8907502169772670e-08" rms="3.2294425368309021e-01" purity="5.9855979681015015e-01" nType="0">
        <Node pos="l" depth="1" NCoef="0" IVar="-1" Cut="0.0000000000000000e+00" cType="1" res="-2.0579802367137745e-05" rms="3.2271814346313477e-01" purity="6.0073769092559814e-01" nType="-99"/>
        <Node pos="r" depth="1" NCoef="0" IVar="1" Cut="1.2243878096342087e-01" cType="0" res="7.5893579050898552e-03" rms="3.6019030213356018e-01" purity="2.1812079846858978e-01" nType="0">
          <Node pos="l" depth="2" NCoef="0" IVar="-1" Cut="0.0000000000000000e+00" cType="1" res="8.6198234930634499e-03" rms="3.6953783035278320e-01" purity="2.2448979318141937e-01" nType="-99"/>
          <Node pos="r" depth="2" NCoef="0" IVar="-1" Cut="0.0000000000000000e+00" cType="1" res="-7.6211090199649334e-03" rms="3.3955836296081543e-01" purity="2.0588235557079315e-01" nType="-99"/>
        </Node>
      </Node>
    </BinaryTree>
    <BinaryTree type="DecisionTree" boostWeight="1.0000000000000000e+00" itree="999">
      <Node pos="s" depth="0" NCoef="0" IVar="2" Cut="1.7608441114425659e+00" cType="1" res="-7.4298441177234054e-08" rms="3.2294338941574097e-01" purity="5.9855979681015015e-01" nType="0">
        <Node pos="l" depth="1" NCoef="0" IVar="-1" Cut="0.0000000000000000e+00" cType="1" res="-7.6103642641101032e-05" rms="3.2164964079856873e-01" purity="6.3296103477478027e-01" nType="-99"/>
        <Node pos="r" depth="1" NCoef="0" IVar="2" Cut="1.7838519811630249e+00" cType="1" res="1.8349906895309687e-03" rms="3.3748334646224976e-01" purity="2.0229555666446686e-01" nType="0">
          <Node pos="l" depth="2" NCoef="0" IVar="-1" Cut="0.0000000000000000e+00" cType="1" res="2.2789204493165016e-02" rms="3.5559505224227905e-01" purity="2.7516779303550720e-01" nType="-99"/>
          <Node pos="r" depth="2" NCoef="0" IVar="-1" Cut="0.0000000000000000e+00" cType="1" res="-3.9925307646626607e-05" rms="3.3664038777351379e-01" purity="1.9960327446460724e-01" nType="-99"/>
        </Node>
      </Node>
    </BinaryTree>
    <BinaryTree type="DecisionTree" boostWeight="1.0000000000000000e+00" itree="1000">
      <Node pos="s" depth="0" NCoef="0" IVar="0" Cut="1.1081959009170532e+00" cType="1" res="-2.0188876703741698e-07" rms="3.2293915748596191e-01" purity="5.9855979681015015e-01" nType="0">
        <Node pos="l" depth="1" NCoef="0" IVar="-1" Cut="0.0000000000000000e+00" cType="1" res="6.3118372054304928e-05" rms="3.2544833421707153e-01" purity="6.3016062974929810e-01" nType="-99"/>
        <Node pos="r" depth="1" NCoef="0" IVar="1" Cut="1.8215892314910889e+00" cType="0" res="-2.1455623209476471e-03" rms="2.8023734688758850e-01" purity="9.8360657691955566e-02" nType="0">
          <Node pos="l" depth="2" NCoef="0" IVar="-1" Cut="0.0000000000000000e+00" cType="1" res="-1.2770369648933411e-02" rms="3.5707461833953857e-01" purity="1.7730496823787689e-01" nType="-99"/>
          <Node pos="r" depth="2" NCoef="0" IVar="-1" Cut="0.0000000000000000e+00" cType="1" res="-2.2277163225226104e-04" rms="2.7593055367469788e-01" purity="9.4612792134284973e-02" nType="-99"/>
        </Node>
      </Node>
    </BinaryTree>
    <BinaryTree type="DecisionTree" boostWeight="1.0000000000000000e+00" itree="1001">
      <Node pos="s" depth="0" NCoef="0" IVar="1" Cut="2.1589205265045166e+00" cType="1" res="-2.4850740487636358e-07" rms="3.2293850183486938e-01" purity="5.9855979681015015e-01" nType="0">
        <Node pos="l" depth="1" NCoef="0" IVar="1" Cut="1.5831768512725830e+00" cType="1" res="-3.2235544495051727e-05" rms="3.2269477844238281e-01" purity="5.9953266382217407e-01" nType="0">
          <Node pos="l" depth="2" NCoef="0" IVar="-1" Cut="0.0000000000000000e+00" cType="1" res="1.4364849448611494e-05" rms="3.2270923256874084e-01" purity="6.0174334049224854e-01" nType="-99"/>
          <Node pos="r" depth="2" NCoef="0" IVar="-1" Cut="0.0000000000000000e+00" cType="1" res="-5.8094342239201069e-03" rms="3.1934151053428650e-01" purity="1.3061223924160004e-01" nType="-99"/>
        </Node>
        <Node pos="r" depth="1" NCoef="0" IVar="-1" Cut="0.0000000000000000e+00" cType="1" res="3.6198219750076532e-03" rms="4.0352234244346619e-01" purity="2.3571428656578064e-01" nType="-99"/>
      </Node>
    </BinaryTree>
    <BinaryTree type="DecisionTree" boostWeight="1.0000000000000000e+00" itree="1002">
      <Node pos="s" depth="0" NCoef="0" IVar="1" Cut="1.5704647302627563e+00" cType="1" res="-2.5272171910728503e-07" rms="3.2293832302093506e-01" purity="5.9855979681015015e-01" nType="0">
        <Node pos="l" depth="1" NCoef="0" IVar="-1" Cut="0.0000000000000000e+00" cType="1" res="-2.5352783268317580e-05" rms="3.2261985540390015e-01" purity="6.0177844762802124e-01" nType="-99"/>
        <Node pos="r" depth="1" NCoef="0" IVar="0" Cut="6.1844080686569214e-01" cType="0" res="6.9570173509418964e-03" rms="3.6204883456230164e-01" purity="1.7839196324348450e-01" nType="0">
          <Node pos="l" depth="2" NCoef="0" IVar="-1" Cut="0.0000000000000000e+00" cType="1" res="7.3765371926128864e-03" rms="3.8041678071022034e-01" purity="2.0300751924514771e-01" nType="-99"/>
          <Node pos="r" depth="2" NCoef="0" IVar="-1" Cut="0.0000000000000000e+00" cType="1" res="-8.4488959982991219e-03" rms="3.2016038894653320e-01" purity="1.2878787517547607e-01" nType="-99"/>
        </Node>
      </Node>
    </BinaryTree>
    <BinaryTree type="DecisionTree" boostWeight="1.0000000000000000e+00" itree="1003">
      <Node pos="s" depth="0" NCoef="0" IVar="1" Cut="1.5704647302627563e+00" cType="1" res="-2.9619332053698599e-07" rms="3.2293683290481567e-01" purity="5.9855979681015015e-01" nType="0">
        <Node pos="l" depth="1" NCoef="0" IVar="-1" Cut="0.0000000000000000e+00" cType="1" res="-2.2817081116954796e-05" rms="3.2261985540390015e-01" purity="6.0177844762802124e-01" nType="-99"/>
        <Node pos="r" depth="1" NCoef="0" IVar="3" Cut="2.7439603209495544e-01" cType="1" res="6.2522008083760738e-03" rms="3.6188712716102600e-01" purity="1.7839196324348450e-01" nType="0">
          <Node pos="l" depth="2" NCoef="0" IVar="-1" Cut="0.0000000000000000e+00" cType="1" res="6.6580143757164478e-03" rms="3.6921456456184387e-01" purity="1.9117647409439087e-01" nType="-99"/>
          <Node pos="r" depth="2" NCoef="0" IVar="-1" Cut="0.0000000000000000e+00" cType="1" res="-7.6523954048752785e-03" rms="3.4417042136192322e-01" purity="1.5079365670681000e-01" nType="-99"/>
        </Node>
      </Node>
    </BinaryTree>
    <BinaryTree type="DecisionTree" boostWeight="1.0000000000000000e+00" itree="1004">
      <Node pos="s" depth="0" NCoef="0" IVar="0" Cut="2.0439779758453369e+00" cType="1" res="-3.2271600503008813e-07" rms="3.2293537259101868e-01" purity="5.9855979681015015e-01" nType="0">
        <Node pos="l" depth="1" NCoef="0" IVar="-1" Cut="0.0000000000000000e+00" cType="1" res="3.1759551347931847e-05" rms="3.2286217808723450e-01" purity="6.0564202070236206e-01" nType="-99"/>
        <Node pos="r" depth="1" NCoef="0" IVar="1" Cut="1.2093952894210815e+00" cType="0" res="-4.2793750762939453e-03" rms="3.2751992344856262e-01" purity="1.4901477098464966e-01" nType="0">
          <Node pos="l" depth="2" NCoef="0" IVar="-1" Cut="0.0000000000000000e+00" cType="1" res="7.8316954895853996e-03" rms="4.0752917528152466e-01" purity="2.5000000000000000e-01" nType="-99"/>
          <Node pos="r" depth="2" NCoef="0" IVar="-1" Cut="0.0000000000000000e+00" cType="1" res="-6.2151309102773666e-03" rms="2.9950305819511414e-01" purity="1.1942674964666367e-01" nType="-99"/>
        </Node>
      </Node>
    </BinaryTree>
    <BinaryTree type="DecisionTree" boostWeight="1.0000000000000000e+00" itree="1005">
      <Node pos="s" depth="0" NCoef="0" IVar="1" Cut="1.4130434989929199e+00" cType="1" res="-3.8849114503136661e-07" rms="3.2293406128883362e-01" purity="5.9855979681015015e-01" nType="0">
        <Node pos="l" depth="1" NCoef="0" IVar="-1" Cut="0.0000000000000000e+00" cType="1" res="2.6721219910541549e-05" rms="3.2282277941703796e-01" purity="6.0298997163772583e-01" nType="-99"/>
        <Node pos="r" depth="1" NCoef="0" IVar="2" Cut="6.0320723056793213e-01" cType="0" res="-5.7337363250553608e-03" rms="3.3391958475112915e-01" purity="1.5175096690654755e-01" nType="0">
          <Node pos="l" depth="2" NCoef="0" IVar="-1" Cut="0.0000000000000000e+00" cType="1" res="2.1156484726816416e-03" rms="3.4001877903938293e-01" purity="1.6209475696086884e-01" nType="-99"/>
          <Node pos="r" depth="2" NCoef="0" IVar="-1" Cut="0.0000000000000000e+00" cType="1" res="-1.7875151708722115e-02" rms="3.0823144316673279e-01" purity="1.1504425108432770e-01" nType="-99"/>
        </Node>
      </Node>
    </BinaryTree>
    <BinaryTree type="DecisionTree" boostWeight="1.0000000000000000e+00" itree="1006">
      <Node pos="s" depth="0" NCoef="0" IVar="1" Cut="2.3250875473022461e+00" cType="1" res="-4.5554992311735987e-07" rms="3.2293212413787842e-01" purity="5.9855979681015015e-01" nType="0">
        <Node pos="l" depth="1" NCoef="0" IVar="1" Cut="1.8529605865478516e+00" cType="1" res="2.4715613108128309e-05" rms="3.2278648018836975e-01" purity="5.9937214851379395e-01" nType="0">
          <Node pos="l" depth="2" NCoef="0" IVar="-1" Cut="0.0000000000000000e+00" cType="1" res="-1.2535014320746996e-05" rms="3.2260930538177490e-01" purity="6.0039532184600830e-01" nType="-99"/>
          <Node pos="r" depth="2" NCoef="0" IVar="-1" Cut="0.0000000000000000e+00" cType="1" res="7.2272927500307560e-03" rms="3.8505080342292786e-01" purity="2.0149253308773041e-01" nType="-99"/>
        </Node>
        <Node pos="r" depth="1" NCoef="0" IVar="-1" Cut="0.0000000000000000e+00" cType="1" res="-3.5678672138601542e-03" rms="3.8524097204208374e-01" purity="2.1621622145175934e-01" nType="-99"/>
      </Node>
    </BinaryTree>
    <BinaryTree type="DecisionTree" boostWeight="1.0000000000000000e+00" itree="1007">
      <Node pos="s" depth="0" NCoef="0" IVar="1" Cut="1.5829585790634155e+00" cType="1" res="-4.3479224132170202e-07" rms="3.2293164730072021e-01" purity="5.9855979681015015e-01" nType="0">
        <Node pos="l" depth="1" NCoef="0" IVar="-1" Cut="0.0000000000000000e+00" cType="1" res="2.2038906536181457e-05" rms="3.2271233201026917e-01" purity="6.0176652669906616e-01" nType="-99"/>
        <Node pos="r" depth="1" NCoef="0" IVar="2" Cut="9.8254376649856567e-01" cType="0" res="-6.3089304603636265e-03" rms="3.5108104348182678e-01" purity="1.6795866191387177e-01" nType="0">
          <Node pos="l" depth="2" NCoef="0" IVar="-1" Cut="0.0000000000000000e+00" cType="1" res="4.5949923805892467e-03" rms="3.7128910422325134e-01" purity="1.9066147506237030e-01" nType="-99"/>
          <Node pos="r" depth="2" NCoef="0" IVar="-1" Cut="0.0000000000000000e+00" cType="1" res="-1.6730530187487602e-02" rms="3.0386161804199219e-01" purity="1.2307692319154739e-01" nType="-99"/>
        </Node>
      </Node>
    </BinaryTree>
    <BinaryTree type="DecisionTree" boostWeight="1.0000000000000000e+00" itree="1008">
      <Node pos="s" depth="0" NCoef="0" IVar="3" Cut="2.7259728312492371e-01" cType="0" res="-5.1315043947397498e-07" rms="3.2293015718460083e-01" purity="5.9855979681015015e-01" nType="0">
        <Node pos="l" depth="1" NCoef="0" IVar="-1" Cut="0.0000000000000000e+00" cType="1" res="-2.2698049724567682e-04" rms="3.6431455612182617e-01" purity="5.9957766532897949e-01" nType="-99"/>
        <Node pos="r" depth="1" NCoef="0" IVar="3" Cut="2.5624132156372070e-01" cType="1" res="4.7970589366741478e-04" rms="2.8573650121688843e-01" purity="5.9774965047836304e-01" nType="0">
          <Node pos="l" depth="2" NCoef="0" IVar="-1" Cut="0.0000000000000000e+00" cType="1" res="-2.3436389164999127e-04" rms="2.8033664822578430e-01" purity="6.2042009830474854e-01" nType="-99"/>
          <Node pos="r" depth="2" NCoef="0" IVar="-1" Cut="0.0000000000000000e+00" cType="1" res="4.1228281334042549e-03" rms="3.3701771497726440e-01" purity="3.6023622751235962e-01" nType="-99"/>
        </Node>
      </Node>
    </BinaryTree>
    <BinaryTree type="DecisionTree" boostWeight="1.0000000000000000e+00" itree="1009">
      <Node pos="s" depth="0" NCoef="0" IVar="0" Cut="5.9970013797283173e-02" cType="1" res="-4.9832721060738550e-07" rms="3.2292756438255310e-01" purity="5.9855979681015015e-01" nType="0">
        <Node pos="l" depth="1" NCoef="0" IVar="-1" Cut="0.0000000000000000e+00" cType="1" res="3.3650983823463321e-04" rms="2.8241306543350220e-01" purity="8.9877647161483765e-01" nType="-99"/>
        <Node pos="r" depth="1" NCoef="0" IVar="1" Cut="8.7456271052360535e-02" cType="1" res="-5.6654430227354169e-04" rms="3.6013555526733398e-01" purity="2.8743678331375122e-01" nType="0">
          <Node pos="l" depth="2" NCoef="0" IVar="-1" Cut="0.0000000000000000e+00" cType="1" res="-1.3815701240673661e-03" rms="3.8403829932212830e-01" purity="4.0370827913284302e-01" nType="-99"/>
          <Node pos="r" depth="2" NCoef="0" IVar="-1" Cut="0.0000000000000000e+00" cType="1" res="1.1451928876340389e-03" rms="3.3730551600456238e-01" purity="1.8349908292293549e-01" nType="-99"/>
        </Node>
      </Node>
    </BinaryTree>
    <BinaryTree type="DecisionTree" boostWeight="1.0000000000000000e+00" itree="1010">
      <Node pos="s" depth="0" NCoef="0" IVar="1" Cut="5.2473764866590500e-02" cType="1" res="-4.8184892875724472e-07" rms="3.2292523980140686e-01" purity="5.9855979681015015e-01" nType="0">
        <Node pos="l" depth="1" NCoef="0" IVar="-1" Cut="0.0000000000000000e+00" cType="1" res="3.1795090762898326e-04" rms="3.0241075158119202e-01" purity="7.4758082628250122e-01" nType="-99"/>
        <Node pos="r" depth="1" NCoef="0" IVar="3" Cut="3.2905402779579163e-01" cType="0" res="-6.7788991145789623e-04" rms="3.4467822313308716e-01" purity="4.2985135316848755e-01" nType="0">
          <Node pos="l" depth="2" NCoef="0" IVar="-1" Cut="0.0000000000000000e+00" cType="1" res="1.2857744004577398e-03" rms="4.0832489728927612e-01" purity="5.7003039121627808e-01" nType="-99"/>
          <Node pos="r" depth="2" NCoef="0" IVar="-1" Cut="0.0000000000000000e+00" cType="1" res="-1.0605478892102838e-03" rms="3.2178798317909241e-01" purity="3.8525953888893127e-01" nType="-99"/>
        </Node>
      </Node>
    </BinaryTree>
    <BinaryTree type="DecisionTree" boostWeight="1.0000000000000000e+00" itree="1011">
      <Node pos="s" depth="0" NCoef="0" IVar="3" Cut="2.6085385680198669e-01" cType="1" res="-4.3514694425539346e-07" rms="3.2292449474334717e-01" purity="5.9855979681015015e-01" nType="0">
        <Node pos="l" depth="1" NCoef="0" IVar="-1" Cut="0.0000000000000000e+00" cType="1" res="3.4013472031801939e-04" rms="2.8220072388648987e-01" purity="6.1474961042404175e-01" nType="-99"/>
        <Node pos="r" depth="1" NCoef="0" IVar="0" Cut="5.7721138000488281e-01" cType="1" res="-6.0642318567261100e-04" rms="3.6199358105659485e-01" purity="5.8097934722900391e-01" nType="0">
          <Node pos="l" depth="2" NCoef="0" IVar="-1" Cut="0.0000000000000000e+00" cType="1" res="-5.1310309208929539e-04" rms="3.6951121687889099e-01" purity="6.4057803153991699e-01" nType="-99"/>
          <Node pos="r" depth="2" NCoef="0" IVar="-1" Cut="0.0000000000000000e+00" cType="1" res="3.3412582706660032e-03" rms="2.9576781392097473e-01" purity="1.0937500000000000e-01" nType="-99"/>
        </Node>
      </Node>
    </BinaryTree>
    <BinaryTree type="DecisionTree" boostWeight="1.0000000000000000e+00" itree="1012">
      <Node pos="s" depth="0" NCoef="0" IVar="1" Cut="5.2473764866590500e-02" cType="1" res="-4.5799475856256322e-07" rms="3.2292255759239197e-01" purity="5.9855979681015015e-01" nType="0">
        <Node pos="l" depth="1" NCoef="0" IVar="-1" Cut="0.0000000000000000e+00" cType="1" res="2.9556421213783324e-04" rms="3.0240955948829651e-01" purity="7.4758082628250122e-01" nType="-99"/>
        <Node pos="r" depth="1" NCoef="0" IVar="3" Cut="4.8671010136604309e-01" cType="0" res="-6.3018873333930969e-04" rms="3.4467422962188721e-01" purity="4.2985135316848755e-01" nType="0">
          <Node pos="l" depth="2" NCoef="0" IVar="-1" Cut="0.0000000000000000e+00" cType="1" res="-1.1755908839404583e-02" rms="3.6942687630653381e-01" purity="7.6410257816314697e-01" nType="-99"/>
          <Node pos="r" depth="2" NCoef="0" IVar="-1" Cut="0.0000000000000000e+00" cType="1" res="-1.6338257410097867e-04" rms="3.4445828199386597e-01" purity="4.2717570066452026e-01" nType="-99"/>
        </Node>
      </Node>
    </BinaryTree>
    <BinaryTree type="DecisionTree" boostWeight="1.0000000000000000e+00" itree="1013">
      <Node pos="s" depth="0" NCoef="0" IVar="3" Cut="4.8847633600234985e-01" cType="0" res="-3.3979381441895384e-07" rms="3.2292133569717407e-01" purity="5.9855979681015015e-01" nType="0">
        <Node pos="l" depth="1" NCoef="0" IVar="-1" Cut="0.0000000000000000e+00" cType="1" res="3.1886522192507982e-03" rms="2.8974917531013489e-01" purity="8.7991720438003540e-01" nType="-99"/>
        <Node pos="r" depth="1" NCoef="0" IVar="3" Cut="4.8478057980537415e-01" cType="0" res="-5.7601904700277373e-05" rms="3.2321369647979736e-01" purity="5.9593993425369263e-01" nType="0">
          <Node pos="l" depth="2" NCoef="0" IVar="-1" Cut="0.0000000000000000e+00" cType="1" res="-1.2302613817155361e-02" rms="3.7080863118171692e-01" purity="8.2165604829788208e-01" nType="-99"/>
          <Node pos="r" depth="2" NCoef="0" IVar="-1" Cut="0.0000000000000000e+00" cType="1" res="1.1417612768127583e-05" rms="3.2305508852005005e-01" purity="5.9525465965270996e-01" nType="-99"/>
        </Node>
      </Node>
    </BinaryTree>
    <BinaryTree type="DecisionTree" boostWeight="1.0000000000000000e+00" itree="1014">
      <Node pos="s" depth="0" NCoef="0" IVar="0" Cut="1.1081959009170532e+00" cType="1" res="-2.3131829607336840e-07" rms="3.2292142510414124e-01" purity="5.9855979681015015e-01" nType="0">
        <Node pos="l" depth="1" NCoef="0" IVar="-1" Cut="0.0000000000000000e+00" cType="1" res="6.8581772211473435e-05" rms="3.2543545961380005e-01" purity="6.3016062974929810e-01" nType="-99"/>
        <Node pos="r" depth="1" NCoef="0" IVar="1" Cut="1.8215892314910889e+00" cType="0" res="-2.3315043654292822e-03" rms="2.8012856841087341e-01" purity="9.8360657691955566e-02" nType="0">
          <Node pos="l" depth="2" NCoef="0" IVar="-1" Cut="0.0000000000000000e+00" cType="1" res="-1.3491008430719376e-02" rms="3.5635343194007874e-01" purity="1.7730496823787689e-01" nType="-99"/>
          <Node pos="r" depth="2" NCoef="0" IVar="-1" Cut="0.0000000000000000e+00" cType="1" res="-2.6763149071484804e-04" rms="2.7584233880043030e-01" purity="9.4612792134284973e-02" nType="-99"/>
        </Node>
      </Node>
    </BinaryTree>
    <BinaryTree type="DecisionTree" boostWeight="1.0000000000000000e+00" itree="1015">
      <Node pos="s" depth="0" NCoef="0" IVar="1" Cut="2.0239880084991455e+00" cType="1" res="-2.8285398911975790e-07" rms="3.2292065024375916e-01" purity="5.9855979681015015e-01" nType="0">
        <Node pos="l" depth="1" NCoef="0" IVar="1" Cut="1.5837377309799194e+00" cType="1" res="-3.6371435271576047e-05" rms="3.2263320684432983e-01" purity="5.9982752799987793e-01" nType="0">
          <Node pos="l" depth="2" NCoef="0" IVar="-1" Cut="0.0000000000000000e+00" cType="1" res="1.2317686923779547e-05" rms="3.2269591093063354e-01" purity="6.0173177719116211e-01" nType="-99"/>
          <Node pos="r" depth="2" NCoef="0" IVar="-1" Cut="0.0000000000000000e+00" cType="1" res="-7.3672970756888390e-03" rms="3.0591514706611633e-01" purity="1.1707317084074020e-01" nType="-99"/>
        </Node>
        <Node pos="r" depth="1" NCoef="0" IVar="-1" Cut="0.0000000000000000e+00" cType="1" res="3.2620315905660391e-03" rms="3.9781066775321960e-01" purity="2.2905027866363525e-01" nType="-99"/>
      </Node>
    </BinaryTree>
    <BinaryTree type="DecisionTree" boostWeight="1.0000000000000000e+00" itree="1016">
      <Node pos="s" depth="0" NCoef="0" IVar="1" Cut="1.5704647302627563e+00" cType="1" res="-2.9091884812260105e-07" rms="3.2292032241821289e-01" purity="5.9855979681015015e-01" nType="0">
        <Node pos="l" depth="1" NCoef="0" IVar="-1" Cut="0.0000000000000000e+00" cType="1" res="-2.5791390726226382e-05" rms="3.2261002063751221e-01" purity="6.0177844762802124e-01" nType="-99"/>
        <Node pos="r" depth="1" NCoef="0" IVar="3" Cut="1.8912068009376526e-01" cType="1" res="7.0733707398176193e-03" rms="3.6107760667800903e-01" purity="1.7839196324348450e-01" nType="0">
          <Node pos="l" depth="2" NCoef="0" IVar="-1" Cut="0.0000000000000000e+00" cType="1" res="1.3342280872166157e-02" rms="3.9083394408226013e-01" purity="2.2330096364021301e-01" nType="-99"/>
          <Node pos="r" depth="2" NCoef="0" IVar="-1" Cut="0.0000000000000000e+00" cType="1" res="-1.4165809843689203e-03" rms="3.4946012496948242e-01" purity="1.6271185874938965e-01" nType="-99"/>
        </Node>
      </Node>
    </BinaryTree>
    <BinaryTree type="DecisionTree" boostWeight="1.0000000000000000e+00" itree="1017">
      <Node pos="s" depth="0" NCoef="0" IVar="3" Cut="4.7873181104660034e-01" cType="0" res="-3.1816338719181658e-07" rms="3.2291904091835022e-01" purity="5.9855979681015015e-01" nType="0">
        <Node pos="l" depth="1" NCoef="0" IVar="-1" Cut="0.0000000000000000e+00" cType="1" res="2.2736785467714071e-03" rms="2.9773575067520142e-01" purity="8.8079470396041870e-01" nType="-99"/>
        <Node pos="r" depth="1" NCoef="0" IVar="3" Cut="4.7561800479888916e-01" cType="0" res="-7.6165888458490372e-05" rms="3.2334443926811218e-01" purity="5.9358966350555420e-01" nType="0">
          <Node pos="l" depth="2" NCoef="0" IVar="-1" Cut="0.0000000000000000e+00" cType="1" res="-2.0664121955633163e-02" rms="4.0555715560913086e-01" purity="7.9545456171035767e-01" nType="-99"/>
          <Node pos="r" depth="2" NCoef="0" IVar="-1" Cut="0.0000000000000000e+00" cType="1" res="2.2866981453262269e-05" rms="3.2309660315513611e-01" purity="5.9307038784027100e-01" nType="-99"/>
        </Node>
      </Node>
    </BinaryTree>
    <BinaryTree type="DecisionTree" boostWeight="1.0000000000000000e+00" itree="1018">
      <Node pos="s" depth="0" NCoef="0" IVar="1" Cut="1.5704647302627563e+00" cType="1" res="-1.1722532633484661e-07" rms="3.2291746139526367e-01" purity="5.9855979681015015e-01" nType="0">
        <Node pos="l" depth="1" NCoef="0" IVar="-1" Cut="0.0000000000000000e+00" cType="1" res="-2.3083961423253641e-05" rms="3.2260844111442566e-01" purity="6.0177844762802124e-01" nType="-99"/>
        <Node pos="r" depth="1" NCoef="0" IVar="0" Cut="1.1031984090805054e+00" cType="0" res="6.3498490490019321e-03" rms="3.6094060540199280e-01" purity="1.7839196324348450e-01" nType="0">
          <Node pos="l" depth="2" NCoef="0" IVar="-1" Cut="0.0000000000000000e+00" cType="1" res="-3.9811073802411556e-03" rms="3.6715084314346313e-01" purity="1.9191919267177582e-01" nType="-99"/>
          <Node pos="r" depth="2" NCoef="0" IVar="-1" Cut="0.0000000000000000e+00" cType="1" res="1.0685838758945465e-02" rms="3.5375714302062988e-01" purity="1.6500000655651093e-01" nType="-99"/>
        </Node>
      </Node>
    </BinaryTree>
    <BinaryTree type="DecisionTree" boostWeight="1.0000000000000000e+00" itree="1019">
      <Node pos="s" depth="0" NCoef="0" IVar="2" Cut="1.1876331567764282e+00" cType="1" res="-1.7954756970084418e-07" rms="3.2291644811630249e-01" purity="5.9855979681015015e-01" nType="0">
        <Node pos="l" depth="1" NCoef="0" IVar="-1" Cut="0.0000000000000000e+00" cType="1" res="1.3314443640410900e-04" rms="3.1645891070365906e-01" purity="6.8335270881652832e-01" nType="-99"/>
        <Node pos="r" depth="1" NCoef="0" IVar="2" Cut="1.2288070917129517e+00" cType="1" res="-1.1093330103904009e-03" rms="3.4814754128456116e-01" purity="2.5080385804176331e-01" nType="0">
          <Node pos="l" depth="2" NCoef="0" IVar="-1" Cut="0.0000000000000000e+00" cType="1" res="-1.2080932036042213e-02" rms="3.4784379601478577e-01" purity="2.9881155490875244e-01" nType="-99"/>
          <Node pos="r" depth="2" NCoef="0" IVar="-1" Cut="0.0000000000000000e+00" cType="1" res="2.7960306033492088e-04" rms="3.4808501601219177e-01" purity="2.4788092076778412e-01" nType="-99"/>
        </Node>
      </Node>
    </BinaryTree>
    <BinaryTree type="DecisionTree" boostWeight="1.0000000000000000e+00" itree="1020">
      <Node pos="s" depth="0" NCoef="0" IVar="0" Cut="5.3973013162612915e-01" cType="1" res="-2.3211676136725146e-07" rms="3.2291245460510254e-01" purity="5.9855979681015015e-01" nType="0">
        <Node pos="l" depth="1" NCoef="0" IVar="-1" Cut="0.0000000000000000e+00" cType="1" res="1.0665135050658137e-04" rms="3.3459749817848206e-01" purity="7.0156419277191162e-01" nType="-99"/>
        <Node pos="r" depth="1" NCoef="0" IVar="0" Cut="5.7401871681213379e-01" cType="0" res="-1.2257471680641174e-03" rms="2.5558340549468994e-01" purity="7.6396942138671875e-02" nType="0">
          <Node pos="l" depth="2" NCoef="0" IVar="-1" Cut="0.0000000000000000e+00" cType="1" res="5.2715168567374349e-04" rms="2.5904208421707153e-01" purity="7.8829944133758545e-02" nType="-99"/>
          <Node pos="r" depth="2" NCoef="0" IVar="-1" Cut="0.0000000000000000e+00" cType="1" res="-2.2722925990819931e-02" rms="1.9682417809963226e-01" purity="4.1218638420104980e-02" nType="-99"/>
        </Node>
      </Node>
    </BinaryTree>
    <BinaryTree type="DecisionTree" boostWeight="1.0000000000000000e+00" itree="1021">
      <Node pos="s" depth="0" NCoef="0" IVar="0" Cut="6.7966014146804810e-01" cType="1" res="-8.0168069871433545e-07" rms="3.2290944457054138e-01" purity="5.9855979681015015e-01" nType="0">
        <Node pos="l" depth="1" NCoef="0" IVar="-1" Cut="0.0000000000000000e+00" cType="1" res="9.7719726909417659e-05" rms="3.3145478367805481e-01" purity="6.7427307367324829e-01" nType="-99"/>
        <Node pos="r" depth="1" NCoef="0" IVar="0" Cut="6.9249182939529419e-01" cType="0" res="-1.4996801037341356e-03" rms="2.5654846429824829e-01" purity="7.7929891645908356e-02" nType="0">
          <Node pos="l" depth="2" NCoef="0" IVar="-1" Cut="0.0000000000000000e+00" cType="1" res="-5.1641609752550721e-04" rms="2.5894853472709656e-01" purity="7.9450786113739014e-02" nType="-99"/>
          <Node pos="r" depth="2" NCoef="0" IVar="-1" Cut="0.0000000000000000e+00" cType="1" res="-3.4292109310626984e-02" rms="1.2747754156589508e-01" purity="1.8181817606091499e-02" nType="-99"/>
        </Node>
      </Node>
    </BinaryTree>
    <BinaryTree type="DecisionTree" boostWeight="1.0000000000000000e+00" itree="1022">
      <Node pos="s" depth="0" NCoef="0" IVar="2" Cut="9.9656283855438232e-01" cType="1" res="-1.0213625500909984e-06" rms="3.2290896773338318e-01" purity="5.9855979681015015e-01" nType="0">
        <Node pos="l" depth="1" NCoef="0" IVar="-1" Cut="0.0000000000000000e+00" cType="1" res="-1.6209673776756972e-04" rms="3.1299430131912231e-01" purity="7.0853638648986816e-01" nType="-99"/>
        <Node pos="r" depth="1" NCoef="0" IVar="0" Cut="5.7471264153718948e-02" cType="1" res="9.3427574029192328e-04" rms="3.5022291541099548e-01" purity="2.7782765030860901e-01" nType="0">
          <Node pos="l" depth="2" NCoef="0" IVar="-1" Cut="0.0000000000000000e+00" cType="1" res="-6.6108219325542450e-03" rms="3.7970370054244995e-01" purity="7.9280823469161987e-01" nType="-99"/>
          <Node pos="r" depth="2" NCoef="0" IVar="-1" Cut="0.0000000000000000e+00" cType="1" res="1.1146474862471223e-03" rms="3.4721451997756958e-01" purity="2.2852459549903870e-01" nType="-99"/>
        </Node>
      </Node>
    </BinaryTree>
    <BinaryTree type="DecisionTree" boostWeight="1.0000000000000000e+00" itree="1023">
      <Node pos="s" depth="0" NCoef="0" IVar="2" Cut="1.7046469449996948e+00" cType="1" res="-7.9581479894841323e-07" rms="3.2290408015251160e-01" purity="5.9855979681015015e-01" nType="0">
        <Node pos="l" depth="1" NCoef="0" IVar="-1" Cut="0.0000000000000000e+00" cType="1" res="8.4769984823651612e-05" rms="3.2144096493721008e-01" purity="6.3696724176406860e-01" nType="-99"/>
        <Node pos="r" depth="1" NCoef="0" IVar="2" Cut="1.7596725225448608e+00" cType="0" res="-1.8455070676282048e-03" rms="3.3768227696418762e-01" purity="2.0069429278373718e-01" nType="0">
          <Node pos="l" depth="2" NCoef="0" IVar="-1" Cut="0.0000000000000000e+00" cType="1" res="5.6348409270867705e-04" rms="3.3724245429039001e-01" purity="2.0233833789825439e-01" nType="-99"/>
          <Node pos="r" depth="2" NCoef="0" IVar="-1" Cut="0.0000000000000000e+00" cType="1" res="-1.4036794193089008e-02" rms="3.4041959047317505e-01" purity="1.8421052396297455e-01" nType="-99"/>
        </Node>
      </Node>
    </BinaryTree>
    <BinaryTree type="DecisionTree" boostWeight="1.0000000000000000e+00" itree="1024">
      <Node pos="s" depth="0" NCoef="0" IVar="2" Cut="1.9256891012191772e+00" cType="1" res="-8.5024475993122905e-07" rms="3.2289901375770569e-01" purity="5.9855979681015015e-01" nType="0">
        <Node pos="l" depth="1" NCoef="0" IVar="-1" Cut="0.0000000000000000e+00" cType="1" res="7.1983740781433880e-05" rms="3.2225418090820312e-01" purity="6.2506610155105591e-01" nType="-99"/>
        <Node pos="r" depth="1" NCoef="0" IVar="0" Cut="1.7116442322731018e-01" cType="1" res="-2.3592780344188213e-03" rms="3.3272826671600342e-01" purity="1.8757881224155426e-01" nType="0">
          <Node pos="l" depth="2" NCoef="0" IVar="-1" Cut="0.0000000000000000e+00" cType="1" res="-8.0368742346763611e-03" rms="4.3563452363014221e-01" purity="6.1092150211334229e-01" nType="-99"/>
          <Node pos="r" depth="2" NCoef="0" IVar="-1" Cut="0.0000000000000000e+00" cType="1" res="2.8667037258855999e-04" rms="3.2025700807571411e-01" purity="1.4449462294578552e-01" nType="-99"/>
        </Node>
      </Node>
    </BinaryTree>
    <BinaryTree type="DecisionTree" boostWeight="1.0000000000000000e+00" itree="1025">
      <Node pos="s" depth="0" NCoef="0" IVar="3" Cut="4.0727183222770691e-01" cType="0" res="-7.3236770958828856e-07" rms="3.2289692759513855e-01" purity="5.9855979681015015e-01" nType="0">
        <Node pos="l" depth="1" NCoef="0" IVar="-1" Cut="0.0000000000000000e+00" cType="1" res="7.1613729232922196e-04" rms="3.4408581256866455e-01" purity="8.2049363851547241e-01" nType="-99"/>
        <Node pos="r" depth="1" NCoef="0" IVar="3" Cut="4.0600001811981201e-01" cType="0" res="-1.9727142353076488e-04" rms="3.2039684057235718e-01" purity="5.7330977916717529e-01" nType="0">
          <Node pos="l" depth="2" NCoef="0" IVar="-1" Cut="0.0000000000000000e+00" cType="1" res="-2.0887127146124840e-02" rms="4.5284566283226013e-01" purity="6.7857140302658081e-01" nType="-99"/>
          <Node pos="r" depth="2" NCoef="0" IVar="-1" Cut="0.0000000000000000e+00" cType="1" res="-2.0770512492163107e-05" rms="3.1999933719635010e-01" purity="5.7305836677551270e-01" nType="-99"/>
        </Node>
      </Node>
    </BinaryTree>
    <BinaryTree type="DecisionTree" boostWeight="1.0000000000000000e+00" itree="1026">
      <Node pos="s" depth="0" NCoef="0" IVar="3" Cut="4.0327405929565430e-01" cType="0" res="-5.4320793196893646e-07" rms="3.2289433479309082e-01" purity="5.9855979681015015e-01" nType="0">
        <Node pos="l" depth="1" NCoef="0" IVar="-1" Cut="0.0000000000000000e+00" cType="1" res="6.5984897082671523e-04" rms="3.4714096784591675e-01" purity="8.1618291139602661e-01" nType="-99"/>
        <Node pos="r" depth="1" NCoef="0" IVar="3" Cut="4.0045061707496643e-01" cType="0" res="-1.9622719264589250e-04" rms="3.1981459259986877e-01" purity="5.7204997539520264e-01" nType="0">
          <Node pos="l" depth="2" NCoef="0" IVar="-1" Cut="0.0000000000000000e+00" cType="1" res="-1.4479493722319603e-02" rms="4.0134462714195251e-01" purity="7.1367520093917847e-01" nType="-99"/>
          <Node pos="r" depth="2" NCoef="0" IVar="-1" Cut="0.0000000000000000e+00" cType="1" res="3.9454735087929294e-06" rms="3.1933799386024475e-01" purity="5.7133626937866211e-01" nType="-99"/>
        </Node>
      </Node>
    </BinaryTree>
    <BinaryTree type="DecisionTree" boostWeight="1.0000000000000000e+00" itree="1027">
      <Node pos="s" depth="0" NCoef="0" IVar="3" Cut="3.7304100394248962e-01" cType="0" res="-3.8483938169520115e-07" rms="3.2289215922355652e-01" purity="5.9855979681015015e-01" nType="0">
        <Node pos="l" depth="1" NCoef="0" IVar="-1" Cut="0.0000000000000000e+00" cType="1" res="4.9236963968724012e-04" rms="3.5659605264663696e-01" purity="7.7959758043289185e-01" nType="-99"/>
        <Node pos="r" depth="1" NCoef="0" IVar="3" Cut="3.6744064092636108e-01" cType="0" res="-2.4772237520664930e-04" rms="3.1589576601982117e-01" purity="5.6323337554931641e-01" nType="0">
          <Node pos="l" depth="2" NCoef="0" IVar="-1" Cut="0.0000000000000000e+00" cType="1" res="-8.2697672769427299e-03" rms="4.0389713644981384e-01" purity="6.1844199895858765e-01" nType="-99"/>
          <Node pos="r" depth="2" NCoef="0" IVar="-1" Cut="0.0000000000000000e+00" cType="1" res="5.3690826462116092e-05" rms="3.1441780924797058e-01" purity="5.6242907047271729e-01" nType="-99"/>
        </Node>
      </Node>
    </BinaryTree>
    <BinaryTree type="DecisionTree" boostWeight="1.0000000000000000e+00" itree="1028">
      <Node pos="s" depth="0" NCoef="0" IVar="2" Cut="9.9656283855438232e-01" cType="1" res="-2.9959656444589200e-07" rms="3.2289013266563416e-01" purity="5.9855979681015015e-01" nType="0">
        <Node pos="l" depth="1" NCoef="0" IVar="-1" Cut="0.0000000000000000e+00" cType="1" res="-1.7039736849255860e-04" rms="3.1298944354057312e-01" purity="7.0853638648986816e-01" nType="-99"/>
        <Node pos="r" depth="1" NCoef="0" IVar="0" Cut="3.6356821656227112e-01" cType="1" res="9.8502298351377249e-04" rms="3.5016730427742004e-01" purity="2.7782765030860901e-01" nType="0">
          <Node pos="l" depth="2" NCoef="0" IVar="-1" Cut="0.0000000000000000e+00" cType="1" res="1.9804637413471937e-03" rms="4.2700552940368652e-01" purity="5.1210147142410278e-01" nType="-99"/>
          <Node pos="r" depth="2" NCoef="0" IVar="-1" Cut="0.0000000000000000e+00" cType="1" res="-2.5470128748565912e-03" rms="2.7214661240577698e-01" purity="8.7569475173950195e-02" nType="-99"/>
        </Node>
      </Node>
    </BinaryTree>
    <BinaryTree type="DecisionTree" boostWeight="1.0000000000000000e+00" itree="1029">
      <Node pos="s" depth="0" NCoef="0" IVar="0" Cut="2.4575212001800537e+00" cType="1" res="-3.7961694943078328e-07" rms="3.2288822531700134e-01" purity="5.9855979681015015e-01" nType="0">
        <Node pos="l" depth="1" NCoef="0" IVar="-1" Cut="0.0000000000000000e+00" cType="1" res="-2.6303141567041166e-05" rms="3.2256057858467102e-01" purity="6.0261505842208862e-01" nType="-99"/>
        <Node pos="r" depth="1" NCoef="0" IVar="1" Cut="3.7106445431709290e-01" cType="0" res="5.7189180515706539e-03" rms="3.5518530011177063e-01" purity="1.7800000309944153e-01" nType="0">
          <Node pos="l" depth="2" NCoef="0" IVar="-1" Cut="0.0000000000000000e+00" cType="1" res="-1.4077152591198683e-03" rms="3.6603444814682007e-01" purity="1.8497109413146973e-01" nType="-99"/>
          <Node pos="r" depth="2" NCoef="0" IVar="-1" Cut="0.0000000000000000e+00" cType="1" res="1.3476306572556496e-02" rms="3.2847204804420471e-01" purity="1.6233766078948975e-01" nType="-99"/>
        </Node>
      </Node>
    </BinaryTree>
    <BinaryTree type="DecisionTree" boostWeight="1.0000000000000000e+00" itree="1030">
      <Node pos="s" depth="0" NCoef="0" IVar="3" Cut="4.9697157740592957e-01" cType="0" res="-4.1286375562776811e-07" rms="3.2288715243339539e-01" purity="5.9855979681015015e-01" nType="0">
        <Node pos="l" depth="1" NCoef="0" IVar="-1" Cut="0.0000000000000000e+00" cType="1" res="-4.5855981297791004e-03" rms="3.4776321053504944e-01" purity="8.3458644151687622e-01" nType="-99"/>
        <Node pos="r" depth="1" NCoef="0" IVar="3" Cut="4.8845055699348450e-01" cType="0" res="2.6787851311382838e-05" rms="3.2282090187072754e-01" purity="5.9795868396759033e-01" nType="0">
          <Node pos="l" depth="2" NCoef="0" IVar="-1" Cut="0.0000000000000000e+00" cType="1" res="6.0299364849925041e-03" rms="2.6427623629570007e-01" purity="8.9714282751083374e-01" nType="-99"/>
          <Node pos="r" depth="2" NCoef="0" IVar="-1" Cut="0.0000000000000000e+00" cType="1" res="-2.0880966985714622e-05" rms="3.2317873835563660e-01" purity="5.9593993425369263e-01" nType="-99"/>
        </Node>
      </Node>
    </BinaryTree>
    <BinaryTree type="DecisionTree" boostWeight="1.0000000000000000e+00" itree="1031">
      <Node pos="s" depth="0" NCoef="0" IVar="1" Cut="1.5704647302627563e+00" cType="1" res="-3.3400530696781061e-07" rms="3.2288745045661926e-01" purity="5.9855979681015015e-01" nType="0">
        <Node pos="l" depth="1" NCoef="0" IVar="-1" Cut="0.0000000000000000e+00" cType="1" res="-2.2480468032881618e-05" rms="3.2257938385009766e-01" purity="6.0177844762802124e-01" nType="-99"/>
        <Node pos="r" depth="1" NCoef="0" IVar="0" Cut="6.1844080686569214e-01" cType="0" res="6.1524952761828899e-03" rms="3.6080053448677063e-01" purity="1.7839196324348450e-01" nType="0">
          <Node pos="l" depth="2" NCoef="0" IVar="-1" Cut="0.0000000000000000e+00" cType="1" res="6.4198719337582588e-03" rms="3.7928122282028198e-01" purity="2.0300751924514771e-01" nType="-99"/>
          <Node pos="r" depth="2" NCoef="0" IVar="-1" Cut="0.0000000000000000e+00" cType="1" res="-7.4830311350524426e-03" rms="3.1902086734771729e-01" purity="1.2878787517547607e-01" nType="-99"/>
        </Node>
      </Node>
    </BinaryTree>
    <BinaryTree type="DecisionTree" boostWeight="1.0000000000000000e+00" itree="1032">
      <Node pos="s" depth="0" NCoef="0" IVar="2" Cut="3.8813500404357910e+00" cType="1" res="-3.5343103377272200e-07" rms="3.2288625836372375e-01" purity="5.9855979681015015e-01" nType="0">
        <Node pos="l" depth="1" NCoef="0" IVar="2" Cut="3.2772457599639893e+00" cType="1" res="2.4535531338187866e-05" rms="3.2279121875762939e-01" purity="5.9940659999847412e-01" nType="0">
          <Node pos="l" depth="2" NCoef="0" IVar="-1" Cut="0.0000000000000000e+00" cType="1" res="-1.7860427760751918e-05" rms="3.2266268134117126e-01" purity="6.0073769092559814e-01" nType="-99"/>
          <Node pos="r" depth="2" NCoef="0" IVar="-1" Cut="0.0000000000000000e+00" cType="1" res="6.7196143791079521e-03" rms="3.5686761140823364e-01" purity="2.2282609343528748e-01" nType="-99"/>
        </Node>
        <Node pos="r" depth="1" NCoef="0" IVar="-1" Cut="0.0000000000000000e+00" cType="1" res="-3.8591553457081318e-03" rms="3.6365711688995361e-01" purity="2.1052631735801697e-01" nType="-99"/>
      </Node>
    </BinaryTree>
    <BinaryTree type="DecisionTree" boostWeight="1.0000000000000000e+00" itree="1033">
      <Node pos="s" depth="0" NCoef="0" IVar="2" Cut="3.1470406055450439e+00" cType="1" res="-3.4163227269345953e-07" rms="3.2288566231727600e-01" purity="5.9855979681015015e-01" nType="0">
        <Node pos="l" depth="1" NCoef="0" IVar="-1" Cut="0.0000000000000000e+00" cType="1" res="2.2885411453898996e-05" rms="3.2277172803878784e-01" purity="6.0167813301086426e-01" nType="-99"/>
        <Node pos="r" depth="1" NCoef="0" IVar="2" Cut="3.3106193542480469e+00" cType="0" res="-6.4702997915446758e-03" rms="3.3762383460998535e-01" purity="1.8414321541786194e-01" nType="0">
          <Node pos="l" depth="2" NCoef="0" IVar="-1" Cut="0.0000000000000000e+00" cType="1" res="2.0716320723295212e-03" rms="3.5896241664886475e-01" purity="2.1951219439506531e-01" nType="-99"/>
          <Node pos="r" depth="2" NCoef="0" IVar="-1" Cut="0.0000000000000000e+00" cType="1" res="-2.0660039037466049e-02" rms="2.6725527644157410e-01" purity="8.6538463830947876e-02" nType="-99"/>
        </Node>
      </Node>
    </BinaryTree>
    <BinaryTree type="DecisionTree" boostWeight="1.0000000000000000e+00" itree="1034">
      <Node pos="s" depth="0" NCoef="0" IVar="2" Cut="3.3643362522125244e+00" cType="1" res="-4.0930930822469236e-07" rms="3.2288411259651184e-01" purity="5.9855979681015015e-01" nType="0">
        <Node pos="l" depth="1" NCoef="0" IVar="-1" Cut="0.0000000000000000e+00" cType="1" res="1.8623981304699555e-05" rms="3.2274040579795837e-01" purity="6.0052978992462158e-01" nType="-99"/>
        <Node pos="r" depth="1" NCoef="0" IVar="0" Cut="1.0401382446289062e+00" cType="0" res="-7.9641053453087807e-03" rms="3.5039842128753662e-01" purity="2.0384615659713745e-01" nType="0">
          <Node pos="l" depth="2" NCoef="0" IVar="-1" Cut="0.0000000000000000e+00" cType="1" res="5.3532342426478863e-03" rms="3.6222106218338013e-01" purity="2.0689655840396881e-01" nType="-99"/>
          <Node pos="r" depth="2" NCoef="0" IVar="-1" Cut="0.0000000000000000e+00" cType="1" res="-1.2487843632698059e-02" rms="3.3275604248046875e-01" purity="2.0000000298023224e-01" nType="-99"/>
        </Node>
      </Node>
    </BinaryTree>
    <BinaryTree type="DecisionTree" boostWeight="1.0000000000000000e+00" itree="1035">
      <Node pos="s" depth="0" NCoef="0" IVar="0" Cut="2.0439779758453369e+00" cType="1" res="-4.1958503516070778e-07" rms="3.2288330793380737e-01" purity="5.9855979681015015e-01" nType="0">
        <Node pos="l" depth="1" NCoef="0" IVar="-1" Cut="0.0000000000000000e+00" cType="1" res="3.2276770070893690e-05" rms="3.2281622290611267e-01" purity="6.0564202070236206e-01" nType="-99"/>
        <Node pos="r" depth="1" NCoef="0" IVar="3" Cut="1.3391660153865814e-01" cType="1" res="-4.3535614386200905e-03" rms="3.2708325982093811e-01" purity="1.4901477098464966e-01" nType="0">
          <Node pos="l" depth="2" NCoef="0" IVar="-1" Cut="0.0000000000000000e+00" cType="1" res="1.5012729912996292e-02" rms="3.7118378281593323e-01" purity="1.8627451360225677e-01" nType="-99"/>
          <Node pos="r" depth="2" NCoef="0" IVar="-1" Cut="0.0000000000000000e+00" cType="1" res="-4.3852236121892929e-03" rms="3.1981542706489563e-01" purity="1.4366197586059570e-01" nType="-99"/>
        </Node>
      </Node>
    </BinaryTree>
    <BinaryTree type="DecisionTree" boostWeight="1.0000000000000000e+00" itree="1036">
      <Node pos="s" depth="0" NCoef="0" IVar="2" Cut="2.7723929882049561e+00" cType="1" res="-4.8440347200084943e-07" rms="3.2288220524787903e-01" purity="5.9855979681015015e-01" nType="0">
        <Node pos="l" depth="1" NCoef="0" IVar="-1" Cut="0.0000000000000000e+00" cType="1" res="-3.0562234314857051e-05" rms="3.2269319891929626e-01" purity="6.0449886322021484e-01" nType="-99"/>
        <Node pos="r" depth="1" NCoef="0" IVar="3" Cut="3.4811067581176758e-01" cType="0" res="4.4607603922486305e-03" rms="3.3575722575187683e-01" purity="1.8488529324531555e-01" nType="0">
          <Node pos="l" depth="2" NCoef="0" IVar="-1" Cut="0.0000000000000000e+00" cType="1" res="1.2283051386475563e-02" rms="4.2304584383964539e-01" purity="4.1618496179580688e-01" nType="-99"/>
          <Node pos="r" depth="2" NCoef="0" IVar="-1" Cut="0.0000000000000000e+00" cType="1" res="-4.1230777278542519e-03" rms="3.0311653017997742e-01" purity="1.1443661898374557e-01" nType="-99"/>
        </Node>
      </Node>
    </BinaryTree>
    <BinaryTree type="DecisionTree" boostWeight="1.0000000000000000e+00" itree="1037">
      <Node pos="s" depth="0" NCoef="0" IVar="0" Cut="1.2493752874433994e-03" cType="1" res="-5.0043360033669160e-07" rms="3.2287925481796265e-01" purity="5.9855979681015015e-01" nType="0">
        <Node pos="l" depth="1" NCoef="0" IVar="-1" Cut="0.0000000000000000e+00" cType="1" res="-5.0905515672639012e-04" rms="2.7194020152091980e-01" purity="9.0791207551956177e-01" nType="-99"/>
        <Node pos="r" depth="1" NCoef="0" IVar="0" Cut="1.3441278599202633e-02" cType="1" res="3.7491775583475828e-04" rms="3.4550151228904724e-01" purity="4.4418039917945862e-01" nType="0">
          <Node pos="l" depth="2" NCoef="0" IVar="-1" Cut="0.0000000000000000e+00" cType="1" res="1.8284169957041740e-02" rms="1.5243378281593323e-01" purity="9.7266185283660889e-01" nType="-99"/>
          <Node pos="r" depth="2" NCoef="0" IVar="-1" Cut="0.0000000000000000e+00" cType="1" res="4.2083618609467521e-05" rms="3.4830948710441589e-01" purity="4.3345019221305847e-01" nType="-99"/>
        </Node>
      </Node>
    </BinaryTree>
    <BinaryTree type="DecisionTree" boostWeight="1.0000000000000000e+00" itree="1038">
      <Node pos="s" depth="0" NCoef="0" IVar="3" Cut="2.6085385680198669e-01" cType="1" res="-1.5494268268412270e-07" rms="3.2287865877151489e-01" purity="5.9855979681015015e-01" nType="0">
        <Node pos="l" depth="1" NCoef="0" IVar="-1" Cut="0.0000000000000000e+00" cType="1" res="3.2001722138375044e-04" rms="2.8218013048171997e-01" purity="6.1474961042404175e-01" nType="-99"/>
        <Node pos="r" depth="1" NCoef="0" IVar="3" Cut="2.6479849219322205e-01" cType="0" res="-5.6961603695526719e-04" rms="3.6192581057548523e-01" purity="5.8097934722900391e-01" nType="0">
          <Node pos="l" depth="2" NCoef="0" IVar="-1" Cut="0.0000000000000000e+00" cType="1" res="-8.1600839621387422e-05" rms="3.6285179853439331e-01" purity="5.8744484186172485e-01" nType="-99"/>
          <Node pos="r" depth="2" NCoef="0" IVar="-1" Cut="0.0000000000000000e+00" cType="1" res="-6.5336441621184349e-03" rms="3.2259640097618103e-01" purity="3.2357722520828247e-01" nType="-99"/>
        </Node>
      </Node>
    </BinaryTree>
    <BinaryTree type="DecisionTree" boostWeight="1.0000000000000000e+00" itree="1039">
      <Node pos="s" depth="0" NCoef="0" IVar="2" Cut="9.9656283855438232e-01" cType="1" res="-1.6136179681325302e-07" rms="3.2287785410881042e-01" purity="5.9855979681015015e-01" nType="0">
        <Node pos="l" depth="1" NCoef="0" IVar="-1" Cut="0.0000000000000000e+00" cType="1" res="-1.5693124441895634e-04" rms="3.1298527121543884e-01" purity="7.0853638648986816e-01" nType="-99"/>
        <Node pos="r" depth="1" NCoef="0" IVar="0" Cut="5.4972514510154724e-02" cType="1" res="9.0773514239117503e-04" rms="3.5013410449028015e-01" purity="2.7782765030860901e-01" nType="0">
          <Node pos="l" depth="2" NCoef="0" IVar="-1" Cut="0.0000000000000000e+00" cType="1" res="-6.3568069599568844e-03" rms="3.7782534956932068e-01" purity="7.9266053438186646e-01" nType="-99"/>
          <Node pos="r" depth="2" NCoef="0" IVar="-1" Cut="0.0000000000000000e+00" cType="1" res="1.0244653094559908e-03" rms="3.4752243757247925e-01" purity="2.3212249577045441e-01" nType="-99"/>
        </Node>
      </Node>
    </BinaryTree>
    <BinaryTree type="DecisionTree" boostWeight="1.0000000000000000e+00" itree="1040">
      <Node pos="s" depth="0" NCoef="0" IVar="0" Cut="5.9970013797283173e-02" cType="1" res="-3.7965776300552534e-08" rms="3.2287332415580750e-01" purity="5.9855979681015015e-01" nType="0">
        <Node pos="l" depth="1" NCoef="0" IVar="-1" Cut="0.0000000000000000e+00" cType="1" res="3.7128466647118330e-04" rms="2.8237873315811157e-01" purity="8.9877647161483765e-01" nType="-99"/>
        <Node pos="r" depth="1" NCoef="0" IVar="3" Cut="5.0529081374406815e-02" cType="1" res="-6.2405224889516830e-04" rms="3.6006420850753784e-01" purity="2.8743678331375122e-01" nType="0">
          <Node pos="l" depth="2" NCoef="0" IVar="-1" Cut="0.0000000000000000e+00" cType="1" res="1.0994056239724159e-02" rms="3.8309437036514282e-01" purity="4.0977442264556885e-01" nType="-99"/>
          <Node pos="r" depth="2" NCoef="0" IVar="-1" Cut="0.0000000000000000e+00" cType="1" res="-3.6814570194110274e-04" rms="3.5979989171028137e-01" purity="2.8615784645080566e-01" nType="-99"/>
        </Node>
      </Node>
    </BinaryTree>
    <BinaryTree type="DecisionTree" boostWeight="1.0000000000000000e+00" itree="1041">
      <Node pos="s" depth="0" NCoef="0" IVar="2" Cut="3.5591530799865723e-01" cType="1" res="-5.1924622823662503e-08" rms="3.2287248969078064e-01" purity="5.9855979681015015e-01" nType="0">
        <Node pos="l" depth="1" NCoef="0" IVar="-1" Cut="0.0000000000000000e+00" cType="1" res="-4.3955552973784506e-04" rms="2.8162127733230591e-01" purity="8.3244299888610840e-01" nType="-99"/>
        <Node pos="r" depth="1" NCoef="0" IVar="0" Cut="1.8740630149841309e-01" cType="1" res="4.4575249194167554e-04" rms="3.4665858745574951e-01" purity="4.4918462634086609e-01" nType="0">
          <Node pos="l" depth="2" NCoef="0" IVar="-1" Cut="0.0000000000000000e+00" cType="1" res="8.5515243699774146e-04" rms="3.7653890252113342e-01" purity="7.6515668630599976e-01" nType="-99"/>
          <Node pos="r" depth="2" NCoef="0" IVar="-1" Cut="0.0000000000000000e+00" cType="1" res="-8.0335314851254225e-04" rms="3.1303098797798157e-01" purity="1.2493658065795898e-01" nType="-99"/>
        </Node>
      </Node>
    </BinaryTree>
    <BinaryTree type="DecisionTree" boostWeight="1.0000000000000000e+00" itree="1042">
      <Node pos="s" depth="0" NCoef="0" IVar="3" Cut="2.6760008931159973e-01" cType="1" res="-3.9983774513530079e-08" rms="3.2287234067916870e-01" purity="5.9855979681015015e-01" nType="0">
        <Node pos="l" depth="1" NCoef="0" IVar="-1" Cut="0.0000000000000000e+00" cType="1" res="3.0409812461584806e-04" rms="2.8443107008934021e-01" purity="6.0426145792007446e-01" nType="-99"/>
        <Node pos="r" depth="1" NCoef="0" IVar="3" Cut="2.6842343807220459e-01" cType="0" res="-5.9699377743527293e-04" rms="3.6305901408195496e-01" purity="5.9182739257812500e-01" nType="0">
          <Node pos="l" depth="2" NCoef="0" IVar="-1" Cut="0.0000000000000000e+00" cType="1" res="-1.5682280354667455e-04" rms="3.6331930756568909e-01" purity="5.9353405237197876e-01" nType="-99"/>
          <Node pos="r" depth="2" NCoef="0" IVar="-1" Cut="0.0000000000000000e+00" cType="1" res="-1.5085726045072079e-02" rms="3.0884632468223572e-01" purity="2.7343750000000000e-01" nType="-99"/>
        </Node>
      </Node>
    </BinaryTree>
    <BinaryTree type="DecisionTree" boostWeight="1.0000000000000000e+00" itree="1043">
      <Node pos="s" depth="0" NCoef="0" IVar="2" Cut="9.9656283855438232e-01" cType="1" res="-6.9597227536633000e-08" rms="3.2287144660949707e-01" purity="5.9855979681015015e-01" nType="0">
        <Node pos="l" depth="1" NCoef="0" IVar="-1" Cut="0.0000000000000000e+00" cType="1" res="-1.6572805179748684e-04" rms="3.1298124790191650e-01" purity="7.0853638648986816e-01" nType="-99"/>
        <Node pos="r" depth="1" NCoef="0" IVar="3" Cut="3.6601248383522034e-01" cType="0" res="9.5852307276800275e-04" rms="3.5012128949165344e-01" purity="2.7782765030860901e-01" nType="0">
          <Node pos="l" depth="2" NCoef="0" IVar="-1" Cut="0.0000000000000000e+00" cType="1" res="-2.9263696633279324e-03" rms="4.2536252737045288e-01" purity="5.7586061954498291e-01" nType="-99"/>
          <Node pos="r" depth="2" NCoef="0" IVar="-1" Cut="0.0000000000000000e+00" cType="1" res="1.4776141615584493e-03" rms="3.3179476857185364e-01" purity="2.1416249871253967e-01" nType="-99"/>
        </Node>
      </Node>
    </BinaryTree>
    <BinaryTree type="DecisionTree" boostWeight="1.0000000000000000e+00" itree="1044">
      <Node pos="s" depth="0" NCoef="0" IVar="3" Cut="3.7054240703582764e-01" cType="0" res="-8.6043151270587259e-08" rms="3.2286664843559265e-01" purity="5.9855979681015015e-01" nType="0">
        <Node pos="l" depth="1" NCoef="0" IVar="-1" Cut="0.0000000000000000e+00" cType="1" res="5.1270477706566453e-04" rms="3.5805645585060120e-01" purity="7.7580922842025757e-01" nType="-99"/>
        <Node pos="r" depth="1" NCoef="0" IVar="3" Cut="3.6776071786880493e-01" cType="0" res="-2.6786501985043287e-04" rms="3.1527408957481384e-01" purity="5.6272244453430176e-01" nType="0">
          <Node pos="l" depth="2" NCoef="0" IVar="-1" Cut="0.0000000000000000e+00" cType="1" res="-1.3535909354686737e-02" rms="4.0402200818061829e-01" purity="5.8912384510040283e-01" nType="-99"/>
          <Node pos="r" depth="2" NCoef="0" IVar="-1" Cut="0.0000000000000000e+00" cType="1" res="2.3803693693480454e-05" rms="3.1447690725326538e-01" purity="5.6252026557922363e-01" nType="-99"/>
        </Node>
      </Node>
    </BinaryTree>
    <BinaryTree type="DecisionTree" boostWeight="1.0000000000000000e+00" itree="1045">
      <Node pos="s" depth="0" NCoef="0" IVar="0" Cut="5.9970013797283173e-02" cType="1" res="-1.3907007989644171e-08" rms="3.2286307215690613e-01" purity="5.9855979681015015e-01" nType="0">
        <Node pos="l" depth="1" NCoef="0" IVar="-1" Cut="0.0000000000000000e+00" cType="1" res="3.3151745446957648e-04" rms="2.8237822651863098e-01" purity="8.9877647161483765e-01" nType="-99"/>
        <Node pos="r" depth="1" NCoef="0" IVar="3" Cut="4.1463568806648254e-01" cType="0" res="-5.5686628911644220e-04" rms="3.6004614830017090e-01" purity="2.8743678331375122e-01" nType="0">
          <Node pos="l" depth="2" NCoef="0" IVar="-1" Cut="0.0000000000000000e+00" cType="1" res="-6.8560368381440639e-03" rms="4.4977840781211853e-01" purity="5.0656169652938843e-01" nType="-99"/>
          <Node pos="r" depth="2" NCoef="0" IVar="-1" Cut="0.0000000000000000e+00" cType="1" res="-5.8582616475177929e-05" rms="3.5850960016250610e-01" purity="2.8414070606231689e-01" nType="-99"/>
        </Node>
      </Node>
    </BinaryTree>
    <BinaryTree type="DecisionTree" boostWeight="1.0000000000000000e+00" itree="1046">
      <Node pos="s" depth="0" NCoef="0" IVar="3" Cut="3.7054240703582764e-01" cType="0" res="3.1732458882771652e-09" rms="3.2286095619201660e-01" purity="5.9855979681015015e-01" nType="0">
        <Node pos="l" depth="1" NCoef="0" IVar="-1" Cut="0.0000000000000000e+00" cType="1" res="4.8808497376739979e-04" rms="3.5804519057273865e-01" purity="7.7580922842025757e-01" nType="-99"/>
        <Node pos="r" depth="1" NCoef="0" IVar="3" Cut="3.6757552623748779e-01" cType="0" res="-2.5473791174590588e-04" rms="3.1526973843574524e-01" purity="5.6272244453430176e-01" nType="0">
          <Node pos="l" depth="2" NCoef="0" IVar="-1" Cut="0.0000000000000000e+00" cType="1" res="-1.1811600066721439e-02" rms="4.0455073118209839e-01" purity="5.9103643894195557e-01" nType="-99"/>
          <Node pos="r" depth="2" NCoef="0" IVar="-1" Cut="0.0000000000000000e+00" cType="1" res="2.0526604203041643e-05" rms="3.1440919637680054e-01" purity="5.6248843669891357e-01" nType="-99"/>
        </Node>
      </Node>
    </BinaryTree>
    <BinaryTree type="DecisionTree" boostWeight="1.0000000000000000e+00" itree="1047">
      <Node pos="s" depth="0" NCoef="0" IVar="0" Cut="1.2493752874433994e-03" cType="1" res="5.4108678426700862e-08" rms="3.2285806536674500e-01" purity="5.9855979681015015e-01" nType="0">
        <Node pos="l" depth="1" NCoef="0" IVar="-1" Cut="0.0000000000000000e+00" cType="1" res="-5.4706085938960314e-04" rms="2.7194258570671082e-01" purity="9.0791207551956177e-01" nType="-99"/>
        <Node pos="r" depth="1" NCoef="0" IVar="3" Cut="4.0249881148338318e-01" cType="0" res="4.0356186218559742e-04" rms="3.4547078609466553e-01" purity="4.4418039917945862e-01" nType="0">
          <Node pos="l" depth="2" NCoef="0" IVar="-1" Cut="0.0000000000000000e+00" cType="1" res="3.1958916224539280e-03" rms="3.9723303914070129e-01" purity="6.8990558385848999e-01" nType="-99"/>
          <Node pos="r" depth="2" NCoef="0" IVar="-1" Cut="0.0000000000000000e+00" cType="1" res="-3.2716106943553314e-06" rms="3.4317314624786377e-01" purity="4.3409442901611328e-01" nType="-99"/>
        </Node>
      </Node>
    </BinaryTree>
    <BinaryTree type="DecisionTree" boostWeight="1.0000000000000000e+00" itree="1048">
      <Node pos="s" depth="0" NCoef="0" IVar="0" Cut="1.1081959009170532e+00" cType="1" res="8.2563026637672010e-08" rms="3.2285776734352112e-01" purity="5.9855979681015015e-01" nType="0">
        <Node pos="l" depth="1" NCoef="0" IVar="-1" Cut="0.0000000000000000e+00" cType="1" res="6.2565872212871909e-05" rms="3.2537460327148438e-01" purity="6.3016062974929810e-01" nType="-99"/>
        <Node pos="r" depth="1" NCoef="0" IVar="1" Cut="1.8215892314910889e+00" cType="0" res="-2.1208652760833502e-03" rms="2.8001439571380615e-01" purity="9.8360657691955566e-02" nType="0">
          <Node pos="l" depth="2" NCoef="0" IVar="-1" Cut="0.0000000000000000e+00" cType="1" res="-1.2634922750294209e-02" rms="3.5560753941535950e-01" purity="1.7730496823787689e-01" nType="-99"/>
          <Node pos="r" depth="2" NCoef="0" IVar="-1" Cut="0.0000000000000000e+00" cType="1" res="-2.2118112246971577e-04" rms="2.7578648924827576e-01" purity="9.4612792134284973e-02" nType="-99"/>
        </Node>
      </Node>
    </BinaryTree>
    <BinaryTree type="DecisionTree" boostWeight="1.0000000000000000e+00" itree="1049">
      <Node pos="s" depth="0" NCoef="0" IVar="1" Cut="1.7341328859329224e+00" cType="1" res="8.8143528031991991e-09" rms="3.2285717129707336e-01" purity="5.9855979681015015e-01" nType="0">
        <Node pos="l" depth="1" NCoef="0" IVar="-1" Cut="0.0000000000000000e+00" cType="1" res="-2.3031650925986469e-05" rms="3.2252752780914307e-01" purity="6.0092604160308838e-01" nType="-99"/>
        <Node pos="r" depth="1" NCoef="0" IVar="0" Cut="1.4305347204208374e+00" cType="0" res="8.2700485363602638e-03" rms="3.7463897466659546e-01" purity="1.9607843458652496e-01" nType="0">
          <Node pos="l" depth="2" NCoef="0" IVar="-1" Cut="0.0000000000000000e+00" cType="1" res="-5.3034075535833836e-03" rms="3.7693983316421509e-01" purity="2.0000000298023224e-01" nType="-99"/>
          <Node pos="r" depth="2" NCoef="0" IVar="-1" Cut="0.0000000000000000e+00" cType="1" res="1.1200476437807083e-02" rms="3.7139898538589478e-01" purity="1.9277107715606689e-01" nType="-99"/>
        </Node>
      </Node>
    </BinaryTree>
    <BinaryTree type="DecisionTree" boostWeight="1.0000000000000000e+00" itree="1050">
      <Node pos="s" depth="0" NCoef="0" IVar="0" Cut="1.6604198217391968e+00" cType="1" res="-6.7825432381596329e-08" rms="3.2285565137863159e-01" purity="5.9855979681015015e-01" nType="0">
        <Node pos="l" depth="1" NCoef="0" IVar="-1" Cut="0.0000000000000000e+00" cType="1" res="-4.5456748921424150e-05" rms="3.2291179895401001e-01" purity="6.1094874143600464e-01" nType="-99"/>
        <Node pos="r" depth="1" NCoef="0" IVar="2" Cut="2.1320495605468750e+00" cType="0" res="3.5722276661545038e-03" rms="3.2073971629142761e-01" purity="1.3785557448863983e-01" nType="0">
          <Node pos="l" depth="2" NCoef="0" IVar="-1" Cut="0.0000000000000000e+00" cType="1" res="-6.6063245758414268e-03" rms="3.1374087929725647e-01" purity="1.4976958930492401e-01" nType="-99"/>
          <Node pos="r" depth="2" NCoef="0" IVar="-1" Cut="0.0000000000000000e+00" cType="1" res="6.3180769793689251e-03" rms="3.2353308796882629e-01" purity="1.3233724236488342e-01" nType="-99"/>
        </Node>
      </Node>
    </BinaryTree>
    <BinaryTree type="DecisionTree" boostWeight="1.0000000000000000e+00" itree="1051">
      <Node pos="s" depth="0" NCoef="0" IVar="2" Cut="3.7989275455474854e+00" cType="1" res="-2.0787398113952804e-07" rms="3.2285392284393311e-01" purity="5.9855979681015015e-01" nType="0">
        <Node pos="l" depth="1" NCoef="0" IVar="2" Cut="3.3657162189483643e+00" cType="1" res="-2.8909500542795286e-05" rms="3.2270792126655579e-01" purity="5.9950596094131470e-01" nType="0">
          <Node pos="l" depth="2" NCoef="0" IVar="-1" Cut="0.0000000000000000e+00" cType="1" res="1.4638944776379503e-05" rms="3.2271176576614380e-01" purity="6.0052978992462158e-01" nType="-99"/>
          <Node pos="r" depth="2" NCoef="0" IVar="-1" Cut="0.0000000000000000e+00" cType="1" res="-8.9952060952782631e-03" rms="3.2024177908897400e-01" purity="1.8604651093482971e-01" nType="-99"/>
        </Node>
        <Node pos="r" depth="1" NCoef="0" IVar="-1" Cut="0.0000000000000000e+00" cType="1" res="4.0202597156167030e-03" rms="3.7639701366424561e-01" purity="2.2137404978275299e-01" nType="-99"/>
      </Node>
    </BinaryTree>
    <BinaryTree type="DecisionTree" boostWeight="1.0000000000000000e+00" itree="1052">
      <Node pos="s" depth="0" NCoef="0" IVar="2" Cut="2.7723929882049561e+00" cType="1" res="-2.1624884993798332e-07" rms="3.2285356521606445e-01" purity="5.9855979681015015e-01" nType="0">
        <Node pos="l" depth="1" NCoef="0" IVar="-1" Cut="0.0000000000000000e+00" cType="1" res="-3.2939158700173721e-05" rms="3.2266795635223389e-01" purity="6.0449886322021484e-01" nType="-99"/>
        <Node pos="r" depth="1" NCoef="0" IVar="3" Cut="3.4811067581176758e-01" cType="0" res="4.8291645944118500e-03" rms="3.3549371361732483e-01" purity="1.8488529324531555e-01" nType="0">
          <Node pos="l" depth="2" NCoef="0" IVar="-1" Cut="0.0000000000000000e+00" cType="1" res="1.1256041005253792e-02" rms="4.2284929752349854e-01" purity="4.1618496179580688e-01" nType="-99"/>
          <Node pos="r" depth="2" NCoef="0" IVar="-1" Cut="0.0000000000000000e+00" cType="1" res="-3.3505915198475122e-03" rms="3.0302554368972778e-01" purity="1.1443661898374557e-01" nType="-99"/>
        </Node>
      </Node>
    </BinaryTree>
    <BinaryTree type="DecisionTree" boostWeight="1.0000000000000000e+00" itree="1053">
      <Node pos="s" depth="0" NCoef="0" IVar="0" Cut="2.4575212001800537e+00" cType="1" res="-2.4368551976294839e-07" rms="3.2285106182098389e-01" purity="5.9855979681015015e-01" nType="0">
        <Node pos="l" depth="1" NCoef="0" IVar="-1" Cut="0.0000000000000000e+00" cType="1" res="-2.7062405933975242e-05" rms="3.2252630591392517e-01" purity="6.0261505842208862e-01" nType="-99"/>
        <Node pos="r" depth="1" NCoef="0" IVar="2" Cut="2.3382983207702637e+00" cType="0" res="5.8985468931496143e-03" rms="3.5487109422683716e-01" purity="1.7800000309944153e-01" nType="0">
          <Node pos="l" depth="2" NCoef="0" IVar="-1" Cut="0.0000000000000000e+00" cType="1" res="1.0189780965447426e-02" rms="3.8174527883529663e-01" purity="2.3780487477779388e-01" nType="-99"/>
          <Node pos="r" depth="2" NCoef="0" IVar="-1" Cut="0.0000000000000000e+00" cType="1" res="-2.1382982376962900e-03" rms="3.4042981266975403e-01" purity="1.4880952239036560e-01" nType="-99"/>
        </Node>
      </Node>
    </BinaryTree>
    <BinaryTree type="DecisionTree" boostWeight="1.0000000000000000e+00" itree="1054">
      <Node pos="s" depth="0" NCoef="0" IVar="1" Cut="1.7341328859329224e+00" cType="1" res="-2.6743521175376372e-07" rms="3.2285001873970032e-01" purity="5.9855979681015015e-01" nType="0">
        <Node pos="l" depth="1" NCoef="0" IVar="-1" Cut="0.0000000000000000e+00" cType="1" res="-2.0462786778807640e-05" rms="3.2252234220504761e-01" purity="6.0092604160308838e-01" nType="-99"/>
        <Node pos="r" depth="1" NCoef="0" IVar="2" Cut="9.8254376649856567e-01" cType="0" res="7.3013007640838623e-03" rms="3.7436026334762573e-01" purity="1.9607843458652496e-01" nType="0">
          <Node pos="l" depth="2" NCoef="0" IVar="-1" Cut="0.0000000000000000e+00" cType="1" res="8.0379173159599304e-03" rms="3.8953694701194763e-01" purity="2.1463415026664734e-01" nType="-99"/>
          <Node pos="r" depth="2" NCoef="0" IVar="-1" Cut="0.0000000000000000e+00" cType="1" res="-8.8312309235334396e-03" rms="3.3922317624092102e-01" purity="1.5841583907604218e-01" nType="-99"/>
        </Node>
      </Node>
    </BinaryTree>
    <BinaryTree type="DecisionTree" boostWeight="1.0000000000000000e+00" itree="1055">
      <Node pos="s" depth="0" NCoef="0" IVar="2" Cut="3.8813500404357910e+00" cType="1" res="-3.0421827545978886e-07" rms="3.2284876704216003e-01" purity="5.9855979681015015e-01" nType="0">
        <Node pos="l" depth="1" NCoef="0" IVar="2" Cut="3.2772457599639893e+00" cType="1" res="2.5654142518760636e-05" rms="3.2275730371475220e-01" purity="5.9940659999847412e-01" nType="0">
          <Node pos="l" depth="2" NCoef="0" IVar="-1" Cut="0.0000000000000000e+00" cType="1" res="-1.7271066099056043e-05" rms="3.2262900471687317e-01" purity="6.0073769092559814e-01" nType="-99"/>
          <Node pos="r" depth="2" NCoef="0" IVar="-1" Cut="0.0000000000000000e+00" cType="1" res="6.7315590567886829e-03" rms="3.5677242279052734e-01" purity="2.2282609343528748e-01" nType="-99"/>
        </Node>
        <Node pos="r" depth="1" NCoef="0" IVar="-1" Cut="0.0000000000000000e+00" cType="1" res="-4.0342756547033787e-03" rms="3.6214607954025269e-01" purity="2.1052631735801697e-01" nType="-99"/>
      </Node>
    </BinaryTree>
    <BinaryTree type="DecisionTree" boostWeight="1.0000000000000000e+00" itree="1056">
      <Node pos="s" depth="0" NCoef="0" IVar="0" Cut="1.1081959009170532e+00" cType="1" res="-2.9728266781603452e-07" rms="3.2284820079803467e-01" purity="5.9855979681015015e-01" nType="0">
        <Node pos="l" depth="1" NCoef="0" IVar="-1" Cut="0.0000000000000000e+00" cType="1" res="6.2864535721018910e-05" rms="3.2537016272544861e-01" purity="6.3016062974929810e-01" nType="-99"/>
        <Node pos="r" depth="1" NCoef="0" IVar="3" Cut="3.1162634491920471e-01" cType="0" res="-2.1375729702413082e-03" rms="2.7990964055061340e-01" purity="9.8360657691955566e-02" nType="0">
          <Node pos="l" depth="2" NCoef="0" IVar="-1" Cut="0.0000000000000000e+00" cType="1" res="8.3654969930648804e-03" rms="4.0654689073562622e-01" purity="2.8169015049934387e-01" nType="-99"/>
          <Node pos="r" depth="2" NCoef="0" IVar="-1" Cut="0.0000000000000000e+00" cType="1" res="-2.7582827024161816e-03" rms="2.6812645792961121e-01" purity="8.4886126220226288e-02" nType="-99"/>
        </Node>
      </Node>
    </BinaryTree>
    <BinaryTree type="DecisionTree" boostWeight="1.0000000000000000e+00" itree="1057">
      <Node pos="s" depth="0" NCoef="0" IVar="2" Cut="3.4542517662048340e+00" cType="1" res="-3.5349478366697440e-07" rms="3.2284760475158691e-01" purity="5.9855979681015015e-01" nType="0">
        <Node pos="l" depth="1" NCoef="0" IVar="-1" Cut="0.0000000000000000e+00" cType="1" res="1.7101097910199314e-05" rms="3.2271376252174377e-01" purity="6.0029160976409912e-01" nType="-99"/>
        <Node pos="r" depth="1" NCoef="0" IVar="3" Cut="3.2233086228370667e-01" cType="0" res="-8.4133669734001160e-03" rms="3.5226091742515564e-01" purity="1.9911503791809082e-01" nType="0">
          <Node pos="l" depth="2" NCoef="0" IVar="-1" Cut="0.0000000000000000e+00" cType="1" res="-8.4299910813570023e-03" rms="3.7113162875175476e-01" purity="2.5471699237823486e-01" nType="-99"/>
          <Node pos="r" depth="2" NCoef="0" IVar="-1" Cut="0.0000000000000000e+00" cType="1" res="4.1075870394706726e-03" rms="3.3371827006340027e-01" purity="1.5000000596046448e-01" nType="-99"/>
        </Node>
      </Node>
    </BinaryTree>
    <BinaryTree type="DecisionTree" boostWeight="1.0000000000000000e+00" itree="1058">
      <Node pos="s" depth="0" NCoef="0" IVar="0" Cut="1.6604198217391968e+00" cType="1" res="-3.3958693279600993e-07" rms="3.2284733653068542e-01" purity="5.9855979681015015e-01" nType="0">
        <Node pos="l" depth="1" NCoef="0" IVar="-1" Cut="0.0000000000000000e+00" cType="1" res="-4.1543768020346761e-05" rms="3.2290771603584290e-01" purity="6.1094874143600464e-01" nType="-99"/>
        <Node pos="r" depth="1" NCoef="0" IVar="3" Cut="1.8190556764602661e-01" cType="1" res="3.2539877574890852e-03" rms="3.2057750225067139e-01" purity="1.3785557448863983e-01" nType="0">
          <Node pos="l" depth="2" NCoef="0" IVar="-1" Cut="0.0000000000000000e+00" cType="1" res="1.1401571333408356e-02" rms="3.3593180775642395e-01" purity="1.3915094733238220e-01" nType="-99"/>
          <Node pos="r" depth="2" NCoef="0" IVar="-1" Cut="0.0000000000000000e+00" cType="1" res="-2.4950539227575064e-03" rms="3.1306776404380798e-01" purity="1.3727560639381409e-01" nType="-99"/>
        </Node>
      </Node>
    </BinaryTree>
    <BinaryTree type="DecisionTree" boostWeight="1.0000000000000000e+00" itree="1059">
      <Node pos="s" depth="0" NCoef="0" IVar="2" Cut="1.0003093481063843e+00" cType="1" res="-4.7286243898270186e-07" rms="3.2284575700759888e-01" purity="5.9855979681015015e-01" nType="0">
        <Node pos="l" depth="1" NCoef="0" IVar="-1" Cut="0.0000000000000000e+00" cType="1" res="-1.5649686974938959e-04" rms="3.1301143765449524e-01" purity="7.0816254615783691e-01" nType="-99"/>
        <Node pos="r" depth="1" NCoef="0" IVar="0" Cut="3.6356821656227112e-01" cType="1" res="9.0800458565354347e-04" rms="3.5007071495056152e-01" purity="2.7743580937385559e-01" nType="0">
          <Node pos="l" depth="2" NCoef="0" IVar="-1" Cut="0.0000000000000000e+00" cType="1" res="1.8660514615476131e-03" rms="4.2714881896972656e-01" purity="5.1173710823059082e-01" nType="-99"/>
          <Node pos="r" depth="2" NCoef="0" IVar="-1" Cut="0.0000000000000000e+00" cType="1" res="-2.4275556206703186e-03" rms="2.7192279696464539e-01" purity="8.7523780763149261e-02" nType="-99"/>
        </Node>
      </Node>
    </BinaryTree>
    <BinaryTree type="DecisionTree" boostWeight="1.0000000000000000e+00" itree="1060">
      <Node pos="s" depth="0" NCoef="0" IVar="0" Cut="4.5977011322975159e-01" cType="1" res="-5.2481192369668861e-07" rms="3.2284414768218994e-01" purity="5.9855979681015015e-01" nType="0">
        <Node pos="l" depth="1" NCoef="0" IVar="-1" Cut="0.0000000000000000e+00" cType="1" res="-1.2939852604176849e-04" rms="3.3597272634506226e-01" purity="7.2192019224166870e-01" nType="-99"/>
        <Node pos="r" depth="1" NCoef="0" IVar="0" Cut="4.6494272351264954e-01" cType="1" res="1.2456775875762105e-03" rms="2.6038509607315063e-01" purity="7.9036429524421692e-02" nType="0">
          <Node pos="l" depth="2" NCoef="0" IVar="-1" Cut="0.0000000000000000e+00" cType="1" res="5.3547870367765427e-02" rms="4.0110221505165100e-01" purity="2.1296297013759613e-01" nType="-99"/>
          <Node pos="r" depth="2" NCoef="0" IVar="-1" Cut="0.0000000000000000e+00" cType="1" res="1.1089897452620789e-04" rms="2.5821980834007263e-01" purity="7.7581003308296204e-02" nType="-99"/>
        </Node>
      </Node>
    </BinaryTree>
    <BinaryTree type="DecisionTree" boostWeight="1.0000000000000000e+00" itree="1061">
      <Node pos="s" depth="0" NCoef="0" IVar="3" Cut="2.6784995198249817e-01" cType="1" res="-1.3070786053503980e-06" rms="3.2283636927604675e-01" purity="5.9855979681015015e-01" nType="0">
        <Node pos="l" depth="1" NCoef="0" IVar="-1" Cut="0.0000000000000000e+00" cType="1" res="3.0593312112614512e-04" rms="2.8445640206336975e-01" purity="6.0393178462982178e-01" nType="-99"/>
        <Node pos="r" depth="1" NCoef="0" IVar="0" Cut="1.3055971860885620e+00" cType="1" res="-6.0562486760318279e-04" rms="3.6307382583618164e-01" purity="5.9219861030578613e-01" nType="0">
          <Node pos="l" depth="2" NCoef="0" IVar="-1" Cut="0.0000000000000000e+00" cType="1" res="-3.4715307992883027e-04" rms="3.6273258924484253e-01" purity="5.9926015138626099e-01" nType="-99"/>
          <Node pos="r" depth="2" NCoef="0" IVar="-1" Cut="0.0000000000000000e+00" cType="1" res="5.3896135650575161e-03" rms="3.8008919358253479e-01" purity="2.2394677996635437e-01" nType="-99"/>
        </Node>
      </Node>
    </BinaryTree>
    <BinaryTree type="DecisionTree" boostWeight="1.0000000000000000e+00" itree="1062">
      <Node pos="s" depth="0" NCoef="0" IVar="0" Cut="6.8715639412403107e-02" cType="1" res="-1.2079032103429199e-06" rms="3.2283490896224976e-01" purity="5.9855979681015015e-01" nType="0">
        <Node pos="l" depth="1" NCoef="0" IVar="-1" Cut="0.0000000000000000e+00" cType="1" res="3.0713243177160621e-04" rms="2.8689393401145935e-01" purity="8.9492529630661011e-01" nType="-99"/>
        <Node pos="r" depth="1" NCoef="0" IVar="2" Cut="1.5360555052757263e-01" cType="1" res="-5.7542341528460383e-04" rms="3.5880872607231140e-01" purity="2.6692840456962585e-01" nType="0">
          <Node pos="l" depth="2" NCoef="0" IVar="-1" Cut="0.0000000000000000e+00" cType="1" res="8.0685522407293320e-03" rms="3.6719194054603577e-01" purity="3.2731378078460693e-01" nType="-99"/>
          <Node pos="r" depth="2" NCoef="0" IVar="-1" Cut="0.0000000000000000e+00" cType="1" res="-5.3026061505079269e-04" rms="3.5846751928329468e-01" purity="2.6468241214752197e-01" nType="-99"/>
        </Node>
      </Node>
    </BinaryTree>
    <BinaryTree type="DecisionTree" boostWeight="1.0000000000000000e+00" itree="1063">
      <Node pos="s" depth="0" NCoef="0" IVar="2" Cut="2.9597166180610657e-01" cType="1" res="-1.1351517059665639e-06" rms="3.2283324003219604e-01" purity="5.9855979681015015e-01" nType="0">
        <Node pos="l" depth="1" NCoef="0" IVar="-1" Cut="0.0000000000000000e+00" cType="1" res="-5.4747733520343900e-04" rms="2.7561521530151367e-01" purity="8.4702396392822266e-01" nType="-99"/>
        <Node pos="r" depth="1" NCoef="0" IVar="2" Cut="2.9958859086036682e-01" cType="1" res="4.4260022696107626e-04" rms="3.4538942575454712e-01" purity="4.6602424979209900e-01" nType="0">
          <Node pos="l" depth="2" NCoef="0" IVar="-1" Cut="0.0000000000000000e+00" cType="1" res="1.4734725467860699e-02" rms="3.3400323987007141e-01" purity="7.0796459913253784e-01" nType="-99"/>
          <Node pos="r" depth="2" NCoef="0" IVar="-1" Cut="0.0000000000000000e+00" cType="1" res="1.3968192797619849e-04" rms="3.4542199969291687e-01" purity="4.6522083878517151e-01" nType="-99"/>
        </Node>
      </Node>
    </BinaryTree>
    <BinaryTree type="DecisionTree" boostWeight="1.0000000000000000e+00" itree="1064">
      <Node pos="s" depth="0" NCoef="0" IVar="2" Cut="2.9597166180610657e-01" cType="1" res="-9.8803741366282338e-07" rms="3.2283136248588562e-01" purity="5.9855979681015015e-01" nType="0">
        <Node pos="l" depth="1" NCoef="0" IVar="-1" Cut="0.0000000000000000e+00" cType="1" res="-4.9241376109421253e-04" rms="2.7561408281326294e-01" purity="8.4702396392822266e-01" nType="-99"/>
        <Node pos="r" depth="1" NCoef="0" IVar="2" Cut="2.9958859086036682e-01" cType="1" res="3.9837838266976178e-04" rms="3.4538736939430237e-01" purity="4.6602424979209900e-01" nType="0">
          <Node pos="l" depth="2" NCoef="0" IVar="-1" Cut="0.0000000000000000e+00" cType="1" res="1.3364776968955994e-02" rms="3.3366724848747253e-01" purity="7.0796459913253784e-01" nType="-99"/>
          <Node pos="r" depth="2" NCoef="0" IVar="-1" Cut="0.0000000000000000e+00" cType="1" res="1.2571341358125210e-04" rms="3.4542188048362732e-01" purity="4.6522083878517151e-01" nType="-99"/>
        </Node>
      </Node>
    </BinaryTree>
    <BinaryTree type="DecisionTree" boostWeight="1.0000000000000000e+00" itree="1065">
      <Node pos="s" depth="0" NCoef="0" IVar="0" Cut="5.9970013797283173e-02" cType="1" res="-8.6182058112171944e-07" rms="3.2282972335815430e-01" purity="5.9855979681015015e-01" nType="0">
        <Node pos="l" depth="1" NCoef="0" IVar="-1" Cut="0.0000000000000000e+00" cType="1" res="3.2899423968046904e-04" rms="2.8237780928611755e-01" purity="8.9877647161483765e-01" nType="-99"/>
        <Node pos="r" depth="1" NCoef="0" IVar="1" Cut="9.3703150749206543e-02" cType="1" res="-5.5442313896492124e-04" rms="3.5998561978340149e-01" purity="2.8743678331375122e-01" nType="0">
          <Node pos="l" depth="2" NCoef="0" IVar="-1" Cut="0.0000000000000000e+00" cType="1" res="-1.2985350331291556e-03" rms="3.8385716080665588e-01" purity="4.0077131986618042e-01" nType="-99"/>
          <Node pos="r" depth="2" NCoef="0" IVar="-1" Cut="0.0000000000000000e+00" cType="1" res="1.1240851599723101e-03" rms="3.3601763844490051e-01" purity="1.8109168112277985e-01" nType="-99"/>
        </Node>
      </Node>
    </BinaryTree>
    <BinaryTree type="DecisionTree" boostWeight="1.0000000000000000e+00" itree="1066">
      <Node pos="s" depth="0" NCoef="0" IVar="1" Cut="5.2473764866590500e-02" cType="1" res="-8.0811418001758284e-07" rms="3.2282739877700806e-01" purity="5.9855979681015015e-01" nType="0">
        <Node pos="l" depth="1" NCoef="0" IVar="-1" Cut="0.0000000000000000e+00" cType="1" res="3.1216000206768513e-04" rms="3.0232432484626770e-01" purity="7.4758082628250122e-01" nType="-99"/>
        <Node pos="r" depth="1" NCoef="0" IVar="3" Cut="3.6153465509414673e-01" cType="0" res="-6.6564127337187529e-04" rms="3.4456869959831238e-01" purity="4.2985135316848755e-01" nType="0">
          <Node pos="l" depth="2" NCoef="0" IVar="-1" Cut="0.0000000000000000e+00" cType="1" res="1.6954585444182158e-03" rms="4.0799671411514282e-01" purity="6.4418298006057739e-01" nType="-99"/>
          <Node pos="r" depth="2" NCoef="0" IVar="-1" Cut="0.0000000000000000e+00" cType="1" res="-8.1806333037093282e-04" rms="3.3152905106544495e-01" purity="3.9030390977859497e-01" nType="-99"/>
        </Node>
      </Node>
    </BinaryTree>
    <BinaryTree type="DecisionTree" boostWeight="1.0000000000000000e+00" itree="1067">
      <Node pos="s" depth="0" NCoef="0" IVar="3" Cut="2.7884379029273987e-01" cType="0" res="-7.1734365292286384e-07" rms="3.2282692193984985e-01" purity="5.9855979681015015e-01" nType="0">
        <Node pos="l" depth="1" NCoef="0" IVar="-1" Cut="0.0000000000000000e+00" cType="1" res="-2.5054789148271084e-04" rms="3.6572059988975525e-01" purity="6.0930609703063965e-01" nType="-99"/>
        <Node pos="r" depth="1" NCoef="0" IVar="3" Cut="2.7814462780952454e-01" cType="1" res="4.9279822269454598e-04" rms="2.8711569309234619e-01" purity="5.9063452482223511e-01" nType="0">
          <Node pos="l" depth="2" NCoef="0" IVar="-1" Cut="0.0000000000000000e+00" cType="1" res="1.9845446513500065e-04" rms="2.8679776191711426e-01" purity="5.9130287170410156e-01" nType="-99"/>
          <Node pos="r" depth="2" NCoef="0" IVar="-1" Cut="0.0000000000000000e+00" cType="1" res="1.6182519495487213e-02" rms="3.5475236177444458e-01" purity="4.2622950673103333e-01" nType="-99"/>
        </Node>
      </Node>
    </BinaryTree>
    <BinaryTree type="DecisionTree" boostWeight="1.0000000000000000e+00" itree="1068">
      <Node pos="s" depth="0" NCoef="0" IVar="1" Cut="1.7991004884243011e-01" cType="1" res="-6.6664370024227537e-07" rms="3.2282504439353943e-01" purity="5.9855979681015015e-01" nType="0">
        <Node pos="l" depth="1" NCoef="0" IVar="-1" Cut="0.0000000000000000e+00" cType="1" res="1.6302183212246746e-04" rms="3.1400671601295471e-01" purity="7.0187205076217651e-01" nType="-99"/>
        <Node pos="r" depth="1" NCoef="0" IVar="2" Cut="5.7695746421813965e-01" cType="1" res="-9.9794461857527494e-04" rms="3.4819701313972473e-01" purity="2.8532922267913818e-01" nType="0">
          <Node pos="l" depth="2" NCoef="0" IVar="-1" Cut="0.0000000000000000e+00" cType="1" res="-3.2414502929896116e-03" rms="3.7665447592735291e-01" purity="4.7295048832893372e-01" nType="-99"/>
          <Node pos="r" depth="2" NCoef="0" IVar="-1" Cut="0.0000000000000000e+00" cType="1" res="1.7288899980485439e-03" rms="3.3024027943611145e-01" purity="1.7508253455162048e-01" nType="-99"/>
        </Node>
      </Node>
    </BinaryTree>
    <BinaryTree type="DecisionTree" boostWeight="1.0000000000000000e+00" itree="1069">
      <Node pos="s" depth="0" NCoef="0" IVar="3" Cut="2.6784995198249817e-01" cType="1" res="-6.2551259816245874e-07" rms="3.2282081246376038e-01" purity="5.9855979681015015e-01" nType="0">
        <Node pos="l" depth="1" NCoef="0" IVar="-1" Cut="0.0000000000000000e+00" cType="1" res="3.2401597127318382e-04" rms="2.8444370627403259e-01" purity="6.0393178462982178e-01" nType="-99"/>
        <Node pos="r" depth="1" NCoef="0" IVar="3" Cut="2.8306087851524353e-01" cType="0" res="-6.4008217304944992e-04" rms="3.6305528879165649e-01" purity="5.9219861030578613e-01" nType="0">
          <Node pos="l" depth="2" NCoef="0" IVar="-1" Cut="0.0000000000000000e+00" cType="1" res="3.8657901313854381e-05" rms="3.6678779125213623e-01" purity="6.1644852161407471e-01" nType="-99"/>
          <Node pos="r" depth="2" NCoef="0" IVar="-1" Cut="0.0000000000000000e+00" cType="1" res="-3.1282424461096525e-03" rms="3.2794302701950073e-01" purity="3.7665015459060669e-01" nType="-99"/>
        </Node>
      </Node>
    </BinaryTree>
    <BinaryTree type="DecisionTree" boostWeight="1.0000000000000000e+00" itree="1070">
      <Node pos="s" depth="0" NCoef="0" IVar="3" Cut="2.9058721661567688e-01" cType="0" res="-5.7753049986786209e-07" rms="3.2282081246376038e-01" purity="5.9855979681015015e-01" nType="0">
        <Node pos="l" depth="1" NCoef="0" IVar="-1" Cut="0.0000000000000000e+00" cType="1" res="-2.6386135141365230e-04" rms="3.6765170097351074e-01" purity="6.2768095731735229e-01" nType="-99"/>
        <Node pos="r" depth="1" NCoef="0" IVar="3" Cut="2.8884452581405640e-01" cType="1" res="4.5312230940908194e-04" rms="2.9067251086235046e-01" purity="5.8000564575195312e-01" nType="0">
          <Node pos="l" depth="2" NCoef="0" IVar="-1" Cut="0.0000000000000000e+00" cType="1" res="1.1763330257963389e-04" rms="2.9024967551231384e-01" purity="5.8100521564483643e-01" nType="-99"/>
          <Node pos="r" depth="2" NCoef="0" IVar="-1" Cut="0.0000000000000000e+00" cType="1" res="1.1683943681418896e-02" rms="3.3614140748977661e-01" purity="4.6037736535072327e-01" nType="-99"/>
        </Node>
      </Node>
    </BinaryTree>
    <BinaryTree type="DecisionTree" boostWeight="1.0000000000000000e+00" itree="1071">
      <Node pos="s" depth="0" NCoef="0" IVar="0" Cut="1.1081959009170532e+00" cType="1" res="-5.3885486295257579e-07" rms="3.2281810045242310e-01" purity="5.9855979681015015e-01" nType="0">
        <Node pos="l" depth="1" NCoef="0" IVar="-1" Cut="0.0000000000000000e+00" cType="1" res="6.5227541199419647e-05" rms="3.2534223794937134e-01" purity="6.3016062974929810e-01" nType="-99"/>
        <Node pos="r" depth="1" NCoef="0" IVar="1" Cut="1.8215892314910889e+00" cType="0" res="-2.2217601072043180e-03" rms="2.7983874082565308e-01" purity="9.8360657691955566e-02" nType="0">
          <Node pos="l" depth="2" NCoef="0" IVar="-1" Cut="0.0000000000000000e+00" cType="1" res="-1.1941077187657356e-02" rms="3.5535326600074768e-01" purity="1.7730496823787689e-01" nType="-99"/>
          <Node pos="r" depth="2" NCoef="0" IVar="-1" Cut="0.0000000000000000e+00" cType="1" res="-3.6040862323716283e-04" rms="2.7563202381134033e-01" purity="9.4612792134284973e-02" nType="-99"/>
        </Node>
      </Node>
    </BinaryTree>
    <BinaryTree type="DecisionTree" boostWeight="1.0000000000000000e+00" itree="1072">
      <Node pos="s" depth="0" NCoef="0" IVar="1" Cut="2.0239880084991455e+00" cType="1" res="-5.4370786983781727e-07" rms="3.2281765341758728e-01" purity="5.9855979681015015e-01" nType="0">
        <Node pos="l" depth="1" NCoef="0" IVar="1" Cut="1.5837377309799194e+00" cType="1" res="-3.6358083889354020e-05" rms="3.2253679633140564e-01" purity="5.9982752799987793e-01" nType="0">
          <Node pos="l" depth="2" NCoef="0" IVar="-1" Cut="0.0000000000000000e+00" cType="1" res="1.2259160939720459e-05" rms="3.2260140776634216e-01" purity="6.0173177719116211e-01" nType="-99"/>
          <Node pos="r" depth="2" NCoef="0" IVar="-1" Cut="0.0000000000000000e+00" cType="1" res="-7.3399315588176250e-03" rms="3.0530536174774170e-01" purity="1.1707317084074020e-01" nType="-99"/>
        </Node>
        <Node pos="r" depth="1" NCoef="0" IVar="-1" Cut="0.0000000000000000e+00" cType="1" res="3.2347501255571842e-03" rms="3.9614862203598022e-01" purity="2.2905027866363525e-01" nType="-99"/>
      </Node>
    </BinaryTree>
    <BinaryTree type="DecisionTree" boostWeight="1.0000000000000000e+00" itree="1073">
      <Node pos="s" depth="0" NCoef="0" IVar="1" Cut="1.5704647302627563e+00" cType="1" res="-5.2471904155027005e-07" rms="3.2281735539436340e-01" purity="5.9855979681015015e-01" nType="0">
        <Node pos="l" depth="1" NCoef="0" IVar="-1" Cut="0.0000000000000000e+00" cType="1" res="-2.5874787752400152e-05" rms="3.2251581549644470e-01" purity="6.0177844762802124e-01" nType="-99"/>
        <Node pos="r" depth="1" NCoef="0" IVar="0" Cut="6.1844080686569214e-01" cType="0" res="7.0615955628454685e-03" rms="3.5994803905487061e-01" purity="1.7839196324348450e-01" nType="0">
          <Node pos="l" depth="2" NCoef="0" IVar="-1" Cut="0.0000000000000000e+00" cType="1" res="6.9064465351402760e-03" rms="3.7819036841392517e-01" purity="2.0300751924514771e-01" nType="-99"/>
          <Node pos="r" depth="2" NCoef="0" IVar="-1" Cut="0.0000000000000000e+00" cType="1" res="-7.4128173291683197e-03" rms="3.1864511966705322e-01" purity="1.2878787517547607e-01" nType="-99"/>
        </Node>
      </Node>
    </BinaryTree>
    <BinaryTree type="DecisionTree" boostWeight="1.0000000000000000e+00" itree="1074">
      <Node pos="s" depth="0" NCoef="0" IVar="1" Cut="1.5704647302627563e+00" cType="1" res="-5.2996409749539453e-07" rms="3.2281598448753357e-01" purity="5.9855979681015015e-01" nType="0">
        <Node pos="l" depth="1" NCoef="0" IVar="-1" Cut="0.0000000000000000e+00" cType="1" res="-2.3287149815587327e-05" rms="3.2251581549644470e-01" purity="6.0177844762802124e-01" nType="-99"/>
        <Node pos="r" depth="1" NCoef="0" IVar="3" Cut="1.8912068009376526e-01" cType="1" res="6.3478462398052216e-03" rms="3.5980165004730225e-01" purity="1.7839196324348450e-01" nType="0">
          <Node pos="l" depth="2" NCoef="0" IVar="-1" Cut="0.0000000000000000e+00" cType="1" res="1.2029394507408142e-02" rms="3.8905856013298035e-01" purity="2.2330096364021301e-01" nType="-99"/>
          <Node pos="r" depth="2" NCoef="0" IVar="-1" Cut="0.0000000000000000e+00" cType="1" res="-1.3487365795299411e-03" rms="3.4847673773765564e-01" purity="1.6271185874938965e-01" nType="-99"/>
        </Node>
      </Node>
    </BinaryTree>
    <BinaryTree type="DecisionTree" boostWeight="1.0000000000000000e+00" itree="1075">
      <Node pos="s" depth="0" NCoef="0" IVar="0" Cut="2.0439779758453369e+00" cType="1" res="-5.2283292006904958e-07" rms="3.2281488180160522e-01" purity="5.9855979681015015e-01" nType="0">
        <Node pos="l" depth="1" NCoef="0" IVar="-1" Cut="0.0000000000000000e+00" cType="1" res="3.2451695005875081e-05" rms="3.2275405526161194e-01" purity="6.0564202070236206e-01" nType="-99"/>
        <Node pos="r" depth="1" NCoef="0" IVar="2" Cut="8.7674933671951294e-01" cType="0" res="-4.3829246424138546e-03" rms="3.2662114500999451e-01" purity="1.4901477098464966e-01" nType="0">
          <Node pos="l" depth="2" NCoef="0" IVar="-1" Cut="0.0000000000000000e+00" cType="1" res="1.4749226393178105e-03" rms="3.3050116896629333e-01" purity="1.5813252329826355e-01" nType="-99"/>
          <Node pos="r" depth="2" NCoef="0" IVar="-1" Cut="0.0000000000000000e+00" cType="1" res="-1.6452386975288391e-02" rms="3.0615338683128357e-01" purity="1.0810811072587967e-01" nType="-99"/>
        </Node>
      </Node>
    </BinaryTree>
    <BinaryTree type="DecisionTree" boostWeight="1.0000000000000000e+00" itree="1076">
      <Node pos="s" depth="0" NCoef="0" IVar="3" Cut="2.7859392762184143e-01" cType="0" res="-5.9494294646356138e-07" rms="3.2281315326690674e-01" purity="5.9855979681015015e-01" nType="0">
        <Node pos="l" depth="1" NCoef="0" IVar="-1" Cut="0.0000000000000000e+00" cType="1" res="-2.3933516058605164e-04" rms="3.6569145321846008e-01" purity="6.0879129171371460e-01" nType="-99"/>
        <Node pos="r" depth="1" NCoef="0" IVar="3" Cut="2.7636063098907471e-01" cType="1" res="4.7283252933993936e-04" rms="2.8696775436401367e-01" purity="5.9098464250564575e-01" nType="0">
          <Node pos="l" depth="2" NCoef="0" IVar="-1" Cut="0.0000000000000000e+00" cType="1" res="1.2078510189894587e-04" rms="2.8642460703849792e-01" purity="5.9303343296051025e-01" nType="-99"/>
          <Node pos="r" depth="2" NCoef="0" IVar="-1" Cut="0.0000000000000000e+00" cType="1" res="9.8314946517348289e-03" rms="3.3020481467247009e-01" purity="4.1176471114158630e-01" nType="-99"/>
        </Node>
      </Node>
    </BinaryTree>
    <BinaryTree type="DecisionTree" boostWeight="1.0000000000000000e+00" itree="1077">
      <Node pos="s" depth="0" NCoef="0" IVar="1" Cut="5.2473764866590500e-02" cType="1" res="-5.5680891364318086e-07" rms="3.2281121611595154e-01" purity="5.9855979681015015e-01" nType="0">
        <Node pos="l" depth="1" NCoef="0" IVar="-1" Cut="0.0000000000000000e+00" cType="1" res="2.6472812169231474e-04" rms="3.0231869220733643e-01" purity="7.4758082628250122e-01" nType="-99"/>
        <Node pos="r" depth="1" NCoef="0" IVar="3" Cut="4.8671010136604309e-01" cType="0" res="-5.6402495829388499e-04" rms="3.4454229474067688e-01" purity="4.2985135316848755e-01" nType="0">
          <Node pos="l" depth="2" NCoef="0" IVar="-1" Cut="0.0000000000000000e+00" cType="1" res="-1.1404152028262615e-02" rms="3.6928516626358032e-01" purity="7.6410257816314697e-01" nType="-99"/>
          <Node pos="r" depth="2" NCoef="0" IVar="-1" Cut="0.0000000000000000e+00" cType="1" res="-1.3831240357831120e-04" rms="3.4432697296142578e-01" purity="4.2717570066452026e-01" nType="-99"/>
        </Node>
      </Node>
    </BinaryTree>
    <BinaryTree type="DecisionTree" boostWeight="1.0000000000000000e+00" itree="1078">
      <Node pos="s" depth="0" NCoef="0" IVar="1" Cut="1.8740629777312279e-02" cType="1" res="-4.3347861833353818e-07" rms="3.2281008362770081e-01" purity="5.9855979681015015e-01" nType="0">
        <Node pos="l" depth="1" NCoef="0" IVar="-1" Cut="0.0000000000000000e+00" cType="1" res="-3.3712363801896572e-04" rms="3.0340829491615295e-01" purity="7.4530726671218872e-01" nType="-99"/>
        <Node pos="r" depth="1" NCoef="0" IVar="1" Cut="2.6189144700765610e-02" cType="1" res="4.8041652189567685e-04" rms="3.3678731322288513e-01" purity="4.8720017075538635e-01" nType="0">
          <Node pos="l" depth="2" NCoef="0" IVar="-1" Cut="0.0000000000000000e+00" cType="1" res="9.9445125088095665e-03" rms="2.9511132836341858e-01" purity="7.6674640178680420e-01" nType="-99"/>
          <Node pos="r" depth="2" NCoef="0" IVar="-1" Cut="0.0000000000000000e+00" cType="1" res="-1.3225215298007242e-05" rms="3.3790147304534912e-01" purity="4.7912201285362244e-01" nType="-99"/>
        </Node>
      </Node>
    </BinaryTree>
    <BinaryTree type="DecisionTree" boostWeight="1.0000000000000000e+00" itree="1079">
      <Node pos="s" depth="0" NCoef="0" IVar="3" Cut="4.9747130274772644e-01" cType="0" res="-3.0313239562929084e-07" rms="3.2280853390693665e-01" purity="5.9855979681015015e-01" nType="0">
        <Node pos="l" depth="1" NCoef="0" IVar="-1" Cut="0.0000000000000000e+00" cType="1" res="5.3416597656905651e-03" rms="3.1801596283912659e-01" purity="8.5981309413909912e-01" nType="-99"/>
        <Node pos="r" depth="1" NCoef="0" IVar="3" Cut="4.9446254968643188e-01" cType="0" res="-2.5225879653589800e-05" rms="3.2281783223152161e-01" purity="5.9802478551864624e-01" nType="0">
          <Node pos="l" depth="2" NCoef="0" IVar="-1" Cut="0.0000000000000000e+00" cType="1" res="-8.7390942499041557e-03" rms="3.3875480294227600e-01" purity="8.4552848339080811e-01" nType="-99"/>
          <Node pos="r" depth="2" NCoef="0" IVar="-1" Cut="0.0000000000000000e+00" cType="1" res="9.2879317890037782e-06" rms="3.2277795672416687e-01" purity="5.9744071960449219e-01" nType="-99"/>
        </Node>
      </Node>
    </BinaryTree>
    <BinaryTree type="DecisionTree" boostWeight="1.0000000000000000e+00" itree="1080">
      <Node pos="s" depth="0" NCoef="0" IVar="0" Cut="6.8715639412403107e-02" cType="1" res="-2.3799918835720746e-07" rms="3.2280799746513367e-01" purity="5.9855979681015015e-01" nType="0">
        <Node pos="l" depth="1" NCoef="0" IVar="-1" Cut="0.0000000000000000e+00" cType="1" res="3.0235698795877397e-04" rms="2.8688183426856995e-01" purity="8.9492529630661011e-01" nType="-99"/>
        <Node pos="r" depth="1" NCoef="0" IVar="2" Cut="1.5360555052757263e-01" cType="1" res="-5.6419480824843049e-04" rms="3.5876822471618652e-01" purity="2.6692840456962585e-01" nType="0">
          <Node pos="l" depth="2" NCoef="0" IVar="-1" Cut="0.0000000000000000e+00" cType="1" res="7.3988474905490875e-03" rms="3.6720302700996399e-01" purity="3.2731378078460693e-01" nType="-99"/>
          <Node pos="r" depth="2" NCoef="0" IVar="-1" Cut="0.0000000000000000e+00" cType="1" res="-5.0101330270990729e-04" rms="3.5842898488044739e-01" purity="2.6468241214752197e-01" nType="-99"/>
        </Node>
      </Node>
    </BinaryTree>
    <BinaryTree type="DecisionTree" boostWeight="1.0000000000000000e+00" itree="1081">
      <Node pos="s" depth="0" NCoef="0" IVar="2" Cut="2.7349281311035156e-01" cType="1" res="-2.5424509431104525e-07" rms="3.2280671596527100e-01" purity="5.9855979681015015e-01" nType="0">
        <Node pos="l" depth="1" NCoef="0" IVar="-1" Cut="0.0000000000000000e+00" cType="1" res="-5.5017293198034167e-04" rms="2.7351737022399902e-01" purity="8.5204869508743286e-01" nType="-99"/>
        <Node pos="r" depth="1" NCoef="0" IVar="2" Cut="2.7713200449943542e-01" cType="1" res="4.1366316145285964e-04" rms="3.4490603208541870e-01" purity="4.7129535675048828e-01" nType="0">
          <Node pos="l" depth="2" NCoef="0" IVar="-1" Cut="0.0000000000000000e+00" cType="1" res="1.5693588182330132e-02" rms="2.8758835792541504e-01" purity="7.5193798542022705e-01" nType="-99"/>
          <Node pos="r" depth="2" NCoef="0" IVar="-1" Cut="0.0000000000000000e+00" cType="1" res="1.1953827925026417e-04" rms="3.4509521722793579e-01" purity="4.7025284171104431e-01" nType="-99"/>
        </Node>
      </Node>
    </BinaryTree>
    <BinaryTree type="DecisionTree" boostWeight="1.0000000000000000e+00" itree="1082">
      <Node pos="s" depth="0" NCoef="0" IVar="2" Cut="2.9222521185874939e-01" cType="1" res="-1.7959804665679258e-07" rms="3.2280498743057251e-01" purity="5.9855979681015015e-01" nType="0">
        <Node pos="l" depth="1" NCoef="0" IVar="-1" Cut="0.0000000000000000e+00" cType="1" res="-4.9270119052380323e-04" rms="2.7561041712760925e-01" purity="8.4798938035964966e-01" nType="-99"/>
        <Node pos="r" depth="1" NCoef="0" IVar="3" Cut="1.0626529902219772e-01" cType="0" res="3.9530865615233779e-04" rms="3.4515336155891418e-01" purity="4.6671533584594727e-01" nType="0">
          <Node pos="l" depth="2" NCoef="0" IVar="-1" Cut="0.0000000000000000e+00" cType="1" res="1.2818397954106331e-04" rms="3.4519964456558228e-01" purity="4.6767204999923706e-01" nType="-99"/>
          <Node pos="r" depth="2" NCoef="0" IVar="-1" Cut="0.0000000000000000e+00" cType="1" res="1.5618996694684029e-02" rms="3.2772293686866760e-01" purity="1.4000000059604645e-01" nType="-99"/>
        </Node>
      </Node>
    </BinaryTree>
    <BinaryTree type="DecisionTree" boostWeight="1.0000000000000000e+00" itree="1083">
      <Node pos="s" depth="0" NCoef="0" IVar="3" Cut="1.2742861174046993e-02" cType="1" res="-2.1483566570168477e-07" rms="3.2280364632606506e-01" purity="5.9855979681015015e-01" nType="0">
        <Node pos="l" depth="1" NCoef="0" IVar="-1" Cut="0.0000000000000000e+00" cType="1" res="7.5644877506420016e-04" rms="2.4897596240043640e-01" purity="9.2308878898620605e-01" nType="-99"/>
        <Node pos="r" depth="1" NCoef="0" IVar="3" Cut="4.4460147619247437e-02" cType="1" res="-3.1401086016558111e-04" rms="3.4364736080169678e-01" purity="4.9176207184791565e-01" nType="0">
          <Node pos="l" depth="2" NCoef="0" IVar="-1" Cut="0.0000000000000000e+00" cType="1" res="-1.6519872471690178e-02" rms="3.3889788389205933e-01" purity="5.0641024112701416e-01" nType="-99"/>
          <Node pos="r" depth="2" NCoef="0" IVar="-1" Cut="0.0000000000000000e+00" cType="1" res="-7.3941031587310135e-05" rms="3.4365925192832947e-01" purity="4.9170383810997009e-01" nType="-99"/>
        </Node>
      </Node>
    </BinaryTree>
    <BinaryTree type="DecisionTree" boostWeight="1.0000000000000000e+00" itree="1084">
      <Node pos="s" depth="0" NCoef="0" IVar="0" Cut="1.1081959009170532e+00" cType="1" res="-1.6575259564888256e-07" rms="3.2280129194259644e-01" purity="5.9855979681015015e-01" nType="0">
        <Node pos="l" depth="1" NCoef="0" IVar="-1" Cut="0.0000000000000000e+00" cType="1" res="6.0924368881387636e-05" rms="3.2532778382301331e-01" purity="6.3016062974929810e-01" nType="-99"/>
        <Node pos="r" depth="1" NCoef="0" IVar="1" Cut="1.8215892314910889e+00" cType="0" res="-2.0691824611276388e-03" rms="2.7978011965751648e-01" purity="9.8360657691955566e-02" nType="0">
          <Node pos="l" depth="2" NCoef="0" IVar="-1" Cut="0.0000000000000000e+00" cType="1" res="-1.1802877299487591e-02" rms="3.5487583279609680e-01" purity="1.7730496823787689e-01" nType="-99"/>
          <Node pos="r" depth="2" NCoef="0" IVar="-1" Cut="0.0000000000000000e+00" cType="1" res="-2.7576126740314066e-04" rms="2.7560099959373474e-01" purity="9.4612792134284973e-02" nType="-99"/>
        </Node>
      </Node>
    </BinaryTree>
    <BinaryTree type="DecisionTree" boostWeight="1.0000000000000000e+00" itree="1085">
      <Node pos="s" depth="0" NCoef="0" IVar="1" Cut="1.7341328859329224e+00" cType="1" res="-2.0667179967404081e-07" rms="3.2280087471008301e-01" purity="5.9855979681015015e-01" nType="0">
        <Node pos="l" depth="1" NCoef="0" IVar="-1" Cut="0.0000000000000000e+00" cType="1" res="-2.3100252292351797e-05" rms="3.2247799634933472e-01" purity="6.0092604160308838e-01" nType="-99"/>
        <Node pos="r" depth="1" NCoef="0" IVar="2" Cut="9.8254376649856567e-01" cType="0" res="8.2565620541572571e-03" rms="3.7359085679054260e-01" purity="1.9607843458652496e-01" nType="0">
          <Node pos="l" depth="2" NCoef="0" IVar="-1" Cut="0.0000000000000000e+00" cType="1" res="8.0229854211211205e-03" rms="3.8889774680137634e-01" purity="2.1463415026664734e-01" nType="-99"/>
          <Node pos="r" depth="2" NCoef="0" IVar="-1" Cut="0.0000000000000000e+00" cType="1" res="-7.8675998374819756e-03" rms="3.3842054009437561e-01" purity="1.5841583907604218e-01" nType="-99"/>
        </Node>
      </Node>
    </BinaryTree>
    <BinaryTree type="DecisionTree" boostWeight="1.0000000000000000e+00" itree="1086">
      <Node pos="s" depth="0" NCoef="0" IVar="1" Cut="1.7341328859329224e+00" cType="1" res="-2.4427671974081022e-07" rms="3.2279968261718750e-01" purity="5.9855979681015015e-01" nType="0">
        <Node pos="l" depth="1" NCoef="0" IVar="-1" Cut="0.0000000000000000e+00" cType="1" res="-2.0790006601600908e-05" rms="3.2247799634933472e-01" purity="6.0092604160308838e-01" nType="-99"/>
        <Node pos="r" depth="1" NCoef="0" IVar="0" Cut="1.4305347204208374e+00" cType="0" res="7.4209054000675678e-03" rms="3.7343314290046692e-01" purity="1.9607843458652496e-01" nType="0">
          <Node pos="l" depth="2" NCoef="0" IVar="-1" Cut="0.0000000000000000e+00" cType="1" res="-5.1279147155582905e-03" rms="3.7568998336791992e-01" purity="2.0000000298023224e-01" nType="-99"/>
          <Node pos="r" depth="2" NCoef="0" IVar="-1" Cut="0.0000000000000000e+00" cType="1" res="1.0310289449989796e-02" rms="3.7037301063537598e-01" purity="1.9277107715606689e-01" nType="-99"/>
        </Node>
      </Node>
    </BinaryTree>
    <BinaryTree type="DecisionTree" boostWeight="1.0000000000000000e+00" itree="1087">
      <Node pos="s" depth="0" NCoef="0" IVar="0" Cut="1.9465267658233643e+00" cType="1" res="-2.8494997650341247e-07" rms="3.2279834151268005e-01" purity="5.9855979681015015e-01" nType="0">
        <Node pos="l" depth="1" NCoef="0" IVar="-1" Cut="0.0000000000000000e+00" cType="1" res="-3.3958975109271705e-05" rms="3.2262429594993591e-01" purity="6.0647767782211304e-01" nType="-99"/>
        <Node pos="r" depth="1" NCoef="0" IVar="0" Cut="2.0435578823089600e+00" cType="1" res="4.0096477605402470e-03" rms="3.3240166306495667e-01" purity="1.5393012762069702e-01" nType="0">
          <Node pos="l" depth="2" NCoef="0" IVar="-1" Cut="0.0000000000000000e+00" cType="1" res="3.0898813158273697e-02" rms="3.7137559056282043e-01" purity="1.9417475163936615e-01" nType="-99"/>
          <Node pos="r" depth="2" NCoef="0" IVar="-1" Cut="0.0000000000000000e+00" cType="1" res="-1.5904086176306009e-03" rms="3.2631781697273254e-01" purity="1.4883148670196533e-01" nType="-99"/>
        </Node>
      </Node>
    </BinaryTree>
    <BinaryTree type="DecisionTree" boostWeight="1.0000000000000000e+00" itree="1088">
      <Node pos="s" depth="0" NCoef="0" IVar="0" Cut="2.4575212001800537e+00" cType="1" res="-5.2879971690344973e-07" rms="3.2279479503631592e-01" purity="5.9855979681015015e-01" nType="0">
        <Node pos="l" depth="1" NCoef="0" IVar="-1" Cut="0.0000000000000000e+00" cType="1" res="-2.6885376428253949e-05" rms="3.2247388362884521e-01" purity="6.0261505842208862e-01" nType="-99"/>
        <Node pos="r" depth="1" NCoef="0" IVar="3" Cut="1.6980570554733276e-01" cType="0" res="5.8292536996304989e-03" rms="3.5445427894592285e-01" purity="1.7800000309944153e-01" nType="0">
          <Node pos="l" depth="2" NCoef="0" IVar="-1" Cut="0.0000000000000000e+00" cType="1" res="6.0383137315511703e-03" rms="3.6365118622779846e-01" purity="1.9498607516288757e-01" nType="-99"/>
          <Node pos="r" depth="2" NCoef="0" IVar="-1" Cut="0.0000000000000000e+00" cType="1" res="-7.6324697583913803e-03" rms="3.2855957746505737e-01" purity="1.3475176692008972e-01" nType="-99"/>
        </Node>
      </Node>
    </BinaryTree>
    <BinaryTree type="DecisionTree" boostWeight="1.0000000000000000e+00" itree="1089">
      <Node pos="s" depth="0" NCoef="0" IVar="2" Cut="2.6487591266632080e+00" cType="1" res="-5.3707339020547806e-07" rms="3.2279381155967712e-01" purity="5.9855979681015015e-01" nType="0">
        <Node pos="l" depth="1" NCoef="0" IVar="-1" Cut="0.0000000000000000e+00" cType="1" res="3.3707696275087073e-05" rms="3.2256540656089783e-01" purity="6.0597991943359375e-01" nType="-99"/>
        <Node pos="r" depth="1" NCoef="0" IVar="3" Cut="3.1746396422386169e-01" cType="0" res="-4.0297587402164936e-03" rms="3.3535990118980408e-01" purity="1.8142075836658478e-01" nType="0">
          <Node pos="l" depth="2" NCoef="0" IVar="-1" Cut="0.0000000000000000e+00" cType="1" res="-8.2958675920963287e-03" rms="3.6584064364433289e-01" purity="2.5679013133049011e-01" nType="-99"/>
          <Node pos="r" depth="2" NCoef="0" IVar="-1" Cut="0.0000000000000000e+00" cType="1" res="7.1731735952198505e-03" rms="3.0795329809188843e-01" purity="1.2156862765550613e-01" nType="-99"/>
        </Node>
      </Node>
    </BinaryTree>
    <BinaryTree type="DecisionTree" boostWeight="1.0000000000000000e+00" itree="1090">
      <Node pos="s" depth="0" NCoef="0" IVar="0" Cut="1.1081959009170532e+00" cType="1" res="-6.0092963849456282e-07" rms="3.2279178500175476e-01" purity="5.9855979681015015e-01" nType="0">
        <Node pos="l" depth="1" NCoef="0" IVar="-1" Cut="0.0000000000000000e+00" cType="1" res="6.4227941038552672e-05" rms="3.2532349228858948e-01" purity="6.3016062974929810e-01" nType="-99"/>
        <Node pos="r" depth="1" NCoef="0" IVar="3" Cut="3.1162634491920471e-01" cType="0" res="-2.1886152680963278e-03" rms="2.7967351675033569e-01" purity="9.8360657691955566e-02" nType="0">
          <Node pos="l" depth="2" NCoef="0" IVar="-1" Cut="0.0000000000000000e+00" cType="1" res="7.7445688657462597e-03" rms="4.0604200959205627e-01" purity="2.8169015049934387e-01" nType="-99"/>
          <Node pos="r" depth="2" NCoef="0" IVar="-1" Cut="0.0000000000000000e+00" cType="1" res="-2.7065020985901356e-03" rms="2.6793375611305237e-01" purity="8.4886126220226288e-02" nType="-99"/>
        </Node>
      </Node>
    </BinaryTree>
    <BinaryTree type="DecisionTree" boostWeight="1.0000000000000000e+00" itree="1091">
      <Node pos="s" depth="0" NCoef="0" IVar="0" Cut="2.4575212001800537e+00" cType="1" res="-6.1941460671732784e-07" rms="3.2279136776924133e-01" purity="5.9855979681015015e-01" nType="0">
        <Node pos="l" depth="1" NCoef="0" IVar="-1" Cut="0.0000000000000000e+00" cType="1" res="-2.4840841433615424e-05" rms="3.2247173786163330e-01" purity="6.0261505842208862e-01" nType="-99"/>
        <Node pos="r" depth="1" NCoef="0" IVar="3" Cut="1.6980570554733276e-01" cType="0" res="5.3716208785772324e-03" rms="3.5433629155158997e-01" purity="1.7800000309944153e-01" nType="0">
          <Node pos="l" depth="2" NCoef="0" IVar="-1" Cut="0.0000000000000000e+00" cType="1" res="5.3762756288051605e-03" rms="3.6356317996978760e-01" purity="1.9498607516288757e-01" nType="-99"/>
          <Node pos="r" depth="2" NCoef="0" IVar="-1" Cut="0.0000000000000000e+00" cType="1" res="-6.7119244486093521e-03" rms="3.2865455746650696e-01" purity="1.3475176692008972e-01" nType="-99"/>
        </Node>
      </Node>
    </BinaryTree>
    <BinaryTree type="DecisionTree" boostWeight="1.0000000000000000e+00" itree="1092">
      <Node pos="s" depth="0" NCoef="0" IVar="2" Cut="3.4542517662048340e+00" cType="1" res="-6.0423678860388463e-07" rms="3.2279062271118164e-01" purity="5.9855979681015015e-01" nType="0">
        <Node pos="l" depth="1" NCoef="0" IVar="-1" Cut="0.0000000000000000e+00" cType="1" res="1.6239973774645478e-05" rms="3.2265803217887878e-01" purity="6.0029160976409912e-01" nType="-99"/>
        <Node pos="r" depth="1" NCoef="0" IVar="0" Cut="1.3097455501556396e+00" cType="1" res="-8.0508077517151833e-03" rms="3.5194516181945801e-01" purity="1.9911503791809082e-01" nType="0">
          <Node pos="l" depth="2" NCoef="0" IVar="-1" Cut="0.0000000000000000e+00" cType="1" res="4.6157739125192165e-03" rms="3.6290478706359863e-01" purity="2.1929824352264404e-01" nType="-99"/>
          <Node pos="r" depth="2" NCoef="0" IVar="-1" Cut="0.0000000000000000e+00" cType="1" res="-1.0213116183876991e-02" rms="3.3915355801582336e-01" purity="1.7857143282890320e-01" nType="-99"/>
        </Node>
      </Node>
    </BinaryTree>
    <BinaryTree type="DecisionTree" boostWeight="1.0000000000000000e+00" itree="1093">
      <Node pos="s" depth="0" NCoef="0" IVar="2" Cut="3.7989275455474854e+00" cType="1" res="-5.7844039247356704e-07" rms="3.2278993725776672e-01" purity="5.9855979681015015e-01" nType="0">
        <Node pos="l" depth="1" NCoef="0" IVar="2" Cut="3.3657162189483643e+00" cType="1" res="-2.7154303097631782e-05" rms="3.2264596223831177e-01" purity="5.9950596094131470e-01" nType="0">
          <Node pos="l" depth="2" NCoef="0" IVar="-1" Cut="0.0000000000000000e+00" cType="1" res="1.5786357835168019e-05" rms="3.2265195250511169e-01" purity="6.0052978992462158e-01" nType="-99"/>
          <Node pos="r" depth="2" NCoef="0" IVar="-1" Cut="0.0000000000000000e+00" cType="1" res="-9.1135781258344650e-03" rms="3.1928515434265137e-01" purity="1.8604651093482971e-01" nType="-99"/>
        </Node>
        <Node pos="r" depth="1" NCoef="0" IVar="-1" Cut="0.0000000000000000e+00" cType="1" res="3.7185226101428270e-03" rms="3.7566238641738892e-01" purity="2.2137404978275299e-01" nType="-99"/>
      </Node>
    </BinaryTree>
    <BinaryTree type="DecisionTree" boostWeight="1.0000000000000000e+00" itree="1094">
      <Node pos="s" depth="0" NCoef="0" IVar="2" Cut="2.9597166180610657e-01" cType="1" res="-5.5005494914439623e-07" rms="3.2278957962989807e-01" purity="5.9855979681015015e-01" nType="0">
        <Node pos="l" depth="1" NCoef="0" IVar="-1" Cut="0.0000000000000000e+00" cType="1" res="-4.6798301627859473e-04" rms="2.7558434009552002e-01" purity="8.4702396392822266e-01" nType="-99"/>
        <Node pos="r" depth="1" NCoef="0" IVar="3" Cut="1.6484962403774261e-01" cType="0" res="3.7910635001026094e-04" rms="3.4534022212028503e-01" purity="4.6602424979209900e-01" nType="0">
          <Node pos="l" depth="2" NCoef="0" IVar="-1" Cut="0.0000000000000000e+00" cType="1" res="1.8794095012708567e-05" rms="3.4743958711624146e-01" purity="4.7906380891799927e-01" nType="-99"/>
          <Node pos="r" depth="2" NCoef="0" IVar="-1" Cut="0.0000000000000000e+00" cType="1" res="5.2787470631301403e-03" rms="2.8853505849838257e-01" purity="1.4382530748844147e-01" nType="-99"/>
        </Node>
      </Node>
    </BinaryTree>
    <BinaryTree type="DecisionTree" boostWeight="1.0000000000000000e+00" itree="1095">
      <Node pos="s" depth="0" NCoef="0" IVar="0" Cut="6.8715639412403107e-02" cType="1" res="-5.5654840025454178e-07" rms="3.2278725504875183e-01" purity="5.9855979681015015e-01" nType="0">
        <Node pos="l" depth="1" NCoef="0" IVar="-1" Cut="0.0000000000000000e+00" cType="1" res="3.0099487048573792e-04" rms="2.8687745332717896e-01" purity="8.9492529630661011e-01" nType="-99"/>
        <Node pos="r" depth="1" NCoef="0" IVar="2" Cut="1.5360555052757263e-01" cType="1" res="-5.6234135990962386e-04" rms="3.5873261094093323e-01" purity="2.6692840456962585e-01" nType="0">
          <Node pos="l" depth="2" NCoef="0" IVar="-1" Cut="0.0000000000000000e+00" cType="1" res="6.9215465337038040e-03" rms="3.6714440584182739e-01" purity="3.2731378078460693e-01" nType="-99"/>
          <Node pos="r" depth="2" NCoef="0" IVar="-1" Cut="0.0000000000000000e+00" cType="1" res="-4.8264767974615097e-04" rms="3.5839682817459106e-01" purity="2.6468241214752197e-01" nType="-99"/>
        </Node>
      </Node>
    </BinaryTree>
    <BinaryTree type="DecisionTree" boostWeight="1.0000000000000000e+00" itree="1096">
      <Node pos="s" depth="0" NCoef="0" IVar="2" Cut="2.3228156566619873e-01" cType="1" res="-5.3620050266545149e-07" rms="3.2278627157211304e-01" purity="5.9855979681015015e-01" nType="0">
        <Node pos="l" depth="1" NCoef="0" IVar="-1" Cut="0.0000000000000000e+00" cType="1" res="-5.6189199676737189e-04" rms="2.6938617229461670e-01" purity="8.6202687025070190e-01" nType="-99"/>
        <Node pos="r" depth="1" NCoef="0" IVar="3" Cut="1.1524374037981033e-01" cType="0" res="3.7216622149571776e-04" rms="3.4436750411987305e-01" purity="4.7859564423561096e-01" nType="0">
          <Node pos="l" depth="2" NCoef="0" IVar="-1" Cut="0.0000000000000000e+00" cType="1" res="2.2202679247129709e-04" rms="3.4497398138046265e-01" purity="4.8142758011817932e-01" nType="-99"/>
          <Node pos="r" depth="2" NCoef="0" IVar="-1" Cut="0.0000000000000000e+00" cType="1" res="-1.5329162590205669e-02" rms="2.4091853201389313e-01" purity="7.2289153933525085e-02" nType="-99"/>
        </Node>
      </Node>
    </BinaryTree>
    <BinaryTree type="DecisionTree" boostWeight="1.0000000000000000e+00" itree="1097">
      <Node pos="s" depth="0" NCoef="0" IVar="3" Cut="2.7259728312492371e-01" cType="0" res="-5.9086130477226106e-07" rms="3.2278540730476379e-01" purity="5.9855979681015015e-01" nType="0">
        <Node pos="l" depth="1" NCoef="0" IVar="-1" Cut="0.0000000000000000e+00" cType="1" res="-2.2290695051196963e-04" rms="3.6413180828094482e-01" purity="5.9957766532897949e-01" nType="-99"/>
        <Node pos="r" depth="1" NCoef="0" IVar="3" Cut="2.5624132156372070e-01" cType="1" res="4.7052511945366859e-04" rms="2.8562813997268677e-01" purity="5.9774965047836304e-01" nType="0">
          <Node pos="l" depth="2" NCoef="0" IVar="-1" Cut="0.0000000000000000e+00" cType="1" res="-2.3238509311340749e-04" rms="2.8024244308471680e-01" purity="6.2042009830474854e-01" nType="-99"/>
          <Node pos="r" depth="2" NCoef="0" IVar="-1" Cut="0.0000000000000000e+00" cType="1" res="4.0625156834721565e-03" rms="3.3678787946701050e-01" purity="3.6023622751235962e-01" nType="-99"/>
        </Node>
      </Node>
    </BinaryTree>
    <BinaryTree type="DecisionTree" boostWeight="1.0000000000000000e+00" itree="1098">
      <Node pos="s" depth="0" NCoef="0" IVar="3" Cut="1.2742861174046993e-02" cType="1" res="-5.6719989061093656e-07" rms="3.2278284430503845e-01" purity="5.9855979681015015e-01" nType="0">
        <Node pos="l" depth="1" NCoef="0" IVar="-1" Cut="0.0000000000000000e+00" cType="1" res="7.5159914558753371e-04" rms="2.4897432327270508e-01" purity="9.2308878898620605e-01" nType="-99"/>
        <Node pos="r" depth="1" NCoef="0" IVar="2" Cut="1.9981436431407928e-01" cType="1" res="-3.1254175701178610e-04" rms="3.4362182021141052e-01" purity="4.9176207184791565e-01" nType="0">
          <Node pos="l" depth="2" NCoef="0" IVar="-1" Cut="0.0000000000000000e+00" cType="1" res="-3.7235300987958908e-03" rms="3.3818286657333374e-01" purity="6.1206567287445068e-01" nType="-99"/>
          <Node pos="r" depth="2" NCoef="0" IVar="-1" Cut="0.0000000000000000e+00" cType="1" res="1.0721790749812499e-04" rms="3.4399878978729248e-01" purity="4.8319372534751892e-01" nType="-99"/>
        </Node>
      </Node>
    </BinaryTree>
    <BinaryTree type="DecisionTree" boostWeight="1.0000000000000000e+00" itree="1099">
      <Node pos="s" depth="0" NCoef="0" IVar="3" Cut="2.6085385680198669e-01" cType="1" res="-4.6074094939285715e-07" rms="3.2278069853782654e-01" purity="5.9855979681015015e-01" nType="0">
        <Node pos="l" depth="1" NCoef="0" IVar="-1" Cut="0.0000000000000000e+00" cType="1" res="3.0840333783999085e-04" rms="2.8209716081619263e-01" purity="6.1474961042404175e-01" nType="-99"/>
        <Node pos="r" depth="1" NCoef="0" IVar="0" Cut="3.4482759237289429e-01" cType="1" res="-5.4990214994177222e-04" rms="3.6181381344795227e-01" purity="5.8097934722900391e-01" nType="0">
          <Node pos="l" depth="2" NCoef="0" IVar="-1" Cut="0.0000000000000000e+00" cType="1" res="-6.0097867390140891e-04" rms="3.7530159950256348e-01" purity="7.0355474948883057e-01" nType="-99"/>
          <Node pos="r" depth="2" NCoef="0" IVar="-1" Cut="0.0000000000000000e+00" cType="1" res="2.0877681672573090e-03" rms="3.0484613776206970e-01" purity="1.1305182427167892e-01" nType="-99"/>
        </Node>
      </Node>
    </BinaryTree>
    <BinaryTree type="DecisionTree" boostWeight="1.0000000000000000e+00" itree="1100">
      <Node pos="s" depth="0" NCoef="0" IVar="0" Cut="6.7966014146804810e-01" cType="1" res="-4.6136742071212211e-07" rms="3.2277870178222656e-01" purity="5.9855979681015015e-01" nType="0">
        <Node pos="l" depth="1" NCoef="0" IVar="-1" Cut="0.0000000000000000e+00" cType="1" res="9.3227165052667260e-05" rms="3.3134147524833679e-01" purity="6.7427307367324829e-01" nType="-99"/>
        <Node pos="r" depth="1" NCoef="0" IVar="0" Cut="6.9249182939529419e-01" cType="0" res="-1.4285987708717585e-03" rms="2.5625926256179810e-01" purity="7.7929891645908356e-02" nType="0">
          <Node pos="l" depth="2" NCoef="0" IVar="-1" Cut="0.0000000000000000e+00" cType="1" res="-5.2011170191690326e-04" rms="2.5866270065307617e-01" purity="7.9450786113739014e-02" nType="-99"/>
          <Node pos="r" depth="2" NCoef="0" IVar="-1" Cut="0.0000000000000000e+00" cType="1" res="-3.2947689294815063e-02" rms="1.2753330171108246e-01" purity="1.8181817606091499e-02" nType="-99"/>
        </Node>
      </Node>
    </BinaryTree>
    <BinaryTree type="DecisionTree" boostWeight="1.0000000000000000e+00" itree="1101">
      <Node pos="s" depth="0" NCoef="0" IVar="0" Cut="6.8715639412403107e-02" cType="1" res="-6.7861600427931990e-07" rms="3.2277837395668030e-01" purity="5.9855979681015015e-01" nType="0">
        <Node pos="l" depth="1" NCoef="0" IVar="-1" Cut="0.0000000000000000e+00" cType="1" res="2.9672018717974424e-04" rms="2.8687432408332825e-01" purity="8.9492529630661011e-01" nType="-99"/>
        <Node pos="r" depth="1" NCoef="0" IVar="2" Cut="1.5360555052757263e-01" cType="1" res="-5.5456062545999885e-04" rms="3.5871854424476624e-01" purity="2.6692840456962585e-01" nType="0">
          <Node pos="l" depth="2" NCoef="0" IVar="-1" Cut="0.0000000000000000e+00" cType="1" res="6.5551325678825378e-03" rms="3.6714437603950500e-01" purity="3.2731378078460693e-01" nType="-99"/>
          <Node pos="r" depth="2" NCoef="0" IVar="-1" Cut="0.0000000000000000e+00" cType="1" res="-4.6592028229497373e-04" rms="3.5838413238525391e-01" purity="2.6468241214752197e-01" nType="-99"/>
        </Node>
      </Node>
    </BinaryTree>
    <BinaryTree type="DecisionTree" boostWeight="1.0000000000000000e+00" itree="1102">
      <Node pos="s" depth="0" NCoef="0" IVar="2" Cut="2.9222521185874939e-01" cType="1" res="-6.4199076632576180e-07" rms="3.2277759909629822e-01" purity="5.9855979681015015e-01" nType="0">
        <Node pos="l" depth="1" NCoef="0" IVar="-1" Cut="0.0000000000000000e+00" cType="1" res="-5.1572563825175166e-04" rms="2.7558216452598572e-01" purity="8.4798938035964966e-01" nType="-99"/>
        <Node pos="r" depth="1" NCoef="0" IVar="3" Cut="1.0626529902219772e-01" cType="0" res="4.1305908234789968e-04" rms="3.4512609243392944e-01" purity="4.6671533584594727e-01" nType="0">
          <Node pos="l" depth="2" NCoef="0" IVar="-1" Cut="0.0000000000000000e+00" cType="1" res="1.3442471390590072e-04" rms="3.4517312049865723e-01" purity="4.6767204999923706e-01" nType="-99"/>
          <Node pos="r" depth="2" NCoef="0" IVar="-1" Cut="0.0000000000000000e+00" cType="1" res="1.6151390969753265e-02" rms="3.2735392451286316e-01" purity="1.4000000059604645e-01" nType="-99"/>
        </Node>
      </Node>
    </BinaryTree>
    <BinaryTree type="DecisionTree" boostWeight="1.0000000000000000e+00" itree="1103">
      <Node pos="s" depth="0" NCoef="0" IVar="1" Cut="8.8330835103988647e-01" cType="1" res="-6.3416899820367689e-07" rms="3.2277613878250122e-01" purity="5.9855979681015015e-01" nType="0">
        <Node pos="l" depth="1" NCoef="0" IVar="-1" Cut="0.0000000000000000e+00" cType="1" res="4.4189226173330098e-05" rms="3.2325506210327148e-01" purity="6.1389672756195068e-01" nType="-99"/>
        <Node pos="r" depth="1" NCoef="0" IVar="3" Cut="1.3765561580657959e-01" cType="1" res="-2.9194280505180359e-03" rms="3.0755451321601868e-01" purity="1.2339645624160767e-01" nType="0">
          <Node pos="l" depth="2" NCoef="0" IVar="-1" Cut="0.0000000000000000e+00" cType="1" res="1.4118858613073826e-02" rms="3.7033388018608093e-01" purity="1.9431279599666595e-01" nType="-99"/>
          <Node pos="r" depth="2" NCoef="0" IVar="-1" Cut="0.0000000000000000e+00" cType="1" res="-4.2604366317391396e-03" rms="2.9674282670021057e-01" purity="1.1290322244167328e-01" nType="-99"/>
        </Node>
      </Node>
    </BinaryTree>
    <BinaryTree type="DecisionTree" boostWeight="1.0000000000000000e+00" itree="1104">
      <Node pos="s" depth="0" NCoef="0" IVar="1" Cut="1.7341328859329224e+00" cType="1" res="-7.4433569352549966e-07" rms="3.2277444005012512e-01" purity="5.9855979681015015e-01" nType="0">
        <Node pos="l" depth="1" NCoef="0" IVar="-1" Cut="0.0000000000000000e+00" cType="1" res="-2.0119368855375797e-05" rms="3.2245320081710815e-01" purity="6.0092604160308838e-01" nType="-99"/>
        <Node pos="r" depth="1" NCoef="0" IVar="2" Cut="9.8254376649856567e-01" cType="0" res="7.0955497212707996e-03" rms="3.7334579229354858e-01" purity="1.9607843458652496e-01" nType="0">
          <Node pos="l" depth="2" NCoef="0" IVar="-1" Cut="0.0000000000000000e+00" cType="1" res="7.2993263602256775e-03" rms="3.8873049616813660e-01" purity="2.1463415026664734e-01" nType="-99"/>
          <Node pos="r" depth="2" NCoef="0" IVar="-1" Cut="0.0000000000000000e+00" cType="1" res="-7.7460459433495998e-03" rms="3.3819198608398438e-01" purity="1.5841583907604218e-01" nType="-99"/>
        </Node>
      </Node>
    </BinaryTree>
    <BinaryTree type="DecisionTree" boostWeight="1.0000000000000000e+00" itree="1105">
      <Node pos="s" depth="0" NCoef="0" IVar="2" Cut="2.9222521185874939e-01" cType="1" res="-7.2120167260436574e-07" rms="3.2277339696884155e-01" purity="5.9855979681015015e-01" nType="0">
        <Node pos="l" depth="1" NCoef="0" IVar="-1" Cut="0.0000000000000000e+00" cType="1" res="-4.8068250180222094e-04" rms="2.7557969093322754e-01" purity="8.4798938035964966e-01" nType="-99"/>
        <Node pos="r" depth="1" NCoef="0" IVar="3" Cut="1.2265095114707947e-01" cType="0" res="3.8507147110067308e-04" rms="3.4512123465538025e-01" purity="4.6671533584594727e-01" nType="0">
          <Node pos="l" depth="2" NCoef="0" IVar="-1" Cut="0.0000000000000000e+00" cType="1" res="2.1766807185485959e-04" rms="3.4576591849327087e-01" purity="4.6999588608741760e-01" nType="-99"/>
          <Node pos="r" depth="2" NCoef="0" IVar="-1" Cut="0.0000000000000000e+00" cType="1" res="-1.0800202377140522e-02" rms="2.5746440887451172e-01" purity="7.9861111938953400e-02" nType="-99"/>
        </Node>
      </Node>
    </BinaryTree>
    <BinaryTree type="DecisionTree" boostWeight="1.0000000000000000e+00" itree="1106">
      <Node pos="s" depth="0" NCoef="0" IVar="1" Cut="7.5837081670761108e-01" cType="1" res="-7.1176509663928300e-07" rms="3.2277271151542664e-01" purity="5.9855979681015015e-01" nType="0">
        <Node pos="l" depth="1" NCoef="0" IVar="-1" Cut="0.0000000000000000e+00" cType="1" res="-5.1553481171140447e-05" rms="3.2326489686965942e-01" purity="6.1891573667526245e-01" nType="-99"/>
        <Node pos="r" depth="1" NCoef="0" IVar="1" Cut="8.0117070674896240e-01" cType="1" res="2.5189002044498920e-03" rms="3.1112280488014221e-01" purity="1.2621359527111053e-01" nType="0">
          <Node pos="l" depth="2" NCoef="0" IVar="-1" Cut="0.0000000000000000e+00" cType="1" res="2.3888200521469116e-02" rms="3.4862080216407776e-01" purity="1.7370891571044922e-01" nType="-99"/>
          <Node pos="r" depth="2" NCoef="0" IVar="-1" Cut="0.0000000000000000e+00" cType="1" res="-1.2304702540859580e-03" rms="3.0633819103240967e-01" purity="1.2102564424276352e-01" nType="-99"/>
        </Node>
      </Node>
    </BinaryTree>
    <BinaryTree type="DecisionTree" boostWeight="1.0000000000000000e+00" itree="1107">
      <Node pos="s" depth="0" NCoef="0" IVar="1" Cut="1.5704647302627563e+00" cType="1" res="-9.4707723974352120e-07" rms="3.2276752591133118e-01" purity="5.9855979681015015e-01" nType="0">
        <Node pos="l" depth="1" NCoef="0" IVar="-1" Cut="0.0000000000000000e+00" cType="1" res="-2.2185911802807823e-05" rms="3.2247212529182434e-01" purity="6.0177844762802124e-01" nType="-99"/>
        <Node pos="r" depth="1" NCoef="0" IVar="0" Cut="2.0102448463439941e+00" cType="0" res="5.9902560897171497e-03" rms="3.5920137166976929e-01" purity="1.7839196324348450e-01" nType="0">
          <Node pos="l" depth="2" NCoef="0" IVar="-1" Cut="0.0000000000000000e+00" cType="1" res="9.1130146756768227e-03" rms="4.3348973989486694e-01" purity="2.8571429848670959e-01" nType="-99"/>
          <Node pos="r" depth="2" NCoef="0" IVar="-1" Cut="0.0000000000000000e+00" cType="1" res="-1.9795894622802734e-03" rms="3.2492142915725708e-01" purity="1.3636364042758942e-01" nType="-99"/>
        </Node>
      </Node>
    </BinaryTree>
    <BinaryTree type="DecisionTree" boostWeight="1.0000000000000000e+00" itree="1108">
      <Node pos="s" depth="0" NCoef="0" IVar="1" Cut="4.1854071617126465e-01" cType="1" res="-8.8489417748860433e-07" rms="3.2276660203933716e-01" purity="5.9855979681015015e-01" nType="0">
        <Node pos="l" depth="1" NCoef="0" IVar="-1" Cut="0.0000000000000000e+00" cType="1" res="8.8373453763779253e-05" rms="3.2196900248527527e-01" purity="6.5104132890701294e-01" nType="-99"/>
        <Node pos="r" depth="1" NCoef="0" IVar="1" Cut="4.2793497443199158e-01" cType="1" res="-1.5485383337363601e-03" rms="3.2930094003677368e-01" purity="1.6344277560710907e-01" nType="0">
          <Node pos="l" depth="2" NCoef="0" IVar="-1" Cut="0.0000000000000000e+00" cType="1" res="-1.3002950698137283e-02" rms="3.3447214961051941e-01" purity="2.1538461744785309e-01" nType="-99"/>
          <Node pos="r" depth="2" NCoef="0" IVar="-1" Cut="0.0000000000000000e+00" cType="1" res="-1.5164836077019572e-04" rms="3.2904934883117676e-01" purity="1.6158087551593781e-01" nType="-99"/>
        </Node>
      </Node>
    </BinaryTree>
    <BinaryTree type="DecisionTree" boostWeight="1.0000000000000000e+00" itree="1109">
      <Node pos="s" depth="0" NCoef="0" IVar="0" Cut="1.1081959009170532e+00" cType="1" res="-8.4415381707003689e-07" rms="3.2276540994644165e-01" purity="5.9855979681015015e-01" nType="0">
        <Node pos="l" depth="1" NCoef="0" IVar="-1" Cut="0.0000000000000000e+00" cType="1" res="6.0891386965522543e-05" rms="3.2530212402343750e-01" purity="6.3016062974929810e-01" nType="-99"/>
        <Node pos="r" depth="1" NCoef="0" IVar="0" Cut="1.1743897199630737e+00" cType="0" res="-2.0800128113478422e-03" rms="2.7955523133277893e-01" purity="9.8360657691955566e-02" nType="0">
          <Node pos="l" depth="2" NCoef="0" IVar="-1" Cut="0.0000000000000000e+00" cType="1" res="2.4528091307729483e-04" rms="2.8767573833465576e-01" purity="1.0505557805299759e-01" nType="-99"/>
          <Node pos="r" depth="2" NCoef="0" IVar="-1" Cut="0.0000000000000000e+00" cType="1" res="-2.0114289596676826e-02" rms="1.9424189627170563e-01" purity="4.0372669696807861e-02" nType="-99"/>
        </Node>
      </Node>
    </BinaryTree>
    <BinaryTree type="DecisionTree" boostWeight="1.0000000000000000e+00" itree="1110">
      <Node pos="s" depth="0" NCoef="0" IVar="0" Cut="1.4005497694015503e+00" cType="1" res="-1.0060090289698564e-06" rms="3.2276433706283569e-01" purity="5.9855979681015015e-01" nType="0">
        <Node pos="l" depth="1" NCoef="0" IVar="-1" Cut="0.0000000000000000e+00" cType="1" res="4.8274392611347139e-05" rms="3.2378011941909790e-01" purity="6.1764645576477051e-01" nType="-99"/>
        <Node pos="r" depth="1" NCoef="0" IVar="2" Cut="2.1317453384399414e+00" cType="0" res="-2.6251433882862329e-03" rms="2.9584184288978577e-01" purity="1.1474584788084030e-01" nType="0">
          <Node pos="l" depth="2" NCoef="0" IVar="-1" Cut="0.0000000000000000e+00" cType="1" res="-1.0027321986854076e-02" rms="2.9150754213333130e-01" purity="1.2717770040035248e-01" nType="-99"/>
          <Node pos="r" depth="2" NCoef="0" IVar="-1" Cut="0.0000000000000000e+00" cType="1" res="3.0344589613378048e-03" rms="2.9721415042877197e-01" purity="1.0969568043947220e-01" nType="-99"/>
        </Node>
      </Node>
    </BinaryTree>
    <BinaryTree type="DecisionTree" boostWeight="1.0000000000000000e+00" itree="1111">
      <Node pos="s" depth="0" NCoef="0" IVar="2" Cut="3.2781672477722168e+00" cType="1" res="-1.0779124295368092e-06" rms="3.2276329398155212e-01" purity="5.9855979681015015e-01" nType="0">
        <Node pos="l" depth="1" NCoef="0" IVar="-1" Cut="0.0000000000000000e+00" cType="1" res="-2.1705405742977746e-05" rms="3.2254555821418762e-01" purity="6.0073769092559814e-01" nType="-99"/>
        <Node pos="r" depth="1" NCoef="0" IVar="0" Cut="7.6633840799331665e-01" cType="1" res="7.8160725533962250e-03" rms="3.5869112610816956e-01" purity="2.1812079846858978e-01" nType="0">
          <Node pos="l" depth="2" NCoef="0" IVar="-1" Cut="0.0000000000000000e+00" cType="1" res="1.1698018759489059e-02" rms="4.0682968497276306e-01" purity="3.1372550129890442e-01" nType="-99"/>
          <Node pos="r" depth="2" NCoef="0" IVar="-1" Cut="0.0000000000000000e+00" cType="1" res="-3.0414976645261049e-03" rms="3.2983419299125671e-01" purity="1.6836734116077423e-01" nType="-99"/>
        </Node>
      </Node>
    </BinaryTree>
    <BinaryTree type="DecisionTree" boostWeight="1.0000000000000000e+00" itree="1112">
      <Node pos="s" depth="0" NCoef="0" IVar="2" Cut="2.7723929882049561e+00" cType="1" res="-1.0043946758742095e-06" rms="3.2276228070259094e-01" purity="5.9855979681015015e-01" nType="0">
        <Node pos="l" depth="1" NCoef="0" IVar="-1" Cut="0.0000000000000000e+00" cType="1" res="-3.0955503461882472e-05" rms="3.2258239388465881e-01" purity="6.0449886322021484e-01" nType="-99"/>
        <Node pos="r" depth="1" NCoef="0" IVar="3" Cut="3.4811067581176758e-01" cType="0" res="4.4812299311161041e-03" rms="3.3502417802810669e-01" purity="1.8488529324531555e-01" nType="0">
          <Node pos="l" depth="2" NCoef="0" IVar="-1" Cut="0.0000000000000000e+00" cType="1" res="1.0650135576725006e-02" rms="4.2244863510131836e-01" purity="4.1618496179580688e-01" nType="-99"/>
          <Node pos="r" depth="2" NCoef="0" IVar="-1" Cut="0.0000000000000000e+00" cType="1" res="-3.2450065482407808e-03" rms="3.0260801315307617e-01" purity="1.1443661898374557e-01" nType="-99"/>
        </Node>
      </Node>
    </BinaryTree>
    <BinaryTree type="DecisionTree" boostWeight="1.0000000000000000e+00" itree="1113">
      <Node pos="s" depth="0" NCoef="0" IVar="0" Cut="2.3213393688201904e+00" cType="1" res="-9.4833461616872228e-07" rms="3.2275998592376709e-01" purity="5.9855979681015015e-01" nType="0">
        <Node pos="l" depth="1" NCoef="0" IVar="-1" Cut="0.0000000000000000e+00" cType="1" res="-2.7974936529062688e-05" rms="3.2241517305374146e-01" purity="6.0334169864654541e-01" nType="-99"/>
        <Node pos="r" depth="1" NCoef="0" IVar="2" Cut="1.4972913265228271e+00" cType="1" res="5.1478659734129906e-03" rms="3.5195070505142212e-01" purity="1.7465753853321075e-01" nType="0">
          <Node pos="l" depth="2" NCoef="0" IVar="-1" Cut="0.0000000000000000e+00" cType="1" res="1.1695849709212780e-02" rms="3.6862367391586304e-01" purity="1.8750000000000000e-01" nType="-99"/>
          <Node pos="r" depth="2" NCoef="0" IVar="-1" Cut="0.0000000000000000e+00" cType="1" res="-4.6631013974547386e-03" rms="3.3879491686820984e-01" purity="1.6569767892360687e-01" nType="-99"/>
        </Node>
      </Node>
    </BinaryTree>
    <BinaryTree type="DecisionTree" boostWeight="1.0000000000000000e+00" itree="1114">
      <Node pos="s" depth="0" NCoef="0" IVar="2" Cut="1.5360555648803711e+00" cType="1" res="-9.7200847903877730e-07" rms="3.2275766134262085e-01" purity="5.9855979681015015e-01" nType="0">
        <Node pos="l" depth="1" NCoef="0" IVar="-1" Cut="0.0000000000000000e+00" cType="1" res="-9.4598923169542104e-05" rms="3.2023212313652039e-01" purity="6.4864921569824219e-01" nType="-99"/>
        <Node pos="r" depth="1" NCoef="0" IVar="2" Cut="1.5748881101608276e+00" cType="1" res="1.4977710088714957e-03" rms="3.4147560596466064e-01" purity="2.1498262882232666e-01" nType="0">
          <Node pos="l" depth="2" NCoef="0" IVar="-1" Cut="0.0000000000000000e+00" cType="1" res="1.2827936559915543e-02" rms="3.6195054650306702e-01" purity="3.1286549568176270e-01" nType="-99"/>
          <Node pos="r" depth="2" NCoef="0" IVar="-1" Cut="0.0000000000000000e+00" cType="1" res="-1.3886009401176125e-04" rms="3.4012213349342346e-01" purity="2.0911480486392975e-01" nType="-99"/>
        </Node>
      </Node>
    </BinaryTree>
    <BinaryTree type="DecisionTree" boostWeight="1.0000000000000000e+00" itree="1115">
      <Node pos="s" depth="0" NCoef="0" IVar="2" Cut="1.7608441114425659e+00" cType="1" res="-9.4652995130672934e-07" rms="3.2275485992431641e-01" purity="5.9855979681015015e-01" nType="0">
        <Node pos="l" depth="1" NCoef="0" IVar="-1" Cut="0.0000000000000000e+00" cType="1" res="-7.6065589382778853e-05" rms="3.2150238752365112e-01" purity="6.3296103477478027e-01" nType="-99"/>
        <Node pos="r" depth="1" NCoef="0" IVar="2" Cut="1.8039171695709229e+00" cType="1" res="1.8224531086161733e-03" rms="3.3684086799621582e-01" purity="2.0229555666446686e-01" nType="0">
          <Node pos="l" depth="2" NCoef="0" IVar="-1" Cut="0.0000000000000000e+00" cType="1" res="1.4069089666008949e-02" rms="3.5802060365676880e-01" purity="2.7046263217926025e-01" nType="-99"/>
          <Node pos="r" depth="2" NCoef="0" IVar="-1" Cut="0.0000000000000000e+00" cType="1" res="-2.5940424529835582e-04" rms="3.3513221144676208e-01" purity="1.9738528132438660e-01" nType="-99"/>
        </Node>
      </Node>
    </BinaryTree>
    <BinaryTree type="DecisionTree" boostWeight="1.0000000000000000e+00" itree="1116">
      <Node pos="s" depth="0" NCoef="0" IVar="2" Cut="3.7989275455474854e+00" cType="1" res="-9.4823133167665219e-07" rms="3.2275101542472839e-01" purity="5.9855979681015015e-01" nType="0">
        <Node pos="l" depth="1" NCoef="0" IVar="2" Cut="3.3657162189483643e+00" cType="1" res="-2.7715164833352901e-05" rms="3.2260885834693909e-01" purity="5.9950596094131470e-01" nType="0">
          <Node pos="l" depth="2" NCoef="0" IVar="-1" Cut="0.0000000000000000e+00" cType="1" res="1.3144710464985110e-05" rms="3.2261440157890320e-01" purity="6.0052978992462158e-01" nType="-99"/>
          <Node pos="r" depth="2" NCoef="0" IVar="-1" Cut="0.0000000000000000e+00" cType="1" res="-8.4551349282264709e-03" rms="3.1957522034645081e-01" purity="1.8604651093482971e-01" nType="-99"/>
        </Node>
        <Node pos="r" depth="1" NCoef="0" IVar="-1" Cut="0.0000000000000000e+00" cType="1" res="3.7533717695623636e-03" rms="3.7500464916229248e-01" purity="2.2137404978275299e-01" nType="-99"/>
      </Node>
    </BinaryTree>
    <BinaryTree type="DecisionTree" boostWeight="1.0000000000000000e+00" itree="1117">
      <Node pos="s" depth="0" NCoef="0" IVar="2" Cut="3.2781672477722168e+00" cType="1" res="-8.7871518417159677e-07" rms="3.2275071740150452e-01" purity="5.9855979681015015e-01" nType="0">
        <Node pos="l" depth="1" NCoef="0" IVar="-1" Cut="0.0000000000000000e+00" cType="1" res="-2.0814954041270539e-05" rms="3.2253524661064148e-01" purity="6.0073769092559814e-01" nType="-99"/>
        <Node pos="r" depth="1" NCoef="0" IVar="3" Cut="3.2239890098571777e-01" cType="0" res="7.5242407619953156e-03" rms="3.5832580924034119e-01" purity="2.1812079846858978e-01" nType="0">
          <Node pos="l" depth="2" NCoef="0" IVar="-1" Cut="0.0000000000000000e+00" cType="1" res="-4.1877357289195061e-03" rms="3.7671375274658203e-01" purity="2.8169015049934387e-01" nType="-99"/>
          <Node pos="r" depth="2" NCoef="0" IVar="-1" Cut="0.0000000000000000e+00" cType="1" res="1.2779361568391323e-02" rms="3.3952835202217102e-01" purity="1.6025641560554504e-01" nType="-99"/>
        </Node>
      </Node>
    </BinaryTree>
    <BinaryTree type="DecisionTree" boostWeight="1.0000000000000000e+00" itree="1118">
      <Node pos="s" depth="0" NCoef="0" IVar="2" Cut="1.1876331567764282e+00" cType="1" res="-8.6193165316217346e-07" rms="3.2274937629699707e-01" purity="5.9855979681015015e-01" nType="0">
        <Node pos="l" depth="1" NCoef="0" IVar="-1" Cut="0.0000000000000000e+00" cType="1" res="1.2985560169909149e-04" rms="3.1635409593582153e-01" purity="6.8335270881652832e-01" nType="-99"/>
        <Node pos="r" depth="1" NCoef="0" IVar="2" Cut="1.2351127862930298e+00" cType="1" res="-1.0850501712411642e-03" rms="3.4774762392044067e-01" purity="2.5080385804176331e-01" nType="0">
          <Node pos="l" depth="2" NCoef="0" IVar="-1" Cut="0.0000000000000000e+00" cType="1" res="-1.0222035460174084e-02" rms="3.4845685958862305e-01" purity="3.0057802796363831e-01" nType="-99"/>
          <Node pos="r" depth="2" NCoef="0" IVar="-1" Cut="0.0000000000000000e+00" cType="1" res="2.8485324583016336e-04" rms="3.4762814640998840e-01" purity="2.4720509350299835e-01" nType="-99"/>
        </Node>
      </Node>
    </BinaryTree>
    <BinaryTree type="DecisionTree" boostWeight="1.0000000000000000e+00" itree="1119">
      <Node pos="s" depth="0" NCoef="0" IVar="2" Cut="3.8813500404357910e+00" cType="1" res="-8.3282799323569634e-07" rms="3.2274574041366577e-01" purity="5.9855979681015015e-01" nType="0">
        <Node pos="l" depth="1" NCoef="0" IVar="2" Cut="3.3121306896209717e+00" cType="1" res="2.4356544599868357e-05" rms="3.2265627384185791e-01" purity="5.9940659999847412e-01" nType="0">
          <Node pos="l" depth="2" NCoef="0" IVar="-1" Cut="0.0000000000000000e+00" cType="1" res="-1.7737447706167586e-05" rms="3.2254469394683838e-01" purity="6.0064917802810669e-01" nType="-99"/>
          <Node pos="r" depth="2" NCoef="0" IVar="-1" Cut="0.0000000000000000e+00" cType="1" res="7.1276184171438217e-03" rms="3.5416185855865479e-01" purity="2.2543352842330933e-01" nType="-99"/>
        </Node>
        <Node pos="r" depth="1" NCoef="0" IVar="-1" Cut="0.0000000000000000e+00" cType="1" res="-3.9147553034126759e-03" rms="3.6123627424240112e-01" purity="2.1052631735801697e-01" nType="-99"/>
      </Node>
    </BinaryTree>
    <BinaryTree type="DecisionTree" boostWeight="1.0000000000000000e+00" itree="1120">
      <Node pos="s" depth="0" NCoef="0" IVar="0" Cut="5.9970013797283173e-02" cType="1" res="-7.7350443916657241e-07" rms="3.2274508476257324e-01" purity="5.9855979681015015e-01" nType="0">
        <Node pos="l" depth="1" NCoef="0" IVar="-1" Cut="0.0000000000000000e+00" cType="1" res="3.1593223684467375e-04" rms="2.8234735131263733e-01" purity="8.9877647161483765e-01" nType="-99"/>
        <Node pos="r" depth="1" NCoef="0" IVar="3" Cut="4.1463568806648254e-01" cType="0" res="-5.3204671712592244e-04" rms="3.5985586047172546e-01" purity="2.8743678331375122e-01" nType="0">
          <Node pos="l" depth="2" NCoef="0" IVar="-1" Cut="0.0000000000000000e+00" cType="1" res="-6.5351258963346481e-03" rms="4.4982069730758667e-01" purity="5.0656169652938843e-01" nType="-99"/>
          <Node pos="r" depth="2" NCoef="0" IVar="-1" Cut="0.0000000000000000e+00" cType="1" res="-5.6210123148048297e-05" rms="3.5831621289253235e-01" purity="2.8414070606231689e-01" nType="-99"/>
        </Node>
      </Node>
    </BinaryTree>
    <BinaryTree type="DecisionTree" boostWeight="1.0000000000000000e+00" itree="1121">
      <Node pos="s" depth="0" NCoef="0" IVar="0" Cut="1.2493752874433994e-03" cType="1" res="-6.8221066840123967e-07" rms="3.2274314761161804e-01" purity="5.9855979681015015e-01" nType="0">
        <Node pos="l" depth="1" NCoef="0" IVar="-1" Cut="0.0000000000000000e+00" cType="1" res="-5.0307950004935265e-04" rms="2.7191522717475891e-01" purity="9.0791207551956177e-01" nType="-99"/>
        <Node pos="r" depth="1" NCoef="0" IVar="3" Cut="1.4489956200122833e-01" cType="0" res="3.7020188756287098e-04" rms="3.4532064199447632e-01" purity="4.4418039917945862e-01" nType="0">
          <Node pos="l" depth="2" NCoef="0" IVar="-1" Cut="0.0000000000000000e+00" cType="1" res="3.7454019184224308e-04" rms="3.4760376811027527e-01" purity="4.4870164990425110e-01" nType="-99"/>
          <Node pos="r" depth="2" NCoef="0" IVar="-1" Cut="0.0000000000000000e+00" cType="1" res="-3.0710080172866583e-03" rms="3.1663265824317932e-01" purity="3.9004456996917725e-01" nType="-99"/>
        </Node>
      </Node>
    </BinaryTree>
    <BinaryTree type="DecisionTree" boostWeight="1.0000000000000000e+00" itree="1122">
      <Node pos="s" depth="0" NCoef="0" IVar="3" Cut="2.6085385680198669e-01" cType="1" res="-6.1249426153153763e-07" rms="3.2274252176284790e-01" purity="5.9855979681015015e-01" nType="0">
        <Node pos="l" depth="1" NCoef="0" IVar="-1" Cut="0.0000000000000000e+00" cType="1" res="3.1042445334605873e-04" rms="2.8206503391265869e-01" purity="6.1474961042404175e-01" nType="-99"/>
        <Node pos="r" depth="1" NCoef="0" IVar="0" Cut="1.0644677877426147e+00" cType="1" res="-5.5396993411704898e-04" rms="3.6176997423171997e-01" purity="5.8097934722900391e-01" nType="0">
          <Node pos="l" depth="2" NCoef="0" IVar="-1" Cut="0.0000000000000000e+00" cType="1" res="-3.7074077408760786e-04" rms="3.6244484782218933e-01" purity="5.9640496969223022e-01" nType="-99"/>
          <Node pos="r" depth="2" NCoef="0" IVar="-1" Cut="0.0000000000000000e+00" cType="1" res="4.6821148134768009e-03" rms="3.4290644526481628e-01" purity="1.6573971509933472e-01" nType="-99"/>
        </Node>
      </Node>
    </BinaryTree>
    <BinaryTree type="DecisionTree" boostWeight="1.0000000000000000e+00" itree="1123">
      <Node pos="s" depth="0" NCoef="0" IVar="0" Cut="1.4005497694015503e+00" cType="1" res="-5.9830438203789527e-07" rms="3.2274100184440613e-01" purity="5.9855979681015015e-01" nType="0">
        <Node pos="l" depth="1" NCoef="0" IVar="-1" Cut="0.0000000000000000e+00" cType="1" res="5.2832576329819858e-05" rms="3.2376059889793396e-01" purity="6.1764645576477051e-01" nType="-99"/>
        <Node pos="r" depth="1" NCoef="0" IVar="0" Cut="1.5011166334152222e+00" cType="0" res="-2.8603312093764544e-03" rms="2.9570990800857544e-01" purity="1.1474584788084030e-01" nType="0">
          <Node pos="l" depth="2" NCoef="0" IVar="-1" Cut="0.0000000000000000e+00" cType="1" res="1.1578928679227829e-03" rms="3.0833569169044495e-01" purity="1.2595644593238831e-01" nType="-99"/>
          <Node pos="r" depth="2" NCoef="0" IVar="-1" Cut="0.0000000000000000e+00" cType="1" res="-2.3302711546421051e-02" rms="2.0340242981910706e-01" purity="4.8611111938953400e-02" nType="-99"/>
        </Node>
      </Node>
    </BinaryTree>
    <BinaryTree type="DecisionTree" boostWeight="1.0000000000000000e+00" itree="1124">
      <Node pos="s" depth="0" NCoef="0" IVar="0" Cut="2.0439779758453369e+00" cType="1" res="-8.7153188133015647e-07" rms="3.2273888587951660e-01" purity="5.9855979681015015e-01" nType="0">
        <Node pos="l" depth="1" NCoef="0" IVar="-1" Cut="0.0000000000000000e+00" cType="1" res="3.2707408536225557e-05" rms="3.2268857955932617e-01" purity="6.0564202070236206e-01" nType="-99"/>
        <Node pos="r" depth="1" NCoef="0" IVar="1" Cut="8.5832083225250244e-01" cType="0" res="-4.4400896877050400e-03" rms="3.2588505744934082e-01" purity="1.4901477098464966e-01" nType="0">
          <Node pos="l" depth="2" NCoef="0" IVar="-1" Cut="0.0000000000000000e+00" cType="1" res="5.8053932152688503e-03" rms="3.9210465550422668e-01" purity="2.2299651801586151e-01" nType="-99"/>
          <Node pos="r" depth="2" NCoef="0" IVar="-1" Cut="0.0000000000000000e+00" cType="1" res="-8.2540214061737061e-03" rms="2.8249436616897583e-01" purity="1.0857142508029938e-01" nType="-99"/>
        </Node>
      </Node>
    </BinaryTree>
    <BinaryTree type="DecisionTree" boostWeight="1.0000000000000000e+00" itree="1125">
      <Node pos="s" depth="0" NCoef="0" IVar="1" Cut="1.4130434989929199e+00" cType="1" res="-9.0401834995645913e-07" rms="3.2273784279823303e-01" purity="5.9855979681015015e-01" nType="0">
        <Node pos="l" depth="1" NCoef="0" IVar="-1" Cut="0.0000000000000000e+00" cType="1" res="2.5381659725098871e-05" rms="3.2265141606330872e-01" purity="6.0298997163772583e-01" nType="-99"/>
        <Node pos="r" depth="1" NCoef="0" IVar="1" Cut="1.5699497461318970e+00" cType="0" res="-5.4986383765935898e-03" rms="3.3129274845123291e-01" purity="1.5175096690654755e-01" nType="0">
          <Node pos="l" depth="2" NCoef="0" IVar="-1" Cut="0.0000000000000000e+00" cType="1" res="1.8391041085124016e-03" rms="3.5883769392967224e-01" purity="1.7839196324348450e-01" nType="-99"/>
          <Node pos="r" depth="2" NCoef="0" IVar="-1" Cut="0.0000000000000000e+00" cType="1" res="-2.4425024166703224e-02" rms="2.0711264014244080e-01" purity="6.0344826430082321e-02" nType="-99"/>
        </Node>
      </Node>
    </BinaryTree>
    <BinaryTree type="DecisionTree" boostWeight="1.0000000000000000e+00" itree="1126">
      <Node pos="s" depth="0" NCoef="0" IVar="1" Cut="1.5829585790634155e+00" cType="1" res="-9.7462623216415523e-07" rms="3.2273694872856140e-01" purity="5.9855979681015015e-01" nType="0">
        <Node pos="l" depth="1" NCoef="0" IVar="-1" Cut="0.0000000000000000e+00" cType="1" res="2.3589587726746686e-05" rms="3.2253721356391907e-01" purity="6.0176652669906616e-01" nType="-99"/>
        <Node pos="r" depth="1" NCoef="0" IVar="2" Cut="9.8254376649856567e-01" cType="0" res="-6.8186265416443348e-03" rms="3.4845054149627686e-01" purity="1.6795866191387177e-01" nType="0">
          <Node pos="l" depth="2" NCoef="0" IVar="-1" Cut="0.0000000000000000e+00" cType="1" res="3.2992395572364330e-03" rms="3.6853334307670593e-01" purity="1.9066147506237030e-01" nType="-99"/>
          <Node pos="r" depth="2" NCoef="0" IVar="-1" Cut="0.0000000000000000e+00" cType="1" res="-1.5148627571761608e-02" rms="3.0244088172912598e-01" purity="1.2307692319154739e-01" nType="-99"/>
        </Node>
      </Node>
    </BinaryTree>
    <BinaryTree type="DecisionTree" boostWeight="1.0000000000000000e+00" itree="1127">
      <Node pos="s" depth="0" NCoef="0" IVar="2" Cut="3.1470406055450439e+00" cType="1" res="-9.7092879514093511e-07" rms="3.2273596525192261e-01" purity="5.9855979681015015e-01" nType="0">
        <Node pos="l" depth="1" NCoef="0" IVar="-1" Cut="0.0000000000000000e+00" cType="1" res="2.1708139684051275e-05" rms="3.2263255119323730e-01" purity="6.0167813301086426e-01" nType="-99"/>
        <Node pos="r" depth="1" NCoef="0" IVar="3" Cut="3.2239890098571777e-01" cType="0" res="-6.2226681038737297e-03" rms="3.3613714575767517e-01" purity="1.8414321541786194e-01" nType="0">
          <Node pos="l" depth="2" NCoef="0" IVar="-1" Cut="0.0000000000000000e+00" cType="1" res="-8.5771251469850540e-03" rms="3.6420169472694397e-01" purity="2.5142857432365417e-01" nType="-99"/>
          <Node pos="r" depth="2" NCoef="0" IVar="-1" Cut="0.0000000000000000e+00" cType="1" res="6.0249888338148594e-03" rms="3.1041470170021057e-01" purity="1.2962962687015533e-01" nType="-99"/>
        </Node>
      </Node>
    </BinaryTree>
    <BinaryTree type="DecisionTree" boostWeight="1.0000000000000000e+00" itree="1128">
      <Node pos="s" depth="0" NCoef="0" IVar="1" Cut="1.5829585790634155e+00" cType="1" res="-9.2062288103988976e-07" rms="3.2273504137992859e-01" purity="5.9855979681015015e-01" nType="0">
        <Node pos="l" depth="1" NCoef="0" IVar="-1" Cut="0.0000000000000000e+00" cType="1" res="2.1414844013634138e-05" rms="3.2253673672676086e-01" purity="6.0176652669906616e-01" nType="-99"/>
        <Node pos="r" depth="1" NCoef="0" IVar="2" Cut="9.8254376649856567e-01" cType="0" res="-6.1947600916028023e-03" rms="3.4828412532806396e-01" purity="1.6795866191387177e-01" nType="0">
          <Node pos="l" depth="2" NCoef="0" IVar="-1" Cut="0.0000000000000000e+00" cType="1" res="2.9326775111258030e-03" rms="3.6840227246284485e-01" purity="1.9066147506237030e-01" nType="-99"/>
          <Node pos="r" depth="2" NCoef="0" IVar="-1" Cut="0.0000000000000000e+00" cType="1" res="-1.3899273239076138e-02" rms="3.0265381932258606e-01" purity="1.2307692319154739e-01" nType="-99"/>
        </Node>
      </Node>
    </BinaryTree>
    <BinaryTree type="DecisionTree" boostWeight="1.0000000000000000e+00" itree="1129">
      <Node pos="s" depth="0" NCoef="0" IVar="1" Cut="1.2106447219848633e+00" cType="1" res="-9.0641970018623397e-07" rms="3.2273429632186890e-01" purity="5.9855979681015015e-01" nType="0">
        <Node pos="l" depth="1" NCoef="0" IVar="-1" Cut="0.0000000000000000e+00" cType="1" res="-3.1390471121994779e-05" rms="3.2262411713600159e-01" purity="6.0544127225875854e-01" nType="-99"/>
        <Node pos="r" depth="1" NCoef="0" IVar="3" Cut="3.1144583225250244e-01" cType="0" res="4.2966264300048351e-03" rms="3.2986345887184143e-01" purity="1.4649681746959686e-01" nType="0">
          <Node pos="l" depth="2" NCoef="0" IVar="-1" Cut="0.0000000000000000e+00" cType="1" res="1.6053332015872002e-02" rms="4.0257486701011658e-01" purity="2.2794117033481598e-01" nType="-99"/>
          <Node pos="r" depth="2" NCoef="0" IVar="-1" Cut="0.0000000000000000e+00" cType="1" res="-1.7782161012291908e-03" rms="3.1187868118286133e-01" purity="1.2942989170551300e-01" nType="-99"/>
        </Node>
      </Node>
    </BinaryTree>
    <BinaryTree type="DecisionTree" boostWeight="1.0000000000000000e+00" itree="1130">
      <Node pos="s" depth="0" NCoef="0" IVar="1" Cut="2.3250875473022461e+00" cType="1" res="-9.1674860414059367e-07" rms="3.2273292541503906e-01" purity="5.9855979681015015e-01" nType="0">
        <Node pos="l" depth="1" NCoef="0" IVar="1" Cut="1.8529605865478516e+00" cType="1" res="2.3083648557076231e-05" rms="3.2259535789489746e-01" purity="5.9937214851379395e-01" nType="0">
          <Node pos="l" depth="2" NCoef="0" IVar="-1" Cut="0.0000000000000000e+00" cType="1" res="-1.3447561286739074e-05" rms="3.2242825627326965e-01" purity="6.0039532184600830e-01" nType="-99"/>
          <Node pos="r" depth="2" NCoef="0" IVar="-1" Cut="0.0000000000000000e+00" cType="1" res="7.2951815091073513e-03" rms="3.8155242800712585e-01" purity="2.0149253308773041e-01" nType="-99"/>
        </Node>
        <Node pos="r" depth="1" NCoef="0" IVar="-1" Cut="0.0000000000000000e+00" cType="1" res="-3.4162846859544516e-03" rms="3.8184988498687744e-01" purity="2.1621622145175934e-01" nType="-99"/>
      </Node>
    </BinaryTree>
    <BinaryTree type="DecisionTree" boostWeight="1.0000000000000000e+00" itree="1131">
      <Node pos="s" depth="0" NCoef="0" IVar="1" Cut="1.5829585790634155e+00" cType="1" res="-8.4998310967421276e-07" rms="3.2273238897323608e-01" purity="5.9855979681015015e-01" nType="0">
        <Node pos="l" depth="1" NCoef="0" IVar="-1" Cut="0.0000000000000000e+00" cType="1" res="2.2051483028917573e-05" rms="3.2253575325012207e-01" purity="6.0176652669906616e-01" nType="-99"/>
        <Node pos="r" depth="1" NCoef="0" IVar="2" Cut="9.8254376649856567e-01" cType="0" res="-6.3658198341727257e-03" rms="3.4806999564170837e-01" purity="1.6795866191387177e-01" nType="0">
          <Node pos="l" depth="2" NCoef="0" IVar="-1" Cut="0.0000000000000000e+00" cType="1" res="2.3318033199757338e-03" rms="3.6823609471321106e-01" purity="1.9066147506237030e-01" nType="-99"/>
          <Node pos="r" depth="2" NCoef="0" IVar="-1" Cut="0.0000000000000000e+00" cType="1" res="-1.2976341880857944e-02" rms="3.0270197987556458e-01" purity="1.2307692319154739e-01" nType="-99"/>
        </Node>
      </Node>
    </BinaryTree>
    <BinaryTree type="DecisionTree" boostWeight="1.0000000000000000e+00" itree="1132">
      <Node pos="s" depth="0" NCoef="0" IVar="2" Cut="1.1876331567764282e+00" cType="1" res="-8.3071381595800631e-07" rms="3.2273185253143311e-01" purity="5.9855979681015015e-01" nType="0">
        <Node pos="l" depth="1" NCoef="0" IVar="-1" Cut="0.0000000000000000e+00" cType="1" res="1.2841854186262935e-04" rms="3.1634861230850220e-01" purity="6.8335270881652832e-01" nType="-99"/>
        <Node pos="r" depth="1" NCoef="0" IVar="0" Cut="1.2243878096342087e-01" cType="1" res="-1.0724936146289110e-03" rms="3.4768515825271606e-01" purity="2.5080385804176331e-01" nType="0">
          <Node pos="l" depth="2" NCoef="0" IVar="-1" Cut="0.0000000000000000e+00" cType="1" res="-4.4336342252790928e-03" rms="4.2170193791389465e-01" purity="7.1083593368530273e-01" nType="-99"/>
          <Node pos="r" depth="2" NCoef="0" IVar="-1" Cut="0.0000000000000000e+00" cType="1" res="6.9403427187353373e-04" rms="3.3197164535522461e-01" purity="1.6489361226558685e-01" nType="-99"/>
        </Node>
      </Node>
    </BinaryTree>
    <BinaryTree type="DecisionTree" boostWeight="1.0000000000000000e+00" itree="1133">
      <Node pos="s" depth="0" NCoef="0" IVar="0" Cut="9.4952523708343506e-02" cType="1" res="-6.7319109575691982e-07" rms="3.2272806763648987e-01" purity="5.9855979681015015e-01" nType="0">
        <Node pos="l" depth="1" NCoef="0" IVar="-1" Cut="0.0000000000000000e+00" cType="1" res="2.6256768614985049e-04" rms="2.9947045445442200e-01" purity="8.8115000724792480e-01" nType="-99"/>
        <Node pos="r" depth="1" NCoef="0" IVar="0" Cut="9.8583877086639404e-02" cType="1" res="-6.4688280690461397e-04" rms="3.5179418325424194e-01" purity="2.1568010747432709e-01" nType="0">
          <Node pos="l" depth="2" NCoef="0" IVar="-1" Cut="0.0000000000000000e+00" cType="1" res="-6.7720944061875343e-03" rms="4.5019719004631042e-01" purity="6.2807017564773560e-01" nType="-99"/>
          <Node pos="r" depth="2" NCoef="0" IVar="-1" Cut="0.0000000000000000e+00" cType="1" res="-1.1836647900054231e-04" rms="3.5032090544700623e-01" purity="2.1032486855983734e-01" nType="-99"/>
        </Node>
      </Node>
    </BinaryTree>
    <BinaryTree type="DecisionTree" boostWeight="1.0000000000000000e+00" itree="1134">
      <Node pos="s" depth="0" NCoef="0" IVar="0" Cut="2.1326837539672852e+00" cType="1" res="-5.7171314438164700e-07" rms="3.2272702455520630e-01" purity="5.9855979681015015e-01" nType="0">
        <Node pos="l" depth="1" NCoef="0" IVar="-1" Cut="0.0000000000000000e+00" cType="1" res="2.9841408831998706e-05" rms="3.2262483239173889e-01" purity="6.0491293668746948e-01" nType="-99"/>
        <Node pos="r" depth="1" NCoef="0" IVar="2" Cut="1.4992284774780273e+00" cType="1" res="-4.4652950018644333e-03" rms="3.2979351282119751e-01" purity="1.5238095819950104e-01" nType="0">
          <Node pos="l" depth="2" NCoef="0" IVar="-1" Cut="0.0000000000000000e+00" cType="1" res="8.9921485632658005e-03" rms="3.4991088509559631e-01" purity="1.6878980398178101e-01" nType="-99"/>
          <Node pos="r" depth="2" NCoef="0" IVar="-1" Cut="0.0000000000000000e+00" cType="1" res="-9.9058495834469795e-03" rms="3.1255966424942017e-01" purity="1.4014251530170441e-01" nType="-99"/>
        </Node>
      </Node>
    </BinaryTree>
    <BinaryTree type="DecisionTree" boostWeight="1.0000000000000000e+00" itree="1135">
      <Node pos="s" depth="0" NCoef="0" IVar="3" Cut="3.3206397294998169e-01" cType="0" res="-6.9468427454921766e-07" rms="3.2272413372993469e-01" purity="5.9855979681015015e-01" nType="0">
        <Node pos="l" depth="1" NCoef="0" IVar="-1" Cut="0.0000000000000000e+00" cType="1" res="3.1978430342860520e-04" rms="3.6934620141983032e-01" purity="7.0609885454177856e-01" nType="-99"/>
        <Node pos="r" depth="1" NCoef="0" IVar="3" Cut="3.3122923970222473e-01" cType="1" res="-3.1515344744548202e-04" rms="3.0420178174972534e-01" purity="5.5985867977142334e-01" nType="0">
          <Node pos="l" depth="2" NCoef="0" IVar="-1" Cut="0.0000000000000000e+00" cType="1" res="-7.8707082138862461e-05" rms="3.0382001399993896e-01" purity="5.6018650531768799e-01" nType="-99"/>
          <Node pos="r" depth="2" NCoef="0" IVar="-1" Cut="0.0000000000000000e+00" cType="1" res="-2.0531829446554184e-02" rms="4.1251185536384583e-01" purity="4.4545453786849976e-01" nType="-99"/>
        </Node>
      </Node>
    </BinaryTree>
    <BinaryTree type="DecisionTree" boostWeight="1.0000000000000000e+00" itree="1136">
      <Node pos="s" depth="0" NCoef="0" IVar="0" Cut="1.2493752874433994e-03" cType="1" res="-6.2243321963251219e-07" rms="3.2272148132324219e-01" purity="5.9855979681015015e-01" nType="0">
        <Node pos="l" depth="1" NCoef="0" IVar="-1" Cut="0.0000000000000000e+00" cType="1" res="-5.0081341760233045e-04" rms="2.7191001176834106e-01" purity="9.0791207551956177e-01" nType="-99"/>
        <Node pos="r" depth="1" NCoef="0" IVar="3" Cut="4.0249881148338318e-01" cType="0" res="3.6852233461104333e-04" rms="3.4529235959053040e-01" purity="4.4418039917945862e-01" nType="0">
          <Node pos="l" depth="2" NCoef="0" IVar="-1" Cut="0.0000000000000000e+00" cType="1" res="3.1142623629420996e-03" rms="3.9706382155418396e-01" purity="6.8990558385848999e-01" nType="-99"/>
          <Node pos="r" depth="2" NCoef="0" IVar="-1" Cut="0.0000000000000000e+00" cType="1" res="-1.3717803994950373e-05" rms="3.4299451112747192e-01" purity="4.3409442901611328e-01" nType="-99"/>
        </Node>
      </Node>
    </BinaryTree>
    <BinaryTree type="DecisionTree" boostWeight="1.0000000000000000e+00" itree="1137">
      <Node pos="s" depth="0" NCoef="0" IVar="0" Cut="1.0119940340518951e-01" cType="1" res="-5.2908285397279542e-07" rms="3.2272127270698547e-01" purity="5.9855979681015015e-01" nType="0">
        <Node pos="l" depth="1" NCoef="0" IVar="-1" Cut="0.0000000000000000e+00" cType="1" res="2.3907414288260043e-04" rms="3.0222988128662109e-01" purity="8.7755167484283447e-01" nType="-99"/>
        <Node pos="r" depth="1" NCoef="0" IVar="0" Cut="1.0721047222614288e-01" cType="1" res="-6.2404287746176124e-04" rms="3.4955117106437683e-01" purity="2.0559415221214294e-01" nType="0">
          <Node pos="l" depth="2" NCoef="0" IVar="-1" Cut="0.0000000000000000e+00" cType="1" res="-7.3315892368555069e-03" rms="4.5886296033859253e-01" purity="6.3701921701431274e-01" nType="-99"/>
          <Node pos="r" depth="2" NCoef="0" IVar="-1" Cut="0.0000000000000000e+00" cType="1" res="-2.8190406737849116e-05" rms="3.4705296158790588e-01" purity="1.9717648625373840e-01" nType="-99"/>
        </Node>
      </Node>
    </BinaryTree>
    <BinaryTree type="DecisionTree" boostWeight="1.0000000000000000e+00" itree="1138">
      <Node pos="s" depth="0" NCoef="0" IVar="1" Cut="1.2106447219848633e+00" cType="1" res="-4.2020974433398806e-07" rms="3.2271972298622131e-01" purity="5.9855979681015015e-01" nType="0">
        <Node pos="l" depth="1" NCoef="0" IVar="-1" Cut="0.0000000000000000e+00" cType="1" res="-3.0144639822538011e-05" rms="3.2261309027671814e-01" purity="6.0544127225875854e-01" nType="-99"/>
        <Node pos="r" depth="1" NCoef="0" IVar="1" Cut="1.3020795583724976e+00" cType="1" res="4.1561992838978767e-03" rms="3.2962414622306824e-01" purity="1.4649681746959686e-01" nType="0">
          <Node pos="l" depth="2" NCoef="0" IVar="-1" Cut="0.0000000000000000e+00" cType="1" res="2.1015761420130730e-02" rms="3.4633091092109680e-01" purity="1.6666667163372040e-01" nType="-99"/>
          <Node pos="r" depth="2" NCoef="0" IVar="-1" Cut="0.0000000000000000e+00" cType="1" res="-1.5665750252082944e-03" rms="3.2559508085250854e-01" purity="1.4241960644721985e-01" nType="-99"/>
        </Node>
      </Node>
    </BinaryTree>
    <BinaryTree type="DecisionTree" boostWeight="1.0000000000000000e+00" itree="1139">
      <Node pos="s" depth="0" NCoef="0" IVar="1" Cut="1.5704647302627563e+00" cType="1" res="-5.3123471843719017e-07" rms="3.2271745800971985e-01" purity="5.9855979681015015e-01" nType="0">
        <Node pos="l" depth="1" NCoef="0" IVar="-1" Cut="0.0000000000000000e+00" cType="1" res="-2.2343321688822471e-05" rms="3.2243019342422485e-01" purity="6.0177844762802124e-01" nType="-99"/>
        <Node pos="r" depth="1" NCoef="0" IVar="3" Cut="1.8912068009376526e-01" cType="1" res="6.0876389034092426e-03" rms="3.5819324851036072e-01" purity="1.7839196324348450e-01" nType="0">
          <Node pos="l" depth="2" NCoef="0" IVar="-1" Cut="0.0000000000000000e+00" cType="1" res="1.2880798429250717e-02" rms="3.8558056950569153e-01" purity="2.2330096364021301e-01" nType="-99"/>
          <Node pos="r" depth="2" NCoef="0" IVar="-1" Cut="0.0000000000000000e+00" cType="1" res="-1.7647066852077842e-03" rms="3.4749799966812134e-01" purity="1.6271185874938965e-01" nType="-99"/>
        </Node>
      </Node>
    </BinaryTree>
    <BinaryTree type="DecisionTree" boostWeight="1.0000000000000000e+00" itree="1140">
      <Node pos="s" depth="0" NCoef="0" IVar="1" Cut="6.2343829870223999e-01" cType="1" res="-5.3080452744325157e-07" rms="3.2271614670753479e-01" purity="5.9855979681015015e-01" nType="0">
        <Node pos="l" depth="1" NCoef="0" IVar="-1" Cut="0.0000000000000000e+00" cType="1" res="6.3099745602812618e-05" rms="3.2329019904136658e-01" purity="6.2812834978103638e-01" nType="-99"/>
        <Node pos="r" depth="1" NCoef="0" IVar="1" Cut="6.4500993490219116e-01" cType="0" res="-2.1427220199257135e-03" rms="3.1340456008911133e-01" purity="1.2666018307209015e-01" nType="0">
          <Node pos="l" depth="2" NCoef="0" IVar="-1" Cut="0.0000000000000000e+00" cType="1" res="5.9507181867957115e-04" rms="3.1566706299781799e-01" purity="1.2976312637329102e-01" nType="-99"/>
          <Node pos="r" depth="2" NCoef="0" IVar="-1" Cut="0.0000000000000000e+00" cType="1" res="-2.7668932452797890e-02" rms="2.6651993393898010e-01" purity="7.4712641537189484e-02" nType="-99"/>
        </Node>
      </Node>
    </BinaryTree>
    <BinaryTree type="DecisionTree" boostWeight="1.0000000000000000e+00" itree="1141">
      <Node pos="s" depth="0" NCoef="0" IVar="1" Cut="7.0214891433715820e-01" cType="1" res="-8.1316858313584817e-07" rms="3.2271075248718262e-01" purity="5.9855979681015015e-01" nType="0">
        <Node pos="l" depth="1" NCoef="0" IVar="-1" Cut="0.0000000000000000e+00" cType="1" res="5.7261851907242090e-05" rms="3.2341334223747253e-01" purity="6.2254989147186279e-01" nType="-99"/>
        <Node pos="r" depth="1" NCoef="0" IVar="3" Cut="1.5809856355190277e-01" cType="1" res="-2.4288273416459560e-03" rms="3.0841115117073059e-01" purity="1.2196093797683716e-01" nType="0">
          <Node pos="l" depth="2" NCoef="0" IVar="-1" Cut="0.0000000000000000e+00" cType="1" res="9.6233794465661049e-03" rms="3.5509628057479858e-01" purity="1.7169374227523804e-01" nType="-99"/>
          <Node pos="r" depth="2" NCoef="0" IVar="-1" Cut="0.0000000000000000e+00" cType="1" res="-3.8405538070946932e-03" rms="2.9756146669387817e-01" purity="1.1164581030607224e-01" nType="-99"/>
        </Node>
      </Node>
    </BinaryTree>
    <BinaryTree type="DecisionTree" boostWeight="1.0000000000000000e+00" itree="1142">
      <Node pos="s" depth="0" NCoef="0" IVar="2" Cut="2.0455763339996338e+00" cType="1" res="-9.0765308868867578e-07" rms="3.2270947098731995e-01" purity="5.9855979681015015e-01" nType="0">
        <Node pos="l" depth="1" NCoef="0" IVar="-1" Cut="0.0000000000000000e+00" cType="1" res="-5.6994311307789758e-05" rms="3.2212063670158386e-01" purity="6.2023001909255981e-01" nType="-99"/>
        <Node pos="r" depth="1" NCoef="0" IVar="2" Cut="2.0702438354492188e+00" cType="1" res="2.2614588961005211e-03" rms="3.3369907736778259e-01" purity="1.8654434382915497e-01" nType="0">
          <Node pos="l" depth="2" NCoef="0" IVar="-1" Cut="0.0000000000000000e+00" cType="1" res="2.6324070990085602e-02" rms="3.6651903390884399e-01" purity="2.4770642817020416e-01" nType="-99"/>
          <Node pos="r" depth="2" NCoef="0" IVar="-1" Cut="0.0000000000000000e+00" cType="1" res="-1.9236937805544585e-04" rms="3.3193367719650269e-01" purity="1.8388512730598450e-01" nType="-99"/>
        </Node>
      </Node>
    </BinaryTree>
    <BinaryTree type="DecisionTree" boostWeight="1.0000000000000000e+00" itree="1143">
      <Node pos="s" depth="0" NCoef="0" IVar="2" Cut="3.2781672477722168e+00" cType="1" res="-9.8456007435743231e-07" rms="3.2270544767379761e-01" purity="5.9855979681015015e-01" nType="0">
        <Node pos="l" depth="1" NCoef="0" IVar="-1" Cut="0.0000000000000000e+00" cType="1" res="-1.8933717001345940e-05" rms="3.2249271869659424e-01" purity="6.0073769092559814e-01" nType="-99"/>
        <Node pos="r" depth="1" NCoef="0" IVar="0" Cut="7.6633840799331665e-01" cType="1" res="6.8098292686045170e-03" rms="3.5786435008049011e-01" purity="2.1812079846858978e-01" nType="0">
          <Node pos="l" depth="2" NCoef="0" IVar="-1" Cut="0.0000000000000000e+00" cType="1" res="1.0734822601079941e-02" rms="4.0578362345695496e-01" purity="3.1372550129890442e-01" nType="-99"/>
          <Node pos="r" depth="2" NCoef="0" IVar="-1" Cut="0.0000000000000000e+00" cType="1" res="-3.0478013213723898e-03" rms="3.2926654815673828e-01" purity="1.6836734116077423e-01" nType="-99"/>
        </Node>
      </Node>
    </BinaryTree>
    <BinaryTree type="DecisionTree" boostWeight="1.0000000000000000e+00" itree="1144">
      <Node pos="s" depth="0" NCoef="0" IVar="1" Cut="2.0239880084991455e+00" cType="1" res="-9.1596535867211060e-07" rms="3.2270455360412598e-01" purity="5.9855979681015015e-01" nType="0">
        <Node pos="l" depth="1" NCoef="0" IVar="1" Cut="1.5837377309799194e+00" cType="1" res="-3.0898991099093109e-05" rms="3.2243230938911438e-01" purity="5.9982752799987793e-01" nType="0">
          <Node pos="l" depth="2" NCoef="0" IVar="-1" Cut="0.0000000000000000e+00" cType="1" res="1.5221537978504784e-05" rms="3.2250398397445679e-01" purity="6.0173177719116211e-01" nType="-99"/>
          <Node pos="r" depth="2" NCoef="0" IVar="-1" Cut="0.0000000000000000e+00" cType="1" res="-7.4654184281826019e-03" rms="3.0329930782318115e-01" purity="1.1707317084074020e-01" nType="-99"/>
        </Node>
        <Node pos="r" depth="1" NCoef="0" IVar="-1" Cut="0.0000000000000000e+00" cType="1" res="2.7064692694693804e-03" rms="3.9402574300765991e-01" purity="2.2905027866363525e-01" nType="-99"/>
      </Node>
    </BinaryTree>
    <BinaryTree type="DecisionTree" boostWeight="1.0000000000000000e+00" itree="1145">
      <Node pos="s" depth="0" NCoef="0" IVar="1" Cut="1.5704647302627563e+00" cType="1" res="-8.5856720488663996e-07" rms="3.2270434498786926e-01" purity="5.9855979681015015e-01" nType="0">
        <Node pos="l" depth="1" NCoef="0" IVar="-1" Cut="0.0000000000000000e+00" cType="1" res="-2.3020435037324205e-05" rms="3.2241910696029663e-01" purity="6.0177844762802124e-01" nType="-99"/>
        <Node pos="r" depth="1" NCoef="0" IVar="0" Cut="1.1031984090805054e+00" cType="0" res="6.2305117025971413e-03" rms="3.5793840885162354e-01" purity="1.7839196324348450e-01" nType="0">
          <Node pos="l" depth="2" NCoef="0" IVar="-1" Cut="0.0000000000000000e+00" cType="1" res="-3.9537507109344006e-03" rms="3.6360225081443787e-01" purity="1.9191919267177582e-01" nType="-99"/>
          <Node pos="r" depth="2" NCoef="0" IVar="-1" Cut="0.0000000000000000e+00" cType="1" res="1.0521357879042625e-02" rms="3.5133451223373413e-01" purity="1.6500000655651093e-01" nType="-99"/>
        </Node>
      </Node>
    </BinaryTree>
    <BinaryTree type="DecisionTree" boostWeight="1.0000000000000000e+00" itree="1146">
      <Node pos="s" depth="0" NCoef="0" IVar="1" Cut="1.8740629777312279e-02" cType="1" res="-8.4437448322205455e-07" rms="3.2270327210426331e-01" purity="5.9855979681015015e-01" nType="0">
        <Node pos="l" depth="1" NCoef="0" IVar="-1" Cut="0.0000000000000000e+00" cType="1" res="-3.1086761737242341e-04" rms="3.0336216092109680e-01" purity="7.4530726671218872e-01" nType="-99"/>
        <Node pos="r" depth="1" NCoef="0" IVar="1" Cut="2.6189144700765610e-02" cType="1" res="4.4236844405531883e-04" rms="3.3663892745971680e-01" purity="4.8720017075538635e-01" nType="0">
          <Node pos="l" depth="2" NCoef="0" IVar="-1" Cut="0.0000000000000000e+00" cType="1" res="8.9738499373197556e-03" rms="2.9508903622627258e-01" purity="7.6674640178680420e-01" nType="-99"/>
          <Node pos="r" depth="2" NCoef="0" IVar="-1" Cut="0.0000000000000000e+00" cType="1" res="-6.9207567321427632e-06" rms="3.3775255084037781e-01" purity="4.7912201285362244e-01" nType="-99"/>
        </Node>
      </Node>
    </BinaryTree>
    <BinaryTree type="DecisionTree" boostWeight="1.0000000000000000e+00" itree="1147">
      <Node pos="s" depth="0" NCoef="0" IVar="0" Cut="1.2493752874433994e-03" cType="1" res="-6.8986042833785177e-07" rms="3.2270210981369019e-01" purity="5.9855979681015015e-01" nType="0">
        <Node pos="l" depth="1" NCoef="0" IVar="-1" Cut="0.0000000000000000e+00" cType="1" res="-4.8421291285194457e-04" rms="2.7190056443214417e-01" purity="9.0791207551956177e-01" nType="-99"/>
        <Node pos="r" depth="1" NCoef="0" IVar="3" Cut="1.4489956200122833e-01" cType="0" res="3.5636193933896720e-04" rms="3.4526896476745605e-01" purity="4.4418039917945862e-01" nType="0">
          <Node pos="l" depth="2" NCoef="0" IVar="-1" Cut="0.0000000000000000e+00" cType="1" res="3.5538119846023619e-04" rms="3.4755381941795349e-01" purity="4.4870164990425110e-01" nType="-99"/>
          <Node pos="r" depth="2" NCoef="0" IVar="-1" Cut="0.0000000000000000e+00" cType="1" res="-2.8800370637327433e-03" rms="3.1656667590141296e-01" purity="3.9004456996917725e-01" nType="-99"/>
        </Node>
      </Node>
    </BinaryTree>
    <BinaryTree type="DecisionTree" boostWeight="1.0000000000000000e+00" itree="1148">
      <Node pos="s" depth="0" NCoef="0" IVar="3" Cut="2.6085385680198669e-01" cType="1" res="-6.1837084786020569e-07" rms="3.2270160317420959e-01" purity="5.9855979681015015e-01" nType="0">
        <Node pos="l" depth="1" NCoef="0" IVar="-1" Cut="0.0000000000000000e+00" cType="1" res="3.1388923525810242e-04" rms="2.8203409910202026e-01" purity="6.1474961042404175e-01" nType="-99"/>
        <Node pos="r" depth="1" NCoef="0" IVar="0" Cut="1.0644677877426147e+00" cType="1" res="-5.6000426411628723e-04" rms="3.6171999573707581e-01" purity="5.8097934722900391e-01" nType="0">
          <Node pos="l" depth="2" NCoef="0" IVar="-1" Cut="0.0000000000000000e+00" cType="1" res="-3.6977464333176613e-04" rms="3.6240220069885254e-01" purity="5.9640496969223022e-01" nType="-99"/>
          <Node pos="r" depth="2" NCoef="0" IVar="-1" Cut="0.0000000000000000e+00" cType="1" res="4.5761787332594395e-03" rms="3.4265497326850891e-01" purity="1.6573971509933472e-01" nType="-99"/>
        </Node>
      </Node>
    </BinaryTree>
    <BinaryTree type="DecisionTree" boostWeight="1.0000000000000000e+00" itree="1149">
      <Node pos="s" depth="0" NCoef="0" IVar="0" Cut="1.1744128167629242e-01" cType="1" res="-6.0178649619047064e-07" rms="3.2270008325576782e-01" purity="5.9855979681015015e-01" nType="0">
        <Node pos="l" depth="1" NCoef="0" IVar="-1" Cut="0.0000000000000000e+00" cType="1" res="2.2560778597835451e-04" rms="3.0880573391914368e-01" purity="8.6922371387481689e-01" nType="-99"/>
        <Node pos="r" depth="1" NCoef="0" IVar="0" Cut="1.2459032982587814e-01" cType="1" res="-6.6881062230095267e-04" rms="3.4293559193611145e-01" purity="1.8304198980331421e-01" nType="0">
          <Node pos="l" depth="2" NCoef="0" IVar="-1" Cut="0.0000000000000000e+00" cType="1" res="-9.6518890932202339e-03" rms="4.6549591422080994e-01" purity="5.2403843402862549e-01" nType="-99"/>
          <Node pos="r" depth="2" NCoef="0" IVar="-1" Cut="0.0000000000000000e+00" cType="1" res="8.1296071584802121e-05" rms="3.3989858627319336e-01" purity="1.7603163421154022e-01" nType="-99"/>
        </Node>
      </Node>
    </BinaryTree>
    <BinaryTree type="DecisionTree" boostWeight="1.0000000000000000e+00" itree="1150">
      <Node pos="s" depth="0" NCoef="0" IVar="0" Cut="1.4617690443992615e-01" cType="1" res="-4.9276121671937290e-07" rms="3.2269558310508728e-01" purity="5.9855979681015015e-01" nType="0">
        <Node pos="l" depth="1" NCoef="0" IVar="-1" Cut="0.0000000000000000e+00" cType="1" res="1.9979178614448756e-04" rms="3.1833571195602417e-01" purity="8.5407841205596924e-01" nType="-99"/>
        <Node pos="r" depth="1" NCoef="0" IVar="0" Cut="1.4854422211647034e-01" cType="1" res="-7.1533804293721914e-04" rms="3.3016666769981384e-01" purity="1.5255126357078552e-01" nType="0">
          <Node pos="l" depth="2" NCoef="0" IVar="-1" Cut="0.0000000000000000e+00" cType="1" res="-1.9882330670952797e-02" rms="4.7928264737129211e-01" purity="3.4999999403953552e-01" nType="-99"/>
          <Node pos="r" depth="2" NCoef="0" IVar="-1" Cut="0.0000000000000000e+00" cType="1" res="-6.5242726122960448e-05" rms="3.2892844080924988e-01" purity="1.5130086243152618e-01" nType="-99"/>
        </Node>
      </Node>
    </BinaryTree>
    <BinaryTree type="DecisionTree" boostWeight="1.0000000000000000e+00" itree="1151">
      <Node pos="s" depth="0" NCoef="0" IVar="2" Cut="3.1470406055450439e+00" cType="1" res="-4.7871247943476192e-07" rms="3.2268998026847839e-01" purity="5.9855979681015015e-01" nType="0">
        <Node pos="l" depth="1" NCoef="0" IVar="-1" Cut="0.0000000000000000e+00" cType="1" res="2.1480189388967119e-05" rms="3.2258868217468262e-01" purity="6.0167813301086426e-01" nType="-99"/>
        <Node pos="r" depth="1" NCoef="0" IVar="2" Cut="3.3106193542480469e+00" cType="0" res="-6.0927141457796097e-03" rms="3.3582305908203125e-01" purity="1.8414321541786194e-01" nType="0">
          <Node pos="l" depth="2" NCoef="0" IVar="-1" Cut="0.0000000000000000e+00" cType="1" res="2.0198058336973190e-03" rms="3.5685765743255615e-01" purity="2.1951219439506531e-01" nType="-99"/>
          <Node pos="r" depth="2" NCoef="0" IVar="-1" Cut="0.0000000000000000e+00" cType="1" res="-2.0068295300006866e-02" rms="2.6675334572792053e-01" purity="8.6538463830947876e-02" nType="-99"/>
        </Node>
      </Node>
    </BinaryTree>
    <BinaryTree type="DecisionTree" boostWeight="1.0000000000000000e+00" itree="1152">
      <Node pos="s" depth="0" NCoef="0" IVar="2" Cut="3.4542517662048340e+00" cType="1" res="-5.2507959935610415e-07" rms="3.2268849015235901e-01" purity="5.9855979681015015e-01" nType="0">
        <Node pos="l" depth="1" NCoef="0" IVar="-1" Cut="0.0000000000000000e+00" cType="1" res="1.6625135685899295e-05" rms="3.2256212830543518e-01" purity="6.0029160976409912e-01" nType="-99"/>
        <Node pos="r" depth="1" NCoef="0" IVar="1" Cut="3.2983508706092834e-01" cType="1" res="-8.2207294180989265e-03" rms="3.5052064061164856e-01" purity="1.9911503791809082e-01" nType="0">
          <Node pos="l" depth="2" NCoef="0" IVar="-1" Cut="0.0000000000000000e+00" cType="1" res="2.5881715118885040e-03" rms="3.6900731921195984e-01" purity="2.3140496015548706e-01" nType="-99"/>
          <Node pos="r" depth="2" NCoef="0" IVar="-1" Cut="0.0000000000000000e+00" cType="1" res="-9.9143143743276596e-03" rms="3.2699871063232422e-01" purity="1.6190476715564728e-01" nType="-99"/>
        </Node>
      </Node>
    </BinaryTree>
    <BinaryTree type="DecisionTree" boostWeight="1.0000000000000000e+00" itree="1153">
      <Node pos="s" depth="0" NCoef="0" IVar="1" Cut="7.0214891433715820e-01" cType="1" res="-4.9959572834268329e-07" rms="3.2268819212913513e-01" purity="5.9855979681015015e-01" nType="0">
        <Node pos="l" depth="1" NCoef="0" IVar="-1" Cut="0.0000000000000000e+00" cType="1" res="5.3798037697561085e-05" rms="3.2339510321617126e-01" purity="6.2254989147186279e-01" nType="-99"/>
        <Node pos="r" depth="1" NCoef="0" IVar="1" Cut="7.5878441333770752e-01" cType="0" res="-2.2764955647289753e-03" rms="3.0830010771751404e-01" purity="1.2196093797683716e-01" nType="0">
          <Node pos="l" depth="2" NCoef="0" IVar="-1" Cut="0.0000000000000000e+00" cType="1" res="1.0187939042225480e-03" rms="3.1049230694770813e-01" purity="1.2627196311950684e-01" nType="-99"/>
          <Node pos="r" depth="2" NCoef="0" IVar="-1" Cut="0.0000000000000000e+00" cType="1" res="-1.4451300725340843e-02" rms="2.9284182190895081e-01" purity="9.5100864768028259e-02" nType="-99"/>
        </Node>
      </Node>
    </BinaryTree>
    <BinaryTree type="DecisionTree" boostWeight="1.0000000000000000e+00" itree="1154">
      <Node pos="s" depth="0" NCoef="0" IVar="1" Cut="8.8330835103988647e-01" cType="1" res="-6.3790196236368502e-07" rms="3.2268446683883667e-01" purity="5.9855979681015015e-01" nType="0">
        <Node pos="l" depth="1" NCoef="0" IVar="-1" Cut="0.0000000000000000e+00" cType="1" res="4.6107561502140015e-05" rms="3.2318347692489624e-01" purity="6.1389672756195068e-01" nType="-99"/>
        <Node pos="r" depth="1" NCoef="0" IVar="2" Cut="1.8882243633270264e+00" cType="0" res="-3.0448732431977987e-03" rms="3.0680713057518005e-01" purity="1.2339645624160767e-01" nType="0">
          <Node pos="l" depth="2" NCoef="0" IVar="-1" Cut="0.0000000000000000e+00" cType="1" res="9.1971801593899727e-03" rms="3.5846257209777832e-01" purity="1.8591549992561340e-01" nType="-99"/>
          <Node pos="r" depth="2" NCoef="0" IVar="-1" Cut="0.0000000000000000e+00" cType="1" res="-5.2776755765080452e-03" rms="2.9048758745193481e-01" purity="1.0608424246311188e-01" nType="-99"/>
        </Node>
      </Node>
    </BinaryTree>
    <BinaryTree type="DecisionTree" boostWeight="1.0000000000000000e+00" itree="1155">
      <Node pos="s" depth="0" NCoef="0" IVar="2" Cut="1.9256891012191772e+00" cType="1" res="-7.4276613304391503e-07" rms="3.2268261909484863e-01" purity="5.9855979681015015e-01" nType="0">
        <Node pos="l" depth="1" NCoef="0" IVar="-1" Cut="0.0000000000000000e+00" cType="1" res="6.5776293922681361e-05" rms="3.2208284735679626e-01" purity="6.2506610155105591e-01" nType="-99"/>
        <Node pos="r" depth="1" NCoef="0" IVar="2" Cut="2.0372607707977295e+00" cType="1" res="-2.1536659915000200e-03" rms="3.3183616399765015e-01" purity="1.8757881224155426e-01" nType="0">
          <Node pos="l" depth="2" NCoef="0" IVar="-1" Cut="0.0000000000000000e+00" cType="1" res="-9.1497981920838356e-03" rms="3.2470116019248962e-01" purity="1.8786692619323730e-01" nType="-99"/>
          <Node pos="r" depth="2" NCoef="0" IVar="-1" Cut="0.0000000000000000e+00" cType="1" res="7.1740301791578531e-04" rms="3.3305248618125916e-01" purity="1.8752348423004150e-01" nType="-99"/>
        </Node>
      </Node>
    </BinaryTree>
    <BinaryTree type="DecisionTree" boostWeight="1.0000000000000000e+00" itree="1156">
      <Node pos="s" depth="0" NCoef="0" IVar="2" Cut="3.3643362522125244e+00" cType="1" res="-7.4970114383177133e-07" rms="3.2268080115318298e-01" purity="5.9855979681015015e-01" nType="0">
        <Node pos="l" depth="1" NCoef="0" IVar="-1" Cut="0.0000000000000000e+00" cType="1" res="1.7755823137122206e-05" rms="3.2254707813262939e-01" purity="6.0052978992462158e-01" nType="-99"/>
        <Node pos="r" depth="1" NCoef="0" IVar="0" Cut="1.0401382446289062e+00" cType="0" res="-7.6612699776887894e-03" rms="3.4835451841354370e-01" purity="2.0384615659713745e-01" nType="0">
          <Node pos="l" depth="2" NCoef="0" IVar="-1" Cut="0.0000000000000000e+00" cType="1" res="5.9671187773346901e-03" rms="3.6055481433868408e-01" purity="2.0689655840396881e-01" nType="-99"/>
          <Node pos="r" depth="2" NCoef="0" IVar="-1" Cut="0.0000000000000000e+00" cType="1" res="-1.2976868078112602e-02" rms="3.2992547750473022e-01" purity="2.0000000298023224e-01" nType="-99"/>
        </Node>
      </Node>
    </BinaryTree>
    <BinaryTree type="DecisionTree" boostWeight="1.0000000000000000e+00" itree="1157">
      <Node pos="s" depth="0" NCoef="0" IVar="0" Cut="1.4005497694015503e+00" cType="1" res="-7.3063125682892860e-07" rms="3.2267990708351135e-01" purity="5.9855979681015015e-01" nType="0">
        <Node pos="l" depth="1" NCoef="0" IVar="-1" Cut="0.0000000000000000e+00" cType="1" res="4.9271289753960446e-05" rms="3.2371303439140320e-01" purity="6.1764645576477051e-01" nType="-99"/>
        <Node pos="r" depth="1" NCoef="0" IVar="0" Cut="1.5011166334152222e+00" cType="0" res="-2.6708154473453760e-03" rms="2.9527515172958374e-01" purity="1.1474584788084030e-01" nType="0">
          <Node pos="l" depth="2" NCoef="0" IVar="-1" Cut="0.0000000000000000e+00" cType="1" res="1.0106218978762627e-03" rms="3.0789348483085632e-01" purity="1.2595644593238831e-01" nType="-99"/>
          <Node pos="r" depth="2" NCoef="0" IVar="-1" Cut="0.0000000000000000e+00" cType="1" res="-2.1930240094661713e-02" rms="2.0346859097480774e-01" purity="4.8611111938953400e-02" nType="-99"/>
        </Node>
      </Node>
    </BinaryTree>
    <BinaryTree type="DecisionTree" boostWeight="1.0000000000000000e+00" itree="1158">
      <Node pos="s" depth="0" NCoef="0" IVar="0" Cut="2.0439779758453369e+00" cType="1" res="-9.4372114745056024e-07" rms="3.2267817854881287e-01" purity="5.9855979681015015e-01" nType="0">
        <Node pos="l" depth="1" NCoef="0" IVar="-1" Cut="0.0000000000000000e+00" cType="1" res="3.2788695534691215e-05" rms="3.2263764739036560e-01" purity="6.0564202070236206e-01" nType="-99"/>
        <Node pos="r" depth="1" NCoef="0" IVar="2" Cut="8.7674933671951294e-01" cType="0" res="-4.4532492756843567e-03" rms="3.2520955801010132e-01" purity="1.4901477098464966e-01" nType="0">
          <Node pos="l" depth="2" NCoef="0" IVar="-1" Cut="0.0000000000000000e+00" cType="1" res="1.1102065909653902e-03" rms="3.2911640405654907e-01" purity="1.5813252329826355e-01" nType="-99"/>
          <Node pos="r" depth="2" NCoef="0" IVar="-1" Cut="0.0000000000000000e+00" cType="1" res="-1.5313401818275452e-02" rms="3.0506786704063416e-01" purity="1.0810811072587967e-01" nType="-99"/>
        </Node>
      </Node>
    </BinaryTree>
    <BinaryTree type="DecisionTree" boostWeight="1.0000000000000000e+00" itree="1159">
      <Node pos="s" depth="0" NCoef="0" IVar="0" Cut="1.2493752874433994e-03" cType="1" res="-9.5468362815154251e-07" rms="3.2267683744430542e-01" purity="5.9855979681015015e-01" nType="0">
        <Node pos="l" depth="1" NCoef="0" IVar="-1" Cut="0.0000000000000000e+00" cType="1" res="-5.0289131468161941e-04" rms="2.7189609408378601e-01" purity="9.0791207551956177e-01" nType="-99"/>
        <Node pos="r" depth="1" NCoef="0" IVar="0" Cut="1.0949736461043358e-02" cType="1" res="3.6953997914679348e-04" rms="3.4523525834083557e-01" purity="4.4418039917945862e-01" nType="0">
          <Node pos="l" depth="2" NCoef="0" IVar="-1" Cut="0.0000000000000000e+00" cType="1" res="3.4533280879259109e-02" rms="9.9843561649322510e-02" purity="9.8880594968795776e-01" nType="-99"/>
          <Node pos="r" depth="2" NCoef="0" IVar="-1" Cut="0.0000000000000000e+00" cType="1" res="8.6643958638887852e-05" rms="3.4645164012908936e-01" purity="4.3996882438659668e-01" nType="-99"/>
        </Node>
      </Node>
    </BinaryTree>
    <BinaryTree type="DecisionTree" boostWeight="1.0000000000000000e+00" itree="1160">
      <Node pos="s" depth="0" NCoef="0" IVar="3" Cut="4.7873181104660034e-01" cType="0" res="-5.2923280691175023e-07" rms="3.2267582416534424e-01" purity="5.9855979681015015e-01" nType="0">
        <Node pos="l" depth="1" NCoef="0" IVar="-1" Cut="0.0000000000000000e+00" cType="1" res="2.0749922841787338e-03" rms="2.9756313562393188e-01" purity="8.8079470396041870e-01" nType="-99"/>
        <Node pos="r" depth="1" NCoef="0" IVar="3" Cut="4.7561800479888916e-01" cType="0" res="-6.9350826379377395e-05" rms="3.2310014963150024e-01" purity="5.9358966350555420e-01" nType="0">
          <Node pos="l" depth="2" NCoef="0" IVar="-1" Cut="0.0000000000000000e+00" cType="1" res="-1.8371852114796638e-02" rms="4.0574842691421509e-01" purity="7.9545456171035767e-01" nType="-99"/>
          <Node pos="r" depth="2" NCoef="0" IVar="-1" Cut="0.0000000000000000e+00" cType="1" res="2.0735469661303796e-05" rms="3.2285255193710327e-01" purity="5.9307038784027100e-01" nType="-99"/>
        </Node>
      </Node>
    </BinaryTree>
    <BinaryTree type="DecisionTree" boostWeight="1.0000000000000000e+00" itree="1161">
      <Node pos="s" depth="0" NCoef="0" IVar="3" Cut="4.9697157740592957e-01" cType="0" res="-3.4090726330759935e-07" rms="3.2267457246780396e-01" purity="5.9855979681015015e-01" nType="0">
        <Node pos="l" depth="1" NCoef="0" IVar="-1" Cut="0.0000000000000000e+00" cType="1" res="-4.3398048728704453e-03" rms="3.4771004319190979e-01" purity="8.3458644151687622e-01" nType="-99"/>
        <Node pos="r" depth="1" NCoef="0" IVar="3" Cut="4.8845055699348450e-01" cType="0" res="2.5427860236959532e-05" rms="3.2260790467262268e-01" purity="5.9795868396759033e-01" nType="0">
          <Node pos="l" depth="2" NCoef="0" IVar="-1" Cut="0.0000000000000000e+00" cType="1" res="6.1079147271811962e-03" rms="2.6403424143791199e-01" purity="8.9714282751083374e-01" nType="-99"/>
          <Node pos="r" depth="2" NCoef="0" IVar="-1" Cut="0.0000000000000000e+00" cType="1" res="-2.1847148673259653e-05" rms="3.2296589016914368e-01" purity="5.9593993425369263e-01" nType="-99"/>
        </Node>
      </Node>
    </BinaryTree>
    <BinaryTree type="DecisionTree" boostWeight="1.0000000000000000e+00" itree="1162">
      <Node pos="s" depth="0" NCoef="0" IVar="3" Cut="4.9747130274772644e-01" cType="0" res="-2.6979350309375150e-07" rms="3.2267487049102783e-01" purity="5.9855979681015015e-01" nType="0">
        <Node pos="l" depth="1" NCoef="0" IVar="-1" Cut="0.0000000000000000e+00" cType="1" res="4.9742525443434715e-03" rms="3.1803271174430847e-01" purity="8.5981309413909912e-01" nType="-99"/>
        <Node pos="r" depth="1" NCoef="0" IVar="3" Cut="4.9446254968643188e-01" cType="0" res="-2.3369913833448663e-05" rms="3.2268390059471130e-01" purity="5.9802478551864624e-01" nType="0">
          <Node pos="l" depth="2" NCoef="0" IVar="-1" Cut="0.0000000000000000e+00" cType="1" res="-8.3788419142365456e-03" rms="3.3854091167449951e-01" purity="8.4552848339080811e-01" nType="-99"/>
          <Node pos="r" depth="2" NCoef="0" IVar="-1" Cut="0.0000000000000000e+00" cType="1" res="9.3594426289200783e-06" rms="3.2264432311058044e-01" purity="5.9744071960449219e-01" nType="-99"/>
        </Node>
      </Node>
    </BinaryTree>
    <BinaryTree type="DecisionTree" boostWeight="1.0000000000000000e+00" itree="1163">
      <Node pos="s" depth="0" NCoef="0" IVar="1" Cut="2.3250875473022461e+00" cType="1" res="-2.1083627643747604e-07" rms="3.2267433404922485e-01" purity="5.9855979681015015e-01" nType="0">
        <Node pos="l" depth="1" NCoef="0" IVar="1" Cut="1.8529605865478516e+00" cType="1" res="2.3169424821389839e-05" rms="3.2253947854042053e-01" purity="5.9937214851379395e-01" nType="0">
          <Node pos="l" depth="2" NCoef="0" IVar="-1" Cut="0.0000000000000000e+00" cType="1" res="-1.1801731488958467e-05" rms="3.2237526774406433e-01" purity="6.0039532184600830e-01" nType="-99"/>
          <Node pos="r" depth="2" NCoef="0" IVar="-1" Cut="0.0000000000000000e+00" cType="1" res="6.7872144281864166e-03" rms="3.8061109185218811e-01" purity="2.0149253308773041e-01" nType="-99"/>
        </Node>
        <Node pos="r" depth="1" NCoef="0" IVar="-1" Cut="0.0000000000000000e+00" cType="1" res="-3.3358433283865452e-03" rms="3.8072311878204346e-01" purity="2.1621622145175934e-01" nType="-99"/>
      </Node>
    </BinaryTree>
    <BinaryTree type="DecisionTree" boostWeight="1.0000000000000000e+00" itree="1164">
      <Node pos="s" depth="0" NCoef="0" IVar="1" Cut="1.5829585790634155e+00" cType="1" res="-2.1159327445730014e-07" rms="3.2267385721206665e-01" purity="5.9855979681015015e-01" nType="0">
        <Node pos="l" depth="1" NCoef="0" IVar="-1" Cut="0.0000000000000000e+00" cType="1" res="2.1628055037581362e-05" rms="3.2248258590698242e-01" purity="6.0176652669906616e-01" nType="-99"/>
        <Node pos="r" depth="1" NCoef="0" IVar="2" Cut="9.8254376649856567e-01" cType="0" res="-6.1572254635393620e-03" rms="3.4734767675399780e-01" purity="1.6795866191387177e-01" nType="0">
          <Node pos="l" depth="2" NCoef="0" IVar="-1" Cut="0.0000000000000000e+00" cType="1" res="2.1997396834194660e-03" rms="3.6742261052131653e-01" purity="1.9066147506237030e-01" nType="-99"/>
          <Node pos="r" depth="2" NCoef="0" IVar="-1" Cut="0.0000000000000000e+00" cType="1" res="-1.2536830268800259e-02" rms="3.0232518911361694e-01" purity="1.2307692319154739e-01" nType="-99"/>
        </Node>
      </Node>
    </BinaryTree>
    <BinaryTree type="DecisionTree" boostWeight="1.0000000000000000e+00" itree="1165">
      <Node pos="s" depth="0" NCoef="0" IVar="0" Cut="2.0439779758453369e+00" cType="1" res="-2.5219526378350565e-07" rms="3.2267338037490845e-01" purity="5.9855979681015015e-01" nType="0">
        <Node pos="l" depth="1" NCoef="0" IVar="-1" Cut="0.0000000000000000e+00" cType="1" res="3.0373797926586121e-05" rms="3.2263469696044922e-01" purity="6.0564202070236206e-01" nType="-99"/>
        <Node pos="r" depth="1" NCoef="0" IVar="1" Cut="1.5004997253417969e+00" cType="0" res="-4.0854113176465034e-03" rms="3.2509297132492065e-01" purity="1.4901477098464966e-01" nType="0">
          <Node pos="l" depth="2" NCoef="0" IVar="-1" Cut="0.0000000000000000e+00" cType="1" res="8.5431588813662529e-03" rms="4.2452114820480347e-01" purity="2.8455284237861633e-01" nType="-99"/>
          <Node pos="r" depth="2" NCoef="0" IVar="-1" Cut="0.0000000000000000e+00" cType="1" res="-4.8080282285809517e-03" rms="3.0353090167045593e-01" purity="1.2481857836246490e-01" nType="-99"/>
        </Node>
      </Node>
    </BinaryTree>
    <BinaryTree type="DecisionTree" boostWeight="1.0000000000000000e+00" itree="1166">
      <Node pos="s" depth="0" NCoef="0" IVar="1" Cut="1.5829585790634155e+00" cType="1" res="-2.9541632784457761e-07" rms="3.2267251610755920e-01" purity="5.9855979681015015e-01" nType="0">
        <Node pos="l" depth="1" NCoef="0" IVar="-1" Cut="0.0000000000000000e+00" cType="1" res="2.2532698494615033e-05" rms="3.2248216867446899e-01" purity="6.0176652669906616e-01" nType="-99"/>
        <Node pos="r" depth="1" NCoef="0" IVar="2" Cut="2.0490391254425049e+00" cType="1" res="-6.4243022352457047e-03" rms="3.4722468256950378e-01" purity="1.6795866191387177e-01" nType="0">
          <Node pos="l" depth="2" NCoef="0" IVar="-1" Cut="0.0000000000000000e+00" cType="1" res="1.3111517764627934e-03" rms="3.4459692239761353e-01" purity="1.6961130499839783e-01" nType="-99"/>
          <Node pos="r" depth="2" NCoef="0" IVar="-1" Cut="0.0000000000000000e+00" cType="1" res="-1.1643993668258190e-02" rms="3.5289850831031799e-01" purity="1.6346153616905212e-01" nType="-99"/>
        </Node>
      </Node>
    </BinaryTree>
    <BinaryTree type="DecisionTree" boostWeight="1.0000000000000000e+00" itree="1167">
      <Node pos="s" depth="0" NCoef="0" IVar="1" Cut="2.2488756105303764e-02" cType="1" res="-3.0649331961285498e-07" rms="3.2267180085182190e-01" purity="5.9855979681015015e-01" nType="0">
        <Node pos="l" depth="1" NCoef="0" IVar="-1" Cut="0.0000000000000000e+00" cType="1" res="-3.0251056887209415e-04" rms="3.0320844054222107e-01" purity="7.4542766809463501e-01" nType="-99"/>
        <Node pos="r" depth="1" NCoef="0" IVar="1" Cut="2.4993693456053734e-02" cType="1" res="4.4565359712578356e-04" rms="3.3715808391571045e-01" purity="4.8331344127655029e-01" nType="0">
          <Node pos="l" depth="2" NCoef="0" IVar="-1" Cut="0.0000000000000000e+00" cType="1" res="2.1904403343796730e-02" rms="2.8741928935050964e-01" purity="7.9536682367324829e-01" nType="-99"/>
          <Node pos="r" depth="2" NCoef="0" IVar="-1" Cut="0.0000000000000000e+00" cType="1" res="3.9111520891310647e-05" rms="3.3754697442054749e-01" purity="4.8053377866744995e-01" nType="-99"/>
        </Node>
      </Node>
    </BinaryTree>
    <BinaryTree type="DecisionTree" boostWeight="1.0000000000000000e+00" itree="1168">
      <Node pos="s" depth="0" NCoef="0" IVar="1" Cut="1.5829585790634155e+00" cType="1" res="-1.4344939813781821e-07" rms="3.2266935706138611e-01" purity="5.9855979681015015e-01" nType="0">
        <Node pos="l" depth="1" NCoef="0" IVar="-1" Cut="0.0000000000000000e+00" cType="1" res="2.0393561499076895e-05" rms="3.2247969508171082e-01" purity="6.0176652669906616e-01" nType="-99"/>
        <Node pos="r" depth="1" NCoef="0" IVar="2" Cut="9.8254376649856567e-01" cType="0" res="-5.7977559044957161e-03" rms="3.4714692831039429e-01" purity="1.6795866191387177e-01" nType="0">
          <Node pos="l" depth="2" NCoef="0" IVar="-1" Cut="0.0000000000000000e+00" cType="1" res="1.9609436858445406e-03" rms="3.6713585257530212e-01" purity="1.9066147506237030e-01" nType="-99"/>
          <Node pos="r" depth="2" NCoef="0" IVar="-1" Cut="0.0000000000000000e+00" cType="1" res="-1.1707967147231102e-02" rms="3.0255842208862305e-01" purity="1.2307692319154739e-01" nType="-99"/>
        </Node>
      </Node>
    </BinaryTree>
    <BinaryTree type="DecisionTree" boostWeight="1.0000000000000000e+00" itree="1169">
      <Node pos="s" depth="0" NCoef="0" IVar="1" Cut="1.5704647302627563e+00" cType="1" res="-1.8214034014363278e-07" rms="3.2266899943351746e-01" purity="5.9855979681015015e-01" nType="0">
        <Node pos="l" depth="1" NCoef="0" IVar="-1" Cut="0.0000000000000000e+00" cType="1" res="-2.1414496586658061e-05" rms="3.2238796353340149e-01" purity="6.0177844762802124e-01" nType="-99"/>
        <Node pos="r" depth="1" NCoef="0" IVar="2" Cut="1.2996939420700073e+00" cType="1" res="5.8745606802403927e-03" rms="3.5741531848907471e-01" purity="1.7839196324348450e-01" nType="0">
          <Node pos="l" depth="2" NCoef="0" IVar="-1" Cut="0.0000000000000000e+00" cType="1" res="1.0029233992099762e-02" rms="3.6254656314849854e-01" purity="1.8877550959587097e-01" nType="-99"/>
          <Node pos="r" depth="2" NCoef="0" IVar="-1" Cut="0.0000000000000000e+00" cType="1" res="-4.8121814616024494e-03" rms="3.5132628679275513e-01" purity="1.6831682622432709e-01" nType="-99"/>
        </Node>
      </Node>
    </BinaryTree>
    <BinaryTree type="DecisionTree" boostWeight="1.0000000000000000e+00" itree="1170">
      <Node pos="s" depth="0" NCoef="0" IVar="1" Cut="1.5829585790634155e+00" cType="1" res="-2.3337912580245757e-07" rms="3.2266753911972046e-01" purity="5.9855979681015015e-01" nType="0">
        <Node pos="l" depth="1" NCoef="0" IVar="-1" Cut="0.0000000000000000e+00" cType="1" res="2.0480318198679015e-05" rms="3.2247951626777649e-01" purity="6.0176652669906616e-01" nType="-99"/>
        <Node pos="r" depth="1" NCoef="0" IVar="2" Cut="9.8254376649856567e-01" cType="0" res="-5.8345091529190540e-03" rms="3.4694308042526245e-01" purity="1.6795866191387177e-01" nType="0">
          <Node pos="l" depth="2" NCoef="0" IVar="-1" Cut="0.0000000000000000e+00" cType="1" res="1.8664601957425475e-03" rms="3.6685466766357422e-01" purity="1.9066147506237030e-01" nType="-99"/>
          <Node pos="r" depth="2" NCoef="0" IVar="-1" Cut="0.0000000000000000e+00" cType="1" res="-1.1564118787646294e-02" rms="3.0258452892303467e-01" purity="1.2307692319154739e-01" nType="-99"/>
        </Node>
      </Node>
    </BinaryTree>
    <BinaryTree type="DecisionTree" boostWeight="1.0000000000000000e+00" itree="1171">
      <Node pos="s" depth="0" NCoef="0" IVar="1" Cut="1.5704647302627563e+00" cType="1" res="-2.6085405124831595e-07" rms="3.2266721129417419e-01" purity="5.9855979681015015e-01" nType="0">
        <Node pos="l" depth="1" NCoef="0" IVar="-1" Cut="0.0000000000000000e+00" cType="1" res="-2.1320976884453557e-05" rms="3.2238796353340149e-01" purity="6.0177844762802124e-01" nType="-99"/>
        <Node pos="r" depth="1" NCoef="0" IVar="2" Cut="1.2996939420700073e+00" cType="1" res="5.8384486474096775e-03" rms="3.5720410943031311e-01" purity="1.7839196324348450e-01" nType="0">
          <Node pos="l" depth="2" NCoef="0" IVar="-1" Cut="0.0000000000000000e+00" cType="1" res="9.6346912905573845e-03" rms="3.6216306686401367e-01" purity="1.8877550959587097e-01" nType="-99"/>
          <Node pos="r" depth="2" NCoef="0" IVar="-1" Cut="0.0000000000000000e+00" cType="1" res="-4.5275934971868992e-03" rms="3.5137808322906494e-01" purity="1.6831682622432709e-01" nType="-99"/>
        </Node>
      </Node>
    </BinaryTree>
    <BinaryTree type="DecisionTree" boostWeight="1.0000000000000000e+00" itree="1172">
      <Node pos="s" depth="0" NCoef="0" IVar="1" Cut="1.5829585790634155e+00" cType="1" res="-2.9788409960929130e-07" rms="3.2266584038734436e-01" purity="5.9855979681015015e-01" nType="0">
        <Node pos="l" depth="1" NCoef="0" IVar="-1" Cut="0.0000000000000000e+00" cType="1" res="2.0547140593407676e-05" rms="3.2247930765151978e-01" purity="6.0176652669906616e-01" nType="-99"/>
        <Node pos="r" depth="1" NCoef="0" IVar="2" Cut="9.8254376649856567e-01" cType="0" res="-5.8621750213205814e-03" rms="3.4675326943397522e-01" purity="1.6795866191387177e-01" nType="0">
          <Node pos="l" depth="2" NCoef="0" IVar="-1" Cut="0.0000000000000000e+00" cType="1" res="1.7662759637460113e-03" rms="3.6659356951713562e-01" purity="1.9066147506237030e-01" nType="-99"/>
          <Node pos="r" depth="2" NCoef="0" IVar="-1" Cut="0.0000000000000000e+00" cType="1" res="-1.1398460716009140e-02" rms="3.0261468887329102e-01" purity="1.2307692319154739e-01" nType="-99"/>
        </Node>
      </Node>
    </BinaryTree>
    <BinaryTree type="DecisionTree" boostWeight="1.0000000000000000e+00" itree="1173">
      <Node pos="s" depth="0" NCoef="0" IVar="1" Cut="1.5704647302627563e+00" cType="1" res="-3.1786737508809892e-07" rms="3.2266554236412048e-01" purity="5.9855979681015015e-01" nType="0">
        <Node pos="l" depth="1" NCoef="0" IVar="-1" Cut="0.0000000000000000e+00" cType="1" res="-2.1243595256237313e-05" rms="3.2238796353340149e-01" purity="6.0177844762802124e-01" nType="-99"/>
        <Node pos="r" depth="1" NCoef="0" IVar="0" Cut="1.1031984090805054e+00" cType="0" res="5.8096353895962238e-03" rms="3.5700628161430359e-01" purity="1.7839196324348450e-01" nType="0">
          <Node pos="l" depth="2" NCoef="0" IVar="-1" Cut="0.0000000000000000e+00" cType="1" res="-4.1867033578455448e-03" rms="3.6247038841247559e-01" purity="1.9191919267177582e-01" nType="-99"/>
          <Node pos="r" depth="2" NCoef="0" IVar="-1" Cut="0.0000000000000000e+00" cType="1" res="1.0439754463732243e-02" rms="3.5057723522186279e-01" purity="1.6500000655651093e-01" nType="-99"/>
        </Node>
      </Node>
    </BinaryTree>
    <BinaryTree type="DecisionTree" boostWeight="1.0000000000000000e+00" itree="1174">
      <Node pos="s" depth="0" NCoef="0" IVar="0" Cut="2.4575212001800537e+00" cType="1" res="-3.5761536310019437e-07" rms="3.2266446948051453e-01" purity="5.9855979681015015e-01" nType="0">
        <Node pos="l" depth="1" NCoef="0" IVar="-1" Cut="0.0000000000000000e+00" cType="1" res="-2.3924621928017586e-05" rms="3.2235628366470337e-01" purity="6.0261505842208862e-01" nType="-99"/>
        <Node pos="r" depth="1" NCoef="0" IVar="2" Cut="2.3382983207702637e+00" cType="0" res="5.1970249041914940e-03" rms="3.5313025116920471e-01" purity="1.7800000309944153e-01" nType="0">
          <Node pos="l" depth="2" NCoef="0" IVar="-1" Cut="0.0000000000000000e+00" cType="1" res="9.5909815281629562e-03" rms="3.8095781207084656e-01" purity="2.3780487477779388e-01" nType="-99"/>
          <Node pos="r" depth="2" NCoef="0" IVar="-1" Cut="0.0000000000000000e+00" cType="1" res="-2.2387297358363867e-03" rms="3.3820620179176331e-01" purity="1.4880952239036560e-01" nType="-99"/>
        </Node>
      </Node>
    </BinaryTree>
    <BinaryTree type="DecisionTree" boostWeight="1.0000000000000000e+00" itree="1175">
      <Node pos="s" depth="0" NCoef="0" IVar="2" Cut="3.4542517662048340e+00" cType="1" res="-3.6434911976357398e-07" rms="3.2266357541084290e-01" purity="5.9855979681015015e-01" nType="0">
        <Node pos="l" depth="1" NCoef="0" IVar="-1" Cut="0.0000000000000000e+00" cType="1" res="1.6211171896429732e-05" rms="3.2253745198249817e-01" purity="6.0029160976409912e-01" nType="-99"/>
        <Node pos="r" depth="1" NCoef="0" IVar="0" Cut="1.3097455501556396e+00" cType="1" res="-7.9788006842136383e-03" rms="3.5045129060745239e-01" purity="1.9911503791809082e-01" nType="0">
          <Node pos="l" depth="2" NCoef="0" IVar="-1" Cut="0.0000000000000000e+00" cType="1" res="3.5579709801822901e-03" rms="3.6114135384559631e-01" purity="2.1929824352264404e-01" nType="-99"/>
          <Node pos="r" depth="2" NCoef="0" IVar="-1" Cut="0.0000000000000000e+00" cType="1" res="-9.2492774128913879e-03" rms="3.3827796578407288e-01" purity="1.7857143282890320e-01" nType="-99"/>
        </Node>
      </Node>
    </BinaryTree>
    <BinaryTree type="DecisionTree" boostWeight="1.0000000000000000e+00" itree="1176">
      <Node pos="s" depth="0" NCoef="0" IVar="1" Cut="1.5829585790634155e+00" cType="1" res="-3.5495835959409305e-07" rms="3.2266309857368469e-01" purity="5.9855979681015015e-01" nType="0">
        <Node pos="l" depth="1" NCoef="0" IVar="-1" Cut="0.0000000000000000e+00" cType="1" res="2.0812771253986284e-05" rms="3.2247793674468994e-01" purity="6.0176652669906616e-01" nType="-99"/>
        <Node pos="r" depth="1" NCoef="0" IVar="1" Cut="1.8520064353942871e+00" cType="0" res="-5.9451740235090256e-03" rms="3.4657895565032959e-01" purity="1.6795866191387177e-01" nType="0">
          <Node pos="l" depth="2" NCoef="0" IVar="-1" Cut="0.0000000000000000e+00" cType="1" res="1.6454915748909116e-03" rms="3.8005468249320984e-01" purity="2.0816326141357422e-01" nType="-99"/>
          <Node pos="r" depth="2" NCoef="0" IVar="-1" Cut="0.0000000000000000e+00" cType="1" res="-1.2160308659076691e-02" rms="2.7855163812637329e-01" purity="9.8591551184654236e-02" nType="-99"/>
        </Node>
      </Node>
    </BinaryTree>
    <BinaryTree type="DecisionTree" boostWeight="1.0000000000000000e+00" itree="1177">
      <Node pos="s" depth="0" NCoef="0" IVar="0" Cut="1.2981009483337402e+00" cType="1" res="-3.7668786490030470e-07" rms="3.2266288995742798e-01" purity="5.9855979681015015e-01" nType="0">
        <Node pos="l" depth="1" NCoef="0" IVar="-1" Cut="0.0000000000000000e+00" cType="1" res="-5.1303097279742360e-05" rms="3.2379916310310364e-01" purity="6.2081432342529297e-01" nType="-99"/>
        <Node pos="r" depth="1" NCoef="0" IVar="0" Cut="1.3318313360214233e+00" cType="1" res="2.3642755113542080e-03" rms="2.9687345027923584e-01" purity="1.1468288302421570e-01" nType="0">
          <Node pos="l" depth="2" NCoef="0" IVar="-1" Cut="0.0000000000000000e+00" cType="1" res="3.7752013653516769e-02" rms="3.5194683074951172e-01" purity="1.4285714924335480e-01" nType="-99"/>
          <Node pos="r" depth="2" NCoef="0" IVar="-1" Cut="0.0000000000000000e+00" cType="1" res="-2.2455934958998114e-04" rms="2.9350945353507996e-01" purity="1.1324200779199600e-01" nType="-99"/>
        </Node>
      </Node>
    </BinaryTree>
    <BinaryTree type="DecisionTree" boostWeight="1.0000000000000000e+00" itree="1178">
      <Node pos="s" depth="0" NCoef="0" IVar="0" Cut="2.4575212001800537e+00" cType="1" res="-6.9425556148416945e-07" rms="3.2266169786453247e-01" purity="5.9855979681015015e-01" nType="0">
        <Node pos="l" depth="1" NCoef="0" IVar="-1" Cut="0.0000000000000000e+00" cType="1" res="-2.3897997380117886e-05" rms="3.2235410809516907e-01" purity="6.0261505842208862e-01" nType="-99"/>
        <Node pos="r" depth="1" NCoef="0" IVar="3" Cut="2.1075220406055450e-01" cType="0" res="5.1562828011810780e-03" rms="3.5306948423385620e-01" purity="1.7800000309944153e-01" nType="0">
          <Node pos="l" depth="2" NCoef="0" IVar="-1" Cut="0.0000000000000000e+00" cType="1" res="7.1277231909334660e-03" rms="3.8675895333290100e-01" purity="2.3206751048564911e-01" nType="-99"/>
          <Node pos="r" depth="2" NCoef="0" IVar="-1" Cut="0.0000000000000000e+00" cType="1" res="-3.8077521603554487e-03" rms="3.1905004382133484e-01" purity="1.2927757203578949e-01" nType="-99"/>
        </Node>
      </Node>
    </BinaryTree>
    <BinaryTree type="DecisionTree" boostWeight="1.0000000000000000e+00" itree="1179">
      <Node pos="s" depth="0" NCoef="0" IVar="2" Cut="3.4542517662048340e+00" cType="1" res="-6.6690677158476319e-07" rms="3.2266110181808472e-01" purity="5.9855979681015015e-01" nType="0">
        <Node pos="l" depth="1" NCoef="0" IVar="-1" Cut="0.0000000000000000e+00" cType="1" res="1.5466412150999531e-05" rms="3.2253572344779968e-01" purity="6.0029160976409912e-01" nType="-99"/>
        <Node pos="r" depth="1" NCoef="0" IVar="1" Cut="3.2983508706092834e-01" cType="1" res="-7.6867109164595604e-03" rms="3.5029849410057068e-01" purity="1.9911503791809082e-01" nType="0">
          <Node pos="l" depth="2" NCoef="0" IVar="-1" Cut="0.0000000000000000e+00" cType="1" res="2.7157040312886238e-03" rms="3.6858987808227539e-01" purity="2.3140496015548706e-01" nType="-99"/>
          <Node pos="r" depth="2" NCoef="0" IVar="-1" Cut="0.0000000000000000e+00" cType="1" res="-9.6894921734929085e-03" rms="3.2704913616180420e-01" purity="1.6190476715564728e-01" nType="-99"/>
        </Node>
      </Node>
    </BinaryTree>
    <BinaryTree type="DecisionTree" boostWeight="1.0000000000000000e+00" itree="1180">
      <Node pos="s" depth="0" NCoef="0" IVar="1" Cut="1.5704647302627563e+00" cType="1" res="-6.2616987861474627e-07" rms="3.2266080379486084e-01" purity="5.9855979681015015e-01" nType="0">
        <Node pos="l" depth="1" NCoef="0" IVar="-1" Cut="0.0000000000000000e+00" cType="1" res="-2.1168045350350440e-05" rms="3.2238477468490601e-01" purity="6.0177844762802124e-01" nType="-99"/>
        <Node pos="r" depth="1" NCoef="0" IVar="3" Cut="1.8912068009376526e-01" cType="1" res="5.7488423772156239e-03" rms="3.5682091116905212e-01" purity="1.7839196324348450e-01" nType="0">
          <Node pos="l" depth="2" NCoef="0" IVar="-1" Cut="0.0000000000000000e+00" cType="1" res="1.2226494029164314e-02" rms="3.8263255357742310e-01" purity="2.2330096364021301e-01" nType="-99"/>
          <Node pos="r" depth="2" NCoef="0" IVar="-1" Cut="0.0000000000000000e+00" cType="1" res="-1.7138870898634195e-03" rms="3.4678599238395691e-01" purity="1.6271185874938965e-01" nType="-99"/>
        </Node>
      </Node>
    </BinaryTree>
    <BinaryTree type="DecisionTree" boostWeight="1.0000000000000000e+00" itree="1181">
      <Node pos="s" depth="0" NCoef="0" IVar="1" Cut="2.3250875473022461e+00" cType="1" res="-6.1113530591683229e-07" rms="3.2265955209732056e-01" purity="5.9855979681015015e-01" nType="0">
        <Node pos="l" depth="1" NCoef="0" IVar="1" Cut="1.7344640493392944e+00" cType="1" res="2.3479167793993838e-05" rms="3.2252722978591919e-01" purity="5.9937214851379395e-01" nType="0">
          <Node pos="l" depth="2" NCoef="0" IVar="-1" Cut="0.0000000000000000e+00" cType="1" res="-1.4651292076450773e-05" rms="3.2235515117645264e-01" purity="6.0092604160308838e-01" nType="-99"/>
          <Node pos="r" depth="2" NCoef="0" IVar="-1" Cut="0.0000000000000000e+00" cType="1" res="5.5687753483653069e-03" rms="3.6528396606445312e-01" purity="1.8461538851261139e-01" nType="-99"/>
        </Node>
        <Node pos="r" depth="1" NCoef="0" IVar="-1" Cut="0.0000000000000000e+00" cType="1" res="-3.4389575012028217e-03" rms="3.7968444824218750e-01" purity="2.1621622145175934e-01" nType="-99"/>
      </Node>
    </BinaryTree>
    <BinaryTree type="DecisionTree" boostWeight="1.0000000000000000e+00" itree="1182">
      <Node pos="s" depth="0" NCoef="0" IVar="1" Cut="1.5829585790634155e+00" cType="1" res="-5.7164601230397238e-07" rms="3.2265898585319519e-01" purity="5.9855979681015015e-01" nType="0">
        <Node pos="l" depth="1" NCoef="0" IVar="-1" Cut="0.0000000000000000e+00" cType="1" res="2.1957815988571383e-05" rms="3.2247552275657654e-01" purity="6.0176652669906616e-01" nType="-99"/>
        <Node pos="r" depth="1" NCoef="0" IVar="2" Cut="9.8254376649856567e-01" cType="0" res="-6.2995678745210171e-03" rms="3.4635710716247559e-01" purity="1.6795866191387177e-01" nType="0">
          <Node pos="l" depth="2" NCoef="0" IVar="-1" Cut="0.0000000000000000e+00" cType="1" res="1.5282855601981282e-03" rms="3.6623761057853699e-01" purity="1.9066147506237030e-01" nType="-99"/>
          <Node pos="r" depth="2" NCoef="0" IVar="-1" Cut="0.0000000000000000e+00" cType="1" res="-1.1416466906666756e-02" rms="3.0216005444526672e-01" purity="1.2307692319154739e-01" nType="-99"/>
        </Node>
      </Node>
    </BinaryTree>
    <BinaryTree type="DecisionTree" boostWeight="1.0000000000000000e+00" itree="1183">
      <Node pos="s" depth="0" NCoef="0" IVar="3" Cut="2.6085385680198669e-01" cType="1" res="-5.6370538459304953e-07" rms="3.2265871763229370e-01" purity="5.9855979681015015e-01" nType="0">
        <Node pos="l" depth="1" NCoef="0" IVar="-1" Cut="0.0000000000000000e+00" cType="1" res="2.9020811780355871e-04" rms="2.8199273347854614e-01" purity="6.1474961042404175e-01" nType="-99"/>
        <Node pos="r" depth="1" NCoef="0" IVar="3" Cut="2.6479849219322205e-01" cType="0" res="-5.1731657003983855e-04" rms="3.6167532205581665e-01" purity="5.8097934722900391e-01" nType="0">
          <Node pos="l" depth="2" NCoef="0" IVar="-1" Cut="0.0000000000000000e+00" cType="1" res="-6.4823259890545160e-05" rms="3.6259818077087402e-01" purity="5.8744484186172485e-01" nType="-99"/>
          <Node pos="r" depth="2" NCoef="0" IVar="-1" Cut="0.0000000000000000e+00" cType="1" res="-6.3730413094162941e-03" rms="3.2249662280082703e-01" purity="3.2357722520828247e-01" nType="-99"/>
        </Node>
      </Node>
    </BinaryTree>
    <BinaryTree type="DecisionTree" boostWeight="1.0000000000000000e+00" itree="1184">
      <Node pos="s" depth="0" NCoef="0" IVar="3" Cut="4.2751049995422363e-01" cType="0" res="-5.2786924698011717e-07" rms="3.2265797257423401e-01" purity="5.9855979681015015e-01" nType="0">
        <Node pos="l" depth="1" NCoef="0" IVar="-1" Cut="0.0000000000000000e+00" cType="1" res="7.8807200770825148e-04" rms="3.3390837907791138e-01" purity="8.4197926521301270e-01" nType="-99"/>
        <Node pos="r" depth="1" NCoef="0" IVar="3" Cut="4.2622524499893188e-01" cType="0" res="-1.3885837688576430e-04" rms="3.2177090644836426e-01" purity="5.7973045110702515e-01" nType="0">
          <Node pos="l" depth="2" NCoef="0" IVar="-1" Cut="0.0000000000000000e+00" cType="1" res="-2.0813694223761559e-02" rms="4.0721055865287781e-01" purity="6.8000000715255737e-01" nType="-99"/>
          <Node pos="r" depth="2" NCoef="0" IVar="-1" Cut="0.0000000000000000e+00" cType="1" res="-4.5005381252849475e-06" rms="3.2155862450599670e-01" purity="5.7952368259429932e-01" nType="-99"/>
        </Node>
      </Node>
    </BinaryTree>
    <BinaryTree type="DecisionTree" boostWeight="1.0000000000000000e+00" itree="1185">
      <Node pos="s" depth="0" NCoef="0" IVar="2" Cut="3.7989275455474854e+00" cType="1" res="-3.6696880556519318e-07" rms="3.2265532016754150e-01" purity="5.9855979681015015e-01" nType="0">
        <Node pos="l" depth="1" NCoef="0" IVar="2" Cut="3.3657162189483643e+00" cType="1" res="-2.4995959392981604e-05" rms="3.2251471281051636e-01" purity="5.9950596094131470e-01" nType="0">
          <Node pos="l" depth="2" NCoef="0" IVar="-1" Cut="0.0000000000000000e+00" cType="1" res="1.5015748431324027e-05" rms="3.2252442836761475e-01" purity="6.0052978992462158e-01" nType="-99"/>
          <Node pos="r" depth="2" NCoef="0" IVar="-1" Cut="0.0000000000000000e+00" cType="1" res="-8.6088897660374641e-03" rms="3.1773239374160767e-01" purity="1.8604651093482971e-01" nType="-99"/>
        </Node>
        <Node pos="r" depth="1" NCoef="0" IVar="-1" Cut="0.0000000000000000e+00" cType="1" res="3.4389158245176077e-03" rms="3.7439757585525513e-01" purity="2.2137404978275299e-01" nType="-99"/>
      </Node>
    </BinaryTree>
    <BinaryTree type="DecisionTree" boostWeight="1.0000000000000000e+00" itree="1186">
      <Node pos="s" depth="0" NCoef="0" IVar="2" Cut="3.2781672477722168e+00" cType="1" res="-3.5576536561165994e-07" rms="3.2265505194664001e-01" purity="5.9855979681015015e-01" nType="0">
        <Node pos="l" depth="1" NCoef="0" IVar="-1" Cut="0.0000000000000000e+00" cType="1" res="-1.8347853256273083e-05" rms="3.2244667410850525e-01" purity="6.0073769092559814e-01" nType="-99"/>
        <Node pos="r" depth="1" NCoef="0" IVar="1" Cut="1.2243878096342087e-01" cType="0" res="6.7015886306762695e-03" rms="3.5712903738021851e-01" purity="2.1812079846858978e-01" nType="0">
          <Node pos="l" depth="2" NCoef="0" IVar="-1" Cut="0.0000000000000000e+00" cType="1" res="7.9237753525376320e-03" rms="3.6642336845397949e-01" purity="2.2448979318141937e-01" nType="-99"/>
          <Node pos="r" depth="2" NCoef="0" IVar="-1" Cut="0.0000000000000000e+00" cType="1" res="-7.3832510970532894e-03" rms="3.3681339025497437e-01" purity="2.0588235557079315e-01" nType="-99"/>
        </Node>
      </Node>
    </BinaryTree>
    <BinaryTree type="DecisionTree" boostWeight="1.0000000000000000e+00" itree="1187">
      <Node pos="s" depth="0" NCoef="0" IVar="2" Cut="3.8813500404357910e+00" cType="1" res="-3.6193301866660477e-07" rms="3.2265424728393555e-01" purity="5.9855979681015015e-01" nType="0">
        <Node pos="l" depth="1" NCoef="0" IVar="2" Cut="3.2772457599639893e+00" cType="1" res="2.5033830752363428e-05" rms="3.2256606221199036e-01" purity="5.9940659999847412e-01" nType="0">
          <Node pos="l" depth="2" NCoef="0" IVar="-1" Cut="0.0000000000000000e+00" cType="1" res="-1.6512860383954830e-05" rms="3.2244667410850525e-01" purity="6.0073769092559814e-01" nType="-99"/>
          <Node pos="r" depth="2" NCoef="0" IVar="-1" Cut="0.0000000000000000e+00" cType="1" res="6.4836801029741764e-03" rms="3.5432329773902893e-01" purity="2.2282609343528748e-01" nType="-99"/>
        </Node>
        <Node pos="r" depth="1" NCoef="0" IVar="-1" Cut="0.0000000000000000e+00" cType="1" res="-3.9515923708677292e-03" rms="3.6061859130859375e-01" purity="2.1052631735801697e-01" nType="-99"/>
      </Node>
    </BinaryTree>
    <BinaryTree type="DecisionTree" boostWeight="1.0000000000000000e+00" itree="1188">
      <Node pos="s" depth="0" NCoef="0" IVar="1" Cut="1.5829585790634155e+00" cType="1" res="-3.4752969213514007e-07" rms="3.2265368103981018e-01" purity="5.9855979681015015e-01" nType="0">
        <Node pos="l" depth="1" NCoef="0" IVar="-1" Cut="0.0000000000000000e+00" cType="1" res="2.0476602003327571e-05" rms="3.2247066497802734e-01" purity="6.0176652669906616e-01" nType="-99"/>
        <Node pos="r" depth="1" NCoef="0" IVar="2" Cut="2.0490391254425049e+00" cType="1" res="-5.8491034433245659e-03" rms="3.4630161523818970e-01" purity="1.6795866191387177e-01" nType="0">
          <Node pos="l" depth="2" NCoef="0" IVar="-1" Cut="0.0000000000000000e+00" cType="1" res="1.0719647398218513e-03" rms="3.4354668855667114e-01" purity="1.6961130499839783e-01" nType="-99"/>
          <Node pos="r" depth="2" NCoef="0" IVar="-1" Cut="0.0000000000000000e+00" cType="1" res="-1.0453864932060242e-02" rms="3.5262444615364075e-01" purity="1.6346153616905212e-01" nType="-99"/>
        </Node>
      </Node>
    </BinaryTree>
    <BinaryTree type="DecisionTree" boostWeight="1.0000000000000000e+00" itree="1189">
      <Node pos="s" depth="0" NCoef="0" IVar="1" Cut="1.5704647302627563e+00" cType="1" res="-3.4560309813969070e-07" rms="3.2265314459800720e-01" purity="5.9855979681015015e-01" nType="0">
        <Node pos="l" depth="1" NCoef="0" IVar="-1" Cut="0.0000000000000000e+00" cType="1" res="-2.1141799152246676e-05" rms="3.2237979769706726e-01" purity="6.0177844762802124e-01" nType="-99"/>
        <Node pos="r" depth="1" NCoef="0" IVar="2" Cut="1.2996939420700073e+00" cType="1" res="5.7781315408647060e-03" rms="3.5649332404136658e-01" purity="1.7839196324348450e-01" nType="0">
          <Node pos="l" depth="2" NCoef="0" IVar="-1" Cut="0.0000000000000000e+00" cType="1" res="8.9367358013987541e-03" rms="3.6113873124122620e-01" purity="1.8877550959587097e-01" nType="-99"/>
          <Node pos="r" depth="2" NCoef="0" IVar="-1" Cut="0.0000000000000000e+00" cType="1" res="-4.0109017863869667e-03" rms="3.5113191604614258e-01" purity="1.6831682622432709e-01" nType="-99"/>
        </Node>
      </Node>
    </BinaryTree>
    <BinaryTree type="DecisionTree" boostWeight="1.0000000000000000e+00" itree="1190">
      <Node pos="s" depth="0" NCoef="0" IVar="1" Cut="1.5829585790634155e+00" cType="1" res="-3.6449145568440144e-07" rms="3.2265192270278931e-01" purity="5.9855979681015015e-01" nType="0">
        <Node pos="l" depth="1" NCoef="0" IVar="-1" Cut="0.0000000000000000e+00" cType="1" res="2.0520710677374154e-05" rms="3.2247045636177063e-01" purity="6.0176652669906616e-01" nType="-99"/>
        <Node pos="r" depth="1" NCoef="0" IVar="2" Cut="9.8254376649856567e-01" cType="0" res="-5.8639016933739185e-03" rms="3.4610533714294434e-01" purity="1.6795866191387177e-01" nType="0">
          <Node pos="l" depth="2" NCoef="0" IVar="-1" Cut="0.0000000000000000e+00" cType="1" res="1.7142085125669837e-03" rms="3.6586526036262512e-01" purity="1.9066147506237030e-01" nType="-99"/>
          <Node pos="r" depth="2" NCoef="0" IVar="-1" Cut="0.0000000000000000e+00" cType="1" res="-1.1310070753097534e-02" rms="3.0217829346656799e-01" purity="1.2307692319154739e-01" nType="-99"/>
        </Node>
      </Node>
    </BinaryTree>
    <BinaryTree type="DecisionTree" boostWeight="1.0000000000000000e+00" itree="1191">
      <Node pos="s" depth="0" NCoef="0" IVar="1" Cut="1.5704647302627563e+00" cType="1" res="-3.7688525367229886e-07" rms="3.2265162467956543e-01" purity="5.9855979681015015e-01" nType="0">
        <Node pos="l" depth="1" NCoef="0" IVar="-1" Cut="0.0000000000000000e+00" cType="1" res="-2.1079817088320851e-05" rms="3.2237979769706726e-01" purity="6.0177844762802124e-01" nType="-99"/>
        <Node pos="r" depth="1" NCoef="0" IVar="0" Cut="1.1031984090805054e+00" cType="0" res="5.7569444179534912e-03" rms="3.5631397366523743e-01" purity="1.7839196324348450e-01" nType="0">
          <Node pos="l" depth="2" NCoef="0" IVar="-1" Cut="0.0000000000000000e+00" cType="1" res="-3.6697688046842813e-03" rms="3.6196848750114441e-01" purity="1.9191919267177582e-01" nType="-99"/>
          <Node pos="r" depth="2" NCoef="0" IVar="-1" Cut="0.0000000000000000e+00" cType="1" res="9.6207177266478539e-03" rms="3.4985119104385376e-01" purity="1.6500000655651093e-01" nType="-99"/>
        </Node>
      </Node>
    </BinaryTree>
    <BinaryTree type="DecisionTree" boostWeight="1.0000000000000000e+00" itree="1192">
      <Node pos="s" depth="0" NCoef="0" IVar="1" Cut="1.5829585790634155e+00" cType="1" res="-3.9913132354740810e-07" rms="3.2265070080757141e-01" purity="5.9855979681015015e-01" nType="0">
        <Node pos="l" depth="1" NCoef="0" IVar="-1" Cut="0.0000000000000000e+00" cType="1" res="2.0541448975563981e-05" rms="3.2247024774551392e-01" purity="6.0176652669906616e-01" nType="-99"/>
        <Node pos="r" depth="1" NCoef="0" IVar="2" Cut="9.8254376649856567e-01" cType="0" res="-5.8744703419506550e-03" rms="3.4597903490066528e-01" purity="1.6795866191387177e-01" nType="0">
          <Node pos="l" depth="2" NCoef="0" IVar="-1" Cut="0.0000000000000000e+00" cType="1" res="1.4852439053356647e-03" rms="3.6574184894561768e-01" purity="1.9066147506237030e-01" nType="-99"/>
          <Node pos="r" depth="2" NCoef="0" IVar="-1" Cut="0.0000000000000000e+00" cType="1" res="-1.0871108621358871e-02" rms="3.0216616392135620e-01" purity="1.2307692319154739e-01" nType="-99"/>
        </Node>
      </Node>
    </BinaryTree>
    <BinaryTree type="DecisionTree" boostWeight="1.0000000000000000e+00" itree="1193">
      <Node pos="s" depth="0" NCoef="0" IVar="1" Cut="1.5704647302627563e+00" cType="1" res="-4.0358494857173355e-07" rms="3.2265046238899231e-01" purity="5.9855979681015015e-01" nType="0">
        <Node pos="l" depth="1" NCoef="0" IVar="-1" Cut="0.0000000000000000e+00" cType="1" res="-2.1025971363997087e-05" rms="3.2237979769706726e-01" purity="6.0177844762802124e-01" nType="-99"/>
        <Node pos="r" depth="1" NCoef="0" IVar="3" Cut="2.7439603209495544e-01" cType="1" res="5.7386015541851521e-03" rms="3.5617569088935852e-01" purity="1.7839196324348450e-01" nType="0">
          <Node pos="l" depth="2" NCoef="0" IVar="-1" Cut="0.0000000000000000e+00" cType="1" res="6.3763232901692390e-03" rms="3.6335510015487671e-01" purity="1.9117647409439087e-01" nType="-99"/>
          <Node pos="r" depth="2" NCoef="0" IVar="-1" Cut="0.0000000000000000e+00" cType="1" res="-7.6086572371423244e-03" rms="3.3884629607200623e-01" purity="1.5079365670681000e-01" nType="-99"/>
        </Node>
      </Node>
    </BinaryTree>
    <BinaryTree type="DecisionTree" boostWeight="1.0000000000000000e+00" itree="1194">
      <Node pos="s" depth="0" NCoef="0" IVar="1" Cut="1.5829585790634155e+00" cType="1" res="-4.1466191191830148e-07" rms="3.2264903187751770e-01" purity="5.9855979681015015e-01" nType="0">
        <Node pos="l" depth="1" NCoef="0" IVar="-1" Cut="0.0000000000000000e+00" cType="1" res="2.0516001313808374e-05" rms="3.2246986031532288e-01" purity="6.0176652669906616e-01" nType="-99"/>
        <Node pos="r" depth="1" NCoef="0" IVar="1" Cut="1.8520064353942871e+00" cType="0" res="-5.8693652972579002e-03" rms="3.4581571817398071e-01" purity="1.6795866191387177e-01" nType="0">
          <Node pos="l" depth="2" NCoef="0" IVar="-1" Cut="0.0000000000000000e+00" cType="1" res="1.3541198568418622e-03" rms="3.7925156950950623e-01" purity="2.0816326141357422e-01" nType="-99"/>
          <Node pos="r" depth="2" NCoef="0" IVar="-1" Cut="0.0000000000000000e+00" cType="1" res="-1.1460440233349800e-02" rms="2.7801975607872009e-01" purity="9.8591551184654236e-02" nType="-99"/>
        </Node>
      </Node>
    </BinaryTree>
    <BinaryTree type="DecisionTree" boostWeight="1.0000000000000000e+00" itree="1195">
      <Node pos="s" depth="0" NCoef="0" IVar="1" Cut="1.5704647302627563e+00" cType="1" res="-4.2285043377887632e-07" rms="3.2264888286590576e-01" purity="5.9855979681015015e-01" nType="0">
        <Node pos="l" depth="1" NCoef="0" IVar="-1" Cut="0.0000000000000000e+00" cType="1" res="-2.0974848666810431e-05" rms="3.2237979769706726e-01" purity="6.0177844762802124e-01" nType="-99"/>
        <Node pos="r" depth="1" NCoef="0" IVar="2" Cut="1.2996939420700073e+00" cType="1" res="5.7219858281314373e-03" rms="3.5598909854888916e-01" purity="1.7839196324348450e-01" nType="0">
          <Node pos="l" depth="2" NCoef="0" IVar="-1" Cut="0.0000000000000000e+00" cType="1" res="8.5776830092072487e-03" rms="3.6037954688072205e-01" purity="1.8877550959587097e-01" nType="-99"/>
          <Node pos="r" depth="2" NCoef="0" IVar="-1" Cut="0.0000000000000000e+00" cType="1" res="-3.7461796309798956e-03" rms="3.5095512866973877e-01" purity="1.6831682622432709e-01" nType="-99"/>
        </Node>
      </Node>
    </BinaryTree>
    <BinaryTree type="DecisionTree" boostWeight="1.0000000000000000e+00" itree="1196">
      <Node pos="s" depth="0" NCoef="0" IVar="1" Cut="2.3250875473022461e+00" cType="1" res="-4.2923954879370285e-07" rms="3.2264775037765503e-01" purity="5.9855979681015015e-01" nType="0">
        <Node pos="l" depth="1" NCoef="0" IVar="1" Cut="1.5706599950790405e+00" cType="1" res="2.3262644390342757e-05" rms="3.2251673936843872e-01" purity="5.9937214851379395e-01" nType="0">
          <Node pos="l" depth="2" NCoef="0" IVar="-1" Cut="0.0000000000000000e+00" cType="1" res="-1.8877290131058544e-05" rms="3.2237979769706726e-01" purity="6.0177844762802124e-01" nType="-99"/>
          <Node pos="r" depth="2" NCoef="0" IVar="-1" Cut="0.0000000000000000e+00" cType="1" res="4.8068785108625889e-03" rms="3.4622499346733093e-01" purity="1.6376306116580963e-01" nType="-99"/>
        </Node>
        <Node pos="r" depth="1" NCoef="0" IVar="-1" Cut="0.0000000000000000e+00" cType="1" res="-3.3853566274046898e-03" rms="3.7915992736816406e-01" purity="2.1621622145175934e-01" nType="-99"/>
      </Node>
    </BinaryTree>
    <BinaryTree type="DecisionTree" boostWeight="1.0000000000000000e+00" itree="1197">
      <Node pos="s" depth="0" NCoef="0" IVar="1" Cut="1.5829585790634155e+00" cType="1" res="-4.0853771565707575e-07" rms="3.2264715433120728e-01" purity="5.9855979681015015e-01" nType="0">
        <Node pos="l" depth="1" NCoef="0" IVar="-1" Cut="0.0000000000000000e+00" cType="1" res="2.2307647668640129e-05" rms="3.2246935367584229e-01" purity="6.0176652669906616e-01" nType="-99"/>
        <Node pos="r" depth="1" NCoef="0" IVar="2" Cut="1.7287795543670654e+00" cType="0" res="-6.3762529753148556e-03" rms="3.4563398361206055e-01" purity="1.6795866191387177e-01" nType="0">
          <Node pos="l" depth="2" NCoef="0" IVar="-1" Cut="0.0000000000000000e+00" cType="1" res="4.5569972135126591e-03" rms="3.7258824706077576e-01" purity="1.9718310236930847e-01" nType="-99"/>
          <Node pos="r" depth="2" NCoef="0" IVar="-1" Cut="0.0000000000000000e+00" cType="1" res="-6.6669834777712822e-03" rms="3.2850661873817444e-01" purity="1.5102040767669678e-01" nType="-99"/>
        </Node>
      </Node>
    </BinaryTree>
    <BinaryTree type="DecisionTree" boostWeight="1.0000000000000000e+00" itree="1198">
      <Node pos="s" depth="0" NCoef="0" IVar="1" Cut="1.5829585790634155e+00" cType="1" res="-4.0715966065363318e-07" rms="3.2264694571495056e-01" purity="5.9855979681015015e-01" nType="0">
        <Node pos="l" depth="1" NCoef="0" IVar="-1" Cut="0.0000000000000000e+00" cType="1" res="2.0076959117432125e-05" rms="3.2246935367584229e-01" purity="6.0176652669906616e-01" nType="-99"/>
        <Node pos="r" depth="1" NCoef="0" IVar="2" Cut="9.8254376649856567e-01" cType="0" res="-5.7439538650214672e-03" rms="3.4561774134635925e-01" purity="1.6795866191387177e-01" nType="0">
          <Node pos="l" depth="2" NCoef="0" IVar="-1" Cut="0.0000000000000000e+00" cType="1" res="1.3420932227745652e-03" rms="3.6532494425773621e-01" purity="1.9066147506237030e-01" nType="-99"/>
          <Node pos="r" depth="2" NCoef="0" IVar="-1" Cut="0.0000000000000000e+00" cType="1" res="-1.0450471192598343e-02" rms="3.0203220248222351e-01" purity="1.2307692319154739e-01" nType="-99"/>
        </Node>
      </Node>
    </BinaryTree>
    <BinaryTree type="DecisionTree" boostWeight="1.0000000000000000e+00" itree="1199">
      <Node pos="s" depth="0" NCoef="0" IVar="1" Cut="1.5704647302627563e+00" cType="1" res="-4.0707743664825102e-07" rms="3.2264676690101624e-01" purity="5.9855979681015015e-01" nType="0">
        <Node pos="l" depth="1" NCoef="0" IVar="-1" Cut="0.0000000000000000e+00" cType="1" res="-2.1228233890724368e-05" rms="3.2237979769706726e-01" purity="6.0177844762802124e-01" nType="-99"/>
        <Node pos="r" depth="1" NCoef="0" IVar="2" Cut="1.2996939420700073e+00" cType="1" res="5.7938527315855026e-03" rms="3.5573241114616394e-01" purity="1.7839196324348450e-01" nType="0">
          <Node pos="l" depth="2" NCoef="0" IVar="-1" Cut="0.0000000000000000e+00" cType="1" res="8.7795704603195190e-03" rms="3.6005896329879761e-01" purity="1.8877550959587097e-01" nType="-99"/>
          <Node pos="r" depth="2" NCoef="0" IVar="-1" Cut="0.0000000000000000e+00" cType="1" res="-3.8572275079786777e-03" rms="3.5072597861289978e-01" purity="1.6831682622432709e-01" nType="-99"/>
        </Node>
      </Node>
    </BinaryTree>
    <BinaryTree type="DecisionTree" boostWeight="1.0000000000000000e+00" itree="1200">
      <Node pos="s" depth="0" NCoef="0" IVar="1" Cut="1.5829585790634155e+00" cType="1" res="-4.1739963307918515e-07" rms="3.2264554500579834e-01" purity="5.9855979681015015e-01" nType="0">
        <Node pos="l" depth="1" NCoef="0" IVar="-1" Cut="0.0000000000000000e+00" cType="1" res="2.0164341549389064e-05" rms="3.2246914505958557e-01" purity="6.0176652669906616e-01" nType="-99"/>
        <Node pos="r" depth="1" NCoef="0" IVar="2" Cut="1.7287795543670654e+00" cType="0" res="-5.7701058685779572e-03" rms="3.4546953439712524e-01" purity="1.6795866191387177e-01" nType="0">
          <Node pos="l" depth="2" NCoef="0" IVar="-1" Cut="0.0000000000000000e+00" cType="1" res="4.3430095538496971e-03" rms="3.7255287170410156e-01" purity="1.9718310236930847e-01" nType="-99"/>
          <Node pos="r" depth="2" NCoef="0" IVar="-1" Cut="0.0000000000000000e+00" cType="1" res="-6.2130265869200230e-03" rms="3.2831597328186035e-01" purity="1.5102040767669678e-01" nType="-99"/>
        </Node>
      </Node>
    </BinaryTree>
    <BinaryTree type="DecisionTree" boostWeight="1.0000000000000000e+00" itree="1201">
      <Node pos="s" depth="0" NCoef="0" IVar="1" Cut="1.5704647302627563e+00" cType="1" res="-4.0989854710460349e-07" rms="3.2264539599418640e-01" purity="5.9855979681015015e-01" nType="0">
        <Node pos="l" depth="1" NCoef="0" IVar="-1" Cut="0.0000000000000000e+00" cType="1" res="-2.1121773897903040e-05" rms="3.2237979769706726e-01" purity="6.0177844762802124e-01" nType="-99"/>
        <Node pos="r" depth="1" NCoef="0" IVar="0" Cut="1.1031984090805054e+00" cType="0" res="5.7641584426164627e-03" rms="3.5556998848915100e-01" purity="1.7839196324348450e-01" nType="0">
          <Node pos="l" depth="2" NCoef="0" IVar="-1" Cut="0.0000000000000000e+00" cType="1" res="-3.4924556966871023e-03" rms="3.6139437556266785e-01" purity="1.9191919267177582e-01" nType="-99"/>
          <Node pos="r" depth="2" NCoef="0" IVar="-1" Cut="0.0000000000000000e+00" cType="1" res="9.3780662864446640e-03" rms="3.4898075461387634e-01" purity="1.6500000655651093e-01" nType="-99"/>
        </Node>
      </Node>
    </BinaryTree>
    <BinaryTree type="DecisionTree" boostWeight="1.0000000000000000e+00" itree="1202">
      <Node pos="s" depth="0" NCoef="0" IVar="1" Cut="1.5829585790634155e+00" cType="1" res="-4.2559193502711423e-07" rms="3.2264447212219238e-01" purity="5.9855979681015015e-01" nType="0">
        <Node pos="l" depth="1" NCoef="0" IVar="-1" Cut="0.0000000000000000e+00" cType="1" res="2.0219787984387949e-05" rms="3.2246890664100647e-01" purity="6.0176652669906616e-01" nType="-99"/>
        <Node pos="r" depth="1" NCoef="0" IVar="0" Cut="2.0102448463439941e+00" cType="0" res="-5.7869320735335350e-03" rms="3.4536224603652954e-01" purity="1.6795866191387177e-01" nType="0">
          <Node pos="l" depth="2" NCoef="0" IVar="-1" Cut="0.0000000000000000e+00" cType="1" res="4.3811295181512833e-03" rms="4.2311382293701172e-01" purity="2.7272728085517883e-01" nType="-99"/>
          <Node pos="r" depth="2" NCoef="0" IVar="-1" Cut="0.0000000000000000e+00" cType="1" res="-6.3664838671684265e-03" rms="3.0868801474571228e-01" purity="1.2635378539562225e-01" nType="-99"/>
        </Node>
      </Node>
    </BinaryTree>
    <BinaryTree type="DecisionTree" boostWeight="1.0000000000000000e+00" itree="1203">
      <Node pos="s" depth="0" NCoef="0" IVar="1" Cut="1.5704647302627563e+00" cType="1" res="-4.2006072931144445e-07" rms="3.2264435291290283e-01" purity="5.9855979681015015e-01" nType="0">
        <Node pos="l" depth="1" NCoef="0" IVar="-1" Cut="0.0000000000000000e+00" cType="1" res="-2.1031557480455376e-05" rms="3.2237979769706726e-01" purity="6.0177844762802124e-01" nType="-99"/>
        <Node pos="r" depth="1" NCoef="0" IVar="2" Cut="1.2996939420700073e+00" cType="1" res="5.7379729114472866e-03" rms="3.5544601082801819e-01" purity="1.7839196324348450e-01" nType="0">
          <Node pos="l" depth="2" NCoef="0" IVar="-1" Cut="0.0000000000000000e+00" cType="1" res="8.3505511283874512e-03" rms="3.5978686809539795e-01" purity="1.8877550959587097e-01" nType="-99"/>
          <Node pos="r" depth="2" NCoef="0" IVar="-1" Cut="0.0000000000000000e+00" cType="1" res="-3.5512354224920273e-03" rms="3.5050845146179199e-01" purity="1.6831682622432709e-01" nType="-99"/>
        </Node>
      </Node>
    </BinaryTree>
    <BinaryTree type="DecisionTree" boostWeight="1.0000000000000000e+00" itree="1204">
      <Node pos="s" depth="0" NCoef="0" IVar="1" Cut="1.5829585790634155e+00" cType="1" res="-4.2369612174297799e-07" rms="3.2264325022697449e-01" purity="5.9855979681015015e-01" nType="0">
        <Node pos="l" depth="1" NCoef="0" IVar="-1" Cut="0.0000000000000000e+00" cType="1" res="2.0270317691029049e-05" rms="3.2246869802474976e-01" purity="6.0176652669906616e-01" nType="-99"/>
        <Node pos="r" depth="1" NCoef="0" IVar="2" Cut="9.8254376649856567e-01" cType="0" res="-5.8009987697005272e-03" rms="3.4523212909698486e-01" purity="1.6795866191387177e-01" nType="0">
          <Node pos="l" depth="2" NCoef="0" IVar="-1" Cut="0.0000000000000000e+00" cType="1" res="1.3962407829239964e-03" rms="3.6477243900299072e-01" purity="1.9066147506237030e-01" nType="-99"/>
          <Node pos="r" depth="2" NCoef="0" IVar="-1" Cut="0.0000000000000000e+00" cType="1" res="-1.0622427798807621e-02" rms="3.0200177431106567e-01" purity="1.2307692319154739e-01" nType="-99"/>
        </Node>
      </Node>
    </BinaryTree>
    <BinaryTree type="DecisionTree" boostWeight="1.0000000000000000e+00" itree="1205">
      <Node pos="s" depth="0" NCoef="0" IVar="1" Cut="1.5704647302627563e+00" cType="1" res="-4.2336063188486150e-07" rms="3.2264304161071777e-01" purity="5.9855979681015015e-01" nType="0">
        <Node pos="l" depth="1" NCoef="0" IVar="-1" Cut="0.0000000000000000e+00" cType="1" res="-2.0955403670086525e-05" rms="3.2237979769706726e-01" purity="6.0177844762802124e-01" nType="-99"/>
        <Node pos="r" depth="1" NCoef="0" IVar="3" Cut="1.8912068009376526e-01" cType="1" res="5.7165627367794514e-03" rms="3.5528978705406189e-01" purity="1.7839196324348450e-01" nType="0">
          <Node pos="l" depth="2" NCoef="0" IVar="-1" Cut="0.0000000000000000e+00" cType="1" res="1.1075071059167385e-02" rms="3.7891429662704468e-01" purity="2.2330096364021301e-01" nType="-99"/>
          <Node pos="r" depth="2" NCoef="0" IVar="-1" Cut="0.0000000000000000e+00" cType="1" res="-1.3271103380247951e-03" rms="3.4620124101638794e-01" purity="1.6271185874938965e-01" nType="-99"/>
        </Node>
      </Node>
    </BinaryTree>
    <BinaryTree type="DecisionTree" boostWeight="1.0000000000000000e+00" itree="1206">
      <Node pos="s" depth="0" NCoef="0" IVar="1" Cut="1.5829585790634155e+00" cType="1" res="-4.1947239992623508e-07" rms="3.2264187932014465e-01" purity="5.9855979681015015e-01" nType="0">
        <Node pos="l" depth="1" NCoef="0" IVar="-1" Cut="0.0000000000000000e+00" cType="1" res="2.0310752006480470e-05" rms="3.2246851921081543e-01" purity="6.0176652669906616e-01" nType="-99"/>
        <Node pos="r" depth="1" NCoef="0" IVar="2" Cut="1.7287795543670654e+00" cType="0" res="-5.8118891902267933e-03" rms="3.4508207440376282e-01" purity="1.6795866191387177e-01" nType="0">
          <Node pos="l" depth="2" NCoef="0" IVar="-1" Cut="0.0000000000000000e+00" cType="1" res="4.2051305063068867e-03" rms="3.7249013781547546e-01" purity="1.9718310236930847e-01" nType="-99"/>
          <Node pos="r" depth="2" NCoef="0" IVar="-1" Cut="0.0000000000000000e+00" cType="1" res="-6.1713047325611115e-03" rms="3.2772880792617798e-01" purity="1.5102040767669678e-01" nType="-99"/>
        </Node>
      </Node>
    </BinaryTree>
    <BinaryTree type="DecisionTree" boostWeight="1.0000000000000000e+00" itree="1207">
      <Node pos="s" depth="0" NCoef="0" IVar="1" Cut="1.5704647302627563e+00" cType="1" res="-4.1047539411920297e-07" rms="3.2264173030853271e-01" purity="5.9855979681015015e-01" nType="0">
        <Node pos="l" depth="1" NCoef="0" IVar="-1" Cut="0.0000000000000000e+00" cType="1" res="-2.0890895029879175e-05" rms="3.2237979769706726e-01" purity="6.0177844762802124e-01" nType="-99"/>
        <Node pos="r" depth="1" NCoef="0" IVar="0" Cut="1.4305347204208374e+00" cType="0" res="5.7004895061254501e-03" rms="3.5513421893119812e-01" purity="1.7839196324348450e-01" nType="0">
          <Node pos="l" depth="2" NCoef="0" IVar="-1" Cut="0.0000000000000000e+00" cType="1" res="-4.2191026732325554e-03" rms="3.7039485573768616e-01" purity="2.0238095521926880e-01" nType="-99"/>
          <Node pos="r" depth="2" NCoef="0" IVar="-1" Cut="0.0000000000000000e+00" cType="1" res="8.4815574809908867e-03" rms="3.4291228652000427e-01" purity="1.6086956858634949e-01" nType="-99"/>
        </Node>
      </Node>
    </BinaryTree>
    <BinaryTree type="DecisionTree" boostWeight="1.0000000000000000e+00" itree="1208">
      <Node pos="s" depth="0" NCoef="0" IVar="1" Cut="1.5829585790634155e+00" cType="1" res="-4.2477779516048031e-07" rms="3.2264068722724915e-01" purity="5.9855979681015015e-01" nType="0">
        <Node pos="l" depth="1" NCoef="0" IVar="-1" Cut="0.0000000000000000e+00" cType="1" res="2.0289549865992740e-05" rms="3.2246837019920349e-01" purity="6.0176652669906616e-01" nType="-99"/>
        <Node pos="r" depth="1" NCoef="0" IVar="0" Cut="2.0102448463439941e+00" cType="0" res="-5.8066090568900108e-03" rms="3.4495052695274353e-01" purity="1.6795866191387177e-01" nType="0">
          <Node pos="l" depth="2" NCoef="0" IVar="-1" Cut="0.0000000000000000e+00" cType="1" res="4.0091420523822308e-03" rms="4.2244791984558105e-01" purity="2.7272728085517883e-01" nType="-99"/>
          <Node pos="r" depth="2" NCoef="0" IVar="-1" Cut="0.0000000000000000e+00" cType="1" res="-6.1706099659204483e-03" rms="3.0845519900321960e-01" purity="1.2635378539562225e-01" nType="-99"/>
        </Node>
      </Node>
    </BinaryTree>
    <BinaryTree type="DecisionTree" boostWeight="1.0000000000000000e+00" itree="1209">
      <Node pos="s" depth="0" NCoef="0" IVar="1" Cut="1.5704647302627563e+00" cType="1" res="-4.1660786109787296e-07" rms="3.2264062762260437e-01" purity="5.9855979681015015e-01" nType="0">
        <Node pos="l" depth="1" NCoef="0" IVar="-1" Cut="0.0000000000000000e+00" cType="1" res="-2.0830935682170093e-05" rms="3.2237979769706726e-01" purity="6.0177844762802124e-01" nType="-99"/>
        <Node pos="r" depth="1" NCoef="0" IVar="0" Cut="1.4305347204208374e+00" cType="0" res="5.6831678375601768e-03" rms="3.5500118136405945e-01" purity="1.7839196324348450e-01" nType="0">
          <Node pos="l" depth="2" NCoef="0" IVar="-1" Cut="0.0000000000000000e+00" cType="1" res="-3.9913766086101532e-03" rms="3.7026402354240417e-01" purity="2.0238095521926880e-01" nType="-99"/>
          <Node pos="r" depth="2" NCoef="0" IVar="-1" Cut="0.0000000000000000e+00" cType="1" res="8.2048904150724411e-03" rms="3.4282848238945007e-01" purity="1.6086956858634949e-01" nType="-99"/>
        </Node>
      </Node>
    </BinaryTree>
    <BinaryTree type="DecisionTree" boostWeight="1.0000000000000000e+00" itree="1210">
      <Node pos="s" depth="0" NCoef="0" IVar="1" Cut="1.5829585790634155e+00" cType="1" res="-4.2585170945130812e-07" rms="3.2263964414596558e-01" purity="5.9855979681015015e-01" nType="0">
        <Node pos="l" depth="1" NCoef="0" IVar="-1" Cut="0.0000000000000000e+00" cType="1" res="2.0264524209778756e-05" rms="3.2246822118759155e-01" purity="6.0176652669906616e-01" nType="-99"/>
        <Node pos="r" depth="1" NCoef="0" IVar="2" Cut="9.8254376649856567e-01" cType="0" res="-5.7996725663542747e-03" rms="3.4483450651168823e-01" purity="1.6795866191387177e-01" nType="0">
          <Node pos="l" depth="2" NCoef="0" IVar="-1" Cut="0.0000000000000000e+00" cType="1" res="1.1977436952292919e-03" rms="3.6431562900543213e-01" purity="1.9066147506237030e-01" nType="-99"/>
          <Node pos="r" depth="2" NCoef="0" IVar="-1" Cut="0.0000000000000000e+00" cType="1" res="-1.0229977779090405e-02" rms="3.0183961987495422e-01" purity="1.2307692319154739e-01" nType="-99"/>
        </Node>
      </Node>
    </BinaryTree>
    <BinaryTree type="DecisionTree" boostWeight="1.0000000000000000e+00" itree="1211">
      <Node pos="s" depth="0" NCoef="0" IVar="1" Cut="1.5704647302627563e+00" cType="1" res="-4.2206133343825059e-07" rms="3.2263949513435364e-01" purity="5.9855979681015015e-01" nType="0">
        <Node pos="l" depth="1" NCoef="0" IVar="-1" Cut="0.0000000000000000e+00" cType="1" res="-2.0774257791345008e-05" rms="3.2237979769706726e-01" purity="6.0177844762802124e-01" nType="-99"/>
        <Node pos="r" depth="1" NCoef="0" IVar="2" Cut="1.2996939420700073e+00" cType="1" res="5.6668394245207310e-03" rms="3.5486593842506409e-01" purity="1.7839196324348450e-01" nType="0">
          <Node pos="l" depth="2" NCoef="0" IVar="-1" Cut="0.0000000000000000e+00" cType="1" res="8.3318958058953285e-03" rms="3.5888761281967163e-01" purity="1.8877550959587097e-01" nType="-99"/>
          <Node pos="r" depth="2" NCoef="0" IVar="-1" Cut="0.0000000000000000e+00" cType="1" res="-3.5749506205320358e-03" rms="3.5024452209472656e-01" purity="1.6831682622432709e-01" nType="-99"/>
        </Node>
      </Node>
    </BinaryTree>
    <BinaryTree type="DecisionTree" boostWeight="1.0000000000000000e+00" itree="1212">
      <Node pos="s" depth="0" NCoef="0" IVar="1" Cut="1.5829585790634155e+00" cType="1" res="-4.2506482600401796e-07" rms="3.2263836264610291e-01" purity="5.9855979681015015e-01" nType="0">
        <Node pos="l" depth="1" NCoef="0" IVar="-1" Cut="0.0000000000000000e+00" cType="1" res="2.0281277102185413e-05" rms="3.2246801257133484e-01" purity="6.0176652669906616e-01" nType="-99"/>
        <Node pos="r" depth="1" NCoef="0" IVar="2" Cut="1.7287795543670654e+00" cType="0" res="-5.8043184690177441e-03" rms="3.4470036625862122e-01" purity="1.6795866191387177e-01" nType="0">
          <Node pos="l" depth="2" NCoef="0" IVar="-1" Cut="0.0000000000000000e+00" cType="1" res="4.2341402731835842e-03" rms="3.7191319465637207e-01" purity="1.9718310236930847e-01" nType="-99"/>
          <Node pos="r" depth="2" NCoef="0" IVar="-1" Cut="0.0000000000000000e+00" cType="1" res="-6.1834226362407207e-03" rms="3.2747033238410950e-01" purity="1.5102040767669678e-01" nType="-99"/>
        </Node>
      </Node>
    </BinaryTree>
    <BinaryTree type="DecisionTree" boostWeight="1.0000000000000000e+00" itree="1213">
      <Node pos="s" depth="0" NCoef="0" IVar="1" Cut="1.5704647302627563e+00" cType="1" res="-4.1647891180218721e-07" rms="3.2263821363449097e-01" purity="5.9855979681015015e-01" nType="0">
        <Node pos="l" depth="1" NCoef="0" IVar="-1" Cut="0.0000000000000000e+00" cType="1" res="-2.0724961359519511e-05" rms="3.2237979769706726e-01" purity="6.0177844762802124e-01" nType="-99"/>
        <Node pos="r" depth="1" NCoef="0" IVar="3" Cut="2.7439603209495544e-01" cType="1" res="5.6539955548942089e-03" rms="3.5471314191818237e-01" purity="1.7839196324348450e-01" nType="0">
          <Node pos="l" depth="2" NCoef="0" IVar="-1" Cut="0.0000000000000000e+00" cType="1" res="5.9792515821754932e-03" rms="3.6216276884078979e-01" purity="1.9117647409439087e-01" nType="-99"/>
          <Node pos="r" depth="2" NCoef="0" IVar="-1" Cut="0.0000000000000000e+00" cType="1" res="-6.8812626414000988e-03" rms="3.3695960044860840e-01" purity="1.5079365670681000e-01" nType="-99"/>
        </Node>
      </Node>
    </BinaryTree>
    <BinaryTree type="DecisionTree" boostWeight="1.0000000000000000e+00" itree="1214">
      <Node pos="s" depth="0" NCoef="0" IVar="1" Cut="1.5829585790634155e+00" cType="1" res="-4.1867730260491953e-07" rms="3.2263693213462830e-01" purity="5.9855979681015015e-01" nType="0">
        <Node pos="l" depth="1" NCoef="0" IVar="-1" Cut="0.0000000000000000e+00" cType="1" res="2.0252418835298158e-05" rms="3.2246765494346619e-01" purity="6.0176652669906616e-01" nType="-99"/>
        <Node pos="r" depth="1" NCoef="0" IVar="2" Cut="1.7287795543670654e+00" cType="0" res="-5.7952823117375374e-03" rms="3.4456580877304077e-01" purity="1.6795866191387177e-01" nType="0">
          <Node pos="l" depth="2" NCoef="0" IVar="-1" Cut="0.0000000000000000e+00" cType="1" res="3.7440957967191935e-03" rms="3.7185660004615784e-01" purity="1.9718310236930847e-01" nType="-99"/>
          <Node pos="r" depth="2" NCoef="0" IVar="-1" Cut="0.0000000000000000e+00" cType="1" res="-5.9121018275618553e-03" rms="3.2734465599060059e-01" purity="1.5102040767669678e-01" nType="-99"/>
        </Node>
      </Node>
    </BinaryTree>
    <BinaryTree type="DecisionTree" boostWeight="1.0000000000000000e+00" itree="1215">
      <Node pos="s" depth="0" NCoef="0" IVar="1" Cut="1.5704647302627563e+00" cType="1" res="-4.0684605551177810e-07" rms="3.2263684272766113e-01" purity="5.9855979681015015e-01" nType="0">
        <Node pos="l" depth="1" NCoef="0" IVar="-1" Cut="0.0000000000000000e+00" cType="1" res="-2.0677758584497496e-05" rms="3.2237979769706726e-01" purity="6.0177844762802124e-01" nType="-99"/>
        <Node pos="r" depth="1" NCoef="0" IVar="2" Cut="1.2996939420700073e+00" cType="1" res="5.6422608904540539e-03" rms="3.5455027222633362e-01" purity="1.7839196324348450e-01" nType="0">
          <Node pos="l" depth="2" NCoef="0" IVar="-1" Cut="0.0000000000000000e+00" cType="1" res="8.3317281678318977e-03" rms="3.5865107178688049e-01" purity="1.8877550959587097e-01" nType="-99"/>
          <Node pos="r" depth="2" NCoef="0" IVar="-1" Cut="0.0000000000000000e+00" cType="1" res="-3.5889216233044863e-03" rms="3.4984821081161499e-01" purity="1.6831682622432709e-01" nType="-99"/>
        </Node>
      </Node>
    </BinaryTree>
    <BinaryTree type="DecisionTree" boostWeight="1.0000000000000000e+00" itree="1216">
      <Node pos="s" depth="0" NCoef="0" IVar="1" Cut="1.5829585790634155e+00" cType="1" res="-4.1156150132337643e-07" rms="3.2263571023941040e-01" purity="5.9855979681015015e-01" nType="0">
        <Node pos="l" depth="1" NCoef="0" IVar="-1" Cut="0.0000000000000000e+00" cType="1" res="2.0259441953385249e-05" rms="3.2246741652488708e-01" purity="6.0176652669906616e-01" nType="-99"/>
        <Node pos="r" depth="1" NCoef="0" IVar="2" Cut="9.8254376649856567e-01" cType="0" res="-5.7963151484727859e-03" rms="3.4443944692611694e-01" purity="1.6795866191387177e-01" nType="0">
          <Node pos="l" depth="2" NCoef="0" IVar="-1" Cut="0.0000000000000000e+00" cType="1" res="1.1032590409740806e-03" rms="3.6378082633018494e-01" purity="1.9066147506237030e-01" nType="-99"/>
          <Node pos="r" depth="2" NCoef="0" IVar="-1" Cut="0.0000000000000000e+00" cType="1" res="-1.0037397034466267e-02" rms="3.0181866884231567e-01" purity="1.2307692319154739e-01" nType="-99"/>
        </Node>
      </Node>
    </BinaryTree>
    <BinaryTree type="DecisionTree" boostWeight="1.0000000000000000e+00" itree="1217">
      <Node pos="s" depth="0" NCoef="0" IVar="1" Cut="1.5704647302627563e+00" cType="1" res="-4.0710739312999067e-07" rms="3.2263559103012085e-01" purity="5.9855979681015015e-01" nType="0">
        <Node pos="l" depth="1" NCoef="0" IVar="-1" Cut="0.0000000000000000e+00" cType="1" res="-2.0635776309063658e-05" rms="3.2237979769706726e-01" purity="6.0177844762802124e-01" nType="-99"/>
        <Node pos="r" depth="1" NCoef="0" IVar="0" Cut="1.1031984090805054e+00" cType="0" res="5.6306635960936546e-03" rms="3.5440018773078918e-01" purity="1.7839196324348450e-01" nType="0">
          <Node pos="l" depth="2" NCoef="0" IVar="-1" Cut="0.0000000000000000e+00" cType="1" res="-3.2308155205100775e-03" rms="3.6019262671470642e-01" purity="1.9191919267177582e-01" nType="-99"/>
          <Node pos="r" depth="2" NCoef="0" IVar="-1" Cut="0.0000000000000000e+00" cType="1" res="8.8753737509250641e-03" rms="3.4792441129684448e-01" purity="1.6500000655651093e-01" nType="-99"/>
        </Node>
      </Node>
    </BinaryTree>
    <BinaryTree type="DecisionTree" boostWeight="1.0000000000000000e+00" itree="1218">
      <Node pos="s" depth="0" NCoef="0" IVar="1" Cut="1.5829585790634155e+00" cType="1" res="-4.1643284021120053e-07" rms="3.2263472676277161e-01" purity="5.9855979681015015e-01" nType="0">
        <Node pos="l" depth="1" NCoef="0" IVar="-1" Cut="0.0000000000000000e+00" cType="1" res="2.0249590306775644e-05" rms="3.2246714830398560e-01" purity="6.0176652669906616e-01" nType="-99"/>
        <Node pos="r" depth="1" NCoef="0" IVar="0" Cut="2.0102448463439941e+00" cType="0" res="-5.7941889390349388e-03" rms="3.4434577822685242e-01" purity="1.6795866191387177e-01" nType="0">
          <Node pos="l" depth="2" NCoef="0" IVar="-1" Cut="0.0000000000000000e+00" cType="1" res="3.9926036261022091e-03" rms="4.2143112421035767e-01" purity="2.7272728085517883e-01" nType="-99"/>
          <Node pos="r" depth="2" NCoef="0" IVar="-1" Cut="0.0000000000000000e+00" cType="1" res="-6.1597181484103203e-03" rms="3.0806565284729004e-01" purity="1.2635378539562225e-01" nType="-99"/>
        </Node>
      </Node>
    </BinaryTree>
    <BinaryTree type="DecisionTree" boostWeight="1.0000000000000000e+00" itree="1219">
      <Node pos="s" depth="0" NCoef="0" IVar="1" Cut="1.5704647302627563e+00" cType="1" res="-4.0922304833657108e-07" rms="3.2263463735580444e-01" purity="5.9855979681015015e-01" nType="0">
        <Node pos="l" depth="1" NCoef="0" IVar="-1" Cut="0.0000000000000000e+00" cType="1" res="-2.0597275579348207e-05" rms="3.2237979769706726e-01" purity="6.0177844762802124e-01" nType="-99"/>
        <Node pos="r" depth="1" NCoef="0" IVar="0" Cut="1.4305347204208374e+00" cType="0" res="5.6197801604866982e-03" rms="3.5428634285926819e-01" purity="1.7839196324348450e-01" nType="0">
          <Node pos="l" depth="2" NCoef="0" IVar="-1" Cut="0.0000000000000000e+00" cType="1" res="-3.7531268317252398e-03" rms="3.6935156583786011e-01" purity="2.0238095521926880e-01" nType="-99"/>
          <Node pos="r" depth="2" NCoef="0" IVar="-1" Cut="0.0000000000000000e+00" cType="1" res="7.8904125839471817e-03" rms="3.4232118725776672e-01" purity="1.6086956858634949e-01" nType="-99"/>
        </Node>
      </Node>
    </BinaryTree>
    <BinaryTree type="DecisionTree" boostWeight="1.0000000000000000e+00" itree="1220">
      <Node pos="s" depth="0" NCoef="0" IVar="1" Cut="1.5829585790634155e+00" cType="1" res="-4.1518487137182092e-07" rms="3.2263371348381042e-01" purity="5.9855979681015015e-01" nType="0">
        <Node pos="l" depth="1" NCoef="0" IVar="-1" Cut="0.0000000000000000e+00" cType="1" res="2.0202513042022474e-05" rms="3.2246699929237366e-01" purity="6.0176652669906616e-01" nType="-99"/>
        <Node pos="r" depth="1" NCoef="0" IVar="0" Cut="2.0102448463439941e+00" cType="0" res="-5.7806894183158875e-03" rms="3.4423705935478210e-01" purity="1.6795866191387177e-01" nType="0">
          <Node pos="l" depth="2" NCoef="0" IVar="-1" Cut="0.0000000000000000e+00" cType="1" res="3.9678136818110943e-03" rms="4.2142727971076965e-01" purity="2.7272728085517883e-01" nType="-99"/>
          <Node pos="r" depth="2" NCoef="0" IVar="-1" Cut="0.0000000000000000e+00" cType="1" res="-6.1384811997413635e-03" rms="3.0790159106254578e-01" purity="1.2635378539562225e-01" nType="-99"/>
        </Node>
      </Node>
    </BinaryTree>
    <BinaryTree type="DecisionTree" boostWeight="1.0000000000000000e+00" itree="1221">
      <Node pos="s" depth="0" NCoef="0" IVar="2" Cut="3.5591530799865723e-01" cType="1" res="-4.0727834971221455e-07" rms="3.2263362407684326e-01" purity="5.9855979681015015e-01" nType="0">
        <Node pos="l" depth="1" NCoef="0" IVar="-1" Cut="0.0000000000000000e+00" cType="1" res="-3.8760987808927894e-04" rms="2.8150311112403870e-01" purity="8.3244299888610840e-01" nType="-99"/>
        <Node pos="r" depth="1" NCoef="0" IVar="0" Cut="1.8740630149841309e-01" cType="1" res="3.9261483470909297e-04" rms="3.4635549783706665e-01" purity="4.4918462634086609e-01" nType="0">
          <Node pos="l" depth="2" NCoef="0" IVar="-1" Cut="0.0000000000000000e+00" cType="1" res="8.4321200847625732e-04" rms="3.7636053562164307e-01" purity="7.6515668630599976e-01" nType="-99"/>
          <Node pos="r" depth="2" NCoef="0" IVar="-1" Cut="0.0000000000000000e+00" cType="1" res="-8.3749677287414670e-04" rms="3.1257072091102600e-01" purity="1.2493658065795898e-01" nType="-99"/>
        </Node>
      </Node>
    </BinaryTree>
    <BinaryTree type="DecisionTree" boostWeight="1.0000000000000000e+00" itree="1222">
      <Node pos="s" depth="0" NCoef="0" IVar="3" Cut="2.6560118794441223e-01" cType="1" res="-3.6411006476555485e-07" rms="3.2263359427452087e-01" purity="5.9855979681015015e-01" nType="0">
        <Node pos="l" depth="1" NCoef="0" IVar="-1" Cut="0.0000000000000000e+00" cType="1" res="2.9003826784901321e-04" rms="2.8334584832191467e-01" purity="6.0753571987152100e-01" nType="-99"/>
        <Node pos="r" depth="1" NCoef="0" IVar="3" Cut="2.6692408323287964e-01" cType="0" res="-5.5205187527462840e-04" rms="3.6257910728454590e-01" purity="5.8824014663696289e-01" nType="0">
          <Node pos="l" depth="2" NCoef="0" IVar="-1" Cut="0.0000000000000000e+00" cType="1" res="-1.1680136231007054e-04" rms="3.6266312003135681e-01" purity="5.9056651592254639e-01" nType="-99"/>
          <Node pos="r" depth="2" NCoef="0" IVar="-1" Cut="0.0000000000000000e+00" cType="1" res="-1.2238436378538609e-02" rms="3.5142830014228821e-01" purity="3.1553396582603455e-01" nType="-99"/>
        </Node>
      </Node>
    </BinaryTree>
    <BinaryTree type="DecisionTree" boostWeight="1.0000000000000000e+00" itree="1223">
      <Node pos="s" depth="0" NCoef="0" IVar="0" Cut="1.2493752874433994e-03" cType="1" res="-3.5743158832701738e-07" rms="3.2263204455375671e-01" purity="5.9855979681015015e-01" nType="0">
        <Node pos="l" depth="1" NCoef="0" IVar="-1" Cut="0.0000000000000000e+00" cType="1" res="-4.8823998076841235e-04" rms="2.7188357710838318e-01" purity="9.0791207551956177e-01" nType="-99"/>
        <Node pos="r" depth="1" NCoef="0" IVar="3" Cut="4.0249881148338318e-01" cType="0" res="3.5966260475106537e-04" rms="3.4517747163772583e-01" purity="4.4418039917945862e-01" nType="0">
          <Node pos="l" depth="2" NCoef="0" IVar="-1" Cut="0.0000000000000000e+00" cType="1" res="2.7871818747371435e-03" rms="3.9694684743881226e-01" purity="6.8990558385848999e-01" nType="-99"/>
          <Node pos="r" depth="2" NCoef="0" IVar="-1" Cut="0.0000000000000000e+00" cType="1" res="1.1871590004375321e-06" rms="3.4288090467453003e-01" purity="4.3409442901611328e-01" nType="-99"/>
        </Node>
      </Node>
    </BinaryTree>
    <BinaryTree type="DecisionTree" boostWeight="1.0000000000000000e+00" itree="1224">
      <Node pos="s" depth="0" NCoef="0" IVar="3" Cut="3.4780514240264893e-01" cType="0" res="-2.9585666538878286e-07" rms="3.2263189554214478e-01" purity="5.9855979681015015e-01" nType="0">
        <Node pos="l" depth="1" NCoef="0" IVar="-1" Cut="0.0000000000000000e+00" cType="1" res="-3.7142276414670050e-04" rms="3.6791461706161499e-01" purity="7.3368912935256958e-01" nType="-99"/>
        <Node pos="r" depth="1" NCoef="0" IVar="3" Cut="3.4692808985710144e-01" cType="0" res="2.8384881443344057e-04" rms="3.0850082635879517e-01" purity="5.6002062559127808e-01" nType="0">
          <Node pos="l" depth="2" NCoef="0" IVar="-1" Cut="0.0000000000000000e+00" cType="1" res="1.5010027214884758e-02" rms="3.5387748479843140e-01" purity="6.1403506994247437e-01" nType="-99"/>
          <Node pos="r" depth="2" NCoef="0" IVar="-1" Cut="0.0000000000000000e+00" cType="1" res="7.8093638876453042e-05" rms="3.0835402011871338e-01" purity="5.5986905097961426e-01" nType="-99"/>
        </Node>
      </Node>
    </BinaryTree>
    <BinaryTree type="DecisionTree" boostWeight="1.0000000000000000e+00" itree="1225">
      <Node pos="s" depth="0" NCoef="0" IVar="1" Cut="1.5704647302627563e+00" cType="1" res="-2.5585967478036764e-07" rms="3.2262971997261047e-01" purity="5.9855979681015015e-01" nType="0">
        <Node pos="l" depth="1" NCoef="0" IVar="-1" Cut="0.0000000000000000e+00" cType="1" res="-2.1001516870455816e-05" rms="3.2237616181373596e-01" purity="6.0177844762802124e-01" nType="-99"/>
        <Node pos="r" depth="1" NCoef="0" IVar="2" Cut="1.2996939420700073e+00" cType="1" res="5.7493392378091812e-03" rms="3.5412904620170593e-01" purity="1.7839196324348450e-01" nType="0">
          <Node pos="l" depth="2" NCoef="0" IVar="-1" Cut="0.0000000000000000e+00" cType="1" res="7.8847846016287804e-03" rms="3.5804212093353271e-01" purity="1.8877550959587097e-01" nType="-99"/>
          <Node pos="r" depth="2" NCoef="0" IVar="-1" Cut="0.0000000000000000e+00" cType="1" res="-3.1407049391418695e-03" rms="3.4971037507057190e-01" purity="1.6831682622432709e-01" nType="-99"/>
        </Node>
      </Node>
    </BinaryTree>
    <BinaryTree type="DecisionTree" boostWeight="1.0000000000000000e+00" itree="1226">
      <Node pos="s" depth="0" NCoef="0" IVar="2" Cut="2.7723929882049561e+00" cType="1" res="-2.7024825044463796e-07" rms="3.2262867689132690e-01" purity="5.9855979681015015e-01" nType="0">
        <Node pos="l" depth="1" NCoef="0" IVar="-1" Cut="0.0000000000000000e+00" cType="1" res="-2.8948179533472285e-05" rms="3.2246357202529907e-01" purity="6.0449886322021484e-01" nType="-99"/>
        <Node pos="r" depth="1" NCoef="0" IVar="3" Cut="3.4811067581176758e-01" cType="0" res="4.2347577400505543e-03" rms="3.3389958739280701e-01" purity="1.8488529324531555e-01" nType="0">
          <Node pos="l" depth="2" NCoef="0" IVar="-1" Cut="0.0000000000000000e+00" cType="1" res="1.0401254519820213e-02" rms="4.2137157917022705e-01" purity="4.1618496179580688e-01" nType="-99"/>
          <Node pos="r" depth="2" NCoef="0" IVar="-1" Cut="0.0000000000000000e+00" cType="1" res="-3.2576841767877340e-03" rms="3.0147600173950195e-01" purity="1.1443661898374557e-01" nType="-99"/>
        </Node>
      </Node>
    </BinaryTree>
    <BinaryTree type="DecisionTree" boostWeight="1.0000000000000000e+00" itree="1227">
      <Node pos="s" depth="0" NCoef="0" IVar="0" Cut="1.0644677877426147e+00" cType="1" res="-2.8560037890201784e-07" rms="3.2262650132179260e-01" purity="5.9855979681015015e-01" nType="0">
        <Node pos="l" depth="1" NCoef="0" IVar="-1" Cut="0.0000000000000000e+00" cType="1" res="-6.1776678194291890e-05" rms="3.2521897554397583e-01" purity="6.3259059190750122e-01" nType="-99"/>
        <Node pos="r" depth="1" NCoef="0" IVar="0" Cut="1.1005825996398926e+00" cType="1" res="1.9371184753254056e-03" rms="2.8192931413650513e-01" purity="1.0011954605579376e-01" nType="0">
          <Node pos="l" depth="2" NCoef="0" IVar="-1" Cut="0.0000000000000000e+00" cType="1" res="4.2104877531528473e-02" rms="3.3056315779685974e-01" purity="1.3333334028720856e-01" nType="-99"/>
          <Node pos="r" depth="2" NCoef="0" IVar="-1" Cut="0.0000000000000000e+00" cType="1" res="-9.0115703642368317e-04" rms="2.7827876806259155e-01" purity="9.8064109683036804e-02" nType="-99"/>
        </Node>
      </Node>
    </BinaryTree>
    <BinaryTree type="DecisionTree" boostWeight="1.0000000000000000e+00" itree="1228">
      <Node pos="s" depth="0" NCoef="0" IVar="0" Cut="1.2981009483337402e+00" cType="1" res="-1.0000825341194286e-06" rms="3.2262179255485535e-01" purity="5.9855979681015015e-01" nType="0">
        <Node pos="l" depth="1" NCoef="0" IVar="-1" Cut="0.0000000000000000e+00" cType="1" res="-5.4757641919422895e-05" rms="3.2377156615257263e-01" purity="6.2081432342529297e-01" nType="-99"/>
        <Node pos="r" depth="1" NCoef="0" IVar="2" Cut="2.1317453384399414e+00" cType="0" res="2.5095480959862471e-03" rms="2.9651120305061340e-01" purity="1.1468288302421570e-01" nType="0">
          <Node pos="l" depth="2" NCoef="0" IVar="-1" Cut="0.0000000000000000e+00" cType="1" res="-7.3435259982943535e-03" rms="2.9392337799072266e-01" purity="1.2816455960273743e-01" nType="-99"/>
          <Node pos="r" depth="2" NCoef="0" IVar="-1" Cut="0.0000000000000000e+00" cType="1" res="5.5725066922605038e-03" rms="2.9718908667564392e-01" purity="1.0958083719015121e-01" nType="-99"/>
        </Node>
      </Node>
    </BinaryTree>
    <BinaryTree type="DecisionTree" boostWeight="1.0000000000000000e+00" itree="1229">
      <Node pos="s" depth="0" NCoef="0" IVar="2" Cut="3.7989275455474854e+00" cType="1" res="-1.1045225392081193e-06" rms="3.2261976599693298e-01" purity="5.9855979681015015e-01" nType="0">
        <Node pos="l" depth="1" NCoef="0" IVar="2" Cut="3.3657162189483643e+00" cType="1" res="-2.7270310965832323e-05" rms="3.2248380780220032e-01" purity="5.9950596094131470e-01" nType="0">
          <Node pos="l" depth="2" NCoef="0" IVar="-1" Cut="0.0000000000000000e+00" cType="1" res="1.2934563528688159e-05" rms="3.2249268889427185e-01" purity="6.0052978992462158e-01" nType="-99"/>
          <Node pos="r" depth="2" NCoef="0" IVar="-1" Cut="0.0000000000000000e+00" cType="1" res="-8.3242235705256462e-03" rms="3.1810981035232544e-01" purity="1.8604651093482971e-01" nType="-99"/>
        </Node>
        <Node pos="r" depth="1" NCoef="0" IVar="-1" Cut="0.0000000000000000e+00" cType="1" res="3.6624278873205185e-03" rms="3.7274816632270813e-01" purity="2.2137404978275299e-01" nType="-99"/>
      </Node>
    </BinaryTree>
    <BinaryTree type="DecisionTree" boostWeight="1.0000000000000000e+00" itree="1230">
      <Node pos="s" depth="0" NCoef="0" IVar="2" Cut="2.7723929882049561e+00" cType="1" res="-1.0185785868088715e-06" rms="3.2261949777603149e-01" purity="5.9855979681015015e-01" nType="0">
        <Node pos="l" depth="1" NCoef="0" IVar="-1" Cut="0.0000000000000000e+00" cType="1" res="-3.1322346330853179e-05" rms="3.2245859503746033e-01" purity="6.0449886322021484e-01" nType="-99"/>
        <Node pos="r" depth="1" NCoef="0" IVar="3" Cut="3.4811067581176758e-01" cType="0" res="4.5321094803512096e-03" rms="3.3360329270362854e-01" purity="1.8488529324531555e-01" nType="0">
          <Node pos="l" depth="2" NCoef="0" IVar="-1" Cut="0.0000000000000000e+00" cType="1" res="9.4504179432988167e-03" rms="4.2088991403579712e-01" purity="4.1618496179580688e-01" nType="-99"/>
          <Node pos="r" depth="2" NCoef="0" IVar="-1" Cut="0.0000000000000000e+00" cType="1" res="-2.5465127546340227e-03" rms="3.0141392350196838e-01" purity="1.1443661898374557e-01" nType="-99"/>
        </Node>
      </Node>
    </BinaryTree>
    <BinaryTree type="DecisionTree" boostWeight="1.0000000000000000e+00" itree="1231">
      <Node pos="s" depth="0" NCoef="0" IVar="3" Cut="3.4780514240264893e-01" cType="0" res="-9.4878834033806925e-07" rms="3.2261765003204346e-01" purity="5.9855979681015015e-01" nType="0">
        <Node pos="l" depth="1" NCoef="0" IVar="-1" Cut="0.0000000000000000e+00" cType="1" res="-3.5579531686380506e-04" rms="3.6789602041244507e-01" purity="7.3368912935256958e-01" nType="-99"/>
        <Node pos="r" depth="1" NCoef="0" IVar="3" Cut="3.4692808985710144e-01" cType="0" res="2.7120139566250145e-04" rms="3.0848804116249084e-01" purity="5.6002062559127808e-01" nType="0">
          <Node pos="l" depth="2" NCoef="0" IVar="-1" Cut="0.0000000000000000e+00" cType="1" res="1.3535079546272755e-02" rms="3.5365632176399231e-01" purity="6.1403506994247437e-01" nType="-99"/>
          <Node pos="r" depth="2" NCoef="0" IVar="-1" Cut="0.0000000000000000e+00" cType="1" res="7.8327007940970361e-05" rms="3.0834382772445679e-01" purity="5.5986905097961426e-01" nType="-99"/>
        </Node>
      </Node>
    </BinaryTree>
    <BinaryTree type="DecisionTree" boostWeight="1.0000000000000000e+00" itree="1232">
      <Node pos="s" depth="0" NCoef="0" IVar="0" Cut="7.2088956832885742e-01" cType="1" res="-8.4472122807710548e-07" rms="3.2261583209037781e-01" purity="5.9855979681015015e-01" nType="0">
        <Node pos="l" depth="1" NCoef="0" IVar="-1" Cut="0.0000000000000000e+00" cType="1" res="8.2937345723621547e-05" rms="3.3021020889282227e-01" purity="6.6740232706069946e-01" nType="-99"/>
        <Node pos="r" depth="1" NCoef="0" IVar="0" Cut="7.8152155876159668e-01" cType="0" res="-1.3863727217540145e-03" rms="2.5833192467689514e-01" purity="8.0019555985927582e-02" nType="0">
          <Node pos="l" depth="2" NCoef="0" IVar="-1" Cut="0.0000000000000000e+00" cType="1" res="3.5441698855720460e-04" rms="2.6523458957672119e-01" purity="8.4767483174800873e-02" nType="-99"/>
          <Node pos="r" depth="2" NCoef="0" IVar="-1" Cut="0.0000000000000000e+00" cType="1" res="-1.5622100792825222e-02" rms="1.9282594323158264e-01" purity="4.1543025523424149e-02" nType="-99"/>
        </Node>
      </Node>
    </BinaryTree>
    <BinaryTree type="DecisionTree" boostWeight="1.0000000000000000e+00" itree="1233">
      <Node pos="s" depth="0" NCoef="0" IVar="2" Cut="3.2781672477722168e+00" cType="1" res="-1.0463791113579646e-06" rms="3.2261523604393005e-01" purity="5.9855979681015015e-01" nType="0">
        <Node pos="l" depth="1" NCoef="0" IVar="-1" Cut="0.0000000000000000e+00" cType="1" res="-1.8807755623129196e-05" rms="3.2241073250770569e-01" purity="6.0073769092559814e-01" nType="-99"/>
        <Node pos="r" depth="1" NCoef="0" IVar="1" Cut="2.3488256335258484e-01" cType="1" res="6.7486627958714962e-03" rms="3.5648009181022644e-01" purity="2.1812079846858978e-01" nType="0">
          <Node pos="l" depth="2" NCoef="0" IVar="-1" Cut="0.0000000000000000e+00" cType="1" res="-5.2462131716310978e-03" rms="3.4273308515548706e-01" purity="2.2142857313156128e-01" nType="-99"/>
          <Node pos="r" depth="2" NCoef="0" IVar="-1" Cut="0.0000000000000000e+00" cType="1" res="9.7604198381304741e-03" rms="3.6718028783798218e-01" purity="2.1518987417221069e-01" nType="-99"/>
        </Node>
      </Node>
    </BinaryTree>
    <BinaryTree type="DecisionTree" boostWeight="1.0000000000000000e+00" itree="1234">
      <Node pos="s" depth="0" NCoef="0" IVar="2" Cut="3.8813500404357910e+00" cType="1" res="-9.8696489203575766e-07" rms="3.2261410355567932e-01" purity="5.9855979681015015e-01" nType="0">
        <Node pos="l" depth="1" NCoef="0" IVar="2" Cut="3.3121306896209717e+00" cType="1" res="2.2696169253322296e-05" rms="3.2253080606460571e-01" purity="5.9940659999847412e-01" nType="0">
          <Node pos="l" depth="2" NCoef="0" IVar="-1" Cut="0.0000000000000000e+00" cType="1" res="-1.6504231098224409e-05" rms="3.2242396473884583e-01" purity="6.0064917802810669e-01" nType="-99"/>
          <Node pos="r" depth="2" NCoef="0" IVar="-1" Cut="0.0000000000000000e+00" cType="1" res="6.6259796731173992e-03" rms="3.5279491543769836e-01" purity="2.2543352842330933e-01" nType="-99"/>
        </Node>
        <Node pos="r" depth="1" NCoef="0" IVar="-1" Cut="0.0000000000000000e+00" cType="1" res="-3.7038431037217379e-03" rms="3.5859203338623047e-01" purity="2.1052631735801697e-01" nType="-99"/>
      </Node>
    </BinaryTree>
    <BinaryTree type="DecisionTree" boostWeight="1.0000000000000000e+00" itree="1235">
      <Node pos="s" depth="0" NCoef="0" IVar="1" Cut="8.8330835103988647e-01" cType="1" res="-9.0954131337639410e-07" rms="3.2261353731155396e-01" purity="5.9855979681015015e-01" nType="0">
        <Node pos="l" depth="1" NCoef="0" IVar="-1" Cut="0.0000000000000000e+00" cType="1" res="4.1169554606312886e-05" rms="3.2314661145210266e-01" purity="6.1389672756195068e-01" nType="-99"/>
        <Node pos="r" depth="1" NCoef="0" IVar="1" Cut="9.1340029239654541e-01" cType="0" res="-2.7286664117127657e-03" rms="3.0562534928321838e-01" purity="1.2339645624160767e-01" nType="0">
          <Node pos="l" depth="2" NCoef="0" IVar="-1" Cut="0.0000000000000000e+00" cType="1" res="4.6136960736475885e-04" rms="3.1201994419097900e-01" purity="1.2934996187686920e-01" nType="-99"/>
          <Node pos="r" depth="2" NCoef="0" IVar="-1" Cut="0.0000000000000000e+00" cType="1" res="-3.1810134649276733e-02" rms="1.9505777955055237e-01" purity="4.3859649449586868e-02" nType="-99"/>
        </Node>
      </Node>
    </BinaryTree>
    <BinaryTree type="DecisionTree" boostWeight="1.0000000000000000e+00" itree="1236">
      <Node pos="s" depth="0" NCoef="0" IVar="1" Cut="1.5829585790634155e+00" cType="1" res="-1.0765006663859822e-06" rms="3.2261136174201965e-01" purity="5.9855979681015015e-01" nType="0">
        <Node pos="l" depth="1" NCoef="0" IVar="-1" Cut="0.0000000000000000e+00" cType="1" res="1.9589280782383867e-05" rms="3.2244718074798584e-01" purity="6.0176652669906616e-01" nType="-99"/>
        <Node pos="r" depth="1" NCoef="0" IVar="2" Cut="1.7287795543670654e+00" cType="0" res="-5.6949728168547153e-03" rms="3.4390038251876831e-01" purity="1.6795866191387177e-01" nType="0">
          <Node pos="l" depth="2" NCoef="0" IVar="-1" Cut="0.0000000000000000e+00" cType="1" res="4.5160334557294846e-03" rms="3.7099084258079529e-01" purity="1.9718310236930847e-01" nType="-99"/>
          <Node pos="r" depth="2" NCoef="0" IVar="-1" Cut="0.0000000000000000e+00" cType="1" res="-6.2922276556491852e-03" rms="3.2671543955802917e-01" purity="1.5102040767669678e-01" nType="-99"/>
        </Node>
      </Node>
    </BinaryTree>
    <BinaryTree type="DecisionTree" boostWeight="1.0000000000000000e+00" itree="1237">
      <Node pos="s" depth="0" NCoef="0" IVar="1" Cut="1.5704647302627563e+00" cType="1" res="-1.0044234386441531e-06" rms="3.2261115312576294e-01" purity="5.9855979681015015e-01" nType="0">
        <Node pos="l" depth="1" NCoef="0" IVar="-1" Cut="0.0000000000000000e+00" cType="1" res="-2.1091118469485082e-05" rms="3.2235983014106750e-01" purity="6.0177844762802124e-01" nType="-99"/>
        <Node pos="r" depth="1" NCoef="0" IVar="0" Cut="1.4305347204208374e+00" cType="0" res="5.6760287843644619e-03" rms="3.5384383797645569e-01" purity="1.7839196324348450e-01" nType="0">
          <Node pos="l" depth="2" NCoef="0" IVar="-1" Cut="0.0000000000000000e+00" cType="1" res="-3.5273672547191381e-03" rms="3.6895748972892761e-01" purity="2.0238095521926880e-01" nType="-99"/>
          <Node pos="r" depth="2" NCoef="0" IVar="-1" Cut="0.0000000000000000e+00" cType="1" res="7.6841977424919605e-03" rms="3.4188100695610046e-01" purity="1.6086956858634949e-01" nType="-99"/>
        </Node>
      </Node>
    </BinaryTree>
    <BinaryTree type="DecisionTree" boostWeight="1.0000000000000000e+00" itree="1238">
      <Node pos="s" depth="0" NCoef="0" IVar="2" Cut="2.6487591266632080e+00" cType="1" res="-9.4813520945535856e-07" rms="3.2261025905609131e-01" purity="5.9855979681015015e-01" nType="0">
        <Node pos="l" depth="1" NCoef="0" IVar="-1" Cut="0.0000000000000000e+00" cType="1" res="3.0671380955027416e-05" rms="3.2240656018257141e-01" purity="6.0597991943359375e-01" nType="-99"/>
        <Node pos="r" depth="1" NCoef="0" IVar="3" Cut="3.1746396422386169e-01" cType="0" res="-3.6909675691276789e-03" rms="3.3384042978286743e-01" purity="1.8142075836658478e-01" nType="0">
          <Node pos="l" depth="2" NCoef="0" IVar="-1" Cut="0.0000000000000000e+00" cType="1" res="-8.3859385922551155e-03" rms="3.6382916569709778e-01" purity="2.5679013133049011e-01" nType="-99"/>
          <Node pos="r" depth="2" NCoef="0" IVar="-1" Cut="0.0000000000000000e+00" cType="1" res="7.6259276829659939e-03" rms="3.0683308839797974e-01" purity="1.2156862765550613e-01" nType="-99"/>
        </Node>
      </Node>
    </BinaryTree>
    <BinaryTree type="DecisionTree" boostWeight="1.0000000000000000e+00" itree="1239">
      <Node pos="s" depth="0" NCoef="0" IVar="1" Cut="1.5829585790634155e+00" cType="1" res="-9.7917518360191025e-07" rms="3.2260805368423462e-01" purity="5.9855979681015015e-01" nType="0">
        <Node pos="l" depth="1" NCoef="0" IVar="-1" Cut="0.0000000000000000e+00" cType="1" res="2.0136798411840573e-05" rms="3.2244578003883362e-01" purity="6.0176652669906616e-01" nType="-99"/>
        <Node pos="r" depth="1" NCoef="0" IVar="2" Cut="1.7287795543670654e+00" cType="0" res="-5.8369874022901058e-03" rms="3.4365424513816833e-01" purity="1.6795866191387177e-01" nType="0">
          <Node pos="l" depth="2" NCoef="0" IVar="-1" Cut="0.0000000000000000e+00" cType="1" res="3.9628269150853157e-03" rms="3.7034118175506592e-01" purity="1.9718310236930847e-01" nType="-99"/>
          <Node pos="r" depth="2" NCoef="0" IVar="-1" Cut="0.0000000000000000e+00" cType="1" res="-6.0659805312752724e-03" rms="3.2679706811904907e-01" purity="1.5102040767669678e-01" nType="-99"/>
        </Node>
      </Node>
    </BinaryTree>
    <BinaryTree type="DecisionTree" boostWeight="1.0000000000000000e+00" itree="1240">
      <Node pos="s" depth="0" NCoef="0" IVar="1" Cut="3.2233881950378418e-01" cType="1" res="-9.1301416205169517e-07" rms="3.2260793447494507e-01" purity="5.9855979681015015e-01" nType="0">
        <Node pos="l" depth="1" NCoef="0" IVar="-1" Cut="0.0000000000000000e+00" cType="1" res="-9.7121323051396757e-05" rms="3.2005155086517334e-01" purity="6.6661447286605835e-01" nType="-99"/>
        <Node pos="r" depth="1" NCoef="0" IVar="1" Cut="3.2675138115882874e-01" cType="1" res="1.1740969493985176e-03" rms="3.3716559410095215e-01" purity="2.0062777400016785e-01" nType="0">
          <Node pos="l" depth="2" NCoef="0" IVar="-1" Cut="0.0000000000000000e+00" cType="1" res="2.5315245613455772e-02" rms="3.9566144347190857e-01" purity="4.2342340946197510e-01" nType="-99"/>
          <Node pos="r" depth="2" NCoef="0" IVar="-1" Cut="0.0000000000000000e+00" cType="1" res="7.5695425039157271e-05" rms="3.3612555265426636e-01" purity="1.9734571874141693e-01" nType="-99"/>
        </Node>
      </Node>
    </BinaryTree>
    <BinaryTree type="DecisionTree" boostWeight="1.0000000000000000e+00" itree="1241">
      <Node pos="s" depth="0" NCoef="0" IVar="3" Cut="4.9697157740592957e-01" cType="0" res="-8.5838422592132702e-07" rms="3.2260474562644958e-01" purity="5.9855979681015015e-01" nType="0">
        <Node pos="l" depth="1" NCoef="0" IVar="-1" Cut="0.0000000000000000e+00" cType="1" res="-4.1009639389812946e-03" rms="3.4759306907653809e-01" purity="8.3458644151687622e-01" nType="-99"/>
        <Node pos="r" depth="1" NCoef="0" IVar="3" Cut="4.8845055699348450e-01" cType="0" res="2.3555525331175886e-05" rms="3.2253828644752502e-01" purity="5.9795868396759033e-01" nType="0">
          <Node pos="l" depth="2" NCoef="0" IVar="-1" Cut="0.0000000000000000e+00" cType="1" res="5.8224112726747990e-03" rms="2.6410242915153503e-01" purity="8.9714282751083374e-01" nType="-99"/>
          <Node pos="r" depth="2" NCoef="0" IVar="-1" Cut="0.0000000000000000e+00" cType="1" res="-2.0978161046514288e-05" rms="3.2289558649063110e-01" purity="5.9593993425369263e-01" nType="-99"/>
        </Node>
      </Node>
    </BinaryTree>
    <BinaryTree type="DecisionTree" boostWeight="1.0000000000000000e+00" itree="1242">
      <Node pos="s" depth="0" NCoef="0" IVar="3" Cut="4.9747130274772644e-01" cType="0" res="-7.3903595421143109e-07" rms="3.2260504364967346e-01" purity="5.9855979681015015e-01" nType="0">
        <Node pos="l" depth="1" NCoef="0" IVar="-1" Cut="0.0000000000000000e+00" cType="1" res="4.8827240243554115e-03" rms="3.1802240014076233e-01" purity="8.5981309413909912e-01" nType="-99"/>
        <Node pos="r" depth="1" NCoef="0" IVar="3" Cut="4.9123075604438782e-01" cType="0" res="-2.3386275643133558e-05" rms="3.2261398434638977e-01" purity="5.9802478551864624e-01" nType="0">
          <Node pos="l" depth="2" NCoef="0" IVar="-1" Cut="0.0000000000000000e+00" cType="1" res="-6.8897516466677189e-03" rms="3.0042716860771179e-01" purity="8.7096774578094482e-01" nType="-99"/>
          <Node pos="r" depth="2" NCoef="0" IVar="-1" Cut="0.0000000000000000e+00" cType="1" res="1.7718157323542982e-05" rms="3.2271492481231689e-01" purity="5.9672302007675171e-01" nType="-99"/>
        </Node>
      </Node>
    </BinaryTree>
    <BinaryTree type="DecisionTree" boostWeight="1.0000000000000000e+00" itree="1243">
      <Node pos="s" depth="0" NCoef="0" IVar="1" Cut="1.5704647302627563e+00" cType="1" res="-6.2861869309926988e-07" rms="3.2260411977767944e-01" purity="5.9855979681015015e-01" nType="0">
        <Node pos="l" depth="1" NCoef="0" IVar="-1" Cut="0.0000000000000000e+00" cType="1" res="-2.0239704099367373e-05" rms="3.2235491275787354e-01" purity="6.0177844762802124e-01" nType="-99"/>
        <Node pos="r" depth="1" NCoef="0" IVar="3" Cut="2.7439603209495544e-01" cType="1" res="5.4913889616727829e-03" rms="3.5359117388725281e-01" purity="1.7839196324348450e-01" nType="0">
          <Node pos="l" depth="2" NCoef="0" IVar="-1" Cut="0.0000000000000000e+00" cType="1" res="5.6535578332841396e-03" rms="3.6146616935729980e-01" purity="1.9117647409439087e-01" nType="-99"/>
          <Node pos="r" depth="2" NCoef="0" IVar="-1" Cut="0.0000000000000000e+00" cType="1" res="-6.3776285387575626e-03" rms="3.3498266339302063e-01" purity="1.5079365670681000e-01" nType="-99"/>
        </Node>
      </Node>
    </BinaryTree>
    <BinaryTree type="DecisionTree" boostWeight="1.0000000000000000e+00" itree="1244">
      <Node pos="s" depth="0" NCoef="0" IVar="1" Cut="1.5829585790634155e+00" cType="1" res="-6.0484717323561199e-07" rms="3.2260298728942871e-01" purity="5.9855979681015015e-01" nType="0">
        <Node pos="l" depth="1" NCoef="0" IVar="-1" Cut="0.0000000000000000e+00" cType="1" res="2.0300594769651070e-05" rms="3.2244157791137695e-01" purity="6.0176652669906616e-01" nType="-99"/>
        <Node pos="r" depth="1" NCoef="0" IVar="1" Cut="1.8520064353942871e+00" cType="0" res="-5.8330907486379147e-03" rms="3.4353813529014587e-01" purity="1.6795866191387177e-01" nType="0">
          <Node pos="l" depth="2" NCoef="0" IVar="-1" Cut="0.0000000000000000e+00" cType="1" res="1.2011573417112231e-03" rms="3.7656459212303162e-01" purity="2.0816326141357422e-01" nType="-99"/>
          <Node pos="r" depth="2" NCoef="0" IVar="-1" Cut="0.0000000000000000e+00" cType="1" res="-1.1107913218438625e-02" rms="2.7670416235923767e-01" purity="9.8591551184654236e-02" nType="-99"/>
        </Node>
      </Node>
    </BinaryTree>
    <BinaryTree type="DecisionTree" boostWeight="1.0000000000000000e+00" itree="1245">
      <Node pos="s" depth="0" NCoef="0" IVar="1" Cut="2.3250875473022461e+00" cType="1" res="-5.9024631582360598e-07" rms="3.2260289788246155e-01" purity="5.9855979681015015e-01" nType="0">
        <Node pos="l" depth="1" NCoef="0" IVar="1" Cut="1.5706599950790405e+00" cType="1" res="2.2909445760888048e-05" rms="3.2247722148895264e-01" purity="5.9937214851379395e-01" nType="0">
          <Node pos="l" depth="2" NCoef="0" IVar="-1" Cut="0.0000000000000000e+00" cType="1" res="-2.0245855921530165e-05" rms="3.2235491275787354e-01" purity="6.0177844762802124e-01" nType="-99"/>
          <Node pos="r" depth="2" NCoef="0" IVar="-1" Cut="0.0000000000000000e+00" cType="1" res="5.0153597258031368e-03" rms="3.4369844198226929e-01" purity="1.6376306116580963e-01" nType="-99"/>
        </Node>
        <Node pos="r" depth="1" NCoef="0" IVar="-1" Cut="0.0000000000000000e+00" cType="1" res="-3.3641725312918425e-03" rms="3.7696897983551025e-01" purity="2.1621622145175934e-01" nType="-99"/>
      </Node>
    </BinaryTree>
    <BinaryTree type="DecisionTree" boostWeight="1.0000000000000000e+00" itree="1246">
      <Node pos="s" depth="0" NCoef="0" IVar="1" Cut="1.5829585790634155e+00" cType="1" res="-5.5489499573013745e-07" rms="3.2260218262672424e-01" purity="5.9855979681015015e-01" nType="0">
        <Node pos="l" depth="1" NCoef="0" IVar="-1" Cut="0.0000000000000000e+00" cType="1" res="2.0165851310594007e-05" rms="3.2244122028350830e-01" purity="6.0176652669906616e-01" nType="-99"/>
        <Node pos="r" depth="1" NCoef="0" IVar="2" Cut="9.8254376649856567e-01" cType="0" res="-5.7881684042513371e-03" rms="3.4348464012145996e-01" purity="1.6795866191387177e-01" nType="0">
          <Node pos="l" depth="2" NCoef="0" IVar="-1" Cut="0.0000000000000000e+00" cType="1" res="1.0432363487780094e-03" rms="3.6255928874015808e-01" purity="1.9066147506237030e-01" nType="-99"/>
          <Node pos="r" depth="2" NCoef="0" IVar="-1" Cut="0.0000000000000000e+00" cType="1" res="-9.9180089309811592e-03" rms="3.0151480436325073e-01" purity="1.2307692319154739e-01" nType="-99"/>
        </Node>
      </Node>
    </BinaryTree>
    <BinaryTree type="DecisionTree" boostWeight="1.0000000000000000e+00" itree="1247">
      <Node pos="s" depth="0" NCoef="0" IVar="0" Cut="7.2088956832885742e-01" cType="1" res="-5.3523018550549750e-07" rms="3.2260209321975708e-01" purity="5.9855979681015015e-01" nType="0">
        <Node pos="l" depth="1" NCoef="0" IVar="-1" Cut="0.0000000000000000e+00" cType="1" res="7.9468700278084725e-05" rms="3.3019986748695374e-01" purity="6.6740232706069946e-01" nType="-99"/>
        <Node pos="r" depth="1" NCoef="0" IVar="0" Cut="7.8152155876159668e-01" cType="0" res="-1.3259451370686293e-03" rms="2.5828501582145691e-01" purity="8.0019555985927582e-02" nType="0">
          <Node pos="l" depth="2" NCoef="0" IVar="-1" Cut="0.0000000000000000e+00" cType="1" res="2.6042226818390191e-04" rms="2.6519531011581421e-01" purity="8.4767483174800873e-02" nType="-99"/>
          <Node pos="r" depth="2" NCoef="0" IVar="-1" Cut="0.0000000000000000e+00" cType="1" res="-1.4465635642409325e-02" rms="1.9282646477222443e-01" purity="4.1543025523424149e-02" nType="-99"/>
        </Node>
      </Node>
    </BinaryTree>
    <BinaryTree type="DecisionTree" boostWeight="1.0000000000000000e+00" itree="1248">
      <Node pos="s" depth="0" NCoef="0" IVar="0" Cut="4.5977011322975159e-01" cType="1" res="-7.2117273930416559e-07" rms="3.2260170578956604e-01" purity="5.9855979681015015e-01" nType="0">
        <Node pos="l" depth="1" NCoef="0" IVar="-1" Cut="0.0000000000000000e+00" cType="1" res="-1.0420511534903198e-04" rms="3.3581414818763733e-01" purity="7.2192019224166870e-01" nType="-99"/>
        <Node pos="r" depth="1" NCoef="0" IVar="0" Cut="4.6494272351264954e-01" cType="1" res="1.0008364915847778e-03" rms="2.5968092679977417e-01" purity="7.9036429524421692e-02" nType="0">
          <Node pos="l" depth="2" NCoef="0" IVar="-1" Cut="0.0000000000000000e+00" cType="1" res="4.4084656983613968e-02" rms="4.0055215358734131e-01" purity="2.1296297013759613e-01" nType="-99"/>
          <Node pos="r" depth="2" NCoef="0" IVar="-1" Cut="0.0000000000000000e+00" cType="1" res="1.7278334780712612e-05" rms="2.5755506753921509e-01" purity="7.7581003308296204e-02" nType="-99"/>
        </Node>
      </Node>
    </BinaryTree>
    <BinaryTree type="DecisionTree" boostWeight="1.0000000000000000e+00" itree="1249">
      <Node pos="s" depth="0" NCoef="0" IVar="0" Cut="2.1326837539672852e+00" cType="1" res="-1.2399769957482931e-06" rms="3.2259559631347656e-01" purity="5.9855979681015015e-01" nType="0">
        <Node pos="l" depth="1" NCoef="0" IVar="-1" Cut="0.0000000000000000e+00" cType="1" res="2.6959820388583466e-05" rms="3.2252004742622375e-01" purity="6.0491293668746948e-01" nType="-99"/>
        <Node pos="r" depth="1" NCoef="0" IVar="2" Cut="1.4992284774780273e+00" cType="1" res="-4.0830969810485840e-03" rms="3.2783198356628418e-01" purity="1.5238095819950104e-01" nType="0">
          <Node pos="l" depth="2" NCoef="0" IVar="-1" Cut="0.0000000000000000e+00" cType="1" res="8.2838516682386398e-03" rms="3.4716597199440002e-01" purity="1.6878980398178101e-01" nType="-99"/>
          <Node pos="r" depth="2" NCoef="0" IVar="-1" Cut="0.0000000000000000e+00" cType="1" res="-9.2093832790851593e-03" rms="3.1144601106643677e-01" purity="1.4014251530170441e-01" nType="-99"/>
        </Node>
      </Node>
    </BinaryTree>
    <BinaryTree type="DecisionTree" boostWeight="1.0000000000000000e+00" itree="1250">
      <Node pos="s" depth="0" NCoef="0" IVar="2" Cut="2.7723929882049561e+00" cType="1" res="-1.2693282087639091e-06" rms="3.2259309291839600e-01" purity="5.9855979681015015e-01" nType="0">
        <Node pos="l" depth="1" NCoef="0" IVar="-1" Cut="0.0000000000000000e+00" cType="1" res="-3.0690429412061349e-05" rms="3.2243421673774719e-01" purity="6.0449886322021484e-01" nType="-99"/>
        <Node pos="r" depth="1" NCoef="0" IVar="0" Cut="7.6586705446243286e-01" cType="1" res="4.4210315681993961e-03" rms="3.3344280719757080e-01" purity="1.8488529324531555e-01" nType="0">
          <Node pos="l" depth="2" NCoef="0" IVar="-1" Cut="0.0000000000000000e+00" cType="1" res="9.2019485309720039e-03" rms="3.8506695628166199e-01" purity="2.8315412998199463e-01" nType="-99"/>
          <Node pos="r" depth="2" NCoef="0" IVar="-1" Cut="0.0000000000000000e+00" cType="1" res="-4.3028374202549458e-03" rms="2.9718303680419922e-01" purity="1.2554112076759338e-01" nType="-99"/>
        </Node>
      </Node>
    </BinaryTree>
    <BinaryTree type="DecisionTree" boostWeight="1.0000000000000000e+00" itree="1251">
      <Node pos="s" depth="0" NCoef="0" IVar="2" Cut="3.7989275455474854e+00" cType="1" res="-1.2082934972568182e-06" rms="3.2259157299995422e-01" purity="5.9855979681015015e-01" nType="0">
        <Node pos="l" depth="1" NCoef="0" IVar="2" Cut="3.3657162189483643e+00" cType="1" res="-2.7666868845699355e-05" rms="3.2245606184005737e-01" purity="5.9950596094131470e-01" nType="0">
          <Node pos="l" depth="2" NCoef="0" IVar="-1" Cut="0.0000000000000000e+00" cType="1" res="1.2662636436289176e-05" rms="3.2246479392051697e-01" purity="6.0052978992462158e-01" nType="-99"/>
          <Node pos="r" depth="2" NCoef="0" IVar="-1" Cut="0.0000000000000000e+00" cType="1" res="-8.3137638866901398e-03" rms="3.1815052032470703e-01" purity="1.8604651093482971e-01" nType="-99"/>
        </Node>
        <Node pos="r" depth="1" NCoef="0" IVar="-1" Cut="0.0000000000000000e+00" cType="1" res="3.7051416002213955e-03" rms="3.7255677580833435e-01" purity="2.2137404978275299e-01" nType="-99"/>
      </Node>
    </BinaryTree>
    <BinaryTree type="DecisionTree" boostWeight="1.0000000000000000e+00" itree="1252">
      <Node pos="s" depth="0" NCoef="0" IVar="1" Cut="1.5704647302627563e+00" cType="1" res="-1.1120686167487293e-06" rms="3.2259127497673035e-01" purity="5.9855979681015015e-01" nType="0">
        <Node pos="l" depth="1" NCoef="0" IVar="-1" Cut="0.0000000000000000e+00" cType="1" res="-2.2049394829082303e-05" rms="3.2234498858451843e-01" purity="6.0177844762802124e-01" nType="-99"/>
        <Node pos="r" depth="1" NCoef="0" IVar="1" Cut="1.7793014049530029e+00" cType="0" res="5.9262085705995560e-03" rms="3.5322293639183044e-01" purity="1.7839196324348450e-01" nType="0">
          <Node pos="l" depth="2" NCoef="0" IVar="-1" Cut="0.0000000000000000e+00" cType="1" res="-1.1619667056947947e-03" rms="3.6547932028770447e-01" purity="1.9424460828304291e-01" nType="-99"/>
          <Node pos="r" depth="2" NCoef="0" IVar="-1" Cut="0.0000000000000000e+00" cType="1" res="1.4466755092144012e-02" rms="3.2200920581817627e-01" purity="1.4166666567325592e-01" nType="-99"/>
        </Node>
      </Node>
    </BinaryTree>
    <BinaryTree type="DecisionTree" boostWeight="1.0000000000000000e+00" itree="1253">
      <Node pos="s" depth="0" NCoef="0" IVar="2" Cut="3.2781672477722168e+00" cType="1" res="-1.0650998092387454e-06" rms="3.2258999347686768e-01" purity="5.9855979681015015e-01" nType="0">
        <Node pos="l" depth="1" NCoef="0" IVar="-1" Cut="0.0000000000000000e+00" cType="1" res="-1.8931146769318730e-05" rms="3.2238718867301941e-01" purity="6.0073769092559814e-01" nType="-99"/>
        <Node pos="r" depth="1" NCoef="0" IVar="1" Cut="2.3488256335258484e-01" cType="1" res="6.7911255173385143e-03" rms="3.5618457198143005e-01" purity="2.1812079846858978e-01" nType="0">
          <Node pos="l" depth="2" NCoef="0" IVar="-1" Cut="0.0000000000000000e+00" cType="1" res="-4.6361517161130905e-03" rms="3.4271588921546936e-01" purity="2.2142857313156128e-01" nType="-99"/>
          <Node pos="r" depth="2" NCoef="0" IVar="-1" Cut="0.0000000000000000e+00" cType="1" res="9.1152563691139221e-03" rms="3.6681798100471497e-01" purity="2.1518987417221069e-01" nType="-99"/>
        </Node>
      </Node>
    </BinaryTree>
    <BinaryTree type="DecisionTree" boostWeight="1.0000000000000000e+00" itree="1254">
      <Node pos="s" depth="0" NCoef="0" IVar="3" Cut="1.7989922314882278e-02" cType="1" res="-9.9743544978991849e-07" rms="3.2258898019790649e-01" purity="5.9855979681015015e-01" nType="0">
        <Node pos="l" depth="1" NCoef="0" IVar="-1" Cut="0.0000000000000000e+00" cType="1" res="6.6670723026618361e-04" rms="2.4924349784851074e-01" purity="9.2264425754547119e-01" nType="-99"/>
        <Node pos="r" depth="1" NCoef="0" IVar="2" Cut="4.4228430837392807e-02" cType="1" res="-2.7847319142892957e-04" rms="3.4334862232208252e-01" purity="4.9173334240913391e-01" nType="0">
          <Node pos="l" depth="2" NCoef="0" IVar="-1" Cut="0.0000000000000000e+00" cType="1" res="-1.9641043618321419e-02" rms="3.2677248120307922e-01" purity="5.4032260179519653e-01" nType="-99"/>
          <Node pos="r" depth="2" NCoef="0" IVar="-1" Cut="0.0000000000000000e+00" cType="1" res="-6.1021222791168839e-05" rms="3.4339162707328796e-01" purity="4.9157983064651489e-01" nType="-99"/>
        </Node>
      </Node>
    </BinaryTree>
    <BinaryTree type="DecisionTree" boostWeight="1.0000000000000000e+00" itree="1255">
      <Node pos="s" depth="0" NCoef="0" IVar="2" Cut="3.8813500404357910e+00" cType="1" res="-8.5804703076064470e-07" rms="3.2258677482604980e-01" purity="5.9855979681015015e-01" nType="0">
        <Node pos="l" depth="1" NCoef="0" IVar="2" Cut="3.3121306896209717e+00" cType="1" res="2.1514846594072878e-05" rms="3.2250311970710754e-01" purity="5.9940659999847412e-01" nType="0">
          <Node pos="l" depth="2" NCoef="0" IVar="-1" Cut="0.0000000000000000e+00" cType="1" res="-1.6803538528620265e-05" rms="3.2239821553230286e-01" purity="6.0064917802810669e-01" nType="-99"/>
          <Node pos="r" depth="2" NCoef="0" IVar="-1" Cut="0.0000000000000000e+00" cType="1" res="6.5499031916260719e-03" rms="3.5224670171737671e-01" purity="2.2543352842330933e-01" nType="-99"/>
        </Node>
        <Node pos="r" depth="1" NCoef="0" IVar="-1" Cut="0.0000000000000000e+00" cType="1" res="-3.4988757688552141e-03" rms="3.5872659087181091e-01" purity="2.1052631735801697e-01" nType="-99"/>
      </Node>
    </BinaryTree>
    <BinaryTree type="DecisionTree" boostWeight="1.0000000000000000e+00" itree="1256">
      <Node pos="s" depth="0" NCoef="0" IVar="2" Cut="2.6487591266632080e+00" cType="1" res="-7.9241584671763121e-07" rms="3.2258617877960205e-01" purity="5.9855979681015015e-01" nType="0">
        <Node pos="l" depth="1" NCoef="0" IVar="-1" Cut="0.0000000000000000e+00" cType="1" res="2.9992614145157859e-05" rms="3.2238858938217163e-01" purity="6.0597991943359375e-01" nType="-99"/>
        <Node pos="r" depth="1" NCoef="0" IVar="3" Cut="3.1746396422386169e-01" cType="0" res="-3.6014306824654341e-03" rms="3.3348652720451355e-01" purity="1.8142075836658478e-01" nType="0">
          <Node pos="l" depth="2" NCoef="0" IVar="-1" Cut="0.0000000000000000e+00" cType="1" res="-7.9225348308682442e-03" rms="3.6373066902160645e-01" purity="2.5679013133049011e-01" nType="-99"/>
          <Node pos="r" depth="2" NCoef="0" IVar="-1" Cut="0.0000000000000000e+00" cType="1" res="6.9928364828228951e-03" rms="3.0637574195861816e-01" purity="1.2156862765550613e-01" nType="-99"/>
        </Node>
      </Node>
    </BinaryTree>
    <BinaryTree type="DecisionTree" boostWeight="1.0000000000000000e+00" itree="1257">
      <Node pos="s" depth="0" NCoef="0" IVar="2" Cut="1.7608441114425659e+00" cType="1" res="-8.2189359318363131e-07" rms="3.2258427143096924e-01" purity="5.9855979681015015e-01" nType="0">
        <Node pos="l" depth="1" NCoef="0" IVar="-1" Cut="0.0000000000000000e+00" cType="1" res="-6.9087967858649790e-05" rms="3.2138302922248840e-01" purity="6.3296103477478027e-01" nType="-99"/>
        <Node pos="r" depth="1" NCoef="0" IVar="0" Cut="3.6356821656227112e-01" cType="1" res="1.6542361117899418e-03" rms="3.3610752224922180e-01" purity="2.0229555666446686e-01" nType="0">
          <Node pos="l" depth="2" NCoef="0" IVar="-1" Cut="0.0000000000000000e+00" cType="1" res="4.1673150844871998e-03" rms="4.4248840212821960e-01" purity="4.6562227606773376e-01" nType="-99"/>
          <Node pos="r" depth="2" NCoef="0" IVar="-1" Cut="0.0000000000000000e+00" cType="1" res="-2.2018863819539547e-03" rms="2.8544288873672485e-01" purity="1.0253874212503433e-01" nType="-99"/>
        </Node>
      </Node>
    </BinaryTree>
    <BinaryTree type="DecisionTree" boostWeight="1.0000000000000000e+00" itree="1258">
      <Node pos="s" depth="0" NCoef="0" IVar="2" Cut="2.9222519397735596e+00" cType="1" res="-7.8871568121030577e-07" rms="3.2258275151252747e-01" purity="5.9855979681015015e-01" nType="0">
        <Node pos="l" depth="1" NCoef="0" IVar="-1" Cut="0.0000000000000000e+00" cType="1" res="-2.5596482373657636e-05" rms="3.2247367501258850e-01" purity="6.0316354036331177e-01" nType="-99"/>
        <Node pos="r" depth="1" NCoef="0" IVar="3" Cut="3.4798771142959595e-01" cType="0" res="4.7758235596120358e-03" rms="3.3219006657600403e-01" purity="1.8544194102287292e-01" nType="0">
          <Node pos="l" depth="2" NCoef="0" IVar="-1" Cut="0.0000000000000000e+00" cType="1" res="1.2376518920063972e-02" rms="4.2643707990646362e-01" purity="4.3307086825370789e-01" nType="-99"/>
          <Node pos="r" depth="2" NCoef="0" IVar="-1" Cut="0.0000000000000000e+00" cType="1" res="-3.6769087892025709e-03" rms="2.9919382929801941e-01" purity="1.1555555462837219e-01" nType="-99"/>
        </Node>
      </Node>
    </BinaryTree>
    <BinaryTree type="DecisionTree" boostWeight="1.0000000000000000e+00" itree="1259">
      <Node pos="s" depth="0" NCoef="0" IVar="0" Cut="4.5977011322975159e-01" cType="1" res="-7.5282724765202147e-07" rms="3.2258057594299316e-01" purity="5.9855979681015015e-01" nType="0">
        <Node pos="l" depth="1" NCoef="0" IVar="-1" Cut="0.0000000000000000e+00" cType="1" res="-1.0474250302650034e-04" rms="3.3580452203750610e-01" purity="7.2192019224166870e-01" nType="-99"/>
        <Node pos="r" depth="1" NCoef="0" IVar="0" Cut="4.6494272351264954e-01" cType="1" res="1.0058634215965867e-03" rms="2.5959658622741699e-01" purity="7.9036429524421692e-02" nType="0">
          <Node pos="l" depth="2" NCoef="0" IVar="-1" Cut="0.0000000000000000e+00" cType="1" res="3.7234738469123840e-02" rms="4.0025082230567932e-01" purity="2.1296297013759613e-01" nType="-99"/>
          <Node pos="r" depth="2" NCoef="0" IVar="-1" Cut="0.0000000000000000e+00" cType="1" res="9.5203460659831762e-05" rms="2.5750803947448730e-01" purity="7.7581003308296204e-02" nType="-99"/>
        </Node>
      </Node>
    </BinaryTree>
    <BinaryTree type="DecisionTree" boostWeight="1.0000000000000000e+00" itree="1260">
      <Node pos="s" depth="0" NCoef="0" IVar="2" Cut="1.1876331567764282e+00" cType="1" res="-1.1117232361357310e-06" rms="3.2257556915283203e-01" purity="5.9855979681015015e-01" nType="0">
        <Node pos="l" depth="1" NCoef="0" IVar="-1" Cut="0.0000000000000000e+00" cType="1" res="1.1929723405046389e-04" rms="3.1625297665596008e-01" purity="6.8335270881652832e-01" nType="-99"/>
        <Node pos="r" depth="1" NCoef="0" IVar="3" Cut="3.6601009964942932e-01" cType="0" res="-9.9746626801788807e-04" rms="3.4730231761932373e-01" purity="2.5080385804176331e-01" nType="0">
          <Node pos="l" depth="2" NCoef="0" IVar="-1" Cut="0.0000000000000000e+00" cType="1" res="-4.0769623592495918e-03" rms="4.2938125133514404e-01" purity="5.5264621973037720e-01" nType="-99"/>
          <Node pos="r" depth="2" NCoef="0" IVar="-1" Cut="0.0000000000000000e+00" cType="1" res="8.5931294597685337e-04" rms="3.2719600200653076e-01" purity="1.8682096898555756e-01" nType="-99"/>
        </Node>
      </Node>
    </BinaryTree>
    <BinaryTree type="DecisionTree" boostWeight="1.0000000000000000e+00" itree="1261">
      <Node pos="s" depth="0" NCoef="0" IVar="3" Cut="3.6904326081275940e-01" cType="0" res="-9.8988880381511990e-07" rms="3.2257166504859924e-01" purity="5.9855979681015015e-01" nType="0">
        <Node pos="l" depth="1" NCoef="0" IVar="-1" Cut="0.0000000000000000e+00" cType="1" res="4.3840165017172694e-04" rms="3.5794132947921753e-01" purity="7.7281337976455688e-01" nType="-99"/>
        <Node pos="r" depth="1" NCoef="0" IVar="3" Cut="3.6774584650993347e-01" cType="1" res="-2.3586217139381915e-04" rms="3.1475740671157837e-01" purity="5.6250721216201782e-01" nType="0">
          <Node pos="l" depth="2" NCoef="0" IVar="-1" Cut="0.0000000000000000e+00" cType="1" res="2.6469953809282742e-05" rms="3.1414881348609924e-01" purity="5.6253618001937866e-01" nType="-99"/>
          <Node pos="r" depth="2" NCoef="0" IVar="-1" Cut="0.0000000000000000e+00" cType="1" res="-2.4536464363336563e-02" rms="4.4057178497314453e-01" purity="5.5487805604934692e-01" nType="-99"/>
        </Node>
      </Node>
    </BinaryTree>
    <BinaryTree type="DecisionTree" boostWeight="1.0000000000000000e+00" itree="1262">
      <Node pos="s" depth="0" NCoef="0" IVar="3" Cut="3.3206397294998169e-01" cType="0" res="-7.9104131600615801e-07" rms="3.2256695628166199e-01" purity="5.9855979681015015e-01" nType="0">
        <Node pos="l" depth="1" NCoef="0" IVar="-1" Cut="0.0000000000000000e+00" cType="1" res="3.0611868714913726e-04" rms="3.6918246746063232e-01" purity="7.0609885454177856e-01" nType="-99"/>
        <Node pos="r" depth="1" NCoef="0" IVar="3" Cut="3.2608488202095032e-01" cType="1" res="-3.0160727328620851e-04" rms="3.0404660105705261e-01" purity="5.5985867977142334e-01" nType="0">
          <Node pos="l" depth="2" NCoef="0" IVar="-1" Cut="0.0000000000000000e+00" cType="1" res="7.8574725193902850e-05" rms="3.0176219344139099e-01" purity="5.6136292219161987e-01" nType="-99"/>
          <Node pos="r" depth="2" NCoef="0" IVar="-1" Cut="0.0000000000000000e+00" cType="1" res="-6.5405257046222687e-03" rms="3.8691881299018860e-01" purity="4.9723145365715027e-01" nType="-99"/>
        </Node>
      </Node>
    </BinaryTree>
    <BinaryTree type="DecisionTree" boostWeight="1.0000000000000000e+00" itree="1263">
      <Node pos="s" depth="0" NCoef="0" IVar="2" Cut="3.7989275455474854e+00" cType="1" res="-7.0828099296704750e-07" rms="3.2256352901458740e-01" purity="5.9855979681015015e-01" nType="0">
        <Node pos="l" depth="1" NCoef="0" IVar="2" Cut="3.3657162189483643e+00" cType="1" res="-2.5091436327784322e-05" rms="3.2243049144744873e-01" purity="5.9950596094131470e-01" nType="0">
          <Node pos="l" depth="2" NCoef="0" IVar="-1" Cut="0.0000000000000000e+00" cType="1" res="1.3719504750042688e-05" rms="3.2243990898132324e-01" purity="6.0052978992462158e-01" nType="-99"/>
          <Node pos="r" depth="2" NCoef="0" IVar="-1" Cut="0.0000000000000000e+00" cType="1" res="-8.2705775275826454e-03" rms="3.1784981489181519e-01" purity="1.8604651093482971e-01" nType="-99"/>
        </Node>
        <Node pos="r" depth="1" NCoef="0" IVar="-1" Cut="0.0000000000000000e+00" cType="1" res="3.4083011560142040e-03" rms="3.7169477343559265e-01" purity="2.2137404978275299e-01" nType="-99"/>
      </Node>
    </BinaryTree>
    <BinaryTree type="DecisionTree" boostWeight="1.0000000000000000e+00" itree="1264">
      <Node pos="s" depth="0" NCoef="0" IVar="2" Cut="3.3118855953216553e+00" cType="1" res="-6.6146299104730133e-07" rms="3.2256326079368591e-01" purity="5.9855979681015015e-01" nType="0">
        <Node pos="l" depth="1" NCoef="0" IVar="-1" Cut="0.0000000000000000e+00" cType="1" res="-1.7457270587328821e-05" rms="3.2237708568572998e-01" purity="6.0064917802810669e-01" nType="-99"/>
        <Node pos="r" depth="1" NCoef="0" IVar="3" Cut="3.2236239314079285e-01" cType="0" res="6.5627121366560459e-03" rms="3.5466077923774719e-01" purity="2.1951219439506531e-01" nType="0">
          <Node pos="l" depth="2" NCoef="0" IVar="-1" Cut="0.0000000000000000e+00" cType="1" res="-4.6037645079195499e-03" rms="3.6673805117607117e-01" purity="2.7737227082252502e-01" nType="-99"/>
          <Node pos="r" depth="2" NCoef="0" IVar="-1" Cut="0.0000000000000000e+00" cType="1" res="1.1906174011528492e-02" rms="3.4205019474029541e-01" purity="1.6666667163372040e-01" nType="-99"/>
        </Node>
      </Node>
    </BinaryTree>
    <BinaryTree type="DecisionTree" boostWeight="1.0000000000000000e+00" itree="1265">
      <Node pos="s" depth="0" NCoef="0" IVar="2" Cut="3.8813500404357910e+00" cType="1" res="-6.5686253947205842e-07" rms="3.2256200909614563e-01" purity="5.9855979681015015e-01" nType="0">
        <Node pos="l" depth="1" NCoef="0" IVar="2" Cut="3.3121306896209717e+00" cType="1" res="2.2080908820498735e-05" rms="3.2247895002365112e-01" purity="5.9940659999847412e-01" nType="0">
          <Node pos="l" depth="2" NCoef="0" IVar="-1" Cut="0.0000000000000000e+00" cType="1" res="-1.5711222658865154e-05" rms="3.2237711548805237e-01" purity="6.0064917802810669e-01" nType="-99"/>
          <Node pos="r" depth="2" NCoef="0" IVar="-1" Cut="0.0000000000000000e+00" cType="1" res="6.3307317905128002e-03" rms="3.5140246152877808e-01" purity="2.2543352842330933e-01" nType="-99"/>
        </Node>
        <Node pos="r" depth="1" NCoef="0" IVar="-1" Cut="0.0000000000000000e+00" cType="1" res="-3.5500873345881701e-03" rms="3.5844507813453674e-01" purity="2.1052631735801697e-01" nType="-99"/>
      </Node>
    </BinaryTree>
    <BinaryTree type="DecisionTree" boostWeight="1.0000000000000000e+00" itree="1266">
      <Node pos="s" depth="0" NCoef="0" IVar="2" Cut="3.1470406055450439e+00" cType="1" res="-6.1034143072902225e-07" rms="3.2256141304969788e-01" purity="5.9855979681015015e-01" nType="0">
        <Node pos="l" depth="1" NCoef="0" IVar="-1" Cut="0.0000000000000000e+00" cType="1" res="2.0471825337153859e-05" rms="3.2247447967529297e-01" purity="6.0167813301086426e-01" nType="-99"/>
        <Node pos="r" depth="1" NCoef="0" IVar="2" Cut="3.3106193542480469e+00" cType="0" res="-5.8244140818715096e-03" rms="3.3386203646659851e-01" purity="1.8414321541786194e-01" nType="0">
          <Node pos="l" depth="2" NCoef="0" IVar="-1" Cut="0.0000000000000000e+00" cType="1" res="1.9236650550737977e-03" rms="3.5437685251235962e-01" purity="2.1951219439506531e-01" nType="-99"/>
          <Node pos="r" depth="2" NCoef="0" IVar="-1" Cut="0.0000000000000000e+00" cType="1" res="-1.9525485113263130e-02" rms="2.6686361432075500e-01" purity="8.6538463830947876e-02" nType="-99"/>
        </Node>
      </Node>
    </BinaryTree>
    <BinaryTree type="DecisionTree" boostWeight="1.0000000000000000e+00" itree="1267">
      <Node pos="s" depth="0" NCoef="0" IVar="2" Cut="3.4542517662048340e+00" cType="1" res="-6.3584985809939099e-07" rms="3.2255998253822327e-01" purity="5.9855979681015015e-01" nType="0">
        <Node pos="l" depth="1" NCoef="0" IVar="-1" Cut="0.0000000000000000e+00" cType="1" res="1.5441803043358959e-05" rms="3.2244482636451721e-01" purity="6.0029160976409912e-01" nType="-99"/>
        <Node pos="r" depth="1" NCoef="0" IVar="1" Cut="3.2983508706092834e-01" cType="1" res="-7.6659373007714748e-03" rms="3.4801721572875977e-01" purity="1.9911503791809082e-01" nType="0">
          <Node pos="l" depth="2" NCoef="0" IVar="-1" Cut="0.0000000000000000e+00" cType="1" res="2.9280590824782848e-03" rms="3.6624673008918762e-01" purity="2.3140496015548706e-01" nType="-99"/>
          <Node pos="r" depth="2" NCoef="0" IVar="-1" Cut="0.0000000000000000e+00" cType="1" res="-9.8265744745731354e-03" rms="3.2476913928985596e-01" purity="1.6190476715564728e-01" nType="-99"/>
        </Node>
      </Node>
    </BinaryTree>
    <BinaryTree type="DecisionTree" boostWeight="1.0000000000000000e+00" itree="1268">
      <Node pos="s" depth="0" NCoef="0" IVar="2" Cut="2.9222519397735596e+00" cType="1" res="-6.0022432535333792e-07" rms="3.2255968451499939e-01" purity="5.9855979681015015e-01" nType="0">
        <Node pos="l" depth="1" NCoef="0" IVar="-1" Cut="0.0000000000000000e+00" cType="1" res="-2.4739969376241788e-05" rms="3.2245624065399170e-01" purity="6.0316354036331177e-01" nType="-99"/>
        <Node pos="r" depth="1" NCoef="0" IVar="3" Cut="3.4798771142959595e-01" cType="0" res="4.6317046508193016e-03" rms="3.3167994022369385e-01" purity="1.8544194102287292e-01" nType="0">
          <Node pos="l" depth="2" NCoef="0" IVar="-1" Cut="0.0000000000000000e+00" cType="1" res="1.1830190196633339e-02" rms="4.2595094442367554e-01" purity="4.3307086825370789e-01" nType="-99"/>
          <Node pos="r" depth="2" NCoef="0" IVar="-1" Cut="0.0000000000000000e+00" cType="1" res="-3.4849632065743208e-03" rms="2.9875969886779785e-01" purity="1.1555555462837219e-01" nType="-99"/>
        </Node>
      </Node>
    </BinaryTree>
    <BinaryTree type="DecisionTree" boostWeight="1.0000000000000000e+00" itree="1269">
      <Node pos="s" depth="0" NCoef="0" IVar="2" Cut="3.4542517662048340e+00" cType="1" res="-5.7839696410155739e-07" rms="3.2255768775939941e-01" purity="5.9855979681015015e-01" nType="0">
        <Node pos="l" depth="1" NCoef="0" IVar="-1" Cut="0.0000000000000000e+00" cType="1" res="1.5103568330232520e-05" rms="3.2244431972503662e-01" purity="6.0029160976409912e-01" nType="-99"/>
        <Node pos="r" depth="1" NCoef="0" IVar="1" Cut="3.2983508706092834e-01" cType="1" res="-7.4878614395856857e-03" rms="3.4763911366462708e-01" purity="1.9911503791809082e-01" nType="0">
          <Node pos="l" depth="2" NCoef="0" IVar="-1" Cut="0.0000000000000000e+00" cType="1" res="2.2280341945588589e-03" rms="3.6590597033500671e-01" purity="2.3140496015548706e-01" nType="-99"/>
          <Node pos="r" depth="2" NCoef="0" IVar="-1" Cut="0.0000000000000000e+00" cType="1" res="-8.9204320684075356e-03" rms="3.2458621263504028e-01" purity="1.6190476715564728e-01" nType="-99"/>
        </Node>
      </Node>
    </BinaryTree>
    <BinaryTree type="DecisionTree" boostWeight="1.0000000000000000e+00" itree="1270">
      <Node pos="s" depth="0" NCoef="0" IVar="0" Cut="2.4575212001800537e+00" cType="1" res="-5.4236255664363853e-07" rms="3.2255750894546509e-01" purity="5.9855979681015015e-01" nType="0">
        <Node pos="l" depth="1" NCoef="0" IVar="-1" Cut="0.0000000000000000e+00" cType="1" res="-2.3470804080716334e-05" rms="3.2226499915122986e-01" purity="6.0261505842208862e-01" nType="-99"/>
        <Node pos="r" depth="1" NCoef="0" IVar="2" Cut="2.3382983207702637e+00" cType="0" res="5.0773830153048038e-03" rms="3.5153841972351074e-01" purity="1.7800000309944153e-01" nType="0">
          <Node pos="l" depth="2" NCoef="0" IVar="-1" Cut="0.0000000000000000e+00" cType="1" res="1.0242701508104801e-02" rms="3.7886822223663330e-01" purity="2.3780487477779388e-01" nType="-99"/>
          <Node pos="r" depth="2" NCoef="0" IVar="-1" Cut="0.0000000000000000e+00" cType="1" res="-2.6579790282994509e-03" rms="3.3678835630416870e-01" purity="1.4880952239036560e-01" nType="-99"/>
        </Node>
      </Node>
    </BinaryTree>
    <BinaryTree type="DecisionTree" boostWeight="1.0000000000000000e+00" itree="1271">
      <Node pos="s" depth="0" NCoef="0" IVar="2" Cut="3.2294631004333496e+00" cType="1" res="-5.3855183068662882e-07" rms="3.2255646586418152e-01" purity="5.9855979681015015e-01" nType="0">
        <Node pos="l" depth="1" NCoef="0" IVar="-1" Cut="0.0000000000000000e+00" cType="1" res="1.8377513697487302e-05" rms="3.2241106033325195e-01" purity="6.0102629661560059e-01" nType="-99"/>
        <Node pos="r" depth="1" NCoef="0" IVar="3" Cut="3.2239890098571777e-01" cType="0" res="-6.3341134227812290e-03" rms="3.4512472152709961e-01" purity="2.0123839378356934e-01" nType="0">
          <Node pos="l" depth="2" NCoef="0" IVar="-1" Cut="0.0000000000000000e+00" cType="1" res="-9.3616675585508347e-03" rms="3.6074197292327881e-01" purity="2.5157234072685242e-01" nType="-99"/>
          <Node pos="r" depth="2" NCoef="0" IVar="-1" Cut="0.0000000000000000e+00" cType="1" res="7.8785326331853867e-03" rms="3.2760244607925415e-01" purity="1.5243902802467346e-01" nType="-99"/>
        </Node>
      </Node>
    </BinaryTree>
    <BinaryTree type="DecisionTree" boostWeight="1.0000000000000000e+00" itree="1272">
      <Node pos="s" depth="0" NCoef="0" IVar="0" Cut="1.2493752874433994e-03" cType="1" res="-5.3938828159516561e-07" rms="3.2255524396896362e-01" purity="5.9855979681015015e-01" nType="0">
        <Node pos="l" depth="1" NCoef="0" IVar="-1" Cut="0.0000000000000000e+00" cType="1" res="-4.6461587771773338e-04" rms="2.7188065648078918e-01" purity="9.0791207551956177e-01" nType="-99"/>
        <Node pos="r" depth="1" NCoef="0" IVar="0" Cut="2.4653216823935509e-02" cType="1" res="3.4203333780169487e-04" rms="3.4507104754447937e-01" purity="4.4418039917945862e-01" nType="0">
          <Node pos="l" depth="2" NCoef="0" IVar="-1" Cut="0.0000000000000000e+00" cType="1" res="4.4793561100959778e-03" rms="2.4010552465915680e-01" purity="9.3065577745437622e-01" nType="-99"/>
          <Node pos="r" depth="2" NCoef="0" IVar="-1" Cut="0.0000000000000000e+00" cType="1" res="-7.9388271842617542e-05" rms="3.5389074683189392e-01" purity="3.9533051848411560e-01" nType="-99"/>
        </Node>
      </Node>
    </BinaryTree>
    <BinaryTree type="DecisionTree" boostWeight="1.0000000000000000e+00" itree="1273">
      <Node pos="s" depth="0" NCoef="0" IVar="1" Cut="2.1589205265045166e+00" cType="1" res="-3.5649941310111899e-07" rms="3.2255530357360840e-01" purity="5.9855979681015015e-01" nType="0">
        <Node pos="l" depth="1" NCoef="0" IVar="1" Cut="1.5831768512725830e+00" cType="1" res="-2.5202103643096052e-05" rms="3.2234951853752136e-01" purity="5.9953266382217407e-01" nType="0">
          <Node pos="l" depth="2" NCoef="0" IVar="-1" Cut="0.0000000000000000e+00" cType="1" res="1.6741447325330228e-05" rms="3.2239261269569397e-01" purity="6.0174334049224854e-01" nType="-99"/>
          <Node pos="r" depth="2" NCoef="0" IVar="-1" Cut="0.0000000000000000e+00" cType="1" res="-5.6811673566699028e-03" rms="3.1280541419982910e-01" purity="1.3061223924160004e-01" nType="-99"/>
        </Node>
        <Node pos="r" depth="1" NCoef="0" IVar="-1" Cut="0.0000000000000000e+00" cType="1" res="2.8117864858359098e-03" rms="3.9173045754432678e-01" purity="2.3571428656578064e-01" nType="-99"/>
      </Node>
    </BinaryTree>
    <BinaryTree type="DecisionTree" boostWeight="1.0000000000000000e+00" itree="1274">
      <Node pos="s" depth="0" NCoef="0" IVar="1" Cut="1.5704647302627563e+00" cType="1" res="-3.4563336726023408e-07" rms="3.2255524396896362e-01" purity="5.9855979681015015e-01" nType="0">
        <Node pos="l" depth="1" NCoef="0" IVar="-1" Cut="0.0000000000000000e+00" cType="1" res="-2.0693381884484552e-05" rms="3.2231265306472778e-01" purity="6.0177844762802124e-01" nType="-99"/>
        <Node pos="r" depth="1" NCoef="0" IVar="2" Cut="7.7421963214874268e-01" cType="1" res="5.6529599241912365e-03" rms="3.5275068879127502e-01" purity="1.7839196324348450e-01" nType="0">
          <Node pos="l" depth="2" NCoef="0" IVar="-1" Cut="0.0000000000000000e+00" cType="1" res="1.2392828240990639e-02" rms="3.6134925484657288e-01" purity="1.8095238506793976e-01" nType="-99"/>
          <Node pos="r" depth="2" NCoef="0" IVar="-1" Cut="0.0000000000000000e+00" cType="1" res="-1.0635511716827750e-03" rms="3.4922185540199280e-01" purity="1.7747440934181213e-01" nType="-99"/>
        </Node>
      </Node>
    </BinaryTree>
    <BinaryTree type="DecisionTree" boostWeight="1.0000000000000000e+00" itree="1275">
      <Node pos="s" depth="0" NCoef="0" IVar="1" Cut="1.5829585790634155e+00" cType="1" res="-3.5674145237862831e-07" rms="3.2255440950393677e-01" purity="5.9855979681015015e-01" nType="0">
        <Node pos="l" depth="1" NCoef="0" IVar="-1" Cut="0.0000000000000000e+00" cType="1" res="1.9233546481700614e-05" rms="3.2239735126495361e-01" purity="6.0176652669906616e-01" nType="-99"/>
        <Node pos="r" depth="1" NCoef="0" IVar="2" Cut="9.8254376649856567e-01" cType="0" res="-5.4967007599771023e-03" rms="3.4295094013214111e-01" purity="1.6795866191387177e-01" nType="0">
          <Node pos="l" depth="2" NCoef="0" IVar="-1" Cut="0.0000000000000000e+00" cType="1" res="1.2299435911700130e-03" rms="3.6179175972938538e-01" purity="1.9066147506237030e-01" nType="-99"/>
          <Node pos="r" depth="2" NCoef="0" IVar="-1" Cut="0.0000000000000000e+00" cType="1" res="-9.9842287600040436e-03" rms="3.0148950219154358e-01" purity="1.2307692319154739e-01" nType="-99"/>
        </Node>
      </Node>
    </BinaryTree>
    <BinaryTree type="DecisionTree" boostWeight="1.0000000000000000e+00" itree="1276">
      <Node pos="s" depth="0" NCoef="0" IVar="1" Cut="1.5704647302627563e+00" cType="1" res="-3.5743417470257555e-07" rms="3.2255429029464722e-01" purity="5.9855979681015015e-01" nType="0">
        <Node pos="l" depth="1" NCoef="0" IVar="-1" Cut="0.0000000000000000e+00" cType="1" res="-2.0547409803839400e-05" rms="3.2231265306472778e-01" purity="6.0177844762802124e-01" nType="-99"/>
        <Node pos="r" depth="1" NCoef="0" IVar="2" Cut="1.2996939420700073e+00" cType="1" res="5.6112129241228104e-03" rms="3.5263481736183167e-01" purity="1.7839196324348450e-01" nType="0">
          <Node pos="l" depth="2" NCoef="0" IVar="-1" Cut="0.0000000000000000e+00" cType="1" res="7.6797916553914547e-03" rms="3.5693764686584473e-01" purity="1.8877550959587097e-01" nType="-99"/>
          <Node pos="r" depth="2" NCoef="0" IVar="-1" Cut="0.0000000000000000e+00" cType="1" res="-3.0501952860504389e-03" rms="3.4785535931587219e-01" purity="1.6831682622432709e-01" nType="-99"/>
        </Node>
      </Node>
    </BinaryTree>
    <BinaryTree type="DecisionTree" boostWeight="1.0000000000000000e+00" itree="1277">
      <Node pos="s" depth="0" NCoef="0" IVar="1" Cut="1.5829585790634155e+00" cType="1" res="-3.5932256992055045e-07" rms="3.2255324721336365e-01" purity="5.9855979681015015e-01" nType="0">
        <Node pos="l" depth="1" NCoef="0" IVar="-1" Cut="0.0000000000000000e+00" cType="1" res="1.9319864804856479e-05" rms="3.2239708304405212e-01" purity="6.0176652669906616e-01" nType="-99"/>
        <Node pos="r" depth="1" NCoef="0" IVar="2" Cut="1.7287795543670654e+00" cType="0" res="-5.5215088650584221e-03" rms="3.4283307194709778e-01" purity="1.6795866191387177e-01" nType="0">
          <Node pos="l" depth="2" NCoef="0" IVar="-1" Cut="0.0000000000000000e+00" cType="1" res="4.1574575006961823e-03" rms="3.6927935481071472e-01" purity="1.9718310236930847e-01" nType="-99"/>
          <Node pos="r" depth="2" NCoef="0" IVar="-1" Cut="0.0000000000000000e+00" cType="1" res="-6.0136555694043636e-03" rms="3.2611933350563049e-01" purity="1.5102040767669678e-01" nType="-99"/>
        </Node>
      </Node>
    </BinaryTree>
    <BinaryTree type="DecisionTree" boostWeight="1.0000000000000000e+00" itree="1278">
      <Node pos="s" depth="0" NCoef="0" IVar="1" Cut="7.5837081670761108e-01" cType="1" res="-3.5509569329406077e-07" rms="3.2255309820175171e-01" purity="5.9855979681015015e-01" nType="0">
        <Node pos="l" depth="1" NCoef="0" IVar="-1" Cut="0.0000000000000000e+00" cType="1" res="-4.8017340304795653e-05" rms="3.2311832904815674e-01" purity="6.1891573667526245e-01" nType="-99"/>
        <Node pos="r" depth="1" NCoef="0" IVar="3" Cut="3.1095212697982788e-01" cType="0" res="2.3517247755080462e-03" rms="3.0913802981376648e-01" purity="1.2621359527111053e-01" nType="0">
          <Node pos="l" depth="2" NCoef="0" IVar="-1" Cut="0.0000000000000000e+00" cType="1" res="1.1310236528515816e-02" rms="3.8707184791564941e-01" purity="2.0873786509037018e-01" nType="-99"/>
          <Node pos="r" depth="2" NCoef="0" IVar="-1" Cut="0.0000000000000000e+00" cType="1" res="-2.3413146845996380e-03" rms="2.8734663128852844e-01" purity="1.0679611563682556e-01" nType="-99"/>
        </Node>
      </Node>
    </BinaryTree>
    <BinaryTree type="DecisionTree" boostWeight="1.0000000000000000e+00" itree="1279">
      <Node pos="s" depth="0" NCoef="0" IVar="2" Cut="3.4542517662048340e+00" cType="1" res="-4.9817708713817410e-07" rms="3.2255077362060547e-01" purity="5.9855979681015015e-01" nType="0">
        <Node pos="l" depth="1" NCoef="0" IVar="-1" Cut="0.0000000000000000e+00" cType="1" res="1.4881607967254240e-05" rms="3.2243749499320984e-01" purity="6.0029160976409912e-01" nType="-99"/>
        <Node pos="r" depth="1" NCoef="0" IVar="0" Cut="1.3097455501556396e+00" cType="1" res="-7.3605775833129883e-03" rms="3.4761697053909302e-01" purity="1.9911503791809082e-01" nType="0">
          <Node pos="l" depth="2" NCoef="0" IVar="-1" Cut="0.0000000000000000e+00" cType="1" res="2.7904999442398548e-03" rms="3.5881060361862183e-01" purity="2.1929824352264404e-01" nType="-99"/>
          <Node pos="r" depth="2" NCoef="0" IVar="-1" Cut="0.0000000000000000e+00" cType="1" res="-8.0965189263224602e-03" rms="3.3515647053718567e-01" purity="1.7857143282890320e-01" nType="-99"/>
        </Node>
      </Node>
    </BinaryTree>
    <BinaryTree type="DecisionTree" boostWeight="1.0000000000000000e+00" itree="1280">
      <Node pos="s" depth="0" NCoef="0" IVar="1" Cut="1.5704647302627563e+00" cType="1" res="-4.6882308879503398e-07" rms="3.2255050539970398e-01" purity="5.9855979681015015e-01" nType="0">
        <Node pos="l" depth="1" NCoef="0" IVar="-1" Cut="0.0000000000000000e+00" cType="1" res="-2.0646350094466470e-05" rms="3.2231038808822632e-01" purity="6.0177844762802124e-01" nType="-99"/>
        <Node pos="r" depth="1" NCoef="0" IVar="3" Cut="1.8912068009376526e-01" cType="1" res="5.6240316480398178e-03" rms="3.5244867205619812e-01" purity="1.7839196324348450e-01" nType="0">
          <Node pos="l" depth="2" NCoef="0" IVar="-1" Cut="0.0000000000000000e+00" cType="1" res="1.0082531720399857e-02" rms="3.7590304017066956e-01" purity="2.2330096364021301e-01" nType="-99"/>
          <Node pos="r" depth="2" NCoef="0" IVar="-1" Cut="0.0000000000000000e+00" cType="1" res="-1.0182639816775918e-03" rms="3.4350433945655823e-01" purity="1.6271185874938965e-01" nType="-99"/>
        </Node>
      </Node>
    </BinaryTree>
    <BinaryTree type="DecisionTree" boostWeight="1.0000000000000000e+00" itree="1281">
      <Node pos="s" depth="0" NCoef="0" IVar="1" Cut="1.0457271337509155e+00" cType="1" res="-4.5271136173141713e-07" rms="3.2254946231842041e-01" purity="5.9855979681015015e-01" nType="0">
        <Node pos="l" depth="1" NCoef="0" IVar="-1" Cut="0.0000000000000000e+00" cType="1" res="3.3569209335837513e-05" rms="3.2280072569847107e-01" purity="6.0884672403335571e-01" nType="-99"/>
        <Node pos="r" depth="1" NCoef="0" IVar="2" Cut="8.3546435832977295e-01" cType="1" res="-3.2486501149833202e-03" rms="3.1088596582412720e-01" purity="1.3055062294006348e-01" nType="0">
          <Node pos="l" depth="2" NCoef="0" IVar="-1" Cut="0.0000000000000000e+00" cType="1" res="8.1643890589475632e-03" rms="3.2816949486732483e-01" purity="1.4070351421833038e-01" nType="-99"/>
          <Node pos="r" depth="2" NCoef="0" IVar="-1" Cut="0.0000000000000000e+00" cType="1" res="-6.4509361982345581e-03" rms="3.0046918988227844e-01" purity="1.2500000000000000e-01" nType="-99"/>
        </Node>
      </Node>
    </BinaryTree>
    <BinaryTree type="DecisionTree" boostWeight="1.0000000000000000e+00" itree="1282">
      <Node pos="s" depth="0" NCoef="0" IVar="0" Cut="1.2981009483337402e+00" cType="1" res="-5.5221943284777808e-07" rms="3.2254862785339355e-01" purity="5.9855979681015015e-01" nType="0">
        <Node pos="l" depth="1" NCoef="0" IVar="-1" Cut="0.0000000000000000e+00" cType="1" res="-5.2051214879611507e-05" rms="3.2371005415916443e-01" purity="6.2081432342529297e-01" nType="-99"/>
        <Node pos="r" depth="1" NCoef="0" IVar="0" Cut="1.3318313360214233e+00" cType="1" res="2.3941877298057079e-03" rms="2.9616174101829529e-01" purity="1.1468288302421570e-01" nType="0">
          <Node pos="l" depth="2" NCoef="0" IVar="-1" Cut="0.0000000000000000e+00" cType="1" res="3.1821873039007187e-02" rms="3.5213294625282288e-01" purity="1.4285714924335480e-01" nType="-99"/>
          <Node pos="r" depth="2" NCoef="0" IVar="-1" Cut="0.0000000000000000e+00" cType="1" res="-4.1320927266497165e-05" rms="2.9279798269271851e-01" purity="1.1324200779199600e-01" nType="-99"/>
        </Node>
      </Node>
    </BinaryTree>
    <BinaryTree type="DecisionTree" boostWeight="1.0000000000000000e+00" itree="1283">
      <Node pos="s" depth="0" NCoef="0" IVar="0" Cut="2.3213393688201904e+00" cType="1" res="-7.5965215273754438e-07" rms="3.2254770398139954e-01" purity="5.9855979681015015e-01" nType="0">
        <Node pos="l" depth="1" NCoef="0" IVar="-1" Cut="0.0000000000000000e+00" cType="1" res="-2.6153602448175661e-05" rms="3.2223486900329590e-01" purity="6.0334169864654541e-01" nType="-99"/>
        <Node pos="r" depth="1" NCoef="0" IVar="1" Cut="3.9855071902275085e-01" cType="0" res="4.8212329857051373e-03" rms="3.4913289546966553e-01" purity="1.7465753853321075e-01" nType="0">
          <Node pos="l" depth="2" NCoef="0" IVar="-1" Cut="0.0000000000000000e+00" cType="1" res="-2.8062562923878431e-03" rms="3.5603991150856018e-01" purity="1.8110236525535583e-01" nType="-99"/>
          <Node pos="r" depth="2" NCoef="0" IVar="-1" Cut="0.0000000000000000e+00" cType="1" res="1.3913090340793133e-02" rms="3.3449611067771912e-01" purity="1.6256158053874969e-01" nType="-99"/>
        </Node>
      </Node>
    </BinaryTree>
    <BinaryTree type="DecisionTree" boostWeight="1.0000000000000000e+00" itree="1284">
      <Node pos="s" depth="0" NCoef="0" IVar="1" Cut="1.5704647302627563e+00" cType="1" res="-7.9154875720632845e-07" rms="3.2254636287689209e-01" purity="5.9855979681015015e-01" nType="0">
        <Node pos="l" depth="1" NCoef="0" IVar="-1" Cut="0.0000000000000000e+00" cType="1" res="-2.2151221855892800e-05" rms="3.2230690121650696e-01" purity="6.0177844762802124e-01" nType="-99"/>
        <Node pos="r" depth="1" NCoef="0" IVar="0" Cut="6.1844080686569214e-01" cType="0" res="5.9968046844005585e-03" rms="3.5236200690269470e-01" purity="1.7839196324348450e-01" nType="0">
          <Node pos="l" depth="2" NCoef="0" IVar="-1" Cut="0.0000000000000000e+00" cType="1" res="5.7525658048689365e-03" rms="3.6964845657348633e-01" purity="2.0300751924514771e-01" nType="-99"/>
          <Node pos="r" depth="2" NCoef="0" IVar="-1" Cut="0.0000000000000000e+00" cType="1" res="-6.2408032827079296e-03" rms="3.1367594003677368e-01" purity="1.2878787517547607e-01" nType="-99"/>
        </Node>
      </Node>
    </BinaryTree>
    <BinaryTree type="DecisionTree" boostWeight="1.0000000000000000e+00" itree="1285">
      <Node pos="s" depth="0" NCoef="0" IVar="2" Cut="3.7989275455474854e+00" cType="1" res="-7.5160681944907992e-07" rms="3.2254526019096375e-01" purity="5.9855979681015015e-01" nType="0">
        <Node pos="l" depth="1" NCoef="0" IVar="2" Cut="3.3657162189483643e+00" cType="1" res="-2.4796756406431086e-05" rms="3.2241427898406982e-01" purity="5.9950596094131470e-01" nType="0">
          <Node pos="l" depth="2" NCoef="0" IVar="-1" Cut="0.0000000000000000e+00" cType="1" res="1.4037398614163976e-05" rms="3.2242619991302490e-01" purity="6.0052978992462158e-01" nType="-99"/>
          <Node pos="r" depth="2" NCoef="0" IVar="-1" Cut="0.0000000000000000e+00" cType="1" res="-8.3271274343132973e-03" rms="3.1680688261985779e-01" purity="1.8604651093482971e-01" nType="-99"/>
        </Node>
        <Node pos="r" depth="1" NCoef="0" IVar="-1" Cut="0.0000000000000000e+00" cType="1" res="3.3541531302034855e-03" rms="3.7096869945526123e-01" purity="2.2137404978275299e-01" nType="-99"/>
      </Node>
    </BinaryTree>
    <BinaryTree type="DecisionTree" boostWeight="1.0000000000000000e+00" itree="1286">
      <Node pos="s" depth="0" NCoef="0" IVar="2" Cut="2.9222519397735596e+00" cType="1" res="-7.0045632583060069e-07" rms="3.2254499197006226e-01" purity="5.9855979681015015e-01" nType="0">
        <Node pos="l" depth="1" NCoef="0" IVar="-1" Cut="0.0000000000000000e+00" cType="1" res="-2.5545392418280244e-05" rms="3.2244622707366943e-01" purity="6.0316354036331177e-01" nType="-99"/>
        <Node pos="r" depth="1" NCoef="0" IVar="3" Cut="3.4798771142959595e-01" cType="0" res="4.7754221595823765e-03" rms="3.3125489950180054e-01" purity="1.8544194102287292e-01" nType="0">
          <Node pos="l" depth="2" NCoef="0" IVar="-1" Cut="0.0000000000000000e+00" cType="1" res="1.1297751218080521e-02" rms="4.2548403143882751e-01" purity="4.3307086825370789e-01" nType="-99"/>
          <Node pos="r" depth="2" NCoef="0" IVar="-1" Cut="0.0000000000000000e+00" cType="1" res="-3.1200721859931946e-03" rms="2.9844474792480469e-01" purity="1.1555555462837219e-01" nType="-99"/>
        </Node>
      </Node>
    </BinaryTree>
    <BinaryTree type="DecisionTree" boostWeight="1.0000000000000000e+00" itree="1287">
      <Node pos="s" depth="0" NCoef="0" IVar="1" Cut="1.5704647302627563e+00" cType="1" res="-6.6361081962895696e-07" rms="3.2254314422607422e-01" purity="5.9855979681015015e-01" nType="0">
        <Node pos="l" depth="1" NCoef="0" IVar="-1" Cut="0.0000000000000000e+00" cType="1" res="-2.0138080799370073e-05" rms="3.2230433821678162e-01" purity="6.0177844762802124e-01" nType="-99"/>
        <Node pos="r" depth="1" NCoef="0" IVar="0" Cut="1.1031984090805054e+00" cType="0" res="5.4590939544141293e-03" rms="3.5228842496871948e-01" purity="1.7839196324348450e-01" nType="0">
          <Node pos="l" depth="2" NCoef="0" IVar="-1" Cut="0.0000000000000000e+00" cType="1" res="-2.8009025845676661e-03" rms="3.5807263851165771e-01" purity="1.9191919267177582e-01" nType="-99"/>
          <Node pos="r" depth="2" NCoef="0" IVar="-1" Cut="0.0000000000000000e+00" cType="1" res="8.1148380413651466e-03" rms="3.4593683481216431e-01" purity="1.6500000655651093e-01" nType="-99"/>
        </Node>
      </Node>
    </BinaryTree>
    <BinaryTree type="DecisionTree" boostWeight="1.0000000000000000e+00" itree="1288">
      <Node pos="s" depth="0" NCoef="0" IVar="1" Cut="1.5829585790634155e+00" cType="1" res="-6.3877325828798348e-07" rms="3.2254233956336975e-01" purity="5.9855979681015015e-01" nType="0">
        <Node pos="l" depth="1" NCoef="0" IVar="-1" Cut="0.0000000000000000e+00" cType="1" res="1.9404846170800738e-05" rms="3.2238808274269104e-01" purity="6.0176652669906616e-01" nType="-99"/>
        <Node pos="r" depth="1" NCoef="0" IVar="2" Cut="9.8254376649856567e-01" cType="0" res="-5.5842786096036434e-03" rms="3.4258225560188293e-01" purity="1.6795866191387177e-01" nType="0">
          <Node pos="l" depth="2" NCoef="0" IVar="-1" Cut="0.0000000000000000e+00" cType="1" res="1.4210348017513752e-03" rms="3.6145094037055969e-01" purity="1.9066147506237030e-01" nType="-99"/>
          <Node pos="r" depth="2" NCoef="0" IVar="-1" Cut="0.0000000000000000e+00" cType="1" res="-1.0478191077709198e-02" rms="3.0093908309936523e-01" purity="1.2307692319154739e-01" nType="-99"/>
        </Node>
      </Node>
    </BinaryTree>
    <BinaryTree type="DecisionTree" boostWeight="1.0000000000000000e+00" itree="1289">
      <Node pos="s" depth="0" NCoef="0" IVar="1" Cut="1.5704647302627563e+00" cType="1" res="-6.1542198181996355e-07" rms="3.2254216074943542e-01" purity="5.9855979681015015e-01" nType="0">
        <Node pos="l" depth="1" NCoef="0" IVar="-1" Cut="0.0000000000000000e+00" cType="1" res="-2.0064777345396578e-05" rms="3.2230433821678162e-01" purity="6.0177844762802124e-01" nType="-99"/>
        <Node pos="r" depth="1" NCoef="0" IVar="0" Cut="6.1844080686569214e-01" cType="0" res="5.4452447220683098e-03" rms="3.5216772556304932e-01" purity="1.7839196324348450e-01" nType="0">
          <Node pos="l" depth="2" NCoef="0" IVar="-1" Cut="0.0000000000000000e+00" cType="1" res="5.2679460495710373e-03" rms="3.6946493387222290e-01" purity="2.0300751924514771e-01" nType="-99"/>
          <Node pos="r" depth="2" NCoef="0" IVar="-1" Cut="0.0000000000000000e+00" cType="1" res="-5.8682220987975597e-03" rms="3.1359070539474487e-01" purity="1.2878787517547607e-01" nType="-99"/>
        </Node>
      </Node>
    </BinaryTree>
    <BinaryTree type="DecisionTree" boostWeight="1.0000000000000000e+00" itree="1290">
      <Node pos="s" depth="0" NCoef="0" IVar="0" Cut="1.6116940975189209e-01" cType="1" res="-5.8698191196526750e-07" rms="3.2254117727279663e-01" purity="5.9855979681015015e-01" nType="0">
        <Node pos="l" depth="1" NCoef="0" IVar="-1" Cut="0.0000000000000000e+00" cType="1" res="1.6914976004045457e-04" rms="3.2209184765815735e-01" purity="8.4581202268600464e-01" nType="-99"/>
        <Node pos="r" depth="1" NCoef="0" IVar="3" Cut="2.3613764345645905e-01" cType="0" res="-6.5774610266089439e-04" rms="3.2336932420730591e-01" purity="1.4138005673885345e-01" nType="0">
          <Node pos="l" depth="2" NCoef="0" IVar="-1" Cut="0.0000000000000000e+00" cType="1" res="9.6761959139257669e-04" rms="3.5123273730278015e-01" purity="1.7379443347454071e-01" nType="-99"/>
          <Node pos="r" depth="2" NCoef="0" IVar="-1" Cut="0.0000000000000000e+00" cType="1" res="-3.6118121352046728e-03" rms="2.7214804291725159e-01" purity="8.8847689330577850e-02" nType="-99"/>
        </Node>
      </Node>
    </BinaryTree>
    <BinaryTree type="DecisionTree" boostWeight="1.0000000000000000e+00" itree="1291">
      <Node pos="s" depth="0" NCoef="0" IVar="3" Cut="2.6784995198249817e-01" cType="1" res="-7.4412656658751075e-07" rms="3.2253828644752502e-01" purity="5.9855979681015015e-01" nType="0">
        <Node pos="l" depth="1" NCoef="0" IVar="-1" Cut="0.0000000000000000e+00" cType="1" res="3.0008898465894163e-04" rms="2.8420740365982056e-01" purity="6.0393178462982178e-01" nType="-99"/>
        <Node pos="r" depth="1" NCoef="0" IVar="3" Cut="2.8306087851524353e-01" cType="0" res="-5.9227296151220798e-04" rms="3.6272597312927246e-01" purity="5.9219861030578613e-01" nType="0">
          <Node pos="l" depth="2" NCoef="0" IVar="-1" Cut="0.0000000000000000e+00" cType="1" res="6.2474937294609845e-05" rms="3.6646777391433716e-01" purity="6.1644852161407471e-01" nType="-99"/>
          <Node pos="r" depth="2" NCoef="0" IVar="-1" Cut="0.0000000000000000e+00" cType="1" res="-3.1718632671982050e-03" rms="3.2751613855361938e-01" purity="3.7665015459060669e-01" nType="-99"/>
        </Node>
      </Node>
    </BinaryTree>
    <BinaryTree type="DecisionTree" boostWeight="1.0000000000000000e+00" itree="1292">
      <Node pos="s" depth="0" NCoef="0" IVar="2" Cut="1.7046469449996948e+00" cType="1" res="-6.8581658752009389e-07" rms="3.2253834605216980e-01" purity="5.9855979681015015e-01" nType="0">
        <Node pos="l" depth="1" NCoef="0" IVar="-1" Cut="0.0000000000000000e+00" cType="1" res="7.5678297434933484e-05" rms="3.2118073105812073e-01" purity="6.3696724176406860e-01" nType="-99"/>
        <Node pos="r" depth="1" NCoef="0" IVar="2" Cut="1.7596725225448608e+00" cType="0" res="-1.6449574613943696e-03" rms="3.3627524971961975e-01" purity="2.0069429278373718e-01" nType="0">
          <Node pos="l" depth="2" NCoef="0" IVar="-1" Cut="0.0000000000000000e+00" cType="1" res="5.5142218479886651e-04" rms="3.3577260375022888e-01" purity="2.0233833789825439e-01" nType="-99"/>
          <Node pos="r" depth="2" NCoef="0" IVar="-1" Cut="0.0000000000000000e+00" cType="1" res="-1.3073652051389217e-02" rms="3.3986255526542664e-01" purity="1.8421052396297455e-01" nType="-99"/>
        </Node>
      </Node>
    </BinaryTree>
    <BinaryTree type="DecisionTree" boostWeight="1.0000000000000000e+00" itree="1293">
      <Node pos="s" depth="0" NCoef="0" IVar="2" Cut="1.9256891012191772e+00" cType="1" res="-7.3319398552484927e-07" rms="3.2253384590148926e-01" purity="5.9855979681015015e-01" nType="0">
        <Node pos="l" depth="1" NCoef="0" IVar="-1" Cut="0.0000000000000000e+00" cType="1" res="6.2219383835326880e-05" rms="3.2197430729866028e-01" purity="6.2506610155105591e-01" nType="-99"/>
        <Node pos="r" depth="1" NCoef="0" IVar="0" Cut="1.7116442322731018e-01" cType="1" res="-2.0364250522106886e-03" rms="3.3108216524124146e-01" purity="1.8757881224155426e-01" nType="0">
          <Node pos="l" depth="2" NCoef="0" IVar="-1" Cut="0.0000000000000000e+00" cType="1" res="-7.7300276607275009e-03" rms="4.3488323688507080e-01" purity="6.1092150211334229e-01" nType="-99"/>
          <Node pos="r" depth="2" NCoef="0" IVar="-1" Cut="0.0000000000000000e+00" cType="1" res="3.9728518459014595e-04" rms="3.1848511099815369e-01" purity="1.4449462294578552e-01" nType="-99"/>
        </Node>
      </Node>
    </BinaryTree>
    <BinaryTree type="DecisionTree" boostWeight="1.0000000000000000e+00" itree="1294">
      <Node pos="s" depth="0" NCoef="0" IVar="2" Cut="2.6487591266632080e+00" cType="1" res="-6.3017756701810868e-07" rms="3.2253181934356689e-01" purity="5.9855979681015015e-01" nType="0">
        <Node pos="l" depth="1" NCoef="0" IVar="-1" Cut="0.0000000000000000e+00" cType="1" res="3.1332197977462783e-05" rms="3.2234847545623779e-01" purity="6.0597991943359375e-01" nType="-99"/>
        <Node pos="r" depth="1" NCoef="0" IVar="0" Cut="5.6596702337265015e-01" cType="1" res="-3.7498406600207090e-03" rms="3.3265563845634460e-01" purity="1.8142075836658478e-01" nType="0">
          <Node pos="l" depth="2" NCoef="0" IVar="-1" Cut="0.0000000000000000e+00" cType="1" res="-1.0351432487368584e-02" rms="3.8413307070732117e-01" purity="3.0932202935218811e-01" nType="-99"/>
          <Node pos="r" depth="2" NCoef="0" IVar="-1" Cut="0.0000000000000000e+00" cType="1" res="3.4247520379722118e-03" rms="3.1207853555679321e-01" purity="1.3696612417697906e-01" nType="-99"/>
        </Node>
      </Node>
    </BinaryTree>
    <BinaryTree type="DecisionTree" boostWeight="1.0000000000000000e+00" itree="1295">
      <Node pos="s" depth="0" NCoef="0" IVar="2" Cut="2.3228156566619873e-01" cType="1" res="-6.2354678220799542e-07" rms="3.2253006100654602e-01" purity="5.9855979681015015e-01" nType="0">
        <Node pos="l" depth="1" NCoef="0" IVar="-1" Cut="0.0000000000000000e+00" cType="1" res="-5.0335668493062258e-04" rms="2.6931411027908325e-01" purity="8.6202687025070190e-01" nType="-99"/>
        <Node pos="r" depth="1" NCoef="0" IVar="3" Cut="1.1524374037981033e-01" cType="0" res="3.3302151132375002e-04" rms="3.4404379129409790e-01" purity="4.7859564423561096e-01" nType="0">
          <Node pos="l" depth="2" NCoef="0" IVar="-1" Cut="0.0000000000000000e+00" cType="1" res="1.9932206487283111e-04" rms="3.4465596079826355e-01" purity="4.8142758011817932e-01" nType="-99"/>
          <Node pos="r" depth="2" NCoef="0" IVar="-1" Cut="0.0000000000000000e+00" cType="1" res="-1.4137835241854191e-02" rms="2.3961538076400757e-01" purity="7.2289153933525085e-02" nType="-99"/>
        </Node>
      </Node>
    </BinaryTree>
    <BinaryTree type="DecisionTree" boostWeight="1.0000000000000000e+00" itree="1296">
      <Node pos="s" depth="0" NCoef="0" IVar="3" Cut="2.7259728312492371e-01" cType="0" res="-6.5219757061640848e-07" rms="3.2252943515777588e-01" purity="5.9855979681015015e-01" nType="0">
        <Node pos="l" depth="1" NCoef="0" IVar="-1" Cut="0.0000000000000000e+00" cType="1" res="-2.1723688405472785e-04" rms="3.6382126808166504e-01" purity="5.9957766532897949e-01" nType="-99"/>
        <Node pos="r" depth="1" NCoef="0" IVar="3" Cut="2.5624132156372070e-01" cType="1" res="4.5823270920664072e-04" rms="2.8542378544807434e-01" purity="5.9774965047836304e-01" nType="0">
          <Node pos="l" depth="2" NCoef="0" IVar="-1" Cut="0.0000000000000000e+00" cType="1" res="-2.0442332606762648e-04" rms="2.8005850315093994e-01" purity="6.2042009830474854e-01" nType="-99"/>
          <Node pos="r" depth="2" NCoef="0" IVar="-1" Cut="0.0000000000000000e+00" cType="1" res="3.7882034666836262e-03" rms="3.3641958236694336e-01" purity="3.6023622751235962e-01" nType="-99"/>
        </Node>
      </Node>
    </BinaryTree>
    <BinaryTree type="DecisionTree" boostWeight="1.0000000000000000e+00" itree="1297">
      <Node pos="s" depth="0" NCoef="0" IVar="3" Cut="2.2162583470344543e-01" cType="1" res="-6.1767758552377927e-07" rms="3.2252714037895203e-01" purity="5.9855979681015015e-01" nType="0">
        <Node pos="l" depth="1" NCoef="0" IVar="-1" Cut="0.0000000000000000e+00" cType="1" res="3.9738739724270999e-04" rms="2.7319404482841492e-01" purity="6.8584614992141724e-01" nType="-99"/>
        <Node pos="r" depth="1" NCoef="0" IVar="3" Cut="2.2622206807136536e-01" cType="0" res="-4.3770406045950949e-04" rms="3.5373118519783020e-01" purity="5.3588420152664185e-01" nType="0">
          <Node pos="l" depth="2" NCoef="0" IVar="-1" Cut="0.0000000000000000e+00" cType="1" res="7.1999042120296508e-05" rms="3.5501143336296082e-01" purity="5.4089373350143433e-01" nType="-99"/>
          <Node pos="r" depth="2" NCoef="0" IVar="-1" Cut="0.0000000000000000e+00" cType="1" res="-1.7256129533052444e-02" rms="2.7382194995880127e-01" purity="2.6534295082092285e-01" nType="-99"/>
        </Node>
      </Node>
    </BinaryTree>
    <BinaryTree type="DecisionTree" boostWeight="1.0000000000000000e+00" itree="1298">
      <Node pos="s" depth="0" NCoef="0" IVar="3" Cut="2.6085385680198669e-01" cType="1" res="-6.9182010520307813e-07" rms="3.2252144813537598e-01" purity="5.9855979681015015e-01" nType="0">
        <Node pos="l" depth="1" NCoef="0" IVar="-1" Cut="0.0000000000000000e+00" cType="1" res="3.0272797448560596e-04" rms="2.8189355134963989e-01" purity="6.1474961042404175e-01" nType="-99"/>
        <Node pos="r" depth="1" NCoef="0" IVar="0" Cut="5.7721138000488281e-01" cType="1" res="-5.3930841386318207e-04" rms="3.6150377988815308e-01" purity="5.8097934722900391e-01" nType="0">
          <Node pos="l" depth="2" NCoef="0" IVar="-1" Cut="0.0000000000000000e+00" cType="1" res="-4.7582181286998093e-04" rms="3.6911040544509888e-01" purity="6.4057803153991699e-01" nType="-99"/>
          <Node pos="r" depth="2" NCoef="0" IVar="-1" Cut="0.0000000000000000e+00" cType="1" res="3.2169597689062357e-03" rms="2.9439258575439453e-01" purity="1.0937500000000000e-01" nType="-99"/>
        </Node>
      </Node>
    </BinaryTree>
    <BinaryTree type="DecisionTree" boostWeight="1.0000000000000000e+00" itree="1299">
      <Node pos="s" depth="0" NCoef="0" IVar="2" Cut="3.4542517662048340e+00" cType="1" res="-6.8435372213571100e-07" rms="3.2251957058906555e-01" purity="5.9855979681015015e-01" nType="0">
        <Node pos="l" depth="1" NCoef="0" IVar="-1" Cut="0.0000000000000000e+00" cType="1" res="1.6163290638360195e-05" rms="3.2240840792655945e-01" purity="6.0029160976409912e-01" nType="-99"/>
        <Node pos="r" depth="1" NCoef="0" IVar="1" Cut="3.2983508706092834e-01" cType="1" res="-8.0274129286408424e-03" rms="3.4712004661560059e-01" purity="1.9911503791809082e-01" nType="0">
          <Node pos="l" depth="2" NCoef="0" IVar="-1" Cut="0.0000000000000000e+00" cType="1" res="1.7857117345556617e-03" rms="3.6520662903785706e-01" purity="2.3140496015548706e-01" nType="-99"/>
          <Node pos="r" depth="2" NCoef="0" IVar="-1" Cut="0.0000000000000000e+00" cType="1" res="-8.8400319218635559e-03" rms="3.2436972856521606e-01" purity="1.6190476715564728e-01" nType="-99"/>
        </Node>
      </Node>
    </BinaryTree>
    <BinaryTree type="DecisionTree" boostWeight="1.0000000000000000e+00" itree="1300">
      <Node pos="s" depth="0" NCoef="0" IVar="3" Cut="4.2751049995422363e-01" cType="0" res="-6.3697189034428447e-07" rms="3.2251945137977600e-01" purity="5.9855979681015015e-01" nType="0">
        <Node pos="l" depth="1" NCoef="0" IVar="-1" Cut="0.0000000000000000e+00" cType="1" res="7.7445339411497116e-04" rms="3.3383917808532715e-01" purity="8.4197926521301270e-01" nType="-99"/>
        <Node pos="r" depth="1" NCoef="0" IVar="3" Cut="4.2622524499893188e-01" cType="0" res="-1.3660723925568163e-04" rms="3.2162681221961975e-01" purity="5.7973045110702515e-01" nType="0">
          <Node pos="l" depth="2" NCoef="0" IVar="-1" Cut="0.0000000000000000e+00" cType="1" res="-1.8389796838164330e-02" rms="4.0694862604141235e-01" purity="6.8000000715255737e-01" nType="-99"/>
          <Node pos="r" depth="2" NCoef="0" IVar="-1" Cut="0.0000000000000000e+00" cType="1" res="-9.7150732472073287e-06" rms="3.2141727209091187e-01" purity="5.7952368259429932e-01" nType="-99"/>
        </Node>
      </Node>
    </BinaryTree>
    <BinaryTree type="DecisionTree" boostWeight="1.0000000000000000e+00" itree="1301">
      <Node pos="s" depth="0" NCoef="0" IVar="2" Cut="1.9256891012191772e+00" cType="1" res="-4.8812347586135729e-07" rms="3.2251730561256409e-01" purity="5.9855979681015015e-01" nType="0">
        <Node pos="l" depth="1" NCoef="0" IVar="-1" Cut="0.0000000000000000e+00" cType="1" res="5.8404093579156324e-05" rms="3.2196241617202759e-01" purity="6.2506610155105591e-01" nType="-99"/>
        <Node pos="r" depth="1" NCoef="0" IVar="0" Cut="9.3703150749206543e-02" cType="1" res="-1.9085328094661236e-03" rms="3.3099591732025146e-01" purity="1.8757881224155426e-01" nType="0">
          <Node pos="l" depth="2" NCoef="0" IVar="-1" Cut="0.0000000000000000e+00" cType="1" res="1.3191003352403641e-02" rms="3.7186822295188904e-01" purity="7.9831933975219727e-01" nType="-99"/>
          <Node pos="r" depth="2" NCoef="0" IVar="-1" Cut="0.0000000000000000e+00" cType="1" res="-1.5910795191302896e-03" rms="3.2917493581771851e-01" purity="1.6377334296703339e-01" nType="-99"/>
        </Node>
      </Node>
    </BinaryTree>
    <BinaryTree type="DecisionTree" boostWeight="1.0000000000000000e+00" itree="1302">
      <Node pos="s" depth="0" NCoef="0" IVar="2" Cut="2.7349281311035156e-01" cType="1" res="-3.9743906654621242e-07" rms="3.2251605391502380e-01" purity="5.9855979681015015e-01" nType="0">
        <Node pos="l" depth="1" NCoef="0" IVar="-1" Cut="0.0000000000000000e+00" cType="1" res="-4.6187019324861467e-04" rms="2.7342981100082397e-01" purity="8.5204869508743286e-01" nType="-99"/>
        <Node pos="r" depth="1" NCoef="0" IVar="2" Cut="2.7713200449943542e-01" cType="1" res="3.4696084912866354e-04" rms="3.4453248977661133e-01" purity="4.7129535675048828e-01" nType="0">
          <Node pos="l" depth="2" NCoef="0" IVar="-1" Cut="0.0000000000000000e+00" cType="1" res="1.4929370954632759e-02" rms="2.8707981109619141e-01" purity="7.5193798542022705e-01" nType="-99"/>
          <Node pos="r" depth="2" NCoef="0" IVar="-1" Cut="0.0000000000000000e+00" cType="1" res="9.4983181043062359e-05" rms="3.4472268819808960e-01" purity="4.7025284171104431e-01" nType="-99"/>
        </Node>
      </Node>
    </BinaryTree>
    <BinaryTree type="DecisionTree" boostWeight="1.0000000000000000e+00" itree="1303">
      <Node pos="s" depth="0" NCoef="0" IVar="3" Cut="2.6085385680198669e-01" cType="1" res="-3.1517834031546954e-07" rms="3.2251453399658203e-01" purity="5.9855979681015015e-01" nType="0">
        <Node pos="l" depth="1" NCoef="0" IVar="-1" Cut="0.0000000000000000e+00" cType="1" res="2.9074485064484179e-04" rms="2.8189289569854736e-01" purity="6.1474961042404175e-01" nType="-99"/>
        <Node pos="r" depth="1" NCoef="0" IVar="3" Cut="2.6479849219322205e-01" cType="0" res="-5.1731354324147105e-04" rms="3.6149159073829651e-01" purity="5.8097934722900391e-01" nType="0">
          <Node pos="l" depth="2" NCoef="0" IVar="-1" Cut="0.0000000000000000e+00" cType="1" res="-6.6276341385673732e-05" rms="3.6241081357002258e-01" purity="5.8744484186172485e-01" nType="-99"/>
          <Node pos="r" depth="2" NCoef="0" IVar="-1" Cut="0.0000000000000000e+00" cType="1" res="-6.3040400855243206e-03" rms="3.2248097658157349e-01" purity="3.2357722520828247e-01" nType="-99"/>
        </Node>
      </Node>
    </BinaryTree>
    <BinaryTree type="DecisionTree" boostWeight="1.0000000000000000e+00" itree="1304">
      <Node pos="s" depth="0" NCoef="0" IVar="0" Cut="1.2493752874433994e-03" cType="1" res="-3.0400184414247633e-07" rms="3.2251381874084473e-01" purity="5.9855979681015015e-01" nType="0">
        <Node pos="l" depth="1" NCoef="0" IVar="-1" Cut="0.0000000000000000e+00" cType="1" res="-4.5646130456589162e-04" rms="2.7187171578407288e-01" purity="9.0791207551956177e-01" nType="-99"/>
        <Node pos="r" depth="1" NCoef="0" IVar="3" Cut="4.0249881148338318e-01" cType="0" res="3.3646298106759787e-04" rms="3.4501653909683228e-01" purity="4.4418039917945862e-01" nType="0">
          <Node pos="l" depth="2" NCoef="0" IVar="-1" Cut="0.0000000000000000e+00" cType="1" res="2.6939420495182276e-03" rms="3.9673334360122681e-01" purity="6.8990558385848999e-01" nType="-99"/>
          <Node pos="r" depth="2" NCoef="0" IVar="-1" Cut="0.0000000000000000e+00" cType="1" res="-3.6026499401486944e-06" rms="3.4272268414497375e-01" purity="4.3409442901611328e-01" nType="-99"/>
        </Node>
      </Node>
    </BinaryTree>
    <BinaryTree type="DecisionTree" boostWeight="1.0000000000000000e+00" itree="1305">
      <Node pos="s" depth="0" NCoef="0" IVar="3" Cut="2.6560118794441223e-01" cType="1" res="-2.4989793701024610e-07" rms="3.2251372933387756e-01" purity="5.9855979681015015e-01" nType="0">
        <Node pos="l" depth="1" NCoef="0" IVar="-1" Cut="0.0000000000000000e+00" cType="1" res="2.7977616991847754e-04" rms="2.8327518701553345e-01" purity="6.0753571987152100e-01" nType="-99"/>
        <Node pos="r" depth="1" NCoef="0" IVar="3" Cut="2.6692408323287964e-01" cType="0" res="-5.3206033771857619e-04" rms="3.6241337656974792e-01" purity="5.8824014663696289e-01" nType="0">
          <Node pos="l" depth="2" NCoef="0" IVar="-1" Cut="0.0000000000000000e+00" cType="1" res="-1.1365871614543721e-04" rms="3.6249998211860657e-01" purity="5.9056651592254639e-01" nType="-99"/>
          <Node pos="r" depth="2" NCoef="0" IVar="-1" Cut="0.0000000000000000e+00" cType="1" res="-1.1649769730865955e-02" rms="3.5105955600738525e-01" purity="3.1553396582603455e-01" nType="-99"/>
        </Node>
      </Node>
    </BinaryTree>
    <BinaryTree type="DecisionTree" boostWeight="1.0000000000000000e+00" itree="1306">
      <Node pos="s" depth="0" NCoef="0" IVar="2" Cut="2.9222521185874939e-01" cType="1" res="-2.5174401230287913e-07" rms="3.2251232862472534e-01" purity="5.9855979681015015e-01" nType="0">
        <Node pos="l" depth="1" NCoef="0" IVar="-1" Cut="0.0000000000000000e+00" cType="1" res="-4.2843853589147329e-04" rms="2.7551552653312683e-01" purity="8.4798938035964966e-01" nType="-99"/>
        <Node pos="r" depth="1" NCoef="0" IVar="3" Cut="1.0626529902219772e-01" cType="0" res="3.4344245796091855e-04" rms="3.4477517008781433e-01" purity="4.6671533584594727e-01" nType="0">
          <Node pos="l" depth="2" NCoef="0" IVar="-1" Cut="0.0000000000000000e+00" cType="1" res="1.0352294339099899e-04" rms="3.4482267498970032e-01" purity="4.6767204999923706e-01" nType="-99"/>
          <Node pos="r" depth="2" NCoef="0" IVar="-1" Cut="0.0000000000000000e+00" cType="1" res="1.7428532242774963e-02" rms="3.2664528489112854e-01" purity="1.4000000059604645e-01" nType="-99"/>
        </Node>
      </Node>
    </BinaryTree>
    <BinaryTree type="DecisionTree" boostWeight="1.0000000000000000e+00" itree="1307">
      <Node pos="s" depth="0" NCoef="0" IVar="3" Cut="2.6784995198249817e-01" cType="1" res="-2.9571867798949825e-07" rms="3.2251080870628357e-01" purity="5.9855979681015015e-01" nType="0">
        <Node pos="l" depth="1" NCoef="0" IVar="-1" Cut="0.0000000000000000e+00" cType="1" res="2.6653415989130735e-04" rms="2.8418055176734924e-01" purity="6.0393178462982178e-01" nType="-99"/>
        <Node pos="r" depth="1" NCoef="0" IVar="3" Cut="2.8306087851524353e-01" cType="0" res="-5.2550691179931164e-04" rms="3.6269769072532654e-01" purity="5.9219861030578613e-01" nType="0">
          <Node pos="l" depth="2" NCoef="0" IVar="-1" Cut="0.0000000000000000e+00" cType="1" res="8.0233789049088955e-05" rms="3.6644014716148376e-01" purity="6.1644852161407471e-01" nType="-99"/>
          <Node pos="r" depth="2" NCoef="0" IVar="-1" Cut="0.0000000000000000e+00" cType="1" res="-3.0699642375111580e-03" rms="3.2748481631278992e-01" purity="3.7665015459060669e-01" nType="-99"/>
        </Node>
      </Node>
    </BinaryTree>
    <BinaryTree type="DecisionTree" boostWeight="1.0000000000000000e+00" itree="1308">
      <Node pos="s" depth="0" NCoef="0" IVar="3" Cut="3.4780514240264893e-01" cType="0" res="-2.8064954449291690e-07" rms="3.2251089811325073e-01" purity="5.9855979681015015e-01" nType="0">
        <Node pos="l" depth="1" NCoef="0" IVar="-1" Cut="0.0000000000000000e+00" cType="1" res="-3.3917991095222533e-04" rms="3.6776852607727051e-01" purity="7.3368912935256958e-01" nType="-99"/>
        <Node pos="r" depth="1" NCoef="0" IVar="3" Cut="3.3771607279777527e-01" cType="0" res="2.5938739418052137e-04" rms="3.0838796496391296e-01" purity="5.6002062559127808e-01" nType="0">
          <Node pos="l" depth="2" NCoef="0" IVar="-1" Cut="0.0000000000000000e+00" cType="1" res="3.8833753205835819e-03" rms="3.8018411397933960e-01" purity="5.7616358995437622e-01" nType="-99"/>
          <Node pos="r" depth="2" NCoef="0" IVar="-1" Cut="0.0000000000000000e+00" cType="1" res="-8.1198362750001252e-05" rms="3.0547547340393066e-01" purity="5.5943840742111206e-01" nType="-99"/>
        </Node>
      </Node>
    </BinaryTree>
    <BinaryTree type="DecisionTree" boostWeight="1.0000000000000000e+00" itree="1309">
      <Node pos="s" depth="0" NCoef="0" IVar="3" Cut="2.9058721661567688e-01" cType="0" res="-2.4516174335076357e-07" rms="3.2250908017158508e-01" purity="5.9855979681015015e-01" nType="0">
        <Node pos="l" depth="1" NCoef="0" IVar="-1" Cut="0.0000000000000000e+00" cType="1" res="-2.2509880363941193e-04" rms="3.6730074882507324e-01" purity="6.2768095731735229e-01" nType="-99"/>
        <Node pos="r" depth="1" NCoef="0" IVar="3" Cut="2.8216436505317688e-01" cType="1" res="3.8672541268169880e-04" rms="2.9038876295089722e-01" purity="5.8000564575195312e-01" nType="0">
          <Node pos="l" depth="2" NCoef="0" IVar="-1" Cut="0.0000000000000000e+00" cType="1" res="-9.2189657152630389e-05" rms="2.8759890794754028e-01" purity="5.8664315938949585e-01" nType="-99"/>
          <Node pos="r" depth="2" NCoef="0" IVar="-1" Cut="0.0000000000000000e+00" cType="1" res="5.3896401077508926e-03" rms="3.4902408719062805e-01" purity="4.2498096823692322e-01" nType="-99"/>
        </Node>
      </Node>
    </BinaryTree>
    <BinaryTree type="DecisionTree" boostWeight="1.0000000000000000e+00" itree="1310">
      <Node pos="s" depth="0" NCoef="0" IVar="1" Cut="1.5829585790634155e+00" cType="1" res="-2.4192581804527435e-07" rms="3.2250690460205078e-01" purity="5.9855979681015015e-01" nType="0">
        <Node pos="l" depth="1" NCoef="0" IVar="-1" Cut="0.0000000000000000e+00" cType="1" res="1.9794179024756886e-05" rms="3.2235339283943176e-01" purity="6.0176652669906616e-01" nType="-99"/>
        <Node pos="r" depth="1" NCoef="0" IVar="1" Cut="1.8520064353942871e+00" cType="0" res="-5.6405626237392426e-03" rms="3.4245061874389648e-01" purity="1.6795866191387177e-01" nType="0">
          <Node pos="l" depth="2" NCoef="0" IVar="-1" Cut="0.0000000000000000e+00" cType="1" res="1.2998633319512010e-03" rms="3.7537908554077148e-01" purity="2.0816326141357422e-01" nType="-99"/>
          <Node pos="r" depth="2" NCoef="0" IVar="-1" Cut="0.0000000000000000e+00" cType="1" res="-1.1104691773653030e-02" rms="2.7579262852668762e-01" purity="9.8591551184654236e-02" nType="-99"/>
        </Node>
      </Node>
    </BinaryTree>
    <BinaryTree type="DecisionTree" boostWeight="1.0000000000000000e+00" itree="1311">
      <Node pos="s" depth="0" NCoef="0" IVar="3" Cut="2.7859392762184143e-01" cType="0" res="-2.6379908035778499e-07" rms="3.2250681519508362e-01" purity="5.9855979681015015e-01" nType="0">
        <Node pos="l" depth="1" NCoef="0" IVar="-1" Cut="0.0000000000000000e+00" cType="1" res="-2.1125610510352999e-04" rms="3.6534160375595093e-01" purity="6.0879129171371460e-01" nType="-99"/>
        <Node pos="r" depth="1" NCoef="0" IVar="0" Cut="1.6991503536701202e-01" cType="1" res="4.1759101441130042e-04" rms="2.8669831156730652e-01" purity="5.9098464250564575e-01" nType="0">
          <Node pos="l" depth="2" NCoef="0" IVar="-1" Cut="0.0000000000000000e+00" cType="1" res="1.3487724354490638e-03" rms="2.8901481628417969e-01" purity="8.7828373908996582e-01" nType="-99"/>
          <Node pos="r" depth="2" NCoef="0" IVar="-1" Cut="0.0000000000000000e+00" cType="1" res="-1.6954783350229263e-03" rms="2.8265577554702759e-01" purity="9.8764315247535706e-02" nType="-99"/>
        </Node>
      </Node>
    </BinaryTree>
    <BinaryTree type="DecisionTree" boostWeight="1.0000000000000000e+00" itree="1312">
      <Node pos="s" depth="0" NCoef="0" IVar="2" Cut="3.5591530799865723e-01" cType="1" res="-2.4227580297520035e-07" rms="3.2250645756721497e-01" purity="5.9855979681015015e-01" nType="0">
        <Node pos="l" depth="1" NCoef="0" IVar="-1" Cut="0.0000000000000000e+00" cType="1" res="-4.4083420652896166e-04" rms="2.8146436810493469e-01" purity="8.3244299888610840e-01" nType="-99"/>
        <Node pos="r" depth="1" NCoef="0" IVar="0" Cut="1.8740630149841309e-01" cType="1" res="4.4617339153774083e-04" rms="3.4618133306503296e-01" purity="4.4918462634086609e-01" nType="0">
          <Node pos="l" depth="2" NCoef="0" IVar="-1" Cut="0.0000000000000000e+00" cType="1" res="8.2007434684783220e-04" rms="3.7625062465667725e-01" purity="7.6515668630599976e-01" nType="-99"/>
          <Node pos="r" depth="2" NCoef="0" IVar="-1" Cut="0.0000000000000000e+00" cType="1" res="-7.5101357651874423e-04" rms="3.1231704354286194e-01" purity="1.2493658065795898e-01" nType="-99"/>
        </Node>
      </Node>
    </BinaryTree>
    <BinaryTree type="DecisionTree" boostWeight="1.0000000000000000e+00" itree="1313">
      <Node pos="s" depth="0" NCoef="0" IVar="2" Cut="1.1052106618881226e+00" cType="1" res="-2.1011243234170252e-07" rms="3.2250642776489258e-01" purity="5.9855979681015015e-01" nType="0">
        <Node pos="l" depth="1" NCoef="0" IVar="-1" Cut="0.0000000000000000e+00" cType="1" res="-1.3975564797874540e-04" rms="3.1470000743865967e-01" purity="6.9274878501892090e-01" nType="-99"/>
        <Node pos="r" depth="1" NCoef="0" IVar="0" Cut="3.9980009198188782e-02" cType="1" res="9.9033268634229898e-04" rms="3.4869509935379028e-01" purity="2.6569670438766479e-01" nType="0">
          <Node pos="l" depth="2" NCoef="0" IVar="-1" Cut="0.0000000000000000e+00" cType="1" res="-8.4016053006052971e-03" rms="3.8793829083442688e-01" purity="7.8627145290374756e-01" nType="-99"/>
          <Node pos="r" depth="2" NCoef="0" IVar="-1" Cut="0.0000000000000000e+00" cType="1" res="9.7899790853261948e-04" rms="3.4619775414466858e-01" purity="2.3509994149208069e-01" nType="-99"/>
        </Node>
      </Node>
    </BinaryTree>
    <BinaryTree type="DecisionTree" boostWeight="1.0000000000000000e+00" itree="1314">
      <Node pos="s" depth="0" NCoef="0" IVar="3" Cut="2.7859392762184143e-01" cType="0" res="-7.3354897267563501e-08" rms="3.2250267267227173e-01" purity="5.9855979681015015e-01" nType="0">
        <Node pos="l" depth="1" NCoef="0" IVar="-1" Cut="0.0000000000000000e+00" cType="1" res="-2.1869334159418941e-04" rms="3.6533689498901367e-01" purity="6.0879129171371460e-01" nType="-99"/>
        <Node pos="r" depth="1" NCoef="0" IVar="3" Cut="2.7636063098907471e-01" cType="1" res="4.3260457459837198e-04" rms="2.8669455647468567e-01" purity="5.9098464250564575e-01" nType="0">
          <Node pos="l" depth="2" NCoef="0" IVar="-1" Cut="0.0000000000000000e+00" cType="1" res="1.0638017556630075e-04" rms="2.8614804148674011e-01" purity="5.9303343296051025e-01" nType="-99"/>
          <Node pos="r" depth="2" NCoef="0" IVar="-1" Cut="0.0000000000000000e+00" cType="1" res="9.2736221849918365e-03" rms="3.3027976751327515e-01" purity="4.1176471114158630e-01" nType="-99"/>
        </Node>
      </Node>
    </BinaryTree>
    <BinaryTree type="DecisionTree" boostWeight="1.0000000000000000e+00" itree="1315">
      <Node pos="s" depth="0" NCoef="0" IVar="3" Cut="4.1851553320884705e-01" cType="0" res="-8.5904325430874451e-08" rms="3.2250097393989563e-01" purity="5.9855979681015015e-01" nType="0">
        <Node pos="l" depth="1" NCoef="0" IVar="-1" Cut="0.0000000000000000e+00" cType="1" res="7.1964989183470607e-04" rms="3.3740767836570740e-01" purity="8.3232861757278442e-01" nType="-99"/>
        <Node pos="r" depth="1" NCoef="0" IVar="3" Cut="4.1683581471443176e-01" cType="0" res="-1.5681027434766293e-04" rms="3.2107049226760864e-01" purity="5.7668930292129517e-01" nType="0">
          <Node pos="l" depth="2" NCoef="0" IVar="-1" Cut="0.0000000000000000e+00" cType="1" res="-1.5355153009295464e-02" rms="4.0641540288925171e-01" purity="7.1428573131561279e-01" nType="-99"/>
          <Node pos="r" depth="2" NCoef="0" IVar="-1" Cut="0.0000000000000000e+00" cType="1" res="-2.1662084691342898e-05" rms="3.2080790400505066e-01" purity="5.7632619142532349e-01" nType="-99"/>
        </Node>
      </Node>
    </BinaryTree>
    <BinaryTree type="DecisionTree" boostWeight="1.0000000000000000e+00" itree="1316">
      <Node pos="s" depth="0" NCoef="0" IVar="2" Cut="2.9222521185874939e-01" cType="1" res="-9.9651193963268270e-09" rms="3.2249960303306580e-01" purity="5.9855979681015015e-01" nType="0">
        <Node pos="l" depth="1" NCoef="0" IVar="-1" Cut="0.0000000000000000e+00" cType="1" res="-4.5795732876285911e-04" rms="2.7551409602165222e-01" purity="8.4798938035964966e-01" nType="-99"/>
        <Node pos="r" depth="1" NCoef="0" IVar="3" Cut="1.0626529902219772e-01" cType="0" res="3.6718591582030058e-04" rms="3.4475752711296082e-01" purity="4.6671533584594727e-01" nType="0">
          <Node pos="l" depth="2" NCoef="0" IVar="-1" Cut="0.0000000000000000e+00" cType="1" res="1.1670259846141562e-04" rms="3.4480658173561096e-01" purity="4.6767204999923706e-01" nType="-99"/>
          <Node pos="r" depth="2" NCoef="0" IVar="-1" Cut="0.0000000000000000e+00" cType="1" res="1.5595025382936001e-02" rms="3.2631611824035645e-01" purity="1.4000000059604645e-01" nType="-99"/>
        </Node>
      </Node>
    </BinaryTree>
    <BinaryTree type="DecisionTree" boostWeight="1.0000000000000000e+00" itree="1317">
      <Node pos="s" depth="0" NCoef="0" IVar="3" Cut="2.7259728312492371e-01" cType="0" res="-6.3257999727284187e-08" rms="3.2249820232391357e-01" purity="5.9855979681015015e-01" nType="0">
        <Node pos="l" depth="1" NCoef="0" IVar="-1" Cut="0.0000000000000000e+00" cType="1" res="-2.1002911671530455e-04" rms="3.6378785967826843e-01" purity="5.9957766532897949e-01" nType="-99"/>
        <Node pos="r" depth="1" NCoef="0" IVar="3" Cut="2.7149865031242371e-01" cType="1" res="4.4411126873455942e-04" rms="2.8539434075355530e-01" purity="5.9774965047836304e-01" nType="0">
          <Node pos="l" depth="2" NCoef="0" IVar="-1" Cut="0.0000000000000000e+00" cType="1" res="1.5083956532180309e-04" rms="2.8506863117218018e-01" purity="5.9834396839141846e-01" nType="-99"/>
          <Node pos="r" depth="2" NCoef="0" IVar="-1" Cut="0.0000000000000000e+00" cType="1" res="1.3313931412994862e-02" rms="3.3580830693244934e-01" purity="4.9397590756416321e-01" nType="-99"/>
        </Node>
      </Node>
    </BinaryTree>
    <BinaryTree type="DecisionTree" boostWeight="1.0000000000000000e+00" itree="1318">
      <Node pos="s" depth="0" NCoef="0" IVar="1" Cut="1.5704647302627563e+00" cType="1" res="-6.8887253235061507e-08" rms="3.2249575853347778e-01" purity="5.9855979681015015e-01" nType="0">
        <Node pos="l" depth="1" NCoef="0" IVar="-1" Cut="0.0000000000000000e+00" cType="1" res="-1.9963323211413808e-05" rms="3.2225897908210754e-01" purity="6.0177844762802124e-01" nType="-99"/>
        <Node pos="r" depth="1" NCoef="0" IVar="1" Cut="1.7793014049530029e+00" cType="0" res="5.4853078909218311e-03" rms="3.5200047492980957e-01" purity="1.7839196324348450e-01" nType="0">
          <Node pos="l" depth="2" NCoef="0" IVar="-1" Cut="0.0000000000000000e+00" cType="1" res="-1.2019498972222209e-03" rms="3.6444535851478577e-01" purity="1.9424460828304291e-01" nType="-99"/>
          <Node pos="r" depth="2" NCoef="0" IVar="-1" Cut="0.0000000000000000e+00" cType="1" res="1.3729982078075409e-02" rms="3.2035186886787415e-01" purity="1.4166666567325592e-01" nType="-99"/>
        </Node>
      </Node>
    </BinaryTree>
    <BinaryTree type="DecisionTree" boostWeight="1.0000000000000000e+00" itree="1319">
      <Node pos="s" depth="0" NCoef="0" IVar="2" Cut="1.1052106618881226e+00" cType="1" res="-1.2044601760408113e-07" rms="3.2249453663825989e-01" purity="5.9855979681015015e-01" nType="0">
        <Node pos="l" depth="1" NCoef="0" IVar="-1" Cut="0.0000000000000000e+00" cType="1" res="-1.2593041174113750e-04" rms="3.1469258666038513e-01" purity="6.9274878501892090e-01" nType="-99"/>
        <Node pos="r" depth="1" NCoef="0" IVar="2" Cut="1.1339648962020874e+00" cType="1" res="8.9296075748279691e-04" rms="3.4866923093795776e-01" purity="2.6569670438766479e-01" nType="0">
          <Node pos="l" depth="2" NCoef="0" IVar="-1" Cut="0.0000000000000000e+00" cType="1" res="1.1270993389189243e-02" rms="3.5705077648162842e-01" purity="4.0084388852119446e-01" nType="-99"/>
          <Node pos="r" depth="2" NCoef="0" IVar="-1" Cut="0.0000000000000000e+00" cType="1" res="-1.1273100244579837e-04" rms="3.4825783967971802e-01" purity="2.5991150736808777e-01" nType="-99"/>
        </Node>
      </Node>
    </BinaryTree>
    <BinaryTree type="DecisionTree" boostWeight="1.0000000000000000e+00" itree="1320">
      <Node pos="s" depth="0" NCoef="0" IVar="3" Cut="4.1801580786705017e-01" cType="0" res="-1.3975341062177904e-07" rms="3.2249093055725098e-01" purity="5.9855979681015015e-01" nType="0">
        <Node pos="l" depth="1" NCoef="0" IVar="-1" Cut="0.0000000000000000e+00" cType="1" res="6.7313626641407609e-04" rms="3.3793318271636963e-01" purity="8.3137863874435425e-01" nType="-99"/>
        <Node pos="r" depth="1" NCoef="0" IVar="3" Cut="4.1466757655143738e-01" cType="0" res="-1.4843420649413019e-04" rms="3.2099330425262451e-01" purity="5.7656526565551758e-01" nType="0">
          <Node pos="l" depth="2" NCoef="0" IVar="-1" Cut="0.0000000000000000e+00" cType="1" res="-1.0374047793447971e-02" rms="3.7802687287330627e-01" purity="7.3839664459228516e-01" nType="-99"/>
          <Node pos="r" depth="2" NCoef="0" IVar="-1" Cut="0.0000000000000000e+00" cType="1" res="-2.6709710709837964e-06" rms="3.2067751884460449e-01" purity="5.7575947046279907e-01" nType="-99"/>
        </Node>
      </Node>
    </BinaryTree>
    <BinaryTree type="DecisionTree" boostWeight="1.0000000000000000e+00" itree="1321">
      <Node pos="s" depth="0" NCoef="0" IVar="3" Cut="4.9697157740592957e-01" cType="0" res="-6.3987286580413638e-08" rms="3.2248896360397339e-01" purity="5.9855979681015015e-01" nType="0">
        <Node pos="l" depth="1" NCoef="0" IVar="-1" Cut="0.0000000000000000e+00" cType="1" res="-4.0727453306317329e-03" rms="3.4754157066345215e-01" purity="8.3458644151687622e-01" nType="-99"/>
        <Node pos="r" depth="1" NCoef="0" IVar="3" Cut="4.8894721269607544e-01" cType="0" res="2.4205370209529065e-05" rms="3.2242229580879211e-01" purity="5.9795868396759033e-01" nType="0">
          <Node pos="l" depth="2" NCoef="0" IVar="-1" Cut="0.0000000000000000e+00" cType="1" res="5.7941018603742123e-03" rms="2.6385790109634399e-01" purity="9.0153849124908447e-01" nType="-99"/>
          <Node pos="r" depth="2" NCoef="0" IVar="-1" Cut="0.0000000000000000e+00" cType="1" res="-1.7998214389081113e-05" rms="3.2275462150573730e-01" purity="5.9605747461318970e-01" nType="-99"/>
        </Node>
      </Node>
    </BinaryTree>
    <BinaryTree type="DecisionTree" boostWeight="1.0000000000000000e+00" itree="1322">
      <Node pos="s" depth="0" NCoef="0" IVar="3" Cut="2.6784995198249817e-01" cType="1" res="-2.6343190739908096e-08" rms="3.2248926162719727e-01" purity="5.9855979681015015e-01" nType="0">
        <Node pos="l" depth="1" NCoef="0" IVar="-1" Cut="0.0000000000000000e+00" cType="1" res="2.6675697881728411e-04" rms="2.8417307138442993e-01" purity="6.0393178462982178e-01" nType="-99"/>
        <Node pos="r" depth="1" NCoef="0" IVar="1" Cut="4.4852572679519653e-01" cType="1" res="-5.2466790657490492e-04" rms="3.6266276240348816e-01" purity="5.9219861030578613e-01" nType="0">
          <Node pos="l" depth="2" NCoef="0" IVar="-1" Cut="0.0000000000000000e+00" cType="1" res="-4.5382796088233590e-04" rms="3.6235401034355164e-01" purity="6.2872010469436646e-01" nType="-99"/>
          <Node pos="r" depth="2" NCoef="0" IVar="-1" Cut="0.0000000000000000e+00" cType="1" res="2.4512801319360733e-03" rms="3.6585050821304321e-01" purity="2.0417070388793945e-01" nType="-99"/>
        </Node>
      </Node>
    </BinaryTree>
    <BinaryTree type="DecisionTree" boostWeight="1.0000000000000000e+00" itree="1323">
      <Node pos="s" depth="0" NCoef="0" IVar="1" Cut="1.7991004884243011e-01" cType="1" res="-4.9152873771163286e-08" rms="3.2248747348785400e-01" purity="5.9855979681015015e-01" nType="0">
        <Node pos="l" depth="1" NCoef="0" IVar="-1" Cut="0.0000000000000000e+00" cType="1" res="1.4458669465966523e-04" rms="3.1379732489585876e-01" purity="7.0187205076217651e-01" nType="-99"/>
        <Node pos="r" depth="1" NCoef="0" IVar="0" Cut="5.2473764866590500e-02" cType="1" res="-8.8204990606755018e-04" rms="3.4750777482986450e-01" purity="2.8532922267913818e-01" nType="0">
          <Node pos="l" depth="2" NCoef="0" IVar="-1" Cut="0.0000000000000000e+00" cType="1" res="-3.5326185170561075e-03" rms="4.1293194890022278e-01" purity="7.0837438106536865e-01" nType="-99"/>
          <Node pos="r" depth="2" NCoef="0" IVar="-1" Cut="0.0000000000000000e+00" cType="1" res="1.1448090663179755e-03" rms="3.2476705312728882e-01" purity="1.5573440492153168e-01" nType="-99"/>
        </Node>
      </Node>
    </BinaryTree>
    <BinaryTree type="DecisionTree" boostWeight="1.0000000000000000e+00" itree="1324">
      <Node pos="s" depth="0" NCoef="0" IVar="0" Cut="5.9970013797283173e-02" cType="1" res="1.7848131861342154e-08" rms="3.2248353958129883e-01" purity="5.9855979681015015e-01" nType="0">
        <Node pos="l" depth="1" NCoef="0" IVar="-1" Cut="0.0000000000000000e+00" cType="1" res="3.1310395570471883e-04" rms="2.8226366639137268e-01" purity="8.9877647161483765e-01" nType="-99"/>
        <Node pos="r" depth="1" NCoef="0" IVar="3" Cut="4.1463568806648254e-01" cType="0" res="-5.2516092546284199e-04" rms="3.5944619774818420e-01" purity="2.8743678331375122e-01" nType="0">
          <Node pos="l" depth="2" NCoef="0" IVar="-1" Cut="0.0000000000000000e+00" cType="1" res="-6.1511998064815998e-03" rms="4.4883519411087036e-01" purity="5.0656169652938843e-01" nType="-99"/>
          <Node pos="r" depth="2" NCoef="0" IVar="-1" Cut="0.0000000000000000e+00" cType="1" res="-6.2346283812075853e-05" rms="3.5791879892349243e-01" purity="2.8414070606231689e-01" nType="-99"/>
        </Node>
      </Node>
    </BinaryTree>
    <BinaryTree type="DecisionTree" boostWeight="1.0000000000000000e+00" itree="1325">
      <Node pos="s" depth="0" NCoef="0" IVar="3" Cut="4.1251888871192932e-01" cType="0" res="2.8568516441396241e-08" rms="3.2248181104660034e-01" purity="5.9855979681015015e-01" nType="0">
        <Node pos="l" depth="1" NCoef="0" IVar="-1" Cut="0.0000000000000000e+00" cType="1" res="7.2343775536864996e-04" rms="3.4006160497665405e-01" purity="8.2630831003189087e-01" nType="-99"/>
        <Node pos="r" depth="1" NCoef="0" IVar="3" Cut="4.1106268763542175e-01" cType="0" res="-1.7701376054901630e-04" rms="3.2060647010803223e-01" purity="5.7498472929000854e-01" nType="0">
          <Node pos="l" depth="2" NCoef="0" IVar="-1" Cut="0.0000000000000000e+00" cType="1" res="-1.5170658938586712e-02" rms="3.9529076218605042e-01" purity="6.6972476243972778e-01" nType="-99"/>
          <Node pos="r" depth="2" NCoef="0" IVar="-1" Cut="0.0000000000000000e+00" cType="1" res="-3.3898963010869920e-05" rms="3.2040673494338989e-01" purity="5.7476657629013062e-01" nType="-99"/>
        </Node>
      </Node>
    </BinaryTree>
    <BinaryTree type="DecisionTree" boostWeight="1.0000000000000000e+00" itree="1326">
      <Node pos="s" depth="0" NCoef="0" IVar="3" Cut="4.0727183222770691e-01" cType="0" res="8.4730629623663845e-08" rms="3.2247999310493469e-01" purity="5.9855979681015015e-01" nType="0">
        <Node pos="l" depth="1" NCoef="0" IVar="-1" Cut="0.0000000000000000e+00" cType="1" res="6.3223345205187798e-04" rms="3.4378537535667419e-01" purity="8.2049363851547241e-01" nType="-99"/>
        <Node pos="r" depth="1" NCoef="0" IVar="3" Cut="4.0600001811981201e-01" cType="0" res="-1.7275733989663422e-04" rms="3.1996569037437439e-01" purity="5.7330977916717529e-01" nType="0">
          <Node pos="l" depth="2" NCoef="0" IVar="-1" Cut="0.0000000000000000e+00" cType="1" res="-1.9294068217277527e-02" rms="4.5243901014328003e-01" purity="6.7857140302658081e-01" nType="-99"/>
          <Node pos="r" depth="2" NCoef="0" IVar="-1" Cut="0.0000000000000000e+00" cType="1" res="-1.3972870874567889e-05" rms="3.1957000494003296e-01" purity="5.7305836677551270e-01" nType="-99"/>
        </Node>
      </Node>
    </BinaryTree>
    <BinaryTree type="DecisionTree" boostWeight="1.0000000000000000e+00" itree="1327">
      <Node pos="s" depth="0" NCoef="0" IVar="1" Cut="1.5829585790634155e+00" cType="1" res="1.7443309729969769e-07" rms="3.2247772812843323e-01" purity="5.9855979681015015e-01" nType="0">
        <Node pos="l" depth="1" NCoef="0" IVar="-1" Cut="0.0000000000000000e+00" cType="1" res="2.0938934540026821e-05" rms="3.2232505083084106e-01" purity="6.0176652669906616e-01" nType="-99"/>
        <Node pos="r" depth="1" NCoef="0" IVar="1" Cut="1.8520064353942871e+00" cType="0" res="-5.9067844413220882e-03" rms="3.4231171011924744e-01" purity="1.6795866191387177e-01" nType="0">
          <Node pos="l" depth="2" NCoef="0" IVar="-1" Cut="0.0000000000000000e+00" cType="1" res="1.1374840978533030e-03" rms="3.7522637844085693e-01" purity="2.0816326141357422e-01" nType="-99"/>
          <Node pos="r" depth="2" NCoef="0" IVar="-1" Cut="0.0000000000000000e+00" cType="1" res="-1.1053540743887424e-02" rms="2.7571606636047363e-01" purity="9.8591551184654236e-02" nType="-99"/>
        </Node>
      </Node>
    </BinaryTree>
    <BinaryTree type="DecisionTree" boostWeight="1.0000000000000000e+00" itree="1328">
      <Node pos="s" depth="0" NCoef="0" IVar="3" Cut="4.0327405929565430e-01" cType="0" res="1.1158960688817388e-07" rms="3.2247769832611084e-01" purity="5.9855979681015015e-01" nType="0">
        <Node pos="l" depth="1" NCoef="0" IVar="-1" Cut="0.0000000000000000e+00" cType="1" res="5.9132883325219154e-04" rms="3.4678646922111511e-01" purity="8.1618291139602661e-01" nType="-99"/>
        <Node pos="r" depth="1" NCoef="0" IVar="3" Cut="4.0045061707496643e-01" cType="0" res="-1.7463919357396662e-04" rms="3.1938967108726501e-01" purity="5.7204997539520264e-01" nType="0">
          <Node pos="l" depth="2" NCoef="0" IVar="-1" Cut="0.0000000000000000e+00" cType="1" res="-1.2713226489722729e-02" rms="4.0108972787857056e-01" purity="7.1367520093917847e-01" nType="-99"/>
          <Node pos="r" depth="2" NCoef="0" IVar="-1" Cut="0.0000000000000000e+00" cType="1" res="3.1700353702035500e-06" rms="3.1891468167304993e-01" purity="5.7133626937866211e-01" nType="-99"/>
        </Node>
      </Node>
    </BinaryTree>
    <BinaryTree type="DecisionTree" boostWeight="1.0000000000000000e+00" itree="1329">
      <Node pos="s" depth="0" NCoef="0" IVar="3" Cut="3.6854353547096252e-01" cType="0" res="1.8037857785202505e-07" rms="3.2247602939605713e-01" purity="5.9855979681015015e-01" nType="0">
        <Node pos="l" depth="1" NCoef="0" IVar="-1" Cut="0.0000000000000000e+00" cType="1" res="4.2061373824253678e-04" rms="3.5890942811965942e-01" purity="7.7152025699615479e-01" nType="-99"/>
        <Node pos="r" depth="1" NCoef="0" IVar="3" Cut="3.6743062734603882e-01" cType="0" res="-2.2720063861925155e-04" rms="3.1434160470962524e-01" purity="5.6247115135192871e-01" nType="0">
          <Node pos="l" depth="2" NCoef="0" IVar="-1" Cut="0.0000000000000000e+00" cType="1" res="-2.6471076533198357e-02" rms="3.9129030704498291e-01" purity="5.8156025409698486e-01" nType="-99"/>
          <Node pos="r" depth="2" NCoef="0" IVar="-1" Cut="0.0000000000000000e+00" cType="1" res="1.3201426554587670e-05" rms="3.1402793526649475e-01" purity="5.6240880489349365e-01" nType="-99"/>
        </Node>
      </Node>
    </BinaryTree>
    <BinaryTree type="DecisionTree" boostWeight="1.0000000000000000e+00" itree="1330">
      <Node pos="s" depth="0" NCoef="0" IVar="3" Cut="4.8672732710838318e-01" cType="0" res="2.7150446157975239e-07" rms="3.2246956229209900e-01" purity="5.9855979681015015e-01" nType="0">
        <Node pos="l" depth="1" NCoef="0" IVar="-1" Cut="0.0000000000000000e+00" cType="1" res="-2.4193529970943928e-03" rms="3.0763030052185059e-01" purity="8.6452764272689819e-01" nType="-99"/>
        <Node pos="r" depth="1" NCoef="0" IVar="3" Cut="4.8136416077613831e-01" cType="0" res="5.1646991778397933e-05" rms="3.2262617349624634e-01" purity="5.9567892551422119e-01" nType="0">
          <Node pos="l" depth="2" NCoef="0" IVar="-1" Cut="0.0000000000000000e+00" cType="1" res="1.2453722767531872e-02" rms="2.7544870972633362e-01" purity="9.1363638639450073e-01" nType="-99"/>
          <Node pos="r" depth="2" NCoef="0" IVar="-1" Cut="0.0000000000000000e+00" cType="1" res="-1.7809454220696352e-05" rms="3.2280972599983215e-01" purity="5.9432262182235718e-01" nType="-99"/>
        </Node>
      </Node>
    </BinaryTree>
    <BinaryTree type="DecisionTree" boostWeight="1.0000000000000000e+00" itree="1331">
      <Node pos="s" depth="0" NCoef="0" IVar="0" Cut="6.6341829299926758e-01" cType="1" res="3.2632161151013861e-07" rms="3.2246810197830200e-01" purity="5.9855979681015015e-01" nType="0">
        <Node pos="l" depth="1" NCoef="0" IVar="-1" Cut="0.0000000000000000e+00" cType="1" res="8.4693536336999387e-05" rms="3.3149194717407227e-01" purity="6.7677879333496094e-01" nType="-99"/>
        <Node pos="r" depth="1" NCoef="0" IVar="3" Cut="1.5300242602825165e-01" cType="0" res="-1.2534654233604670e-03" rms="2.5427731871604919e-01" purity="7.7294684946537018e-02" nType="0">
          <Node pos="l" depth="2" NCoef="0" IVar="-1" Cut="0.0000000000000000e+00" cType="1" res="3.1233750632964075e-04" rms="2.5879728794097900e-01" purity="8.0113254487514496e-02" nType="-99"/>
          <Node pos="r" depth="2" NCoef="0" IVar="-1" Cut="0.0000000000000000e+00" cType="1" res="-1.0780826210975647e-02" rms="2.1828985214233398e-01" purity="5.6831922382116318e-02" nType="-99"/>
        </Node>
      </Node>
    </BinaryTree>
    <BinaryTree type="DecisionTree" boostWeight="1.0000000000000000e+00" itree="1332">
      <Node pos="s" depth="0" NCoef="0" IVar="3" Cut="1.7964935302734375e-01" cType="1" res="1.1111009001751881e-07" rms="3.2246828079223633e-01" purity="5.9855979681015015e-01" nType="0">
        <Node pos="l" depth="1" NCoef="0" IVar="-1" Cut="0.0000000000000000e+00" cType="1" res="4.6831555664539337e-04" rms="2.6720514893531799e-01" purity="7.7575480937957764e-01" nType="-99"/>
        <Node pos="r" depth="1" NCoef="0" IVar="3" Cut="1.8253375589847565e-01" cType="0" res="-3.4505792427808046e-04" rms="3.4728935360908508e-01" purity="5.0816315412521362e-01" nType="0">
          <Node pos="l" depth="2" NCoef="0" IVar="-1" Cut="0.0000000000000000e+00" cType="1" res="-1.5123928278626408e-05" rms="3.4783661365509033e-01" purity="5.0971847772598267e-01" nType="-99"/>
          <Node pos="r" depth="2" NCoef="0" IVar="-1" Cut="0.0000000000000000e+00" cType="1" res="-2.2803774103522301e-02" rms="2.5729987025260925e-01" purity="2.9317268729209900e-01" nType="-99"/>
        </Node>
      </Node>
    </BinaryTree>
    <BinaryTree type="DecisionTree" boostWeight="1.0000000000000000e+00" itree="1333">
      <Node pos="s" depth="0" NCoef="0" IVar="0" Cut="1.2493752874433994e-03" cType="1" res="3.7418679710299330e-08" rms="3.2246366143226624e-01" purity="5.9855979681015015e-01" nType="0">
        <Node pos="l" depth="1" NCoef="0" IVar="-1" Cut="0.0000000000000000e+00" cType="1" res="-4.8336380859836936e-04" rms="2.7186152338981628e-01" purity="9.0791207551956177e-01" nType="-99"/>
        <Node pos="r" depth="1" NCoef="0" IVar="3" Cut="4.0200340747833252e-01" cType="0" res="3.5646784817799926e-04" rms="3.4495019912719727e-01" purity="4.4418039917945862e-01" nType="0">
          <Node pos="l" depth="2" NCoef="0" IVar="-1" Cut="0.0000000000000000e+00" cType="1" res="2.8427669312804937e-03" rms="3.9736917614936829e-01" purity="6.8896794319152832e-01" nType="-99"/>
          <Node pos="r" depth="2" NCoef="0" IVar="-1" Cut="0.0000000000000000e+00" cType="1" res="-6.9299162532843184e-06" rms="3.4257289767265320e-01" purity="4.3392005562782288e-01" nType="-99"/>
        </Node>
      </Node>
    </BinaryTree>
    <BinaryTree type="DecisionTree" boostWeight="1.0000000000000000e+00" itree="1334">
      <Node pos="s" depth="0" NCoef="0" IVar="3" Cut="2.6784995198249817e-01" cType="1" res="6.0661378142867761e-08" rms="3.2246351242065430e-01" purity="5.9855979681015015e-01" nType="0">
        <Node pos="l" depth="1" NCoef="0" IVar="-1" Cut="0.0000000000000000e+00" cType="1" res="2.7111993404105306e-04" rms="2.8415897488594055e-01" purity="6.0393178462982178e-01" nType="-99"/>
        <Node pos="r" depth="1" NCoef="0" IVar="3" Cut="2.8306087851524353e-01" cType="0" res="-5.3297128761187196e-04" rms="3.6262580752372742e-01" purity="5.9219861030578613e-01" nType="0">
          <Node pos="l" depth="2" NCoef="0" IVar="-1" Cut="0.0000000000000000e+00" cType="1" res="7.7034965215716511e-05" rms="3.6637479066848755e-01" purity="6.1644852161407471e-01" nType="-99"/>
          <Node pos="r" depth="2" NCoef="0" IVar="-1" Cut="0.0000000000000000e+00" cType="1" res="-3.0704794917255640e-03" rms="3.2734802365303040e-01" purity="3.7665015459060669e-01" nType="-99"/>
        </Node>
      </Node>
    </BinaryTree>
    <BinaryTree type="DecisionTree" boostWeight="1.0000000000000000e+00" itree="1335">
      <Node pos="s" depth="0" NCoef="0" IVar="0" Cut="1.6604198217391968e+00" cType="1" res="3.9492924486239644e-08" rms="3.2246357202529907e-01" purity="5.9855979681015015e-01" nType="0">
        <Node pos="l" depth="1" NCoef="0" IVar="-1" Cut="0.0000000000000000e+00" cType="1" res="-3.7844813050469384e-05" rms="3.2258692383766174e-01" purity="6.1094874143600464e-01" nType="-99"/>
        <Node pos="r" depth="1" NCoef="0" IVar="1" Cut="6.1344325542449951e-01" cType="0" res="2.9738040175288916e-03" rms="3.1782886385917664e-01" purity="1.3785557448863983e-01" nType="0">
          <Node pos="l" depth="2" NCoef="0" IVar="-1" Cut="0.0000000000000000e+00" cType="1" res="7.1713416837155819e-03" rms="3.5871925950050354e-01" purity="1.8592058122158051e-01" nType="-99"/>
          <Node pos="r" depth="2" NCoef="0" IVar="-1" Cut="0.0000000000000000e+00" cType="1" res="-4.0165660902857780e-03" rms="2.8634136915206909e-01" purity="1.0526315867900848e-01" nType="-99"/>
        </Node>
      </Node>
    </BinaryTree>
    <BinaryTree type="DecisionTree" boostWeight="1.0000000000000000e+00" itree="1336">
      <Node pos="s" depth="0" NCoef="0" IVar="1" Cut="1.0457271337509155e+00" cType="1" res="-7.5392819098851760e-08" rms="3.2246109843254089e-01" purity="5.9855979681015015e-01" nType="0">
        <Node pos="l" depth="1" NCoef="0" IVar="-1" Cut="0.0000000000000000e+00" cType="1" res="3.7353023799369112e-05" rms="3.2271581888198853e-01" purity="6.0884672403335571e-01" nType="-99"/>
        <Node pos="r" depth="1" NCoef="0" IVar="2" Cut="8.3546435832977295e-01" cType="1" res="-3.5927684511989355e-03" rms="3.1063044071197510e-01" purity="1.3055062294006348e-01" nType="0">
          <Node pos="l" depth="2" NCoef="0" IVar="-1" Cut="0.0000000000000000e+00" cType="1" res="7.6782177202403545e-03" rms="3.2768499851226807e-01" purity="1.4070351421833038e-01" nType="-99"/>
          <Node pos="r" depth="2" NCoef="0" IVar="-1" Cut="0.0000000000000000e+00" cType="1" res="-6.4817983657121658e-03" rms="3.0037966370582581e-01" purity="1.2500000000000000e-01" nType="-99"/>
        </Node>
      </Node>
    </BinaryTree>
    <BinaryTree type="DecisionTree" boostWeight="1.0000000000000000e+00" itree="1337">
      <Node pos="s" depth="0" NCoef="0" IVar="1" Cut="8.8580709695816040e-01" cType="1" res="-2.0567604508414661e-07" rms="3.2246035337448120e-01" purity="5.9855979681015015e-01" nType="0">
        <Node pos="l" depth="1" NCoef="0" IVar="-1" Cut="0.0000000000000000e+00" cType="1" res="4.1111325117526576e-05" rms="3.2299605011940002e-01" purity="6.1379539966583252e-01" nType="-99"/>
        <Node pos="r" depth="1" NCoef="0" IVar="0" Cut="1.9365317821502686e+00" cType="0" res="-2.7175680734217167e-03" rms="3.0527487397193909e-01" purity="1.2354025989770889e-01" nType="0">
          <Node pos="l" depth="2" NCoef="0" IVar="-1" Cut="0.0000000000000000e+00" cType="1" res="8.1756310537457466e-03" rms="3.9141133427619934e-01" purity="2.2977346181869507e-01" nType="-99"/>
          <Node pos="r" depth="2" NCoef="0" IVar="-1" Cut="0.0000000000000000e+00" cType="1" res="-5.0629689358174801e-03" rms="2.8090730309486389e-01" purity="9.8634295165538788e-02" nType="-99"/>
        </Node>
      </Node>
    </BinaryTree>
    <BinaryTree type="DecisionTree" boostWeight="1.0000000000000000e+00" itree="1338">
      <Node pos="s" depth="0" NCoef="0" IVar="0" Cut="2.1326837539672852e+00" cType="1" res="-3.2673028727003839e-07" rms="3.2245880365371704e-01" purity="5.9855979681015015e-01" nType="0">
        <Node pos="l" depth="1" NCoef="0" IVar="-1" Cut="0.0000000000000000e+00" cType="1" res="3.0283494197647087e-05" rms="3.2239168882369995e-01" purity="6.0491293668746948e-01" nType="-99"/>
        <Node pos="r" depth="1" NCoef="0" IVar="2" Cut="1.4992284774780273e+00" cType="1" res="-4.5070047490298748e-03" rms="3.2710763812065125e-01" purity="1.5238095819950104e-01" nType="0">
          <Node pos="l" depth="2" NCoef="0" IVar="-1" Cut="0.0000000000000000e+00" cType="1" res="7.2956946678459644e-03" rms="3.4664279222488403e-01" purity="1.6878980398178101e-01" nType="-99"/>
          <Node pos="r" depth="2" NCoef="0" IVar="-1" Cut="0.0000000000000000e+00" cType="1" res="-8.8856639340519905e-03" rms="3.1072130799293518e-01" purity="1.4014251530170441e-01" nType="-99"/>
        </Node>
      </Node>
    </BinaryTree>
    <BinaryTree type="DecisionTree" boostWeight="1.0000000000000000e+00" itree="1339">
      <Node pos="s" depth="0" NCoef="0" IVar="2" Cut="1.5360555648803711e+00" cType="1" res="-4.2638762920432782e-07" rms="3.2245668768882751e-01" purity="5.9855979681015015e-01" nType="0">
        <Node pos="l" depth="1" NCoef="0" IVar="-1" Cut="0.0000000000000000e+00" cType="1" res="-8.9622262748889625e-05" rms="3.2001873850822449e-01" purity="6.4864921569824219e-01" nType="-99"/>
        <Node pos="r" depth="1" NCoef="0" IVar="2" Cut="1.5748881101608276e+00" cType="1" res="1.4209334040060639e-03" rms="3.4054476022720337e-01" purity="2.1498262882232666e-01" nType="0">
          <Node pos="l" depth="2" NCoef="0" IVar="-1" Cut="0.0000000000000000e+00" cType="1" res="1.1664247140288353e-02" rms="3.6138230562210083e-01" purity="3.1286549568176270e-01" nType="-99"/>
          <Node pos="r" depth="2" NCoef="0" IVar="-1" Cut="0.0000000000000000e+00" cType="1" res="-1.0569406003924087e-04" rms="3.3918201923370361e-01" purity="2.0911480486392975e-01" nType="-99"/>
        </Node>
      </Node>
    </BinaryTree>
    <BinaryTree type="DecisionTree" boostWeight="1.0000000000000000e+00" itree="1340">
      <Node pos="s" depth="0" NCoef="0" IVar="0" Cut="2.1326837539672852e+00" cType="1" res="-4.4281856048655754e-07" rms="3.2245427370071411e-01" purity="5.9855979681015015e-01" nType="0">
        <Node pos="l" depth="1" NCoef="0" IVar="-1" Cut="0.0000000000000000e+00" cType="1" res="2.7278058041702025e-05" rms="3.2238915562629700e-01" purity="6.0491293668746948e-01" nType="-99"/>
        <Node pos="r" depth="1" NCoef="0" IVar="2" Cut="1.4992284774780273e+00" cType="1" res="-4.0705460123717785e-03" rms="3.2696992158889771e-01" purity="1.5238095819950104e-01" nType="0">
          <Node pos="l" depth="2" NCoef="0" IVar="-1" Cut="0.0000000000000000e+00" cType="1" res="6.5127438865602016e-03" rms="3.4650292992591858e-01" purity="1.6878980398178101e-01" nType="-99"/>
          <Node pos="r" depth="2" NCoef="0" IVar="-1" Cut="0.0000000000000000e+00" cType="1" res="-8.0910986289381981e-03" rms="3.1077641248703003e-01" purity="1.4014251530170441e-01" nType="-99"/>
        </Node>
      </Node>
    </BinaryTree>
    <BinaryTree type="DecisionTree" boostWeight="1.0000000000000000e+00" itree="1341">
      <Node pos="s" depth="0" NCoef="0" IVar="2" Cut="2.9222519397735596e+00" cType="1" res="-5.0670109885686543e-07" rms="3.2245257496833801e-01" purity="5.9855979681015015e-01" nType="0">
        <Node pos="l" depth="1" NCoef="0" IVar="-1" Cut="0.0000000000000000e+00" cType="1" res="-2.6803576474776492e-05" rms="3.2235583662986755e-01" purity="6.0316354036331177e-01" nType="-99"/>
        <Node pos="r" depth="1" NCoef="0" IVar="3" Cut="3.4798771142959595e-01" cType="0" res="5.0272643566131592e-03" rms="3.3098018169403076e-01" purity="1.8544194102287292e-01" nType="0">
          <Node pos="l" depth="2" NCoef="0" IVar="-1" Cut="0.0000000000000000e+00" cType="1" res="1.0616329498589039e-02" rms="4.2528659105300903e-01" purity="4.3307086825370789e-01" nType="-99"/>
          <Node pos="r" depth="2" NCoef="0" IVar="-1" Cut="0.0000000000000000e+00" cType="1" res="-2.6277380529791117e-03" rms="2.9825127124786377e-01" purity="1.1555555462837219e-01" nType="-99"/>
        </Node>
      </Node>
    </BinaryTree>
    <BinaryTree type="DecisionTree" boostWeight="1.0000000000000000e+00" itree="1342">
      <Node pos="s" depth="0" NCoef="0" IVar="1" Cut="1.5704647302627563e+00" cType="1" res="-4.8334726443499676e-07" rms="3.2245090603828430e-01" purity="5.9855979681015015e-01" nType="0">
        <Node pos="l" depth="1" NCoef="0" IVar="-1" Cut="0.0000000000000000e+00" cType="1" res="-2.0915753339068033e-05" rms="3.2221767306327820e-01" purity="6.0177844762802124e-01" nType="-99"/>
        <Node pos="r" depth="1" NCoef="0" IVar="0" Cut="1.4305347204208374e+00" cType="0" res="5.6925048120319843e-03" rms="3.5152611136436462e-01" purity="1.7839196324348450e-01" nType="0">
          <Node pos="l" depth="2" NCoef="0" IVar="-1" Cut="0.0000000000000000e+00" cType="1" res="-3.5937177017331123e-03" rms="3.6625975370407104e-01" purity="2.0238095521926880e-01" nType="-99"/>
          <Node pos="r" depth="2" NCoef="0" IVar="-1" Cut="0.0000000000000000e+00" cType="1" res="7.7848508954048157e-03" rms="3.3984354138374329e-01" purity="1.6086956858634949e-01" nType="-99"/>
        </Node>
      </Node>
    </BinaryTree>
    <BinaryTree type="DecisionTree" boostWeight="1.0000000000000000e+00" itree="1343">
      <Node pos="s" depth="0" NCoef="0" IVar="0" Cut="1.5004997253417969e+00" cType="1" res="-4.7968069338821806e-07" rms="3.2244992256164551e-01" purity="5.9855979681015015e-01" nType="0">
        <Node pos="l" depth="1" NCoef="0" IVar="-1" Cut="0.0000000000000000e+00" cType="1" res="-4.4240892748348415e-05" rms="3.2298094034194946e-01" purity="6.1443549394607544e-01" nType="-99"/>
        <Node pos="r" depth="1" NCoef="0" IVar="1" Cut="1.8215892314910889e+00" cType="0" res="2.7742786332964897e-03" rms="3.0620276927947998e-01" purity="1.2580834329128265e-01" nType="0">
          <Node pos="l" depth="2" NCoef="0" IVar="-1" Cut="0.0000000000000000e+00" cType="1" res="-1.3455282896757126e-02" rms="3.5067054629325867e-01" purity="1.8487395346164703e-01" nType="-99"/>
          <Node pos="r" depth="2" NCoef="0" IVar="-1" Cut="0.0000000000000000e+00" cType="1" res="3.3225801307708025e-03" rms="3.0231294035911560e-01" purity="1.2136536091566086e-01" nType="-99"/>
        </Node>
      </Node>
    </BinaryTree>
    <BinaryTree type="DecisionTree" boostWeight="1.0000000000000000e+00" itree="1344">
      <Node pos="s" depth="0" NCoef="0" IVar="1" Cut="1.7341328859329224e+00" cType="1" res="-5.3405142352858093e-07" rms="3.2244789600372314e-01" purity="5.9855979681015015e-01" nType="0">
        <Node pos="l" depth="1" NCoef="0" IVar="-1" Cut="0.0000000000000000e+00" cType="1" res="-2.0565383238135837e-05" rms="3.2217633724212646e-01" purity="6.0092604160308838e-01" nType="-99"/>
        <Node pos="r" depth="1" NCoef="0" IVar="0" Cut="1.4305347204208374e+00" cType="0" res="7.2827655822038651e-03" rms="3.6564329266548157e-01" purity="1.9607843458652496e-01" nType="0">
          <Node pos="l" depth="2" NCoef="0" IVar="-1" Cut="0.0000000000000000e+00" cType="1" res="-4.4299080036580563e-03" rms="3.6448857188224792e-01" purity="2.0000000298023224e-01" nType="-99"/>
          <Node pos="r" depth="2" NCoef="0" IVar="-1" Cut="0.0000000000000000e+00" cType="1" res="9.4338627532124519e-03" rms="3.6569309234619141e-01" purity="1.9277107715606689e-01" nType="-99"/>
        </Node>
      </Node>
    </BinaryTree>
    <BinaryTree type="DecisionTree" boostWeight="1.0000000000000000e+00" itree="1345">
      <Node pos="s" depth="0" NCoef="0" IVar="0" Cut="2.4575212001800537e+00" cType="1" res="-5.3290688128981856e-07" rms="3.2244673371315002e-01" purity="5.9855979681015015e-01" nType="0">
        <Node pos="l" depth="1" NCoef="0" IVar="-1" Cut="0.0000000000000000e+00" cType="1" res="-2.5072904463740997e-05" rms="3.2215854525566101e-01" purity="6.0261505842208862e-01" nType="-99"/>
        <Node pos="r" depth="1" NCoef="0" IVar="2" Cut="2.3382983207702637e+00" cType="0" res="5.4256455041468143e-03" rms="3.5101112723350525e-01" purity="1.7800000309944153e-01" nType="0">
          <Node pos="l" depth="2" NCoef="0" IVar="-1" Cut="0.0000000000000000e+00" cType="1" res="1.0863732546567917e-02" rms="3.7821343541145325e-01" purity="2.3780487477779388e-01" nType="-99"/>
          <Node pos="r" depth="2" NCoef="0" IVar="-1" Cut="0.0000000000000000e+00" cType="1" res="-2.7510679792612791e-03" rms="3.3626672625541687e-01" purity="1.4880952239036560e-01" nType="-99"/>
        </Node>
      </Node>
    </BinaryTree>
    <BinaryTree type="DecisionTree" boostWeight="1.0000000000000000e+00" itree="1346">
      <Node pos="s" depth="0" NCoef="0" IVar="1" Cut="1.7341328859329224e+00" cType="1" res="-5.3538508382189320e-07" rms="3.2244557142257690e-01" purity="5.9855979681015015e-01" nType="0">
        <Node pos="l" depth="1" NCoef="0" IVar="-1" Cut="0.0000000000000000e+00" cType="1" res="-1.7919372112373821e-05" rms="3.2217487692832947e-01" purity="6.0092604160308838e-01" nType="-99"/>
        <Node pos="r" depth="1" NCoef="0" IVar="0" Cut="1.4305347204208374e+00" cType="0" res="6.3339229673147202e-03" rms="3.6553001403808594e-01" purity="1.9607843458652496e-01" nType="0">
          <Node pos="l" depth="2" NCoef="0" IVar="-1" Cut="0.0000000000000000e+00" cType="1" res="-4.1547417640686035e-03" rms="3.6466360092163086e-01" purity="2.0000000298023224e-01" nType="-99"/>
          <Node pos="r" depth="2" NCoef="0" IVar="-1" Cut="0.0000000000000000e+00" cType="1" res="8.3932084962725639e-03" rms="3.6549210548400879e-01" purity="1.9277107715606689e-01" nType="-99"/>
        </Node>
      </Node>
    </BinaryTree>
    <BinaryTree type="DecisionTree" boostWeight="1.0000000000000000e+00" itree="1347">
      <Node pos="s" depth="0" NCoef="0" IVar="0" Cut="2.4575212001800537e+00" cType="1" res="-5.2399968808458652e-07" rms="3.2244461774826050e-01" purity="5.9855979681015015e-01" nType="0">
        <Node pos="l" depth="1" NCoef="0" IVar="-1" Cut="0.0000000000000000e+00" cType="1" res="-2.3629308998351917e-05" rms="3.2215753197669983e-01" purity="6.0261505842208862e-01" nType="-99"/>
        <Node pos="r" depth="1" NCoef="0" IVar="3" Cut="2.1075220406055450e-01" cType="0" res="5.1112161017954350e-03" rms="3.5090768337249756e-01" purity="1.7800000309944153e-01" nType="0">
          <Node pos="l" depth="2" NCoef="0" IVar="-1" Cut="0.0000000000000000e+00" cType="1" res="7.8048389405012131e-03" rms="3.8422897458076477e-01" purity="2.3206751048564911e-01" nType="-99"/>
          <Node pos="r" depth="2" NCoef="0" IVar="-1" Cut="0.0000000000000000e+00" cType="1" res="-4.5378836803138256e-03" rms="3.1710126996040344e-01" purity="1.2927757203578949e-01" nType="-99"/>
        </Node>
      </Node>
    </BinaryTree>
    <BinaryTree type="DecisionTree" boostWeight="1.0000000000000000e+00" itree="1348">
      <Node pos="s" depth="0" NCoef="0" IVar="2" Cut="3.0084209442138672e+00" cType="1" res="-5.2451127885433380e-07" rms="3.2244387269020081e-01" purity="5.9855979681015015e-01" nType="0">
        <Node pos="l" depth="1" NCoef="0" IVar="-1" Cut="0.0000000000000000e+00" cType="1" res="2.3139500626712106e-05" rms="3.2244363427162170e-01" purity="6.0270804166793823e-01" nType="-99"/>
        <Node pos="r" depth="1" NCoef="0" IVar="2" Cut="3.1307530403137207e+00" cType="0" res="-5.0368341617286205e-03" rms="3.2242736220359802e-01" purity="1.7519685626029968e-01" nType="0">
          <Node pos="l" depth="2" NCoef="0" IVar="-1" Cut="0.0000000000000000e+00" cType="1" res="1.4739178586751223e-03" rms="3.4315484762191772e-01" purity="1.9117647409439087e-01" nType="-99"/>
          <Node pos="r" depth="2" NCoef="0" IVar="-1" Cut="0.0000000000000000e+00" cType="1" res="-2.1059673279523849e-02" rms="2.1471081674098969e-01" purity="1.0999999940395355e-01" nType="-99"/>
        </Node>
      </Node>
    </BinaryTree>
    <BinaryTree type="DecisionTree" boostWeight="1.0000000000000000e+00" itree="1349">
      <Node pos="s" depth="0" NCoef="0" IVar="2" Cut="3.1470406055450439e+00" cType="1" res="-5.6009974969128962e-07" rms="3.2244381308555603e-01" purity="5.9855979681015015e-01" nType="0">
        <Node pos="l" depth="1" NCoef="0" IVar="-1" Cut="0.0000000000000000e+00" cType="1" res="2.1007856048527174e-05" rms="3.2236322760581970e-01" purity="6.0167813301086426e-01" nType="-99"/>
        <Node pos="r" depth="1" NCoef="0" IVar="3" Cut="3.2239890098571777e-01" cType="0" res="-5.9644808061420918e-03" rms="3.3292752504348755e-01" purity="1.8414321541786194e-01" nType="0">
          <Node pos="l" depth="2" NCoef="0" IVar="-1" Cut="0.0000000000000000e+00" cType="1" res="-8.1797717139124870e-03" rms="3.6119449138641357e-01" purity="2.5142857432365417e-01" nType="-99"/>
          <Node pos="r" depth="2" NCoef="0" IVar="-1" Cut="0.0000000000000000e+00" cType="1" res="5.5223144590854645e-03" rms="3.0713215470314026e-01" purity="1.2962962687015533e-01" nType="-99"/>
        </Node>
      </Node>
    </BinaryTree>
    <BinaryTree type="DecisionTree" boostWeight="1.0000000000000000e+00" itree="1350">
      <Node pos="s" depth="0" NCoef="0" IVar="2" Cut="2.9222519397735596e+00" cType="1" res="-5.4475418664878816e-07" rms="3.2244300842285156e-01" purity="5.9855979681015015e-01" nType="0">
        <Node pos="l" depth="1" NCoef="0" IVar="-1" Cut="0.0000000000000000e+00" cType="1" res="-2.4606491933809593e-05" rms="3.2235047221183777e-01" purity="6.0316354036331177e-01" nType="-99"/>
        <Node pos="r" depth="1" NCoef="0" IVar="3" Cut="3.4798771142959595e-01" cType="0" res="4.6088742092251778e-03" rms="3.3060762286186218e-01" purity="1.8544194102287292e-01" nType="0">
          <Node pos="l" depth="2" NCoef="0" IVar="-1" Cut="0.0000000000000000e+00" cType="1" res="1.0207580402493477e-02" rms="4.2491135001182556e-01" purity="4.3307086825370789e-01" nType="-99"/>
          <Node pos="r" depth="2" NCoef="0" IVar="-1" Cut="0.0000000000000000e+00" cType="1" res="-2.6857112534344196e-03" rms="2.9791918396949768e-01" purity="1.1555555462837219e-01" nType="-99"/>
        </Node>
      </Node>
    </BinaryTree>
    <BinaryTree type="DecisionTree" boostWeight="1.0000000000000000e+00" itree="1351">
      <Node pos="s" depth="0" NCoef="0" IVar="2" Cut="3.1470406055450439e+00" cType="1" res="-5.1598954087239690e-07" rms="3.2244145870208740e-01" purity="5.9855979681015015e-01" nType="0">
        <Node pos="l" depth="1" NCoef="0" IVar="-1" Cut="0.0000000000000000e+00" cType="1" res="2.0915707864332944e-05" rms="3.2236218452453613e-01" purity="6.0167813301086426e-01" nType="-99"/>
        <Node pos="r" depth="1" NCoef="0" IVar="2" Cut="3.3106193542480469e+00" cType="0" res="-5.9326924383640289e-03" rms="3.3275780081748962e-01" purity="1.8414321541786194e-01" nType="0">
          <Node pos="l" depth="2" NCoef="0" IVar="-1" Cut="0.0000000000000000e+00" cType="1" res="1.7912157345563173e-03" rms="3.5301828384399414e-01" purity="2.1951219439506531e-01" nType="-99"/>
          <Node pos="r" depth="2" NCoef="0" IVar="-1" Cut="0.0000000000000000e+00" cType="1" res="-1.9339602440595627e-02" rms="2.6676675677299500e-01" purity="8.6538463830947876e-02" nType="-99"/>
        </Node>
      </Node>
    </BinaryTree>
    <BinaryTree type="DecisionTree" boostWeight="1.0000000000000000e+00" itree="1352">
      <Node pos="s" depth="0" NCoef="0" IVar="2" Cut="3.4542517662048340e+00" cType="1" res="-5.4796117865407723e-07" rms="3.2244002819061279e-01" purity="5.9855979681015015e-01" nType="0">
        <Node pos="l" depth="1" NCoef="0" IVar="-1" Cut="0.0000000000000000e+00" cType="1" res="1.6656607840559445e-05" rms="3.2233110070228577e-01" purity="6.0029160976409912e-01" nType="-99"/>
        <Node pos="r" depth="1" NCoef="0" IVar="3" Cut="3.2233086228370667e-01" cType="0" res="-8.2318587228655815e-03" rms="3.4655690193176270e-01" purity="1.9911503791809082e-01" nType="0">
          <Node pos="l" depth="2" NCoef="0" IVar="-1" Cut="0.0000000000000000e+00" cType="1" res="-6.8667437881231308e-03" rms="3.6406984925270081e-01" purity="2.5471699237823486e-01" nType="-99"/>
          <Node pos="r" depth="2" NCoef="0" IVar="-1" Cut="0.0000000000000000e+00" cType="1" res="1.8958558794111013e-03" rms="3.2980453968048096e-01" purity="1.5000000596046448e-01" nType="-99"/>
        </Node>
      </Node>
    </BinaryTree>
    <BinaryTree type="DecisionTree" boostWeight="1.0000000000000000e+00" itree="1353">
      <Node pos="s" depth="0" NCoef="0" IVar="2" Cut="2.9222519397735596e+00" cType="1" res="-5.0448255706214695e-07" rms="3.2244002819061279e-01" purity="5.9855979681015015e-01" nType="0">
        <Node pos="l" depth="1" NCoef="0" IVar="-1" Cut="0.0000000000000000e+00" cType="1" res="-2.5903098503476940e-05" rms="3.2235047221183777e-01" purity="6.0316354036331177e-01" nType="-99"/>
        <Node pos="r" depth="1" NCoef="0" IVar="3" Cut="3.4798771142959595e-01" cType="0" res="4.8579736612737179e-03" rms="3.3034130930900574e-01" purity="1.8544194102287292e-01" nType="0">
          <Node pos="l" depth="2" NCoef="0" IVar="-1" Cut="0.0000000000000000e+00" cType="1" res="9.8128849640488625e-03" rms="4.2437580227851868e-01" purity="4.3307086825370789e-01" nType="-99"/>
          <Node pos="r" depth="2" NCoef="0" IVar="-1" Cut="0.0000000000000000e+00" cType="1" res="-2.3088986054062843e-03" rms="2.9782971739768982e-01" purity="1.1555555462837219e-01" nType="-99"/>
        </Node>
      </Node>
    </BinaryTree>
    <BinaryTree type="DecisionTree" boostWeight="1.0000000000000000e+00" itree="1354">
      <Node pos="s" depth="0" NCoef="0" IVar="2" Cut="3.4542517662048340e+00" cType="1" res="-4.7635208488827629e-07" rms="3.2243859767913818e-01" purity="5.9855979681015015e-01" nType="0">
        <Node pos="l" depth="1" NCoef="0" IVar="-1" Cut="0.0000000000000000e+00" cType="1" res="1.6233345377258956e-05" rms="3.2233074307441711e-01" purity="6.0029160976409912e-01" nType="-99"/>
        <Node pos="r" depth="1" NCoef="0" IVar="3" Cut="3.2233086228370667e-01" cType="0" res="-8.0092754215002060e-03" rms="3.4632545709609985e-01" purity="1.9911503791809082e-01" nType="0">
          <Node pos="l" depth="2" NCoef="0" IVar="-1" Cut="0.0000000000000000e+00" cType="1" res="-6.7708217538893223e-03" rms="3.6360442638397217e-01" purity="2.5471699237823486e-01" nType="-99"/>
          <Node pos="r" depth="2" NCoef="0" IVar="-1" Cut="0.0000000000000000e+00" cType="1" res="1.9381270976737142e-03" rms="3.2981061935424805e-01" purity="1.5000000596046448e-01" nType="-99"/>
        </Node>
      </Node>
    </BinaryTree>
    <BinaryTree type="DecisionTree" boostWeight="1.0000000000000000e+00" itree="1355">
      <Node pos="s" depth="0" NCoef="0" IVar="2" Cut="2.9222519397735596e+00" cType="1" res="-4.4017340883328870e-07" rms="3.2243856787681580e-01" purity="5.9855979681015015e-01" nType="0">
        <Node pos="l" depth="1" NCoef="0" IVar="-1" Cut="0.0000000000000000e+00" cType="1" res="-2.4936138288467191e-05" rms="3.2235047221183777e-01" purity="6.0316354036331177e-01" nType="-99"/>
        <Node pos="r" depth="1" NCoef="0" IVar="3" Cut="3.4798771142959595e-01" cType="0" res="4.6807653270661831e-03" rms="3.3021566271781921e-01" purity="1.8544194102287292e-01" nType="0">
          <Node pos="l" depth="2" NCoef="0" IVar="-1" Cut="0.0000000000000000e+00" cType="1" res="9.1275209560990334e-03" rms="4.2431896924972534e-01" purity="4.3307086825370789e-01" nType="-99"/>
          <Node pos="r" depth="2" NCoef="0" IVar="-1" Cut="0.0000000000000000e+00" cType="1" res="-2.0573881920427084e-03" rms="2.9776626825332642e-01" purity="1.1555555462837219e-01" nType="-99"/>
        </Node>
      </Node>
    </BinaryTree>
    <BinaryTree type="DecisionTree" boostWeight="1.0000000000000000e+00" itree="1356">
      <Node pos="s" depth="0" NCoef="0" IVar="2" Cut="3.4542517662048340e+00" cType="1" res="-4.1459927047071687e-07" rms="3.2243731617927551e-01" purity="5.9855979681015015e-01" nType="0">
        <Node pos="l" depth="1" NCoef="0" IVar="-1" Cut="0.0000000000000000e+00" cType="1" res="1.5801910194568336e-05" rms="3.2233047485351562e-01" purity="6.0029160976409912e-01" nType="-99"/>
        <Node pos="r" depth="1" NCoef="0" IVar="3" Cut="3.2233086228370667e-01" cType="0" res="-7.7850073575973511e-03" rms="3.4611603617668152e-01" purity="1.9911503791809082e-01" nType="0">
          <Node pos="l" depth="2" NCoef="0" IVar="-1" Cut="0.0000000000000000e+00" cType="1" res="-6.6502415575087070e-03" rms="3.6319336295127869e-01" purity="2.5471699237823486e-01" nType="-99"/>
          <Node pos="r" depth="2" NCoef="0" IVar="-1" Cut="0.0000000000000000e+00" cType="1" res="1.9503358053043485e-03" rms="3.2981234788894653e-01" purity="1.5000000596046448e-01" nType="-99"/>
        </Node>
      </Node>
    </BinaryTree>
    <BinaryTree type="DecisionTree" boostWeight="1.0000000000000000e+00" itree="1357">
      <Node pos="s" depth="0" NCoef="0" IVar="3" Cut="4.9747130274772644e-01" cType="0" res="-3.8437843841165886e-07" rms="3.2243731617927551e-01" purity="5.9855979681015015e-01" nType="0">
        <Node pos="l" depth="1" NCoef="0" IVar="-1" Cut="0.0000000000000000e+00" cType="1" res="4.7254310920834541e-03" rms="3.1808397173881531e-01" purity="8.5981309413909912e-01" nType="-99"/>
        <Node pos="r" depth="1" NCoef="0" IVar="3" Cut="4.9123075604438782e-01" cType="0" res="-2.2272137357504107e-05" rms="3.2244580984115601e-01" purity="5.9802478551864624e-01" nType="0">
          <Node pos="l" depth="2" NCoef="0" IVar="-1" Cut="0.0000000000000000e+00" cType="1" res="-6.6247750073671341e-03" rms="3.0033907294273376e-01" purity="8.7096774578094482e-01" nType="-99"/>
          <Node pos="r" depth="2" NCoef="0" IVar="-1" Cut="0.0000000000000000e+00" cType="1" res="1.7236368876183406e-05" rms="3.2254648208618164e-01" purity="5.9672302007675171e-01" nType="-99"/>
        </Node>
      </Node>
    </BinaryTree>
    <BinaryTree type="DecisionTree" boostWeight="1.0000000000000000e+00" itree="1358">
      <Node pos="s" depth="0" NCoef="0" IVar="2" Cut="2.9222519397735596e+00" cType="1" res="-3.1220531582221156e-07" rms="3.2243645191192627e-01" purity="5.9855979681015015e-01" nType="0">
        <Node pos="l" depth="1" NCoef="0" IVar="-1" Cut="0.0000000000000000e+00" cType="1" res="-2.3966265871422365e-05" rms="3.2234960794448853e-01" purity="6.0316354036331177e-01" nType="-99"/>
        <Node pos="r" depth="1" NCoef="0" IVar="2" Cut="3.0527677536010742e+00" cType="1" res="4.5088720507919788e-03" rms="3.3010539412498474e-01" purity="1.8544194102287292e-01" nType="0">
          <Node pos="l" depth="2" NCoef="0" IVar="-1" Cut="0.0000000000000000e+00" cType="1" res="1.5899602323770523e-02" rms="3.3463478088378906e-01" purity="2.2608695924282074e-01" nType="-99"/>
          <Node pos="r" depth="2" NCoef="0" IVar="-1" Cut="0.0000000000000000e+00" cType="1" res="-1.2991421390324831e-03" rms="3.2852715253829956e-01" purity="1.7532467842102051e-01" nType="-99"/>
        </Node>
      </Node>
    </BinaryTree>
    <BinaryTree type="DecisionTree" boostWeight="1.0000000000000000e+00" itree="1359">
      <Node pos="s" depth="0" NCoef="0" IVar="1" Cut="1.0457271337509155e+00" cType="1" res="-3.3746593430805660e-07" rms="3.2243466377258301e-01" purity="5.9855979681015015e-01" nType="0">
        <Node pos="l" depth="1" NCoef="0" IVar="-1" Cut="0.0000000000000000e+00" cType="1" res="3.2858766644494608e-05" rms="3.2269856333732605e-01" purity="6.0884672403335571e-01" nType="-99"/>
        <Node pos="r" depth="1" NCoef="0" IVar="0" Cut="1.9365317821502686e+00" cType="0" res="-3.1733496580272913e-03" rms="3.1017515063285828e-01" purity="1.3055062294006348e-01" nType="0">
          <Node pos="l" depth="2" NCoef="0" IVar="-1" Cut="0.0000000000000000e+00" cType="1" res="7.7116643078625202e-03" rms="3.9352968335151672e-01" purity="2.3828125000000000e-01" nType="-99"/>
          <Node pos="r" depth="2" NCoef="0" IVar="-1" Cut="0.0000000000000000e+00" cType="1" res="-6.1028073541820049e-03" rms="2.8047859668731689e-01" purity="9.8850578069686890e-02" nType="-99"/>
        </Node>
      </Node>
    </BinaryTree>
    <BinaryTree type="DecisionTree" boostWeight="1.0000000000000000e+00" itree="1360">
      <Node pos="s" depth="0" NCoef="0" IVar="0" Cut="2.0439779758453369e+00" cType="1" res="-4.2739080186038336e-07" rms="3.2243323326110840e-01" purity="5.9855979681015015e-01" nType="0">
        <Node pos="l" depth="1" NCoef="0" IVar="-1" Cut="0.0000000000000000e+00" cType="1" res="3.1516879971604794e-05" rms="3.2242953777313232e-01" purity="6.0564202070236206e-01" nType="-99"/>
        <Node pos="r" depth="1" NCoef="0" IVar="1" Cut="1.5004997253417969e+00" cType="0" res="-4.2460658587515354e-03" rms="3.2263913750648499e-01" purity="1.4901477098464966e-01" nType="0">
          <Node pos="l" depth="2" NCoef="0" IVar="-1" Cut="0.0000000000000000e+00" cType="1" res="9.0027041733264923e-03" rms="4.1596367955207825e-01" purity="2.8455284237861633e-01" nType="-99"/>
          <Node pos="r" depth="2" NCoef="0" IVar="-1" Cut="0.0000000000000000e+00" cType="1" res="-5.0158887170255184e-03" rms="3.0252045392990112e-01" purity="1.2481857836246490e-01" nType="-99"/>
        </Node>
      </Node>
    </BinaryTree>
    <BinaryTree type="DecisionTree" boostWeight="1.0000000000000000e+00" itree="1361">
      <Node pos="s" depth="0" NCoef="0" IVar="1" Cut="1.5829585790634155e+00" cType="1" res="-4.5962215722283872e-07" rms="3.2243213057518005e-01" purity="5.9855979681015015e-01" nType="0">
        <Node pos="l" depth="1" NCoef="0" IVar="-1" Cut="0.0000000000000000e+00" cType="1" res="2.1125830244272947e-05" rms="3.2228621840476990e-01" purity="6.0176652669906616e-01" nType="-99"/>
        <Node pos="r" depth="1" NCoef="0" IVar="2" Cut="9.8254376649856567e-01" cType="0" res="-6.0427924618124962e-03" rms="3.4140467643737793e-01" purity="1.6795866191387177e-01" nType="0">
          <Node pos="l" depth="2" NCoef="0" IVar="-1" Cut="0.0000000000000000e+00" cType="1" res="1.3030192349106073e-03" rms="3.6015483736991882e-01" purity="1.9066147506237030e-01" nType="-99"/>
          <Node pos="r" depth="2" NCoef="0" IVar="-1" Cut="0.0000000000000000e+00" cType="1" res="-1.0770939290523529e-02" rms="3.0000266432762146e-01" purity="1.2307692319154739e-01" nType="-99"/>
        </Node>
      </Node>
    </BinaryTree>
    <BinaryTree type="DecisionTree" boostWeight="1.0000000000000000e+00" itree="1362">
      <Node pos="s" depth="0" NCoef="0" IVar="0" Cut="2.1326837539672852e+00" cType="1" res="-4.5563820094685070e-07" rms="3.2243192195892334e-01" purity="5.9855979681015015e-01" nType="0">
        <Node pos="l" depth="1" NCoef="0" IVar="-1" Cut="0.0000000000000000e+00" cType="1" res="2.7094176402897574e-05" rms="3.2237446308135986e-01" purity="6.0491293668746948e-01" nType="-99"/>
        <Node pos="r" depth="1" NCoef="0" IVar="2" Cut="1.4992284774780273e+00" cType="1" res="-4.0441569872200489e-03" rms="3.2641714811325073e-01" purity="1.5238095819950104e-01" nType="0">
          <Node pos="l" depth="2" NCoef="0" IVar="-1" Cut="0.0000000000000000e+00" cType="1" res="6.3129821792244911e-03" rms="3.4642633795738220e-01" purity="1.6878980398178101e-01" nType="-99"/>
          <Node pos="r" depth="2" NCoef="0" IVar="-1" Cut="0.0000000000000000e+00" cType="1" res="-7.9590007662773132e-03" rms="3.0986356735229492e-01" purity="1.4014251530170441e-01" nType="-99"/>
        </Node>
      </Node>
    </BinaryTree>
    <BinaryTree type="DecisionTree" boostWeight="1.0000000000000000e+00" itree="1363">
      <Node pos="s" depth="0" NCoef="0" IVar="2" Cut="1.7608441114425659e+00" cType="1" res="-5.1303192094565020e-07" rms="3.2243031263351440e-01" purity="5.9855979681015015e-01" nType="0">
        <Node pos="l" depth="1" NCoef="0" IVar="-1" Cut="0.0000000000000000e+00" cType="1" res="-6.8933361035306007e-05" rms="3.2126787304878235e-01" purity="6.3296103477478027e-01" nType="-99"/>
        <Node pos="r" depth="1" NCoef="0" IVar="0" Cut="3.6356821656227112e-01" cType="1" res="1.6534641617909074e-03" rms="3.3552551269531250e-01" purity="2.0229555666446686e-01" nType="0">
          <Node pos="l" depth="2" NCoef="0" IVar="-1" Cut="0.0000000000000000e+00" cType="1" res="3.9144172333180904e-03" rms="4.4193124771118164e-01" purity="4.6562227606773376e-01" nType="-99"/>
          <Node pos="r" depth="2" NCoef="0" IVar="-1" Cut="0.0000000000000000e+00" cType="1" res="-2.0010466687381268e-03" rms="2.8485089540481567e-01" purity="1.0253874212503433e-01" nType="-99"/>
        </Node>
      </Node>
    </BinaryTree>
    <BinaryTree type="DecisionTree" boostWeight="1.0000000000000000e+00" itree="1364">
      <Node pos="s" depth="0" NCoef="0" IVar="0" Cut="1.5004997253417969e+00" cType="1" res="-5.0321648359386018e-07" rms="3.2242897152900696e-01" purity="5.9855979681015015e-01" nType="0">
        <Node pos="l" depth="1" NCoef="0" IVar="-1" Cut="0.0000000000000000e+00" cType="1" res="-4.3865187763003632e-05" rms="3.2297074794769287e-01" purity="6.1443549394607544e-01" nType="-99"/>
        <Node pos="r" depth="1" NCoef="0" IVar="1" Cut="1.8215892314910889e+00" cType="0" res="2.7494498062878847e-03" rms="3.0584311485290527e-01" purity="1.2580834329128265e-01" nType="0">
          <Node pos="l" depth="2" NCoef="0" IVar="-1" Cut="0.0000000000000000e+00" cType="1" res="-1.2455932796001434e-02" rms="3.4996190667152405e-01" purity="1.8487395346164703e-01" nType="-99"/>
          <Node pos="r" depth="2" NCoef="0" IVar="-1" Cut="0.0000000000000000e+00" cType="1" res="3.1560929492115974e-03" rms="3.0202683806419373e-01" purity="1.2136536091566086e-01" nType="-99"/>
        </Node>
      </Node>
    </BinaryTree>
    <BinaryTree type="DecisionTree" boostWeight="1.0000000000000000e+00" itree="1365">
      <Node pos="s" depth="0" NCoef="0" IVar="1" Cut="1.7341328859329224e+00" cType="1" res="-5.4184675946089556e-07" rms="3.2242718338966370e-01" purity="5.9855979681015015e-01" nType="0">
        <Node pos="l" depth="1" NCoef="0" IVar="-1" Cut="0.0000000000000000e+00" cType="1" res="-2.1366324290283956e-05" rms="3.2215988636016846e-01" purity="6.0092604160308838e-01" nType="-99"/>
        <Node pos="r" depth="1" NCoef="0" IVar="0" Cut="1.4305347204208374e+00" cType="0" res="7.5674620456993580e-03" rms="3.6498031020164490e-01" purity="1.9607843458652496e-01" nType="0">
          <Node pos="l" depth="2" NCoef="0" IVar="-1" Cut="0.0000000000000000e+00" cType="1" res="-3.5852098371833563e-03" rms="3.6354148387908936e-01" purity="2.0000000298023224e-01" nType="-99"/>
          <Node pos="r" depth="2" NCoef="0" IVar="-1" Cut="0.0000000000000000e+00" cType="1" res="8.7034534662961960e-03" rms="3.6546838283538818e-01" purity="1.9277107715606689e-01" nType="-99"/>
        </Node>
      </Node>
    </BinaryTree>
    <BinaryTree type="DecisionTree" boostWeight="1.0000000000000000e+00" itree="1366">
      <Node pos="s" depth="0" NCoef="0" IVar="1" Cut="2.1589205265045166e+00" cType="1" res="-5.3065571137267398e-07" rms="3.2242619991302490e-01" purity="5.9855979681015015e-01" nType="0">
        <Node pos="l" depth="1" NCoef="0" IVar="1" Cut="1.5831768512725830e+00" cType="1" res="-2.7597498046816327e-05" rms="3.2222723960876465e-01" purity="5.9953266382217407e-01" nType="0">
          <Node pos="l" depth="2" NCoef="0" IVar="-1" Cut="0.0000000000000000e+00" cType="1" res="1.3367221981752664e-05" rms="3.2227793335914612e-01" purity="6.0174334049224854e-01" nType="-99"/>
          <Node pos="r" depth="2" NCoef="0" IVar="-1" Cut="0.0000000000000000e+00" cType="1" res="-5.2785994485020638e-03" rms="3.1106182932853699e-01" purity="1.3061223924160004e-01" nType="-99"/>
        </Node>
        <Node pos="r" depth="1" NCoef="0" IVar="-1" Cut="0.0000000000000000e+00" cType="1" res="3.0798688530921936e-03" rms="3.8947150111198425e-01" purity="2.3571428656578064e-01" nType="-99"/>
      </Node>
    </BinaryTree>
    <BinaryTree type="DecisionTree" boostWeight="1.0000000000000000e+00" itree="1367">
      <Node pos="s" depth="0" NCoef="0" IVar="1" Cut="1.5704647302627563e+00" cType="1" res="-4.9998567419606843e-07" rms="3.2242611050605774e-01" purity="5.9855979681015015e-01" nType="0">
        <Node pos="l" depth="1" NCoef="0" IVar="-1" Cut="0.0000000000000000e+00" cType="1" res="-2.2681402697344311e-05" rms="3.2220175862312317e-01" purity="6.0177844762802124e-01" nType="-99"/>
        <Node pos="r" depth="1" NCoef="0" IVar="0" Cut="2.0102448463439941e+00" cType="0" res="6.1761722899973392e-03" rms="3.5042929649353027e-01" purity="1.7839196324348450e-01" nType="0">
          <Node pos="l" depth="2" NCoef="0" IVar="-1" Cut="0.0000000000000000e+00" cType="1" res="8.5130836814641953e-03" rms="4.2124176025390625e-01" purity="2.8571429848670959e-01" nType="-99"/>
          <Node pos="r" depth="2" NCoef="0" IVar="-1" Cut="0.0000000000000000e+00" cType="1" res="-1.5172743005678058e-03" rms="3.1792533397674561e-01" purity="1.3636364042758942e-01" nType="-99"/>
        </Node>
      </Node>
    </BinaryTree>
    <BinaryTree type="DecisionTree" boostWeight="1.0000000000000000e+00" itree="1368">
      <Node pos="s" depth="0" NCoef="0" IVar="2" Cut="3.5966179370880127e+00" cType="1" res="-4.7617743348382646e-07" rms="3.2242512702941895e-01" purity="5.9855979681015015e-01" nType="0">
        <Node pos="l" depth="1" NCoef="0" IVar="2" Cut="3.2279355525970459e+00" cType="1" res="-2.9277032808749937e-05" rms="3.2228142023086548e-01" purity="5.9988498687744141e-01" nType="0">
          <Node pos="l" depth="2" NCoef="0" IVar="-1" Cut="0.0000000000000000e+00" cType="1" res="1.4769355402677320e-05" rms="3.2228928804397583e-01" purity="6.0103785991668701e-01" nType="-99"/>
          <Node pos="r" depth="2" NCoef="0" IVar="-1" Cut="0.0000000000000000e+00" cType="1" res="-8.5836574435234070e-03" rms="3.1871119141578674e-01" purity="1.8620689213275909e-01" nType="-99"/>
        </Node>
        <Node pos="r" depth="1" NCoef="0" IVar="-1" Cut="0.0000000000000000e+00" cType="1" res="3.0429745092988014e-03" rms="3.6179071664810181e-01" purity="2.1229049563407898e-01" nType="-99"/>
      </Node>
    </BinaryTree>
    <BinaryTree type="DecisionTree" boostWeight="1.0000000000000000e+00" itree="1369">
      <Node pos="s" depth="0" NCoef="0" IVar="2" Cut="2.7723929882049561e+00" cType="1" res="-4.5544041427092452e-07" rms="3.2242453098297119e-01" purity="5.9855979681015015e-01" nType="0">
        <Node pos="l" depth="1" NCoef="0" IVar="-1" Cut="0.0000000000000000e+00" cType="1" res="-2.8735481464536861e-05" rms="3.2229498028755188e-01" purity="6.0449886322021484e-01" nType="-99"/>
        <Node pos="r" depth="1" NCoef="0" IVar="0" Cut="7.6586705446243286e-01" cType="1" res="4.1886446997523308e-03" rms="3.3129695057868958e-01" purity="1.8488529324531555e-01" nType="0">
          <Node pos="l" depth="2" NCoef="0" IVar="-1" Cut="0.0000000000000000e+00" cType="1" res="8.3580147475004196e-03" rms="3.8243836164474487e-01" purity="2.8315412998199463e-01" nType="-99"/>
          <Node pos="r" depth="2" NCoef="0" IVar="-1" Cut="0.0000000000000000e+00" cType="1" res="-3.7503128405660391e-03" rms="2.9554134607315063e-01" purity="1.2554112076759338e-01" nType="-99"/>
        </Node>
      </Node>
    </BinaryTree>
    <BinaryTree type="DecisionTree" boostWeight="1.0000000000000000e+00" itree="1370">
      <Node pos="s" depth="0" NCoef="0" IVar="1" Cut="7.5837081670761108e-01" cType="1" res="-4.6114305973787850e-07" rms="3.2242327928543091e-01" purity="5.9855979681015015e-01" nType="0">
        <Node pos="l" depth="1" NCoef="0" IVar="-1" Cut="0.0000000000000000e+00" cType="1" res="-4.9367623432772234e-05" rms="3.2301589846611023e-01" purity="6.1891573667526245e-01" nType="-99"/>
        <Node pos="r" depth="1" NCoef="0" IVar="1" Cut="8.0117070674896240e-01" cType="1" res="2.4141569156199694e-03" rms="3.0834269523620605e-01" purity="1.2621359527111053e-01" nType="0">
          <Node pos="l" depth="2" NCoef="0" IVar="-1" Cut="0.0000000000000000e+00" cType="1" res="2.0618809387087822e-02" rms="3.4735408425331116e-01" purity="1.7370891571044922e-01" nType="-99"/>
          <Node pos="r" depth="2" NCoef="0" IVar="-1" Cut="0.0000000000000000e+00" cType="1" res="-1.0093712480738759e-03" rms="3.0345195531845093e-01" purity="1.2102564424276352e-01" nType="-99"/>
        </Node>
      </Node>
    </BinaryTree>
    <BinaryTree type="DecisionTree" boostWeight="1.0000000000000000e+00" itree="1371">
      <Node pos="s" depth="0" NCoef="0" IVar="1" Cut="1.7341328859329224e+00" cType="1" res="-6.4469634253327968e-07" rms="3.2241907715797424e-01" purity="5.9855979681015015e-01" nType="0">
        <Node pos="l" depth="1" NCoef="0" IVar="-1" Cut="0.0000000000000000e+00" cType="1" res="-1.9285120288259350e-05" rms="3.2215306162834167e-01" purity="6.0092604160308838e-01" nType="-99"/>
        <Node pos="r" depth="1" NCoef="0" IVar="3" Cut="2.3375508189201355e-01" cType="1" res="6.8042841739952564e-03" rms="3.6479127407073975e-01" purity="1.9607843458652496e-01" nType="0">
          <Node pos="l" depth="2" NCoef="0" IVar="-1" Cut="0.0000000000000000e+00" cType="1" res="8.5363909602165222e-03" rms="3.7473574280738831e-01" purity="2.1232876181602478e-01" nType="-99"/>
          <Node pos="r" depth="2" NCoef="0" IVar="-1" Cut="0.0000000000000000e+00" cType="1" res="-3.2503535039722919e-03" rms="3.5472211241722107e-01" purity="1.8125000596046448e-01" nType="-99"/>
        </Node>
      </Node>
    </BinaryTree>
    <BinaryTree type="DecisionTree" boostWeight="1.0000000000000000e+00" itree="1372">
      <Node pos="s" depth="0" NCoef="0" IVar="1" Cut="8.5832083225250244e-01" cType="1" res="-6.1648825067095459e-07" rms="3.2241803407669067e-01" purity="5.9855979681015015e-01" nType="0">
        <Node pos="l" depth="1" NCoef="0" IVar="-1" Cut="0.0000000000000000e+00" cType="1" res="-4.2914954974548891e-05" rms="3.2286012172698975e-01" purity="6.1457180976867676e-01" nType="-99"/>
        <Node pos="r" depth="1" NCoef="0" IVar="1" Cut="8.8787835836410522e-01" cType="1" res="2.6509664021432400e-03" rms="3.0912467837333679e-01" purity="1.2775841355323792e-01" nType="0">
          <Node pos="l" depth="2" NCoef="0" IVar="-1" Cut="0.0000000000000000e+00" cType="1" res="3.8499113172292709e-02" rms="3.5725373029708862e-01" purity="1.8627451360225677e-01" nType="-99"/>
          <Node pos="r" depth="2" NCoef="0" IVar="-1" Cut="0.0000000000000000e+00" cType="1" res="-8.5976446280255914e-04" rms="3.0530971288681030e-01" purity="1.2407407164573669e-01" nType="-99"/>
        </Node>
      </Node>
    </BinaryTree>
    <BinaryTree type="DecisionTree" boostWeight="1.0000000000000000e+00" itree="1373">
      <Node pos="s" depth="0" NCoef="0" IVar="1" Cut="1.5704647302627563e+00" cType="1" res="-9.2842287813255098e-07" rms="3.2241252064704895e-01" purity="5.9855979681015015e-01" nType="0">
        <Node pos="l" depth="1" NCoef="0" IVar="-1" Cut="0.0000000000000000e+00" cType="1" res="-2.0975079678464681e-05" rms="3.2218936085700989e-01" purity="6.0177844762802124e-01" nType="-99"/>
        <Node pos="r" depth="1" NCoef="0" IVar="0" Cut="6.1844080686569214e-01" cType="0" res="5.6512518785893917e-03" rms="3.5028004646301270e-01" purity="1.7839196324348450e-01" nType="0">
          <Node pos="l" depth="2" NCoef="0" IVar="-1" Cut="0.0000000000000000e+00" cType="1" res="5.6023988872766495e-03" rms="3.6707437038421631e-01" purity="2.0300751924514771e-01" nType="-99"/>
          <Node pos="r" depth="2" NCoef="0" IVar="-1" Cut="0.0000000000000000e+00" cType="1" res="-6.3254931010305882e-03" rms="3.1275355815887451e-01" purity="1.2878787517547607e-01" nType="-99"/>
        </Node>
      </Node>
    </BinaryTree>
    <BinaryTree type="DecisionTree" boostWeight="1.0000000000000000e+00" itree="1374">
      <Node pos="s" depth="0" NCoef="0" IVar="0" Cut="2.0439779758453369e+00" cType="1" res="-8.7342499455189682e-07" rms="3.2241141796112061e-01" purity="5.9855979681015015e-01" nType="0">
        <Node pos="l" depth="1" NCoef="0" IVar="-1" Cut="0.0000000000000000e+00" cType="1" res="2.8227141228853725e-05" rms="3.2241162657737732e-01" purity="6.0564202070236206e-01" nType="-99"/>
        <Node pos="r" depth="1" NCoef="0" IVar="2" Cut="8.7674933671951294e-01" cType="0" res="-3.8350138347595930e-03" rms="3.2237339019775391e-01" purity="1.4901477098464966e-01" nType="0">
          <Node pos="l" depth="2" NCoef="0" IVar="-1" Cut="0.0000000000000000e+00" cType="1" res="1.4452538453042507e-03" rms="3.2594212889671326e-01" purity="1.5813252329826355e-01" nType="-99"/>
          <Node pos="r" depth="2" NCoef="0" IVar="-1" Cut="0.0000000000000000e+00" cType="1" res="-1.5321014449000359e-02" rms="3.0375772714614868e-01" purity="1.0810811072587967e-01" nType="-99"/>
        </Node>
      </Node>
    </BinaryTree>
    <BinaryTree type="DecisionTree" boostWeight="1.0000000000000000e+00" itree="1375">
      <Node pos="s" depth="0" NCoef="0" IVar="3" Cut="3.4780514240264893e-01" cType="0" res="-8.9262977098769625e-07" rms="3.2241001725196838e-01" purity="5.9855979681015015e-01" nType="0">
        <Node pos="l" depth="1" NCoef="0" IVar="-1" Cut="0.0000000000000000e+00" cType="1" res="-3.3124070614576340e-04" rms="3.6760839819908142e-01" purity="7.3368912935256958e-01" nType="-99"/>
        <Node pos="r" depth="1" NCoef="0" IVar="3" Cut="3.3215409517288208e-01" cType="0" res="2.5260917027480900e-04" rms="3.0830684304237366e-01" purity="5.6002062559127808e-01" nType="0">
          <Node pos="l" depth="2" NCoef="0" IVar="-1" Cut="0.0000000000000000e+00" cType="1" res="2.9670204967260361e-03" rms="3.7506148219108582e-01" purity="5.6280952692031860e-01" nType="-99"/>
          <Node pos="r" depth="2" NCoef="0" IVar="-1" Cut="0.0000000000000000e+00" cType="1" res="-1.2527973740361631e-04" rms="3.0400347709655762e-01" purity="5.5985981225967407e-01" nType="-99"/>
        </Node>
      </Node>
    </BinaryTree>
    <BinaryTree type="DecisionTree" boostWeight="1.0000000000000000e+00" itree="1376">
      <Node pos="s" depth="0" NCoef="0" IVar="3" Cut="2.7859392762184143e-01" cType="0" res="-7.9692460985825164e-07" rms="3.2240837812423706e-01" purity="5.9855979681015015e-01" nType="0">
        <Node pos="l" depth="1" NCoef="0" IVar="-1" Cut="0.0000000000000000e+00" cType="1" res="-2.1099820150993764e-04" rms="3.6521744728088379e-01" purity="6.0879129171371460e-01" nType="-99"/>
        <Node pos="r" depth="1" NCoef="0" IVar="0" Cut="1.6991503536701202e-01" cType="1" res="4.1615215013734996e-04" rms="2.8662270307540894e-01" purity="5.9098464250564575e-01" nType="0">
          <Node pos="l" depth="2" NCoef="0" IVar="-1" Cut="0.0000000000000000e+00" cType="1" res="1.2804780853912234e-03" rms="2.8897005319595337e-01" purity="8.7828373908996582e-01" nType="-99"/>
          <Node pos="r" depth="2" NCoef="0" IVar="-1" Cut="0.0000000000000000e+00" cType="1" res="-1.5793772181496024e-03" rms="2.8252971172332764e-01" purity="9.8764315247535706e-02" nType="-99"/>
        </Node>
      </Node>
    </BinaryTree>
    <BinaryTree type="DecisionTree" boostWeight="1.0000000000000000e+00" itree="1377">
      <Node pos="s" depth="0" NCoef="0" IVar="2" Cut="2.3228156566619873e-01" cType="1" res="-7.1910216092874180e-07" rms="3.2240813970565796e-01" purity="5.9855979681015015e-01" nType="0">
        <Node pos="l" depth="1" NCoef="0" IVar="-1" Cut="0.0000000000000000e+00" cType="1" res="-5.4568285122513771e-04" rms="2.6929238438606262e-01" purity="8.6202687025070190e-01" nType="-99"/>
        <Node pos="r" depth="1" NCoef="0" IVar="3" Cut="1.1524374037981033e-01" cType="0" res="3.6034779623150826e-04" rms="3.4388509392738342e-01" purity="4.7859564423561096e-01" nType="0">
          <Node pos="l" depth="2" NCoef="0" IVar="-1" Cut="0.0000000000000000e+00" cType="1" res="2.1100597223266959e-04" rms="3.4450045228004456e-01" purity="4.8142758011817932e-01" nType="-99"/>
          <Node pos="r" depth="2" NCoef="0" IVar="-1" Cut="0.0000000000000000e+00" cType="1" res="-1.4202777296304703e-02" rms="2.3878338932991028e-01" purity="7.2289153933525085e-02" nType="-99"/>
        </Node>
      </Node>
    </BinaryTree>
    <BinaryTree type="DecisionTree" boostWeight="1.0000000000000000e+00" itree="1378">
      <Node pos="s" depth="0" NCoef="0" IVar="0" Cut="1.6604198217391968e+00" cType="1" res="-7.3649380283313803e-07" rms="3.2240748405456543e-01" purity="5.9855979681015015e-01" nType="0">
        <Node pos="l" depth="1" NCoef="0" IVar="-1" Cut="0.0000000000000000e+00" cType="1" res="-4.0894869016483426e-05" rms="3.2255208492279053e-01" purity="6.1094874143600464e-01" nType="-99"/>
        <Node pos="r" depth="1" NCoef="0" IVar="3" Cut="1.6719566285610199e-01" cType="1" res="3.1819227151572704e-03" rms="3.1696718931198120e-01" purity="1.3785557448863983e-01" nType="0">
          <Node pos="l" depth="2" NCoef="0" IVar="-1" Cut="0.0000000000000000e+00" cType="1" res="1.1976444162428379e-02" rms="3.4009662270545959e-01" purity="1.4556962251663208e-01" nType="-99"/>
          <Node pos="r" depth="2" NCoef="0" IVar="-1" Cut="0.0000000000000000e+00" cType="1" res="-1.4985007001087070e-03" rms="3.0941742658615112e-01" purity="1.3554503023624420e-01" nType="-99"/>
        </Node>
      </Node>
    </BinaryTree>
    <BinaryTree type="DecisionTree" boostWeight="1.0000000000000000e+00" itree="1379">
      <Node pos="s" depth="0" NCoef="0" IVar="0" Cut="4.5977011322975159e-01" cType="1" res="-7.9454520118815708e-07" rms="3.2240605354309082e-01" purity="5.9855979681015015e-01" nType="0">
        <Node pos="l" depth="1" NCoef="0" IVar="-1" Cut="0.0000000000000000e+00" cType="1" res="-1.0487807594472542e-04" rms="3.3567035198211670e-01" purity="7.2192019224166870e-01" nType="-99"/>
        <Node pos="r" depth="1" NCoef="0" IVar="0" Cut="4.7819709777832031e-01" cType="1" res="1.0060357162728906e-03" rms="2.5919717550277710e-01" purity="7.9036429524421692e-02" nType="0">
          <Node pos="l" depth="2" NCoef="0" IVar="-1" Cut="0.0000000000000000e+00" cType="1" res="2.1575694903731346e-02" rms="3.5509195923805237e-01" purity="1.5536722540855408e-01" nType="-99"/>
          <Node pos="r" depth="2" NCoef="0" IVar="-1" Cut="0.0000000000000000e+00" cType="1" res="-3.6522239679470658e-04" rms="2.5488790869712830e-01" purity="7.6248452067375183e-02" nType="-99"/>
        </Node>
      </Node>
    </BinaryTree>
    <BinaryTree type="DecisionTree" boostWeight="1.0000000000000000e+00" itree="1380">
      <Node pos="s" depth="0" NCoef="0" IVar="0" Cut="1.5004997253417969e+00" cType="1" res="-1.1689347729770816e-06" rms="3.2240185141563416e-01" purity="5.9855979681015015e-01" nType="0">
        <Node pos="l" depth="1" NCoef="0" IVar="-1" Cut="0.0000000000000000e+00" cType="1" res="-4.2539435526123270e-05" rms="3.2294887304306030e-01" purity="6.1443549394607544e-01" nType="-99"/>
        <Node pos="r" depth="1" NCoef="0" IVar="3" Cut="2.7140808105468750e-01" cType="0" res="2.6449949946254492e-03" rms="3.0565255880355835e-01" purity="1.2580834329128265e-01" nType="0">
          <Node pos="l" depth="2" NCoef="0" IVar="-1" Cut="0.0000000000000000e+00" cType="1" res="8.4566371515393257e-03" rms="4.1075932979583740e-01" purity="2.8787878155708313e-01" nType="-99"/>
          <Node pos="r" depth="2" NCoef="0" IVar="-1" Cut="0.0000000000000000e+00" cType="1" res="-1.2552849948406219e-03" rms="2.8185489773750305e-01" purity="9.6033401787281036e-02" nType="-99"/>
        </Node>
      </Node>
    </BinaryTree>
    <BinaryTree type="DecisionTree" boostWeight="1.0000000000000000e+00" itree="1381">
      <Node pos="s" depth="0" NCoef="0" IVar="2" Cut="2.6487591266632080e+00" cType="1" res="-1.1064698810514528e-06" rms="3.2240039110183716e-01" purity="5.9855979681015015e-01" nType="0">
        <Node pos="l" depth="1" NCoef="0" IVar="-1" Cut="0.0000000000000000e+00" cType="1" res="3.0778424843447283e-05" rms="3.2223430275917053e-01" purity="6.0597991943359375e-01" nType="-99"/>
        <Node pos="r" depth="1" NCoef="0" IVar="0" Cut="5.6596702337265015e-01" cType="1" res="-3.7098294124007225e-03" rms="3.3158215880393982e-01" purity="1.8142075836658478e-01" nType="0">
          <Node pos="l" depth="2" NCoef="0" IVar="-1" Cut="0.0000000000000000e+00" cType="1" res="-1.0636263526976109e-02" rms="3.8332200050354004e-01" purity="3.0932202935218811e-01" nType="-99"/>
          <Node pos="r" depth="2" NCoef="0" IVar="-1" Cut="0.0000000000000000e+00" cType="1" res="3.5838522017002106e-03" rms="3.1085091829299927e-01" purity="1.3696612417697906e-01" nType="-99"/>
        </Node>
      </Node>
    </BinaryTree>
    <BinaryTree type="DecisionTree" boostWeight="1.0000000000000000e+00" itree="1382">
      <Node pos="s" depth="0" NCoef="0" IVar="3" Cut="2.7859392762184143e-01" cType="0" res="-1.0550658089414355e-06" rms="3.2239848375320435e-01" purity="5.9855979681015015e-01" nType="0">
        <Node pos="l" depth="1" NCoef="0" IVar="-1" Cut="0.0000000000000000e+00" cType="1" res="-2.0714297716040164e-04" rms="3.6520799994468689e-01" purity="6.0879129171371460e-01" nType="-99"/>
        <Node pos="r" depth="1" NCoef="0" IVar="3" Cut="2.7636063098907471e-01" cType="1" res="4.0818194975145161e-04" rms="2.8661230206489563e-01" purity="5.9098464250564575e-01" nType="0">
          <Node pos="l" depth="2" NCoef="0" IVar="-1" Cut="0.0000000000000000e+00" cType="1" res="1.0328606731491163e-04" rms="2.8606989979743958e-01" purity="5.9303343296051025e-01" nType="-99"/>
          <Node pos="r" depth="2" NCoef="0" IVar="-1" Cut="0.0000000000000000e+00" cType="1" res="8.5608968511223793e-03" rms="3.2999309897422791e-01" purity="4.1176471114158630e-01" nType="-99"/>
        </Node>
      </Node>
    </BinaryTree>
    <BinaryTree type="DecisionTree" boostWeight="1.0000000000000000e+00" itree="1383">
      <Node pos="s" depth="0" NCoef="0" IVar="2" Cut="2.9222521185874939e-01" cType="1" res="-9.6634721558075398e-07" rms="3.2239702343940735e-01" purity="5.9855979681015015e-01" nType="0">
        <Node pos="l" depth="1" NCoef="0" IVar="-1" Cut="0.0000000000000000e+00" cType="1" res="-4.4125237036496401e-04" rms="2.7549400925636292e-01" purity="8.4798938035964966e-01" nType="-99"/>
        <Node pos="r" depth="1" NCoef="0" IVar="3" Cut="1.0626529902219772e-01" cType="0" res="3.5218644188717008e-04" rms="3.4461933374404907e-01" purity="4.6671533584594727e-01" nType="0">
          <Node pos="l" depth="2" NCoef="0" IVar="-1" Cut="0.0000000000000000e+00" cType="1" res="1.1142936273245141e-04" rms="3.4466969966888428e-01" purity="4.6767204999923706e-01" nType="-99"/>
          <Node pos="r" depth="2" NCoef="0" IVar="-1" Cut="0.0000000000000000e+00" cType="1" res="1.5145534649491310e-02" rms="3.2577511668205261e-01" purity="1.4000000059604645e-01" nType="-99"/>
        </Node>
      </Node>
    </BinaryTree>
    <BinaryTree type="DecisionTree" boostWeight="1.0000000000000000e+00" itree="1384">
      <Node pos="s" depth="0" NCoef="0" IVar="0" Cut="2.0439779758453369e+00" cType="1" res="-9.2059877943029278e-07" rms="3.2239568233489990e-01" purity="5.9855979681015015e-01" nType="0">
        <Node pos="l" depth="1" NCoef="0" IVar="-1" Cut="0.0000000000000000e+00" cType="1" res="2.9066886781947687e-05" rms="3.2239821553230286e-01" purity="6.0564202070236206e-01" nType="-99"/>
        <Node pos="r" depth="1" NCoef="0" IVar="1" Cut="9.2453771829605103e-01" cType="0" res="-3.9498303085565567e-03" rms="3.2221049070358276e-01" purity="1.4901477098464966e-01" nType="0">
          <Node pos="l" depth="2" NCoef="0" IVar="-1" Cut="0.0000000000000000e+00" cType="1" res="5.2709849551320076e-03" rms="3.9197060465812683e-01" purity="2.3282442986965179e-01" nType="-99"/>
          <Node pos="r" depth="2" NCoef="0" IVar="-1" Cut="0.0000000000000000e+00" cType="1" res="-6.9628101773560047e-03" rms="2.8248119354248047e-01" purity="1.0909090936183929e-01" nType="-99"/>
        </Node>
      </Node>
    </BinaryTree>
    <BinaryTree type="DecisionTree" boostWeight="1.0000000000000000e+00" itree="1385">
      <Node pos="s" depth="0" NCoef="0" IVar="1" Cut="2.3250875473022461e+00" cType="1" res="-9.1650440481316764e-07" rms="3.2239490747451782e-01" purity="5.9855979681015015e-01" nType="0">
        <Node pos="l" depth="1" NCoef="0" IVar="1" Cut="1.7344640493392944e+00" cType="1" res="2.2694694052916020e-05" rms="3.2227626442909241e-01" purity="5.9937214851379395e-01" nType="0">
          <Node pos="l" depth="2" NCoef="0" IVar="-1" Cut="0.0000000000000000e+00" cType="1" res="-1.4300590009952430e-05" rms="3.2212999463081360e-01" purity="6.0092604160308838e-01" nType="-99"/>
          <Node pos="r" depth="2" NCoef="0" IVar="-1" Cut="0.0000000000000000e+00" cType="1" res="5.4249241948127747e-03" rms="3.5891357064247131e-01" purity="1.8461538851261139e-01" nType="-99"/>
        </Node>
        <Node pos="r" depth="1" NCoef="0" IVar="-1" Cut="0.0000000000000000e+00" cType="1" res="-3.3945280592888594e-03" rms="3.7392601370811462e-01" purity="2.1621622145175934e-01" nType="-99"/>
      </Node>
    </BinaryTree>
    <BinaryTree type="DecisionTree" boostWeight="1.0000000000000000e+00" itree="1386">
      <Node pos="s" depth="0" NCoef="0" IVar="1" Cut="1.5829585790634155e+00" cType="1" res="-8.4543052025765064e-07" rms="3.2239434123039246e-01" purity="5.9855979681015015e-01" nType="0">
        <Node pos="l" depth="1" NCoef="0" IVar="-1" Cut="0.0000000000000000e+00" cType="1" res="2.1757534341304563e-05" rms="3.2225376367568970e-01" purity="6.0176652669906616e-01" nType="-99"/>
        <Node pos="r" depth="1" NCoef="0" IVar="2" Cut="1.7287795543670654e+00" cType="0" res="-6.2734871171414852e-03" rms="3.4068706631660461e-01" purity="1.6795866191387177e-01" nType="0">
          <Node pos="l" depth="2" NCoef="0" IVar="-1" Cut="0.0000000000000000e+00" cType="1" res="4.2619830928742886e-03" rms="3.6680674552917480e-01" purity="1.9718310236930847e-01" nType="-99"/>
          <Node pos="r" depth="2" NCoef="0" IVar="-1" Cut="0.0000000000000000e+00" cType="1" res="-6.5348832868039608e-03" rms="3.2412919402122498e-01" purity="1.5102040767669678e-01" nType="-99"/>
        </Node>
      </Node>
    </BinaryTree>
    <BinaryTree type="DecisionTree" boostWeight="1.0000000000000000e+00" itree="1387">
      <Node pos="s" depth="0" NCoef="0" IVar="1" Cut="7.0214891433715820e-01" cType="1" res="-7.9668114949527080e-07" rms="3.2239416241645813e-01" purity="5.9855979681015015e-01" nType="0">
        <Node pos="l" depth="1" NCoef="0" IVar="-1" Cut="0.0000000000000000e+00" cType="1" res="5.2151794079691172e-05" rms="3.2319378852844238e-01" purity="6.2254989147186279e-01" nType="-99"/>
        <Node pos="r" depth="1" NCoef="0" IVar="3" Cut="1.5809856355190277e-01" cType="1" res="-2.2106620017439127e-03" rms="3.0606737732887268e-01" purity="1.2196093797683716e-01" nType="0">
          <Node pos="l" depth="2" NCoef="0" IVar="-1" Cut="0.0000000000000000e+00" cType="1" res="8.7894639000296593e-03" rms="3.5297179222106934e-01" purity="1.7169374227523804e-01" nType="-99"/>
          <Node pos="r" depth="2" NCoef="0" IVar="-1" Cut="0.0000000000000000e+00" cType="1" res="-3.5472025629132986e-03" rms="2.9519441723823547e-01" purity="1.1164581030607224e-01" nType="-99"/>
        </Node>
      </Node>
    </BinaryTree>
    <BinaryTree type="DecisionTree" boostWeight="1.0000000000000000e+00" itree="1388">
      <Node pos="s" depth="0" NCoef="0" IVar="2" Cut="2.3228156566619873e-01" cType="1" res="-8.6279629840646521e-07" rms="3.2239317893981934e-01" purity="5.9855979681015015e-01" nType="0">
        <Node pos="l" depth="1" NCoef="0" IVar="-1" Cut="0.0000000000000000e+00" cType="1" res="-4.7363489284180105e-04" rms="2.6928907632827759e-01" purity="8.6202687025070190e-01" nType="-99"/>
        <Node pos="r" depth="1" NCoef="0" IVar="3" Cut="1.1524374037981033e-01" cType="0" res="3.1285459408536553e-04" rms="3.4386599063873291e-01" purity="4.7859564423561096e-01" nType="0">
          <Node pos="l" depth="2" NCoef="0" IVar="-1" Cut="0.0000000000000000e+00" cType="1" res="1.9127690757159144e-04" rms="3.4448394179344177e-01" purity="4.8142758011817932e-01" nType="-99"/>
          <Node pos="r" depth="2" NCoef="0" IVar="-1" Cut="0.0000000000000000e+00" cType="1" res="-1.4236880466341972e-02" rms="2.3823155462741852e-01" purity="7.2289153933525085e-02" nType="-99"/>
        </Node>
      </Node>
    </BinaryTree>
    <BinaryTree type="DecisionTree" boostWeight="1.0000000000000000e+00" itree="1389">
      <Node pos="s" depth="0" NCoef="0" IVar="3" Cut="2.7259728312492371e-01" cType="0" res="-8.6800184817548143e-07" rms="3.2239261269569397e-01" purity="5.9855979681015015e-01" nType="0">
        <Node pos="l" depth="1" NCoef="0" IVar="-1" Cut="0.0000000000000000e+00" cType="1" res="-2.1437834948301315e-04" rms="3.6365491151809692e-01" purity="5.9957766532897949e-01" nType="-99"/>
        <Node pos="r" depth="1" NCoef="0" IVar="3" Cut="2.5624132156372070e-01" cType="1" res="4.5192983816377819e-04" rms="2.8531491756439209e-01" purity="5.9774965047836304e-01" nType="0">
          <Node pos="l" depth="2" NCoef="0" IVar="-1" Cut="0.0000000000000000e+00" cType="1" res="-1.9444692588876933e-04" rms="2.7996125817298889e-01" purity="6.2042009830474854e-01" nType="-99"/>
          <Node pos="r" depth="2" NCoef="0" IVar="-1" Cut="0.0000000000000000e+00" cType="1" res="3.6880949046462774e-03" rms="3.3621367812156677e-01" purity="3.6023622751235962e-01" nType="-99"/>
        </Node>
      </Node>
    </BinaryTree>
    <BinaryTree type="DecisionTree" boostWeight="1.0000000000000000e+00" itree="1390">
      <Node pos="s" depth="0" NCoef="0" IVar="3" Cut="2.2162583470344543e-01" cType="1" res="-8.1030185583585990e-07" rms="3.2239040732383728e-01" purity="5.9855979681015015e-01" nType="0">
        <Node pos="l" depth="1" NCoef="0" IVar="-1" Cut="0.0000000000000000e+00" cType="1" res="3.7565667298622429e-04" rms="2.7310612797737122e-01" purity="6.8584614992141724e-01" nType="-99"/>
        <Node pos="r" depth="1" NCoef="0" IVar="3" Cut="2.2622206807136536e-01" cType="0" res="-4.1375620639882982e-04" rms="3.5356584191322327e-01" purity="5.3588420152664185e-01" nType="0">
          <Node pos="l" depth="2" NCoef="0" IVar="-1" Cut="0.0000000000000000e+00" cType="1" res="5.8618552429834381e-05" rms="3.5485351085662842e-01" purity="5.4089373350143433e-01" nType="-99"/>
          <Node pos="r" depth="2" NCoef="0" IVar="-1" Cut="0.0000000000000000e+00" cType="1" res="-1.5791043639183044e-02" rms="2.7350276708602905e-01" purity="2.6534295082092285e-01" nType="-99"/>
        </Node>
      </Node>
    </BinaryTree>
    <BinaryTree type="DecisionTree" boostWeight="1.0000000000000000e+00" itree="1391">
      <Node pos="s" depth="0" NCoef="0" IVar="3" Cut="2.6085385680198669e-01" cType="1" res="-8.4030409652768867e-07" rms="3.2238572835922241e-01" purity="5.9855979681015015e-01" nType="0">
        <Node pos="l" depth="1" NCoef="0" IVar="-1" Cut="0.0000000000000000e+00" cType="1" res="2.9099753010086715e-04" rms="2.8179305791854858e-01" purity="6.1474961042404175e-01" nType="-99"/>
        <Node pos="r" depth="1" NCoef="0" IVar="3" Cut="2.6181104779243469e-01" cType="0" res="-5.1801779773086309e-04" rms="3.6133641004562378e-01" purity="5.8097934722900391e-01" nType="0">
          <Node pos="l" depth="2" NCoef="0" IVar="-1" Cut="0.0000000000000000e+00" cType="1" res="-1.3462733477354050e-04" rms="3.6133286356925964e-01" purity="5.8267211914062500e-01" nType="-99"/>
          <Node pos="r" depth="2" NCoef="0" IVar="-1" Cut="0.0000000000000000e+00" cType="1" res="-1.2600820511579514e-02" rms="3.6084115505218506e-01" purity="2.8965517878532410e-01" nType="-99"/>
        </Node>
      </Node>
    </BinaryTree>
    <BinaryTree type="DecisionTree" boostWeight="1.0000000000000000e+00" itree="1392">
      <Node pos="s" depth="0" NCoef="0" IVar="1" Cut="3.1234383583068848e-02" cType="1" res="-7.7776849138899706e-07" rms="3.2238456606864929e-01" purity="5.9855979681015015e-01" nType="0">
        <Node pos="l" depth="1" NCoef="0" IVar="-1" Cut="0.0000000000000000e+00" cType="1" res="-2.6607239851728082e-04" rms="3.0259513854980469e-01" purity="7.4641942977905273e-01" nType="-99"/>
        <Node pos="r" depth="1" NCoef="0" IVar="1" Cut="4.1122220456600189e-02" cType="1" res="4.2570155346766114e-04" rms="3.3842009305953979e-01" purity="4.7187542915344238e-01" nType="0">
          <Node pos="l" depth="2" NCoef="0" IVar="-1" Cut="0.0000000000000000e+00" cType="1" res="8.7551139295101166e-03" rms="2.7161294221878052e-01" purity="7.9721552133560181e-01" nType="-99"/>
          <Node pos="r" depth="2" NCoef="0" IVar="-1" Cut="0.0000000000000000e+00" cType="1" res="-2.0675595442298800e-04" rms="3.4212625026702881e-01" purity="4.5162749290466309e-01" nType="-99"/>
        </Node>
      </Node>
    </BinaryTree>
    <BinaryTree type="DecisionTree" boostWeight="1.0000000000000000e+00" itree="1393">
      <Node pos="s" depth="0" NCoef="0" IVar="2" Cut="2.9222521185874939e-01" cType="1" res="-5.4204343769015395e-07" rms="3.2238221168518066e-01" purity="5.9855979681015015e-01" nType="0">
        <Node pos="l" depth="1" NCoef="0" IVar="-1" Cut="0.0000000000000000e+00" cType="1" res="-4.1954609332606196e-04" rms="2.7548718452453613e-01" purity="8.4798938035964966e-01" nType="-99"/>
        <Node pos="r" depth="1" NCoef="0" IVar="3" Cut="1.0626529902219772e-01" cType="0" res="3.3558064023964107e-04" rms="3.4460109472274780e-01" purity="4.6671533584594727e-01" nType="0">
          <Node pos="l" depth="2" NCoef="0" IVar="-1" Cut="0.0000000000000000e+00" cType="1" res="1.0539629147388041e-04" rms="3.4465253353118896e-01" purity="4.6767204999923706e-01" nType="-99"/>
          <Node pos="r" depth="2" NCoef="0" IVar="-1" Cut="0.0000000000000000e+00" cType="1" res="1.4735020697116852e-02" rms="3.2542803883552551e-01" purity="1.4000000059604645e-01" nType="-99"/>
        </Node>
      </Node>
    </BinaryTree>
    <BinaryTree type="DecisionTree" boostWeight="1.0000000000000000e+00" itree="1394">
      <Node pos="s" depth="0" NCoef="0" IVar="3" Cut="2.6760008931159973e-01" cType="1" res="-5.3635824315279024e-07" rms="3.2238093018531799e-01" purity="5.9855979681015015e-01" nType="0">
        <Node pos="l" depth="1" NCoef="0" IVar="-1" Cut="0.0000000000000000e+00" cType="1" res="2.6631494984030724e-04" rms="2.8403598070144653e-01" purity="6.0426145792007446e-01" nType="-99"/>
        <Node pos="r" depth="1" NCoef="0" IVar="2" Cut="4.4467690587043762e-01" cType="1" res="-5.2277668146416545e-04" rms="3.6247161030769348e-01" purity="5.9182739257812500e-01" nType="0">
          <Node pos="l" depth="2" NCoef="0" IVar="-1" Cut="0.0000000000000000e+00" cType="1" res="1.8390082987025380e-03" rms="3.2350730895996094e-01" purity="8.3493173122406006e-01" nType="-99"/>
          <Node pos="r" depth="2" NCoef="0" IVar="-1" Cut="0.0000000000000000e+00" cType="1" res="-6.4941705204546452e-04" rms="3.7306314706802368e-01" purity="5.2090394496917725e-01" nType="-99"/>
        </Node>
      </Node>
    </BinaryTree>
    <BinaryTree type="DecisionTree" boostWeight="1.0000000000000000e+00" itree="1395">
      <Node pos="s" depth="0" NCoef="0" IVar="2" Cut="3.5591530799865723e-01" cType="1" res="-4.4119033759670856e-07" rms="3.2238021492958069e-01" purity="5.9855979681015015e-01" nType="0">
        <Node pos="l" depth="1" NCoef="0" IVar="-1" Cut="0.0000000000000000e+00" cType="1" res="-3.7926583900116384e-04" rms="2.8142800927162170e-01" purity="8.3244299888610840e-01" nType="-99"/>
        <Node pos="r" depth="1" NCoef="0" IVar="2" Cut="3.9160147309303284e-01" cType="1" res="3.8365530781447887e-04" rms="3.4600764513015747e-01" purity="4.4918462634086609e-01" nType="0">
          <Node pos="l" depth="2" NCoef="0" IVar="-1" Cut="0.0000000000000000e+00" cType="1" res="4.2789573781192303e-03" rms="3.1162139773368835e-01" purity="7.3533421754837036e-01" nType="-99"/>
          <Node pos="r" depth="2" NCoef="0" IVar="-1" Cut="0.0000000000000000e+00" cType="1" res="-1.7677501091384329e-05" rms="3.4756991267204285e-01" purity="4.3542301654815674e-01" nType="-99"/>
        </Node>
      </Node>
    </BinaryTree>
    <BinaryTree type="DecisionTree" boostWeight="1.0000000000000000e+00" itree="1396">
      <Node pos="s" depth="0" NCoef="0" IVar="3" Cut="1.7989922314882278e-02" cType="1" res="-3.5303918366480502e-07" rms="3.2237929105758667e-01" purity="5.9855979681015015e-01" nType="0">
        <Node pos="l" depth="1" NCoef="0" IVar="-1" Cut="0.0000000000000000e+00" cType="1" res="6.4927042694762349e-04" rms="2.4923272430896759e-01" purity="9.2264425754547119e-01" nType="-99"/>
        <Node pos="r" depth="1" NCoef="0" IVar="2" Cut="4.4228430837392807e-02" cType="1" res="-2.7023709844797850e-04" rms="3.4308925271034241e-01" purity="4.9173334240913391e-01" nType="0">
          <Node pos="l" depth="2" NCoef="0" IVar="-1" Cut="0.0000000000000000e+00" cType="1" res="-1.7580341547727585e-02" rms="3.2610470056533813e-01" purity="5.4032260179519653e-01" nType="-99"/>
          <Node pos="r" depth="2" NCoef="0" IVar="-1" Cut="0.0000000000000000e+00" cType="1" res="-6.3360363128595054e-05" rms="3.4313505887985229e-01" purity="4.9157983064651489e-01" nType="-99"/>
        </Node>
      </Node>
    </BinaryTree>
    <BinaryTree type="DecisionTree" boostWeight="1.0000000000000000e+00" itree="1397">
      <Node pos="s" depth="0" NCoef="0" IVar="2" Cut="1.2363374233245850e+00" cType="1" res="-2.8314229894021992e-07" rms="3.2237744331359863e-01" purity="5.9855979681015015e-01" nType="0">
        <Node pos="l" depth="1" NCoef="0" IVar="-1" Cut="0.0000000000000000e+00" cType="1" res="-1.0881582420552149e-04" rms="3.1668770313262939e-01" purity="6.7695432901382446e-01" nType="-99"/>
        <Node pos="r" depth="1" NCoef="0" IVar="2" Cut="1.2707720994949341e+00" cType="1" res="9.8956329748034477e-04" rms="3.4672656655311584e-01" purity="2.4727804958820343e-01" nType="0">
          <Node pos="l" depth="2" NCoef="0" IVar="-1" Cut="0.0000000000000000e+00" cType="1" res="1.1586995795369148e-02" rms="3.6863413453102112e-01" purity="3.7425741553306580e-01" nType="-99"/>
          <Node pos="r" depth="2" NCoef="0" IVar="-1" Cut="0.0000000000000000e+00" cType="1" res="-2.8214478516019881e-04" rms="3.4538540244102478e-01" purity="2.4019011855125427e-01" nType="-99"/>
        </Node>
      </Node>
    </BinaryTree>
    <BinaryTree type="DecisionTree" boostWeight="1.0000000000000000e+00" itree="1398">
      <Node pos="s" depth="0" NCoef="0" IVar="2" Cut="1.3412387371063232e+00" cType="1" res="-3.1163054359240050e-07" rms="3.2237428426742554e-01" purity="5.9855979681015015e-01" nType="0">
        <Node pos="l" depth="1" NCoef="0" IVar="-1" Cut="0.0000000000000000e+00" cType="1" res="-1.0173449118155986e-04" rms="3.1828776001930237e-01" purity="6.6577047109603882e-01" nType="-99"/>
        <Node pos="r" depth="1" NCoef="0" IVar="2" Cut="1.3535865545272827e+00" cType="1" res="1.1401440715417266e-03" rms="3.4386026859283447e-01" purity="2.3103533685207367e-01" nType="0">
          <Node pos="l" depth="2" NCoef="0" IVar="-1" Cut="0.0000000000000000e+00" cType="1" res="2.8198203071951866e-02" rms="3.3437132835388184e-01" purity="3.7583893537521362e-01" nType="-99"/>
          <Node pos="r" depth="2" NCoef="0" IVar="-1" Cut="0.0000000000000000e+00" cType="1" res="-7.6073411037214100e-05" rms="3.4389710426330566e-01" purity="2.2831970453262329e-01" nType="-99"/>
        </Node>
      </Node>
    </BinaryTree>
    <BinaryTree type="DecisionTree" boostWeight="1.0000000000000000e+00" itree="1399">
      <Node pos="s" depth="0" NCoef="0" IVar="2" Cut="1.5360555648803711e+00" cType="1" res="-3.9758839420755976e-07" rms="3.2236638665199280e-01" purity="5.9855979681015015e-01" nType="0">
        <Node pos="l" depth="1" NCoef="0" IVar="-1" Cut="0.0000000000000000e+00" cType="1" res="-8.5220322944223881e-05" rms="3.1995382905006409e-01" purity="6.4864921569824219e-01" nType="-99"/>
        <Node pos="r" depth="1" NCoef="0" IVar="3" Cut="4.2601537704467773e-01" cType="0" res="1.3512098230421543e-03" rms="3.4027186036109924e-01" purity="2.1498262882232666e-01" nType="0">
          <Node pos="l" depth="2" NCoef="0" IVar="-1" Cut="0.0000000000000000e+00" cType="1" res="-1.2120101600885391e-02" rms="4.4664889574050903e-01" purity="5.7142859697341919e-01" nType="-99"/>
          <Node pos="r" depth="2" NCoef="0" IVar="-1" Cut="0.0000000000000000e+00" cType="1" res="9.7572238883003592e-04" rms="3.3772599697113037e-01" purity="2.0782725512981415e-01" nType="-99"/>
        </Node>
      </Node>
    </BinaryTree>
    <BinaryTree type="DecisionTree" boostWeight="1.0000000000000000e+00" itree="1400">
      <Node pos="s" depth="0" NCoef="0" IVar="2" Cut="1.1876331567764282e+00" cType="1" res="-3.3923114983736014e-07" rms="3.2236382365226746e-01" purity="5.9855979681015015e-01" nType="0">
        <Node pos="l" depth="1" NCoef="0" IVar="-1" Cut="0.0000000000000000e+00" cType="1" res="1.2307349243201315e-04" rms="3.1611984968185425e-01" purity="6.8335270881652832e-01" nType="-99"/>
        <Node pos="r" depth="1" NCoef="0" IVar="2" Cut="1.2351127862930298e+00" cType="1" res="-1.0236038360744715e-03" rms="3.4679591655731201e-01" purity="2.5080385804176331e-01" nType="0">
          <Node pos="l" depth="2" NCoef="0" IVar="-1" Cut="0.0000000000000000e+00" cType="1" res="-9.1855283826589584e-03" rms="3.4817230701446533e-01" purity="3.0057802796363831e-01" nType="-99"/>
          <Node pos="r" depth="2" NCoef="0" IVar="-1" Cut="0.0000000000000000e+00" cType="1" res="2.3571903875563294e-04" rms="3.4664109349250793e-01" purity="2.4720509350299835e-01" nType="-99"/>
        </Node>
      </Node>
    </BinaryTree>
    <BinaryTree type="DecisionTree" boostWeight="1.0000000000000000e+00" itree="1401">
      <Node pos="s" depth="0" NCoef="0" IVar="1" Cut="1.5829585790634155e+00" cType="1" res="-3.5066960890617338e-07" rms="3.2236090302467346e-01" purity="5.9855979681015015e-01" nType="0">
        <Node pos="l" depth="1" NCoef="0" IVar="-1" Cut="0.0000000000000000e+00" cType="1" res="1.8999919120687991e-05" rms="3.2222032546997070e-01" purity="6.0176652669906616e-01" nType="-99"/>
        <Node pos="r" depth="1" NCoef="0" IVar="2" Cut="1.7287795543670654e+00" cType="0" res="-5.4252804256975651e-03" rms="3.4066888689994812e-01" purity="1.6795866191387177e-01" nType="0">
          <Node pos="l" depth="2" NCoef="0" IVar="-1" Cut="0.0000000000000000e+00" cType="1" res="4.0717031806707382e-03" rms="3.6680859327316284e-01" purity="1.9718310236930847e-01" nType="-99"/>
          <Node pos="r" depth="2" NCoef="0" IVar="-1" Cut="0.0000000000000000e+00" cType="1" res="-5.9448699466884136e-03" rms="3.2416391372680664e-01" purity="1.5102040767669678e-01" nType="-99"/>
        </Node>
      </Node>
    </BinaryTree>
    <BinaryTree type="DecisionTree" boostWeight="1.0000000000000000e+00" itree="1402">
      <Node pos="s" depth="0" NCoef="0" IVar="1" Cut="1.5704647302627563e+00" cType="1" res="-3.4595558418004657e-07" rms="3.2236075401306152e-01" purity="5.9855979681015015e-01" nType="0">
        <Node pos="l" depth="1" NCoef="0" IVar="-1" Cut="0.0000000000000000e+00" cType="1" res="-1.9771003280766308e-05" rms="3.2213926315307617e-01" purity="6.0177844762802124e-01" nType="-99"/>
        <Node pos="r" depth="1" NCoef="0" IVar="0" Cut="1.1031984090805054e+00" cType="0" res="5.3943893872201443e-03" rms="3.5003146529197693e-01" purity="1.7839196324348450e-01" nType="0">
          <Node pos="l" depth="2" NCoef="0" IVar="-1" Cut="0.0000000000000000e+00" cType="1" res="-2.7409142348915339e-03" rms="3.5542547702789307e-01" purity="1.9191919267177582e-01" nType="-99"/>
          <Node pos="r" depth="2" NCoef="0" IVar="-1" Cut="0.0000000000000000e+00" cType="1" res="7.9848868772387505e-03" rms="3.4409767389297485e-01" purity="1.6500000655651093e-01" nType="-99"/>
        </Node>
      </Node>
    </BinaryTree>
    <BinaryTree type="DecisionTree" boostWeight="1.0000000000000000e+00" itree="1403">
      <Node pos="s" depth="0" NCoef="0" IVar="1" Cut="1.5829585790634155e+00" cType="1" res="-3.5107211715512676e-07" rms="3.2235994935035706e-01" purity="5.9855979681015015e-01" nType="0">
        <Node pos="l" depth="1" NCoef="0" IVar="-1" Cut="0.0000000000000000e+00" cType="1" res="1.9019007595488802e-05" rms="3.2222002744674683e-01" purity="6.0176652669906616e-01" nType="-99"/>
        <Node pos="r" depth="1" NCoef="0" IVar="2" Cut="9.8254376649856567e-01" cType="0" res="-5.4307444952428341e-03" rms="3.4058323502540588e-01" purity="1.6795866191387177e-01" nType="0">
          <Node pos="l" depth="2" NCoef="0" IVar="-1" Cut="0.0000000000000000e+00" cType="1" res="1.1279734317213297e-03" rms="3.5923194885253906e-01" purity="1.9066147506237030e-01" nType="-99"/>
          <Node pos="r" depth="2" NCoef="0" IVar="-1" Cut="0.0000000000000000e+00" cType="1" res="-9.7475573420524597e-03" rms="2.9960674047470093e-01" purity="1.2307692319154739e-01" nType="-99"/>
        </Node>
      </Node>
    </BinaryTree>
    <BinaryTree type="DecisionTree" boostWeight="1.0000000000000000e+00" itree="1404">
      <Node pos="s" depth="0" NCoef="0" IVar="1" Cut="1.5704647302627563e+00" cType="1" res="-3.5016086030736915e-07" rms="3.2235985994338989e-01" purity="5.9855979681015015e-01" nType="0">
        <Node pos="l" depth="1" NCoef="0" IVar="-1" Cut="0.0000000000000000e+00" cType="1" res="-1.9695929950103164e-05" rms="3.2213926315307617e-01" purity="6.0177844762802124e-01" nType="-99"/>
        <Node pos="r" depth="1" NCoef="0" IVar="2" Cut="1.2996939420700073e+00" cType="1" res="5.3731817752122879e-03" rms="3.4992161393165588e-01" purity="1.7839196324348450e-01" nType="0">
          <Node pos="l" depth="2" NCoef="0" IVar="-1" Cut="0.0000000000000000e+00" cType="1" res="7.4498783797025681e-03" rms="3.5415938496589661e-01" purity="1.8877550959587097e-01" nType="-99"/>
          <Node pos="r" depth="2" NCoef="0" IVar="-1" Cut="0.0000000000000000e+00" cType="1" res="-2.9952758923172951e-03" rms="3.4523558616638184e-01" purity="1.6831682622432709e-01" nType="-99"/>
        </Node>
      </Node>
    </BinaryTree>
    <BinaryTree type="DecisionTree" boostWeight="1.0000000000000000e+00" itree="1405">
      <Node pos="s" depth="0" NCoef="0" IVar="1" Cut="1.5829585790634155e+00" cType="1" res="-3.5011129284612252e-07" rms="3.2235884666442871e-01" purity="5.9855979681015015e-01" nType="0">
        <Node pos="l" depth="1" NCoef="0" IVar="-1" Cut="0.0000000000000000e+00" cType="1" res="1.9037985111935996e-05" rms="3.2221978902816772e-01" purity="6.0176652669906616e-01" nType="-99"/>
        <Node pos="r" depth="1" NCoef="0" IVar="2" Cut="1.7287795543670654e+00" cType="0" res="-5.4359920322895050e-03" rms="3.4047469496726990e-01" purity="1.6795866191387177e-01" nType="0">
          <Node pos="l" depth="2" NCoef="0" IVar="-1" Cut="0.0000000000000000e+00" cType="1" res="3.8966389838606119e-03" rms="3.6656263470649719e-01" purity="1.9718310236930847e-01" nType="-99"/>
          <Node pos="r" depth="2" NCoef="0" IVar="-1" Cut="0.0000000000000000e+00" cType="1" res="-5.8543351478874683e-03" rms="3.2402375340461731e-01" purity="1.5102040767669678e-01" nType="-99"/>
        </Node>
      </Node>
    </BinaryTree>
    <BinaryTree type="DecisionTree" boostWeight="1.0000000000000000e+00" itree="1406">
      <Node pos="s" depth="0" NCoef="0" IVar="2" Cut="3.4542517662048340e+00" cType="1" res="-3.4412391869409475e-07" rms="3.2235872745513916e-01" purity="5.9855979681015015e-01" nType="0">
        <Node pos="l" depth="1" NCoef="0" IVar="-1" Cut="0.0000000000000000e+00" cType="1" res="1.4522946003125980e-05" rms="3.2225257158279419e-01" purity="6.0029160976409912e-01" nType="-99"/>
        <Node pos="r" depth="1" NCoef="0" IVar="1" Cut="3.2983508706092834e-01" cType="1" res="-7.1439580060541630e-03" rms="3.4589990973472595e-01" purity="1.9911503791809082e-01" nType="0">
          <Node pos="l" depth="2" NCoef="0" IVar="-1" Cut="0.0000000000000000e+00" cType="1" res="1.7730076797306538e-03" rms="3.6359429359436035e-01" purity="2.3140496015548706e-01" nType="-99"/>
          <Node pos="r" depth="2" NCoef="0" IVar="-1" Cut="0.0000000000000000e+00" cType="1" res="-8.1557743251323700e-03" rms="3.2374319434165955e-01" purity="1.6190476715564728e-01" nType="-99"/>
        </Node>
      </Node>
    </BinaryTree>
    <BinaryTree type="DecisionTree" boostWeight="1.0000000000000000e+00" itree="1407">
      <Node pos="s" depth="0" NCoef="0" IVar="1" Cut="1.5704647302627563e+00" cType="1" res="-3.2758381962594285e-07" rms="3.2235863804817200e-01" purity="5.9855979681015015e-01" nType="0">
        <Node pos="l" depth="1" NCoef="0" IVar="-1" Cut="0.0000000000000000e+00" cType="1" res="-2.0107858290430158e-05" rms="3.2213938236236572e-01" purity="6.0177844762802124e-01" nType="-99"/>
        <Node pos="r" depth="1" NCoef="0" IVar="2" Cut="1.2996939420700073e+00" cType="1" res="5.4894066415727139e-03" rms="3.4975835680961609e-01" purity="1.7839196324348450e-01" nType="0">
          <Node pos="l" depth="2" NCoef="0" IVar="-1" Cut="0.0000000000000000e+00" cType="1" res="7.2580417618155479e-03" rms="3.5405698418617249e-01" purity="1.8877550959587097e-01" nType="-99"/>
          <Node pos="r" depth="2" NCoef="0" IVar="-1" Cut="0.0000000000000000e+00" cType="1" res="-2.7515240944921970e-03" rms="3.4505414962768555e-01" purity="1.6831682622432709e-01" nType="-99"/>
        </Node>
      </Node>
    </BinaryTree>
    <BinaryTree type="DecisionTree" boostWeight="1.0000000000000000e+00" itree="1408">
      <Node pos="s" depth="0" NCoef="0" IVar="0" Cut="2.3213393688201904e+00" cType="1" res="-3.2761502666289744e-07" rms="3.2235765457153320e-01" purity="5.9855979681015015e-01" nType="0">
        <Node pos="l" depth="1" NCoef="0" IVar="-1" Cut="0.0000000000000000e+00" cType="1" res="-2.3595257516717538e-05" rms="3.2205873727798462e-01" purity="6.0334169864654541e-01" nType="-99"/>
        <Node pos="r" depth="1" NCoef="0" IVar="1" Cut="3.9855071902275085e-01" cType="0" res="4.3775327503681183e-03" rms="3.4780910611152649e-01" purity="1.7465753853321075e-01" nType="0">
          <Node pos="l" depth="2" NCoef="0" IVar="-1" Cut="0.0000000000000000e+00" cType="1" res="-2.9844008386135101e-03" rms="3.5450723767280579e-01" purity="1.8110236525535583e-01" nType="-99"/>
          <Node pos="r" depth="2" NCoef="0" IVar="-1" Cut="0.0000000000000000e+00" cType="1" res="1.3773404993116856e-02" rms="3.3357542753219604e-01" purity="1.6256158053874969e-01" nType="-99"/>
        </Node>
      </Node>
    </BinaryTree>
    <BinaryTree type="DecisionTree" boostWeight="1.0000000000000000e+00" itree="1409">
      <Node pos="s" depth="0" NCoef="0" IVar="3" Cut="4.8847633600234985e-01" cType="0" res="-4.0029576098277175e-07" rms="3.2235640287399292e-01" purity="5.9855979681015015e-01" nType="0">
        <Node pos="l" depth="1" NCoef="0" IVar="-1" Cut="0.0000000000000000e+00" cType="1" res="2.5237456429749727e-03" rms="2.8949978947639465e-01" purity="8.7991720438003540e-01" nType="-99"/>
        <Node pos="r" depth="1" NCoef="0" IVar="3" Cut="4.8478057980537415e-01" cType="0" res="-4.5108885387890041e-05" rms="3.2264629006385803e-01" purity="5.9593993425369263e-01" nType="0">
          <Node pos="l" depth="2" NCoef="0" IVar="-1" Cut="0.0000000000000000e+00" cType="1" res="-1.1954517103731632e-02" rms="3.7038025259971619e-01" purity="8.2165604829788208e-01" nType="-99"/>
          <Node pos="r" depth="2" NCoef="0" IVar="-1" Cut="0.0000000000000000e+00" cType="1" res="1.6307098121615127e-05" rms="3.2248738408088684e-01" purity="5.9525465965270996e-01" nType="-99"/>
        </Node>
      </Node>
    </BinaryTree>
    <BinaryTree type="DecisionTree" boostWeight="1.0000000000000000e+00" itree="1410">
      <Node pos="s" depth="0" NCoef="0" IVar="3" Cut="4.9697157740592957e-01" cType="0" res="-2.9468736784110661e-07" rms="3.2235649228096008e-01" purity="5.9855979681015015e-01" nType="0">
        <Node pos="l" depth="1" NCoef="0" IVar="-1" Cut="0.0000000000000000e+00" cType="1" res="-3.9567011408507824e-03" rms="3.4756863117218018e-01" purity="8.3458644151687622e-01" nType="-99"/>
        <Node pos="r" depth="1" NCoef="0" IVar="3" Cut="4.8845055699348450e-01" cType="0" res="2.3349473849521019e-05" rms="3.2228940725326538e-01" purity="5.9795868396759033e-01" nType="0">
          <Node pos="l" depth="2" NCoef="0" IVar="-1" Cut="0.0000000000000000e+00" cType="1" res="5.5036069825291634e-03" rms="2.6396059989929199e-01" purity="8.9714282751083374e-01" nType="-99"/>
          <Node pos="r" depth="2" NCoef="0" IVar="-1" Cut="0.0000000000000000e+00" cType="1" res="-1.9179069568053819e-05" rms="3.2264623045921326e-01" purity="5.9593993425369263e-01" nType="-99"/>
        </Node>
      </Node>
    </BinaryTree>
    <BinaryTree type="DecisionTree" boostWeight="1.0000000000000000e+00" itree="1411">
      <Node pos="s" depth="0" NCoef="0" IVar="1" Cut="1.2106447219848633e+00" cType="1" res="-2.3489234024509642e-07" rms="3.2235679030418396e-01" purity="5.9855979681015015e-01" nType="0">
        <Node pos="l" depth="1" NCoef="0" IVar="-1" Cut="0.0000000000000000e+00" cType="1" res="-2.7121957828057930e-05" rms="3.2232618331909180e-01" purity="6.0544127225875854e-01" nType="-99"/>
        <Node pos="r" depth="1" NCoef="0" IVar="3" Cut="3.1144583225250244e-01" cType="0" res="3.7434075493365526e-03" rms="3.2433849573135376e-01" purity="1.4649681746959686e-01" nType="0">
          <Node pos="l" depth="2" NCoef="0" IVar="-1" Cut="0.0000000000000000e+00" cType="1" res="1.5483907423913479e-02" rms="3.9398196339607239e-01" purity="2.2794117033481598e-01" nType="-99"/>
          <Node pos="r" depth="2" NCoef="0" IVar="-1" Cut="0.0000000000000000e+00" cType="1" res="-1.9956945907324553e-03" rms="3.0715200304985046e-01" purity="1.2942989170551300e-01" nType="-99"/>
        </Node>
      </Node>
    </BinaryTree>
    <BinaryTree type="DecisionTree" boostWeight="1.0000000000000000e+00" itree="1412">
      <Node pos="s" depth="0" NCoef="0" IVar="3" Cut="2.6784995198249817e-01" cType="1" res="-3.0721574262315698e-07" rms="3.2235524058341980e-01" purity="5.9855979681015015e-01" nType="0">
        <Node pos="l" depth="1" NCoef="0" IVar="-1" Cut="0.0000000000000000e+00" cType="1" res="2.6211937074549496e-04" rms="2.8406810760498047e-01" purity="6.0393178462982178e-01" nType="-99"/>
        <Node pos="r" depth="1" NCoef="0" IVar="3" Cut="2.8306087851524353e-01" cType="0" res="-5.1584868924692273e-04" rms="3.6249992251396179e-01" purity="5.9219861030578613e-01" nType="0">
          <Node pos="l" depth="2" NCoef="0" IVar="-1" Cut="0.0000000000000000e+00" cType="1" res="7.2506671131122857e-05" rms="3.6625313758850098e-01" purity="6.1644852161407471e-01" nType="-99"/>
          <Node pos="r" depth="2" NCoef="0" IVar="-1" Cut="0.0000000000000000e+00" cType="1" res="-2.9545722063630819e-03" rms="3.2718467712402344e-01" purity="3.7665015459060669e-01" nType="-99"/>
        </Node>
      </Node>
    </BinaryTree>
    <BinaryTree type="DecisionTree" boostWeight="1.0000000000000000e+00" itree="1413">
      <Node pos="s" depth="0" NCoef="0" IVar="1" Cut="1.5829585790634155e+00" cType="1" res="-2.8972090149181895e-07" rms="3.2235535979270935e-01" purity="5.9855979681015015e-01" nType="0">
        <Node pos="l" depth="1" NCoef="0" IVar="-1" Cut="0.0000000000000000e+00" cType="1" res="1.8927968994830735e-05" rms="3.2221782207489014e-01" purity="6.0176652669906616e-01" nType="-99"/>
        <Node pos="r" depth="1" NCoef="0" IVar="0" Cut="2.0102448463439941e+00" cType="0" res="-5.3964722901582718e-03" rms="3.4027653932571411e-01" purity="1.6795866191387177e-01" nType="0">
          <Node pos="l" depth="2" NCoef="0" IVar="-1" Cut="0.0000000000000000e+00" cType="1" res="3.9639603346586227e-03" rms="4.1606527566909790e-01" purity="2.7272728085517883e-01" nType="-99"/>
          <Node pos="r" depth="2" NCoef="0" IVar="-1" Cut="0.0000000000000000e+00" cType="1" res="-5.9517612680792809e-03" rms="3.0464538931846619e-01" purity="1.2635378539562225e-01" nType="-99"/>
        </Node>
      </Node>
    </BinaryTree>
    <BinaryTree type="DecisionTree" boostWeight="1.0000000000000000e+00" itree="1414">
      <Node pos="s" depth="0" NCoef="0" IVar="0" Cut="2.1326837539672852e+00" cType="1" res="-2.9249309818624170e-07" rms="3.2235530018806458e-01" purity="5.9855979681015015e-01" nType="0">
        <Node pos="l" depth="1" NCoef="0" IVar="-1" Cut="0.0000000000000000e+00" cType="1" res="2.6977882953360677e-05" rms="3.2230564951896667e-01" purity="6.0491293668746948e-01" nType="-99"/>
        <Node pos="r" depth="1" NCoef="0" IVar="0" Cut="2.2763049602508545e+00" cType="0" res="-4.0143588557839394e-03" rms="3.2579907774925232e-01" purity="1.5238095819950104e-01" nType="0">
          <Node pos="l" depth="2" NCoef="0" IVar="-1" Cut="0.0000000000000000e+00" cType="1" res="1.1423079995438457e-03" rms="3.4307742118835449e-01" purity="1.7073170840740204e-01" nType="-99"/>
          <Node pos="r" depth="2" NCoef="0" IVar="-1" Cut="0.0000000000000000e+00" cType="1" res="-2.2823674604296684e-02" rms="2.1315318346023560e-01" purity="5.8333333581686020e-02" nType="-99"/>
        </Node>
      </Node>
    </BinaryTree>
    <BinaryTree type="DecisionTree" boostWeight="1.0000000000000000e+00" itree="1415">
      <Node pos="s" depth="0" NCoef="0" IVar="1" Cut="1.5704647302627563e+00" cType="1" res="-4.2145097722823266e-07" rms="3.2235491275787354e-01" purity="5.9855979681015015e-01" nType="0">
        <Node pos="l" depth="1" NCoef="0" IVar="-1" Cut="0.0000000000000000e+00" cType="1" res="-1.9624831111286767e-05" rms="3.2213690876960754e-01" purity="6.0177844762802124e-01" nType="-99"/>
        <Node pos="r" depth="1" NCoef="0" IVar="3" Cut="2.7439603209495544e-01" cType="1" res="5.3437282331287861e-03" rms="3.4960651397705078e-01" purity="1.7839196324348450e-01" nType="0">
          <Node pos="l" depth="2" NCoef="0" IVar="-1" Cut="0.0000000000000000e+00" cType="1" res="5.2949502132833004e-03" rms="3.5811305046081543e-01" purity="1.9117647409439087e-01" nType="-99"/>
          <Node pos="r" depth="2" NCoef="0" IVar="-1" Cut="0.0000000000000000e+00" cType="1" res="-5.7226568460464478e-03" rms="3.2967227697372437e-01" purity="1.5079365670681000e-01" nType="-99"/>
        </Node>
      </Node>
    </BinaryTree>
    <BinaryTree type="DecisionTree" boostWeight="1.0000000000000000e+00" itree="1416">
      <Node pos="s" depth="0" NCoef="0" IVar="1" Cut="1.5829585790634155e+00" cType="1" res="-4.1189994703927368e-07" rms="3.2235386967658997e-01" purity="5.9855979681015015e-01" nType="0">
        <Node pos="l" depth="1" NCoef="0" IVar="-1" Cut="0.0000000000000000e+00" cType="1" res="1.8932258171844296e-05" rms="3.2221692800521851e-01" purity="6.0176652669906616e-01" nType="-99"/>
        <Node pos="r" depth="1" NCoef="0" IVar="2" Cut="1.1131349802017212e+00" cType="0" res="-5.4139290004968643e-03" rms="3.4019759297370911e-01" purity="1.6795866191387177e-01" nType="0">
          <Node pos="l" depth="2" NCoef="0" IVar="-1" Cut="0.0000000000000000e+00" cType="1" res="1.6726331086829305e-03" rms="3.5612115263938904e-01" purity="1.8454936146736145e-01" nType="-99"/>
          <Node pos="r" depth="2" NCoef="0" IVar="-1" Cut="0.0000000000000000e+00" cType="1" res="-8.2039460539817810e-03" rms="3.1398046016693115e-01" purity="1.4285714924335480e-01" nType="-99"/>
        </Node>
      </Node>
    </BinaryTree>
    <BinaryTree type="DecisionTree" boostWeight="1.0000000000000000e+00" itree="1417">
      <Node pos="s" depth="0" NCoef="0" IVar="1" Cut="1.7341328859329224e+00" cType="1" res="-4.0038855786406202e-07" rms="3.2235381007194519e-01" purity="5.9855979681015015e-01" nType="0">
        <Node pos="l" depth="1" NCoef="0" IVar="-1" Cut="0.0000000000000000e+00" cType="1" res="-1.7158972696051933e-05" rms="3.2209217548370361e-01" purity="6.0092604160308838e-01" nType="-99"/>
        <Node pos="r" depth="1" NCoef="0" IVar="0" Cut="1.4305347204208374e+00" cType="0" res="6.0813864693045616e-03" rms="3.6407765746116638e-01" purity="1.9607843458652496e-01" nType="0">
          <Node pos="l" depth="2" NCoef="0" IVar="-1" Cut="0.0000000000000000e+00" cType="1" res="-4.9861539155244827e-03" rms="3.6258974671363831e-01" purity="2.0000000298023224e-01" nType="-99"/>
          <Node pos="r" depth="2" NCoef="0" IVar="-1" Cut="0.0000000000000000e+00" cType="1" res="9.1340560466051102e-03" rms="3.6435779929161072e-01" purity="1.9277107715606689e-01" nType="-99"/>
        </Node>
      </Node>
    </BinaryTree>
    <BinaryTree type="DecisionTree" boostWeight="1.0000000000000000e+00" itree="1418">
      <Node pos="s" depth="0" NCoef="0" IVar="0" Cut="1.2493752874433994e-03" cType="1" res="-4.1156755514748511e-07" rms="3.2235270738601685e-01" purity="5.9855979681015015e-01" nType="0">
        <Node pos="l" depth="1" NCoef="0" IVar="-1" Cut="0.0000000000000000e+00" cType="1" res="-4.4491965672932565e-04" rms="2.7182981371879578e-01" purity="9.0791207551956177e-01" nType="-99"/>
        <Node pos="r" depth="1" NCoef="0" IVar="3" Cut="4.0200340747833252e-01" cType="0" res="3.2769536483101547e-04" rms="3.4480726718902588e-01" purity="4.4418039917945862e-01" nType="0">
          <Node pos="l" depth="2" NCoef="0" IVar="-1" Cut="0.0000000000000000e+00" cType="1" res="2.6620910502970219e-03" rms="3.9729759097099304e-01" purity="6.8896794319152832e-01" nType="-99"/>
          <Node pos="r" depth="2" NCoef="0" IVar="-1" Cut="0.0000000000000000e+00" cType="1" res="-8.9668137661647052e-06" rms="3.4242704510688782e-01" purity="4.3392005562782288e-01" nType="-99"/>
        </Node>
      </Node>
    </BinaryTree>
    <BinaryTree type="DecisionTree" boostWeight="1.0000000000000000e+00" itree="1419">
      <Node pos="s" depth="0" NCoef="0" IVar="3" Cut="3.1232503056526184e-01" cType="0" res="-3.4685646710386209e-07" rms="3.2235261797904968e-01" purity="5.9855979681015015e-01" nType="0">
        <Node pos="l" depth="1" NCoef="0" IVar="-1" Cut="0.0000000000000000e+00" cType="1" res="-2.6075943605974317e-04" rms="3.6960470676422119e-01" purity="6.6702169179916382e-01" nType="-99"/>
        <Node pos="r" depth="1" NCoef="0" IVar="0" Cut="3.0234882235527039e-01" cType="1" res="3.3921381691470742e-04" rms="2.9719805717468262e-01" purity="5.6592863798141479e-01" nType="0">
          <Node pos="l" depth="2" NCoef="0" IVar="-1" Cut="0.0000000000000000e+00" cType="1" res="8.4787904052063823e-04" rms="3.1404009461402893e-01" purity="7.9723560810089111e-01" nType="-99"/>
          <Node pos="r" depth="2" NCoef="0" IVar="-1" Cut="0.0000000000000000e+00" cType="1" res="-1.8359877867624164e-03" rms="2.5785216689109802e-01" purity="7.5508229434490204e-02" nType="-99"/>
        </Node>
      </Node>
    </BinaryTree>
    <BinaryTree type="DecisionTree" boostWeight="1.0000000000000000e+00" itree="1420">
      <Node pos="s" depth="0" NCoef="0" IVar="0" Cut="1.6604198217391968e+00" cType="1" res="-3.6911171719111735e-07" rms="3.2235229015350342e-01" purity="5.9855979681015015e-01" nType="0">
        <Node pos="l" depth="1" NCoef="0" IVar="-1" Cut="0.0000000000000000e+00" cType="1" res="-3.9368071156786755e-05" rms="3.2250428199768066e-01" purity="6.1094874143600464e-01" nType="-99"/>
        <Node pos="r" depth="1" NCoef="0" IVar="1" Cut="6.1344325542449951e-01" cType="0" res="3.0751300510019064e-03" rms="3.1663262844085693e-01" purity="1.3785557448863983e-01" nType="0">
          <Node pos="l" depth="2" NCoef="0" IVar="-1" Cut="0.0000000000000000e+00" cType="1" res="6.7747933790087700e-03" rms="3.5672765970230103e-01" purity="1.8592058122158051e-01" nType="-99"/>
          <Node pos="r" depth="2" NCoef="0" IVar="-1" Cut="0.0000000000000000e+00" cType="1" res="-3.5982399713248014e-03" rms="2.8586649894714355e-01" purity="1.0526315867900848e-01" nType="-99"/>
        </Node>
      </Node>
    </BinaryTree>
    <BinaryTree type="DecisionTree" boostWeight="1.0000000000000000e+00" itree="1421">
      <Node pos="s" depth="0" NCoef="0" IVar="1" Cut="1.5829585790634155e+00" cType="1" res="-4.2770275854309148e-07" rms="3.2234993577003479e-01" purity="5.9855979681015015e-01" nType="0">
        <Node pos="l" depth="1" NCoef="0" IVar="-1" Cut="0.0000000000000000e+00" cType="1" res="2.0389546989463270e-05" rms="3.2221433520317078e-01" purity="6.0176652669906616e-01" nType="-99"/>
        <Node pos="r" depth="1" NCoef="0" IVar="2" Cut="2.0490391254425049e+00" cType="1" res="-5.8255409821867943e-03" rms="3.4001418948173523e-01" purity="1.6795866191387177e-01" nType="0">
          <Node pos="l" depth="2" NCoef="0" IVar="-1" Cut="0.0000000000000000e+00" cType="1" res="5.1059038378298283e-04" rms="3.3735281229019165e-01" purity="1.6961130499839783e-01" nType="-99"/>
          <Node pos="r" depth="2" NCoef="0" IVar="-1" Cut="0.0000000000000000e+00" cType="1" res="-9.0878875926136971e-03" rms="3.4640973806381226e-01" purity="1.6346153616905212e-01" nType="-99"/>
        </Node>
      </Node>
    </BinaryTree>
    <BinaryTree type="DecisionTree" boostWeight="1.0000000000000000e+00" itree="1422">
      <Node pos="s" depth="0" NCoef="0" IVar="2" Cut="3.5591530799865723e-01" cType="1" res="-4.0940906842479308e-07" rms="3.2234966754913330e-01" purity="5.9855979681015015e-01" nType="0">
        <Node pos="l" depth="1" NCoef="0" IVar="-1" Cut="0.0000000000000000e+00" cType="1" res="-3.9290398126468062e-04" rms="2.8141993284225464e-01" purity="8.3244299888610840e-01" nType="-99"/>
        <Node pos="r" depth="1" NCoef="0" IVar="3" Cut="1.2260454148054123e-01" cType="0" res="3.9728177944198251e-04" rms="3.4596517682075500e-01" purity="4.4918462634086609e-01" nType="0">
          <Node pos="l" depth="2" NCoef="0" IVar="-1" Cut="0.0000000000000000e+00" cType="1" res="2.2132309095468372e-04" rms="3.4649801254272461e-01" purity="4.5148795843124390e-01" nType="-99"/>
          <Node pos="r" depth="2" NCoef="0" IVar="-1" Cut="0.0000000000000000e+00" cType="1" res="-1.4805052429437637e-02" rms="2.4234603345394135e-01" purity="7.2164945304393768e-02" nType="-99"/>
        </Node>
      </Node>
    </BinaryTree>
    <BinaryTree type="DecisionTree" boostWeight="1.0000000000000000e+00" itree="1423">
      <Node pos="s" depth="0" NCoef="0" IVar="0" Cut="5.7346326112747192e-01" cType="1" res="-4.5331529463510378e-07" rms="3.2234874367713928e-01" purity="5.9855979681015015e-01" nType="0">
        <Node pos="l" depth="1" NCoef="0" IVar="-1" Cut="0.0000000000000000e+00" cType="1" res="-9.5084717031568289e-05" rms="3.3282774686813354e-01" purity="6.9335353374481201e-01" nType="-99"/>
        <Node pos="r" depth="1" NCoef="0" IVar="3" Cut="3.0649366974830627e-01" cType="0" res="1.1694376589730382e-03" rms="2.5740978121757507e-01" purity="7.8761607408523560e-02" nType="0">
          <Node pos="l" depth="2" NCoef="0" IVar="-1" Cut="0.0000000000000000e+00" cType="1" res="7.1688354946672916e-03" rms="3.3508390188217163e-01" purity="1.5235456824302673e-01" nType="-99"/>
          <Node pos="r" depth="2" NCoef="0" IVar="-1" Cut="0.0000000000000000e+00" cType="1" res="-8.2389224553480744e-04" rms="2.4309644103050232e-01" purity="6.7362703382968903e-02" nType="-99"/>
        </Node>
      </Node>
    </BinaryTree>
    <BinaryTree type="DecisionTree" boostWeight="1.0000000000000000e+00" itree="1424">
      <Node pos="s" depth="0" NCoef="0" IVar="3" Cut="3.1232503056526184e-01" cType="0" res="-5.5926778941284283e-07" rms="3.2234677672386169e-01" purity="5.9855979681015015e-01" nType="0">
        <Node pos="l" depth="1" NCoef="0" IVar="-1" Cut="0.0000000000000000e+00" cType="1" res="-2.7369431336410344e-04" rms="3.6959812045097351e-01" purity="6.6702169179916382e-01" nType="-99"/>
        <Node pos="r" depth="1" NCoef="0" IVar="2" Cut="5.8546757698059082e-01" cType="1" res="3.5592963104136288e-04" rms="2.9719251394271851e-01" purity="5.6592863798141479e-01" nType="0">
          <Node pos="l" depth="2" NCoef="0" IVar="-1" Cut="0.0000000000000000e+00" cType="1" res="-6.1689474387094378e-04" rms="2.8898328542709351e-01" purity="7.6998281478881836e-01" nType="-99"/>
          <Node pos="r" depth="2" NCoef="0" IVar="-1" Cut="0.0000000000000000e+00" cType="1" res="1.4149569906294346e-03" rms="3.1126350164413452e-01" purity="2.0246313512325287e-01" nType="-99"/>
        </Node>
      </Node>
    </BinaryTree>
    <BinaryTree type="DecisionTree" boostWeight="1.0000000000000000e+00" itree="1425">
      <Node pos="s" depth="0" NCoef="0" IVar="2" Cut="1.1876331567764282e+00" cType="1" res="-5.3220816198518150e-07" rms="3.2234331965446472e-01" purity="5.9855979681015015e-01" nType="0">
        <Node pos="l" depth="1" NCoef="0" IVar="-1" Cut="0.0000000000000000e+00" cType="1" res="1.2692176096607000e-04" rms="3.1611299514770508e-01" purity="6.8335270881652832e-01" nType="-99"/>
        <Node pos="r" depth="1" NCoef="0" IVar="3" Cut="3.6601009964942932e-01" cType="0" res="-1.0565269039943814e-03" rms="3.4672412276268005e-01" purity="2.5080385804176331e-01" nType="0">
          <Node pos="l" depth="2" NCoef="0" IVar="-1" Cut="0.0000000000000000e+00" cType="1" res="-3.7278837990015745e-03" rms="4.2856064438819885e-01" purity="5.5264621973037720e-01" nType="-99"/>
          <Node pos="r" depth="2" NCoef="0" IVar="-1" Cut="0.0000000000000000e+00" cType="1" res="7.0938898716121912e-04" rms="3.2669380307197571e-01" purity="1.8682096898555756e-01" nType="-99"/>
        </Node>
      </Node>
    </BinaryTree>
    <BinaryTree type="DecisionTree" boostWeight="1.0000000000000000e+00" itree="1426">
      <Node pos="s" depth="0" NCoef="0" IVar="3" Cut="3.6854353547096252e-01" cType="0" res="-4.6834182398924895e-07" rms="3.2234004139900208e-01" purity="5.9855979681015015e-01" nType="0">
        <Node pos="l" depth="1" NCoef="0" IVar="-1" Cut="0.0000000000000000e+00" cType="1" res="4.2527556070126593e-04" rms="3.5879230499267578e-01" purity="7.7152025699615479e-01" nType="-99"/>
        <Node pos="r" depth="1" NCoef="0" IVar="3" Cut="3.6743062734603882e-01" cType="0" res="-2.3056988720782101e-04" rms="3.1420087814331055e-01" purity="5.6247115135192871e-01" nType="0">
          <Node pos="l" depth="2" NCoef="0" IVar="-1" Cut="0.0000000000000000e+00" cType="1" res="-2.3476865142583847e-02" rms="3.9041495323181152e-01" purity="5.8156025409698486e-01" nType="-99"/>
          <Node pos="r" depth="2" NCoef="0" IVar="-1" Cut="0.0000000000000000e+00" cType="1" res="-1.8474660237188800e-06" rms="3.1389647722244263e-01" purity="5.6240880489349365e-01" nType="-99"/>
        </Node>
      </Node>
    </BinaryTree>
    <BinaryTree type="DecisionTree" boostWeight="1.0000000000000000e+00" itree="1427">
      <Node pos="s" depth="0" NCoef="0" IVar="3" Cut="1.7989921569824219e-01" cType="1" res="-3.3624516504460189e-07" rms="3.2233485579490662e-01" purity="5.9855979681015015e-01" nType="0">
        <Node pos="l" depth="1" NCoef="0" IVar="-1" Cut="0.0000000000000000e+00" cType="1" res="4.7308325883932412e-04" rms="2.6707804203033447e-01" purity="7.7492380142211914e-01" nType="-99"/>
        <Node pos="r" depth="1" NCoef="0" IVar="3" Cut="1.8438242375850677e-01" cType="0" res="-3.5026311525143683e-04" rms="3.4720939397811890e-01" purity="5.0837182998657227e-01" nType="0">
          <Node pos="l" depth="2" NCoef="0" IVar="-1" Cut="0.0000000000000000e+00" cType="1" res="3.5182893043383956e-06" rms="3.4798952937126160e-01" purity="5.1075065135955811e-01" nType="-99"/>
          <Node pos="r" depth="2" NCoef="0" IVar="-1" Cut="0.0000000000000000e+00" cType="1" res="-1.8384149298071861e-02" rms="2.6111462712287903e-01" purity="2.8374657034873962e-01" nType="-99"/>
        </Node>
      </Node>
    </BinaryTree>
    <BinaryTree type="DecisionTree" boostWeight="1.0000000000000000e+00" itree="1428">
      <Node pos="s" depth="0" NCoef="0" IVar="1" Cut="7.0214891433715820e-01" cType="1" res="-3.6411094583854720e-07" rms="3.2233062386512756e-01" purity="5.9855979681015015e-01" nType="0">
        <Node pos="l" depth="1" NCoef="0" IVar="-1" Cut="0.0000000000000000e+00" cType="1" res="5.0671955250436440e-05" rms="3.2313850522041321e-01" purity="6.2254989147186279e-01" nType="-99"/>
        <Node pos="r" depth="1" NCoef="0" IVar="3" Cut="1.3911673426628113e-01" cType="1" res="-2.1392707712948322e-03" rms="3.0583080649375916e-01" purity="1.2196093797683716e-01" nType="0">
          <Node pos="l" depth="2" NCoef="0" IVar="-1" Cut="0.0000000000000000e+00" cType="1" res="9.3418927863240242e-03" rms="3.6307892203330994e-01" purity="1.8844984471797943e-01" nType="-99"/>
          <Node pos="r" depth="2" NCoef="0" IVar="-1" Cut="0.0000000000000000e+00" cType="1" res="-3.0745328404009342e-03" rms="2.9604780673980713e-01" purity="1.1192660778760910e-01" nType="-99"/>
        </Node>
      </Node>
    </BinaryTree>
    <BinaryTree type="DecisionTree" boostWeight="1.0000000000000000e+00" itree="1429">
      <Node pos="s" depth="0" NCoef="0" IVar="0" Cut="1.5004997253417969e+00" cType="1" res="-4.4781717178921099e-07" rms="3.2232958078384399e-01" purity="5.9855979681015015e-01" nType="0">
        <Node pos="l" depth="1" NCoef="0" IVar="-1" Cut="0.0000000000000000e+00" cType="1" res="-4.0799695852911100e-05" rms="3.2288751006126404e-01" purity="6.1443549394607544e-01" nType="-99"/>
        <Node pos="r" depth="1" NCoef="0" IVar="1" Cut="1.8215892314910889e+00" cType="0" res="2.5576024781912565e-03" rms="3.0523702502250671e-01" purity="1.2580834329128265e-01" nType="0">
          <Node pos="l" depth="2" NCoef="0" IVar="-1" Cut="0.0000000000000000e+00" cType="1" res="-1.2208539061248302e-02" rms="3.4924262762069702e-01" purity="1.8487395346164703e-01" nType="-99"/>
          <Node pos="r" depth="2" NCoef="0" IVar="-1" Cut="0.0000000000000000e+00" cType="1" res="3.0056193936616182e-03" rms="3.0144363641738892e-01" purity="1.2136536091566086e-01" nType="-99"/>
        </Node>
      </Node>
    </BinaryTree>
    <BinaryTree type="DecisionTree" boostWeight="1.0000000000000000e+00" itree="1430">
      <Node pos="s" depth="0" NCoef="0" IVar="1" Cut="1.7341328859329224e+00" cType="1" res="-4.8617840775477816e-07" rms="3.2232791185379028e-01" purity="5.9855979681015015e-01" nType="0">
        <Node pos="l" depth="1" NCoef="0" IVar="-1" Cut="0.0000000000000000e+00" cType="1" res="-2.0839437638642266e-05" rms="3.2206842303276062e-01" purity="6.0092604160308838e-01" nType="-99"/>
        <Node pos="r" depth="1" NCoef="0" IVar="0" Cut="1.4305347204208374e+00" cType="0" res="7.3869284242391586e-03" rms="3.6370849609375000e-01" purity="1.9607843458652496e-01" nType="0">
          <Node pos="l" depth="2" NCoef="0" IVar="-1" Cut="0.0000000000000000e+00" cType="1" res="-3.4090986009687185e-03" rms="3.6240559816360474e-01" purity="2.0000000298023224e-01" nType="-99"/>
          <Node pos="r" depth="2" NCoef="0" IVar="-1" Cut="0.0000000000000000e+00" cType="1" res="8.3885788917541504e-03" rms="3.6413952708244324e-01" purity="1.9277107715606689e-01" nType="-99"/>
        </Node>
      </Node>
    </BinaryTree>
    <BinaryTree type="DecisionTree" boostWeight="1.0000000000000000e+00" itree="1431">
      <Node pos="s" depth="0" NCoef="0" IVar="1" Cut="2.1589205265045166e+00" cType="1" res="-4.7709522732475307e-07" rms="3.2232695817947388e-01" purity="5.9855979681015015e-01" nType="0">
        <Node pos="l" depth="1" NCoef="0" IVar="1" Cut="1.5831768512725830e+00" cType="1" res="-2.7628890165942721e-05" rms="3.2213068008422852e-01" purity="5.9953266382217407e-01" nType="0">
          <Node pos="l" depth="2" NCoef="0" IVar="-1" Cut="0.0000000000000000e+00" cType="1" res="1.3107510312693194e-05" rms="3.2218804955482483e-01" purity="6.0174334049224854e-01" nType="-99"/>
          <Node pos="r" depth="2" NCoef="0" IVar="-1" Cut="0.0000000000000000e+00" cType="1" res="-5.2563995122909546e-03" rms="3.0949500203132629e-01" purity="1.3061223924160004e-01" nType="-99"/>
        </Node>
        <Node pos="r" depth="1" NCoef="0" IVar="-1" Cut="0.0000000000000000e+00" cType="1" res="3.1010743696242571e-03" rms="3.8855159282684326e-01" purity="2.3571428656578064e-01" nType="-99"/>
      </Node>
    </BinaryTree>
    <BinaryTree type="DecisionTree" boostWeight="1.0000000000000000e+00" itree="1432">
      <Node pos="s" depth="0" NCoef="0" IVar="1" Cut="1.5704647302627563e+00" cType="1" res="-4.5152012262406060e-07" rms="3.2232692837715149e-01" purity="5.9855979681015015e-01" nType="0">
        <Node pos="l" depth="1" NCoef="0" IVar="-1" Cut="0.0000000000000000e+00" cType="1" res="-2.2517187971970998e-05" rms="3.2211339473724365e-01" purity="6.0177844762802124e-01" nType="-99"/>
        <Node pos="r" depth="1" NCoef="0" IVar="0" Cut="6.1844080686569214e-01" cType="0" res="6.1364769935607910e-03" rms="3.4902778267860413e-01" purity="1.7839196324348450e-01" nType="0">
          <Node pos="l" depth="2" NCoef="0" IVar="-1" Cut="0.0000000000000000e+00" cType="1" res="5.8130696415901184e-03" rms="3.6561995744705200e-01" purity="2.0300751924514771e-01" nType="-99"/>
          <Node pos="r" depth="2" NCoef="0" IVar="-1" Cut="0.0000000000000000e+00" cType="1" res="-6.1703450046479702e-03" rms="3.1195983290672302e-01" purity="1.2878787517547607e-01" nType="-99"/>
        </Node>
      </Node>
    </BinaryTree>
    <BinaryTree type="DecisionTree" boostWeight="1.0000000000000000e+00" itree="1433">
      <Node pos="s" depth="0" NCoef="0" IVar="1" Cut="1.5704647302627563e+00" cType="1" res="-4.4479804728325689e-07" rms="3.2232570648193359e-01" purity="5.9855979681015015e-01" nType="0">
        <Node pos="l" depth="1" NCoef="0" IVar="-1" Cut="0.0000000000000000e+00" cType="1" res="-2.0265215425752103e-05" rms="3.2211339473724365e-01" purity="6.0177844762802124e-01" nType="-99"/>
        <Node pos="r" depth="1" NCoef="0" IVar="0" Cut="2.0102448463439941e+00" cType="0" res="5.5177393369376659e-03" rms="3.4889230132102966e-01" purity="1.7839196324348450e-01" nType="0">
          <Node pos="l" depth="2" NCoef="0" IVar="-1" Cut="0.0000000000000000e+00" cType="1" res="7.3519875295460224e-03" rms="4.1998556256294250e-01" purity="2.8571429848670959e-01" nType="-99"/>
          <Node pos="r" depth="2" NCoef="0" IVar="-1" Cut="0.0000000000000000e+00" cType="1" res="-1.2418397236615419e-03" rms="3.1634894013404846e-01" purity="1.3636364042758942e-01" nType="-99"/>
        </Node>
      </Node>
    </BinaryTree>
    <BinaryTree type="DecisionTree" boostWeight="1.0000000000000000e+00" itree="1434">
      <Node pos="s" depth="0" NCoef="0" IVar="0" Cut="2.0439779758453369e+00" cType="1" res="-4.1990602994701476e-07" rms="3.2232493162155151e-01" purity="5.9855979681015015e-01" nType="0">
        <Node pos="l" depth="1" NCoef="0" IVar="-1" Cut="0.0000000000000000e+00" cType="1" res="2.9085404094075784e-05" rms="3.2233604788780212e-01" purity="6.0564202070236206e-01" nType="-99"/>
        <Node pos="r" depth="1" NCoef="0" IVar="2" Cut="8.7674933671951294e-01" cType="0" res="-3.9195744320750237e-03" rms="3.2159465551376343e-01" purity="1.4901477098464966e-01" nType="0">
          <Node pos="l" depth="2" NCoef="0" IVar="-1" Cut="0.0000000000000000e+00" cType="1" res="1.0691707720980048e-03" rms="3.2530638575553894e-01" purity="1.5813252329826355e-01" nType="-99"/>
          <Node pos="r" depth="2" NCoef="0" IVar="-1" Cut="0.0000000000000000e+00" cType="1" res="-1.4165546745061874e-02" rms="3.0272036790847778e-01" purity="1.0810811072587967e-01" nType="-99"/>
        </Node>
      </Node>
    </BinaryTree>
    <BinaryTree type="DecisionTree" boostWeight="1.0000000000000000e+00" itree="1435">
      <Node pos="s" depth="0" NCoef="0" IVar="2" Cut="1.9256891012191772e+00" cType="1" res="-4.6551767240998743e-07" rms="3.2232385873794556e-01" purity="5.9855979681015015e-01" nType="0">
        <Node pos="l" depth="1" NCoef="0" IVar="-1" Cut="0.0000000000000000e+00" cType="1" res="5.8865451137535274e-05" rms="3.2180026173591614e-01" purity="6.2506610155105591e-01" nType="-99"/>
        <Node pos="r" depth="1" NCoef="0" IVar="0" Cut="1.7116442322731018e-01" cType="1" res="-1.9220473477616906e-03" rms="3.3033013343811035e-01" purity="1.8757881224155426e-01" nType="0">
          <Node pos="l" depth="2" NCoef="0" IVar="-1" Cut="0.0000000000000000e+00" cType="1" res="-7.3575624264776707e-03" rms="4.3408605456352234e-01" purity="6.1092150211334229e-01" nType="-99"/>
          <Node pos="r" depth="2" NCoef="0" IVar="-1" Cut="0.0000000000000000e+00" cType="1" res="3.8751642568968236e-04" rms="3.1774780154228210e-01" purity="1.4449462294578552e-01" nType="-99"/>
        </Node>
      </Node>
    </BinaryTree>
    <BinaryTree type="DecisionTree" boostWeight="1.0000000000000000e+00" itree="1436">
      <Node pos="s" depth="0" NCoef="0" IVar="2" Cut="3.4542517662048340e+00" cType="1" res="-3.9295250076065713e-07" rms="3.2232201099395752e-01" purity="5.9855979681015015e-01" nType="0">
        <Node pos="l" depth="1" NCoef="0" IVar="-1" Cut="0.0000000000000000e+00" cType="1" res="1.5164784599619452e-05" rms="3.2221636176109314e-01" purity="6.0029160976409912e-01" nType="-99"/>
        <Node pos="r" depth="1" NCoef="0" IVar="0" Cut="1.3097455501556396e+00" cType="1" res="-7.4678580276668072e-03" rms="3.4575006365776062e-01" purity="1.9911503791809082e-01" nType="0">
          <Node pos="l" depth="2" NCoef="0" IVar="-1" Cut="0.0000000000000000e+00" cType="1" res="1.8416569801047444e-03" rms="3.5680869221687317e-01" purity="2.1929824352264404e-01" nType="-99"/>
          <Node pos="r" depth="2" NCoef="0" IVar="-1" Cut="0.0000000000000000e+00" cType="1" res="-7.3392107151448727e-03" rms="3.3363753557205200e-01" purity="1.7857143282890320e-01" nType="-99"/>
        </Node>
      </Node>
    </BinaryTree>
    <BinaryTree type="DecisionTree" boostWeight="1.0000000000000000e+00" itree="1437">
      <Node pos="s" depth="0" NCoef="0" IVar="3" Cut="3.6854353547096252e-01" cType="0" res="-3.6950495996279642e-07" rms="3.2232186198234558e-01" purity="5.9855979681015015e-01" nType="0">
        <Node pos="l" depth="1" NCoef="0" IVar="-1" Cut="0.0000000000000000e+00" cType="1" res="4.0442612953484058e-04" rms="3.5878053307533264e-01" purity="7.7152025699615479e-01" nType="-99"/>
        <Node pos="r" depth="1" NCoef="0" IVar="3" Cut="3.6761477589607239e-01" cType="0" res="-2.1910002396907657e-04" rms="3.1418117880821228e-01" purity="5.6247115135192871e-01" nType="0">
          <Node pos="l" depth="2" NCoef="0" IVar="-1" Cut="0.0000000000000000e+00" cType="1" res="-2.2561164572834969e-02" rms="3.9728334546089172e-01" purity="5.6302523612976074e-01" nType="-99"/>
          <Node pos="r" depth="2" NCoef="0" IVar="-1" Cut="0.0000000000000000e+00" cType="1" res="-1.5356845324276946e-05" rms="3.1390133500099182e-01" purity="5.6246960163116455e-01" nType="-99"/>
        </Node>
      </Node>
    </BinaryTree>
    <BinaryTree type="DecisionTree" boostWeight="1.0000000000000000e+00" itree="1438">
      <Node pos="s" depth="0" NCoef="0" IVar="0" Cut="1.2493752874433994e-03" cType="1" res="-2.6960265131492633e-07" rms="3.2231771945953369e-01" purity="5.9855979681015015e-01" nType="0">
        <Node pos="l" depth="1" NCoef="0" IVar="-1" Cut="0.0000000000000000e+00" cType="1" res="-4.4595939107239246e-04" rms="2.7182760834693909e-01" purity="9.0791207551956177e-01" nType="-99"/>
        <Node pos="r" depth="1" NCoef="0" IVar="3" Cut="4.0200340747833252e-01" cType="0" res="3.2873466261662543e-04" rms="3.4475910663604736e-01" purity="4.4418039917945862e-01" nType="0">
          <Node pos="l" depth="2" NCoef="0" IVar="-1" Cut="0.0000000000000000e+00" cType="1" res="2.5927468668669462e-03" rms="3.9728555083274841e-01" purity="6.8896794319152832e-01" nType="-99"/>
          <Node pos="r" depth="2" NCoef="0" IVar="-1" Cut="0.0000000000000000e+00" cType="1" res="-4.5171414058131631e-06" rms="3.4237733483314514e-01" purity="4.3392005562782288e-01" nType="-99"/>
        </Node>
      </Node>
    </BinaryTree>
    <BinaryTree type="DecisionTree" boostWeight="1.0000000000000000e+00" itree="1439">
      <Node pos="s" depth="0" NCoef="0" IVar="2" Cut="1.1876331567764282e+00" cType="1" res="-2.2054277337701933e-07" rms="3.2231765985488892e-01" purity="5.9855979681015015e-01" nType="0">
        <Node pos="l" depth="1" NCoef="0" IVar="-1" Cut="0.0000000000000000e+00" cType="1" res="1.1352233559591696e-04" rms="3.1609231233596802e-01" purity="6.8335270881652832e-01" nType="-99"/>
        <Node pos="r" depth="1" NCoef="0" IVar="2" Cut="1.2288070917129517e+00" cType="1" res="-9.4348663697019219e-04" rms="3.4668016433715820e-01" purity="2.5080385804176331e-01" nType="0">
          <Node pos="l" depth="2" NCoef="0" IVar="-1" Cut="0.0000000000000000e+00" cType="1" res="-9.1619864106178284e-03" rms="3.4731301665306091e-01" purity="2.9881155490875244e-01" nType="-99"/>
          <Node pos="r" depth="2" NCoef="0" IVar="-1" Cut="0.0000000000000000e+00" cType="1" res="1.6652830527164042e-04" rms="3.4659549593925476e-01" purity="2.4788092076778412e-01" nType="-99"/>
        </Node>
      </Node>
    </BinaryTree>
    <BinaryTree type="DecisionTree" boostWeight="1.0000000000000000e+00" itree="1440">
      <Node pos="s" depth="0" NCoef="0" IVar="3" Cut="4.9747130274772644e-01" cType="0" res="-2.3785490554928401e-07" rms="3.2231539487838745e-01" purity="5.9855979681015015e-01" nType="0">
        <Node pos="l" depth="1" NCoef="0" IVar="-1" Cut="0.0000000000000000e+00" cType="1" res="4.4767782092094421e-03" rms="3.1821158528327942e-01" purity="8.5981309413909912e-01" nType="-99"/>
        <Node pos="r" depth="1" NCoef="0" IVar="3" Cut="4.9123075604438782e-01" cType="0" res="-2.0954779756721109e-05" rms="3.2232344150543213e-01" purity="5.9802478551864624e-01" nType="0">
          <Node pos="l" depth="2" NCoef="0" IVar="-1" Cut="0.0000000000000000e+00" cType="1" res="-6.4475913532078266e-03" rms="3.0029043555259705e-01" purity="8.7096774578094482e-01" nType="-99"/>
          <Node pos="r" depth="2" NCoef="0" IVar="-1" Cut="0.0000000000000000e+00" cType="1" res="1.7172384104924276e-05" rms="3.2242384552955627e-01" purity="5.9672302007675171e-01" nType="-99"/>
        </Node>
      </Node>
    </BinaryTree>
    <BinaryTree type="DecisionTree" boostWeight="1.0000000000000000e+00" itree="1441">
      <Node pos="s" depth="0" NCoef="0" IVar="2" Cut="2.6487591266632080e+00" cType="1" res="-1.8288091041540611e-07" rms="3.2231459021568298e-01" purity="5.9855979681015015e-01" nType="0">
        <Node pos="l" depth="1" NCoef="0" IVar="-1" Cut="0.0000000000000000e+00" cType="1" res="2.8821668820455670e-05" rms="3.2215335965156555e-01" purity="6.0597991943359375e-01" nType="-99"/>
        <Node pos="r" depth="1" NCoef="0" IVar="3" Cut="3.1746396422386169e-01" cType="0" res="-3.4250684548169374e-03" rms="3.3123403787612915e-01" purity="1.8142075836658478e-01" nType="0">
          <Node pos="l" depth="2" NCoef="0" IVar="-1" Cut="0.0000000000000000e+00" cType="1" res="-7.6608248054981232e-03" rms="3.6065414547920227e-01" purity="2.5679013133049011e-01" nType="-99"/>
          <Node pos="r" depth="2" NCoef="0" IVar="-1" Cut="0.0000000000000000e+00" cType="1" res="6.7334561608731747e-03" rms="3.0495372414588928e-01" purity="1.2156862765550613e-01" nType="-99"/>
        </Node>
      </Node>
    </BinaryTree>
    <BinaryTree type="DecisionTree" boostWeight="1.0000000000000000e+00" itree="1442">
      <Node pos="s" depth="0" NCoef="0" IVar="2" Cut="3.2781672477722168e+00" cType="1" res="-2.6437243150212453e-07" rms="3.2231283187866211e-01" purity="5.9855979681015015e-01" nType="0">
        <Node pos="l" depth="1" NCoef="0" IVar="-1" Cut="0.0000000000000000e+00" cType="1" res="-1.6802116078906693e-05" rms="3.2212594151496887e-01" purity="6.0073769092559814e-01" nType="-99"/>
        <Node pos="r" depth="1" NCoef="0" IVar="1" Cut="2.3488256335258484e-01" cType="1" res="6.1413114890456200e-03" rms="3.5339024662971497e-01" purity="2.1812079846858978e-01" nType="0">
          <Node pos="l" depth="2" NCoef="0" IVar="-1" Cut="0.0000000000000000e+00" cType="1" res="-5.0207753665745258e-03" rms="3.4104040265083313e-01" purity="2.2142857313156128e-01" nType="-99"/>
          <Node pos="r" depth="2" NCoef="0" IVar="-1" Cut="0.0000000000000000e+00" cType="1" res="9.0191587805747986e-03" rms="3.6304926872253418e-01" purity="2.1518987417221069e-01" nType="-99"/>
        </Node>
      </Node>
    </BinaryTree>
    <BinaryTree type="DecisionTree" boostWeight="1.0000000000000000e+00" itree="1443">
      <Node pos="s" depth="0" NCoef="0" IVar="0" Cut="2.0439779758453369e+00" cType="1" res="-2.7683395842359459e-07" rms="3.2231178879737854e-01" purity="5.9855979681015015e-01" nType="0">
        <Node pos="l" depth="1" NCoef="0" IVar="-1" Cut="0.0000000000000000e+00" cType="1" res="2.8366235710564069e-05" rms="3.2232487201690674e-01" purity="6.0564202070236206e-01" nType="-99"/>
        <Node pos="r" depth="1" NCoef="0" IVar="3" Cut="1.3391660153865814e-01" cType="1" res="-3.8142160046845675e-03" rms="3.2145664095878601e-01" purity="1.4901477098464966e-01" nType="0">
          <Node pos="l" depth="2" NCoef="0" IVar="-1" Cut="0.0000000000000000e+00" cType="1" res="1.2652245350182056e-02" rms="3.6331987380981445e-01" purity="1.8627451360225677e-01" nType="-99"/>
          <Node pos="r" depth="2" NCoef="0" IVar="-1" Cut="0.0000000000000000e+00" cType="1" res="-3.8596075028181076e-03" rms="3.1466197967529297e-01" purity="1.4366197586059570e-01" nType="-99"/>
        </Node>
      </Node>
    </BinaryTree>
    <BinaryTree type="DecisionTree" boostWeight="1.0000000000000000e+00" itree="1444">
      <Node pos="s" depth="0" NCoef="0" IVar="1" Cut="7.0214891433715820e-01" cType="1" res="-3.2505090530321468e-07" rms="3.2231098413467407e-01" purity="5.9855979681015015e-01" nType="0">
        <Node pos="l" depth="1" NCoef="0" IVar="-1" Cut="0.0000000000000000e+00" cType="1" res="4.9089187086792663e-05" rms="3.2312721014022827e-01" purity="6.2254989147186279e-01" nType="-99"/>
        <Node pos="r" depth="1" NCoef="0" IVar="1" Cut="7.5878441333770752e-01" cType="0" res="-2.0720125176012516e-03" rms="3.0563646554946899e-01" purity="1.2196093797683716e-01" nType="0">
          <Node pos="l" depth="2" NCoef="0" IVar="-1" Cut="0.0000000000000000e+00" cType="1" res="8.8557013077661395e-04" rms="3.0756080150604248e-01" purity="1.2627196311950684e-01" nType="-99"/>
          <Node pos="r" depth="2" NCoef="0" IVar="-1" Cut="0.0000000000000000e+00" cType="1" res="-1.3162015005946159e-02" rms="2.9222884774208069e-01" purity="9.5100864768028259e-02" nType="-99"/>
        </Node>
      </Node>
    </BinaryTree>
    <BinaryTree type="DecisionTree" boostWeight="1.0000000000000000e+00" itree="1445">
      <Node pos="s" depth="0" NCoef="0" IVar="1" Cut="1.4130434989929199e+00" cType="1" res="-4.4598897375180968e-07" rms="3.2230785489082336e-01" purity="5.9855979681015015e-01" nType="0">
        <Node pos="l" depth="1" NCoef="0" IVar="-1" Cut="0.0000000000000000e+00" cType="1" res="2.1713778551202267e-05" rms="3.2230907678604126e-01" purity="6.0298997163772583e-01" nType="-99"/>
        <Node pos="r" depth="1" NCoef="0" IVar="1" Cut="1.5699497461318970e+00" cType="0" res="-4.6635083854198456e-03" rms="3.2214891910552979e-01" purity="1.5175096690654755e-01" nType="0">
          <Node pos="l" depth="2" NCoef="0" IVar="-1" Cut="0.0000000000000000e+00" cType="1" res="1.8228852422907948e-03" rms="3.4850296378135681e-01" purity="1.7839196324348450e-01" nType="-99"/>
          <Node pos="r" depth="2" NCoef="0" IVar="-1" Cut="0.0000000000000000e+00" cType="1" res="-2.3072466254234314e-02" rms="2.0441214740276337e-01" purity="6.0344826430082321e-02" nType="-99"/>
        </Node>
      </Node>
    </BinaryTree>
    <BinaryTree type="DecisionTree" boostWeight="1.0000000000000000e+00" itree="1446">
      <Node pos="s" depth="0" NCoef="0" IVar="1" Cut="1.5829585790634155e+00" cType="1" res="-5.3935195865051355e-07" rms="3.2230702042579651e-01" purity="5.9855979681015015e-01" nType="0">
        <Node pos="l" depth="1" NCoef="0" IVar="-1" Cut="0.0000000000000000e+00" cType="1" res="2.0397101252456196e-05" rms="3.2217732071876526e-01" purity="6.0176652669906616e-01" nType="-99"/>
        <Node pos="r" depth="1" NCoef="0" IVar="2" Cut="1.7287795543670654e+00" cType="0" res="-5.8457078412175179e-03" rms="3.3922281861305237e-01" purity="1.6795866191387177e-01" nType="0">
          <Node pos="l" depth="2" NCoef="0" IVar="-1" Cut="0.0000000000000000e+00" cType="1" res="3.7168634589761496e-03" rms="3.6446416378021240e-01" purity="1.9718310236930847e-01" nType="-99"/>
          <Node pos="r" depth="2" NCoef="0" IVar="-1" Cut="0.0000000000000000e+00" cType="1" res="-6.0044396668672562e-03" rms="3.2332479953765869e-01" purity="1.5102040767669678e-01" nType="-99"/>
        </Node>
      </Node>
    </BinaryTree>
    <BinaryTree type="DecisionTree" boostWeight="1.0000000000000000e+00" itree="1447">
      <Node pos="s" depth="0" NCoef="0" IVar="1" Cut="3.2233881950378418e-01" cType="1" res="-5.1545026735766442e-07" rms="3.2230690121650696e-01" purity="5.9855979681015015e-01" nType="0">
        <Node pos="l" depth="1" NCoef="0" IVar="-1" Cut="0.0000000000000000e+00" cType="1" res="-9.1577479906845838e-05" rms="3.1984072923660278e-01" purity="6.6661447286605835e-01" nType="-99"/>
        <Node pos="r" depth="1" NCoef="0" IVar="1" Cut="3.2675138115882874e-01" cType="1" res="1.1084122816100717e-03" rms="3.3636337518692017e-01" purity="2.0062777400016785e-01" nType="0">
          <Node pos="l" depth="2" NCoef="0" IVar="-1" Cut="0.0000000000000000e+00" cType="1" res="2.2737033665180206e-02" rms="3.9485290646553040e-01" purity="4.2342340946197510e-01" nType="-99"/>
          <Node pos="r" depth="2" NCoef="0" IVar="-1" Cut="0.0000000000000000e+00" cType="1" res="8.8930202764458954e-05" rms="3.3534178137779236e-01" purity="1.9734571874141693e-01" nType="-99"/>
        </Node>
      </Node>
    </BinaryTree>
    <BinaryTree type="DecisionTree" boostWeight="1.0000000000000000e+00" itree="1448">
      <Node pos="s" depth="0" NCoef="0" IVar="1" Cut="1.5829585790634155e+00" cType="1" res="-4.9316270178678678e-07" rms="3.2230427861213684e-01" purity="5.9855979681015015e-01" nType="0">
        <Node pos="l" depth="1" NCoef="0" IVar="-1" Cut="0.0000000000000000e+00" cType="1" res="1.8448872651788406e-05" rms="3.2217466831207275e-01" purity="6.0176652669906616e-01" nType="-99"/>
        <Node pos="r" depth="1" NCoef="0" IVar="1" Cut="1.8520064353942871e+00" cType="0" res="-5.2883578464388847e-03" rms="3.3921658992767334e-01" purity="1.6795866191387177e-01" nType="0">
          <Node pos="l" depth="2" NCoef="0" IVar="-1" Cut="0.0000000000000000e+00" cType="1" res="1.2560705654323101e-03" rms="3.7181231379508972e-01" purity="2.0816326141357422e-01" nType="-99"/>
          <Node pos="r" depth="2" NCoef="0" IVar="-1" Cut="0.0000000000000000e+00" cType="1" res="-1.0693154297769070e-02" rms="2.7330446243286133e-01" purity="9.8591551184654236e-02" nType="-99"/>
        </Node>
      </Node>
    </BinaryTree>
    <BinaryTree type="DecisionTree" boostWeight="1.0000000000000000e+00" itree="1449">
      <Node pos="s" depth="0" NCoef="0" IVar="1" Cut="1.2106447219848633e+00" cType="1" res="-4.8582336376057356e-07" rms="3.2230424880981445e-01" purity="5.9855979681015015e-01" nType="0">
        <Node pos="l" depth="1" NCoef="0" IVar="-1" Cut="0.0000000000000000e+00" cType="1" res="-2.8574706448125653e-05" rms="3.2228526473045349e-01" purity="6.0544127225875854e-01" nType="-99"/>
        <Node pos="r" depth="1" NCoef="0" IVar="3" Cut="3.1144583225250244e-01" cType="0" res="3.9278017356991768e-03" rms="3.2352349162101746e-01" purity="1.4649681746959686e-01" nType="0">
          <Node pos="l" depth="2" NCoef="0" IVar="-1" Cut="0.0000000000000000e+00" cType="1" res="1.4485458843410015e-02" rms="3.9230281114578247e-01" purity="2.2794117033481598e-01" nType="-99"/>
          <Node pos="r" depth="2" NCoef="0" IVar="-1" Cut="0.0000000000000000e+00" cType="1" res="-1.6648290911689401e-03" rms="3.0664190649986267e-01" purity="1.2942989170551300e-01" nType="-99"/>
        </Node>
      </Node>
    </BinaryTree>
    <BinaryTree type="DecisionTree" boostWeight="1.0000000000000000e+00" itree="1450">
      <Node pos="s" depth="0" NCoef="0" IVar="1" Cut="2.3250875473022461e+00" cType="1" res="-5.1902242148571531e-07" rms="3.2230281829833984e-01" purity="5.9855979681015015e-01" nType="0">
        <Node pos="l" depth="1" NCoef="0" IVar="1" Cut="1.7344640493392944e+00" cType="1" res="2.1924788597971201e-05" rms="3.2218790054321289e-01" purity="5.9937214851379395e-01" nType="0">
          <Node pos="l" depth="2" NCoef="0" IVar="-1" Cut="0.0000000000000000e+00" cType="1" res="-1.5140783034439664e-05" rms="3.2204753160476685e-01" purity="6.0092604160308838e-01" nType="-99"/>
          <Node pos="r" depth="2" NCoef="0" IVar="-1" Cut="0.0000000000000000e+00" cType="1" res="5.5527538061141968e-03" rms="3.5740152001380920e-01" purity="1.8461538851261139e-01" nType="-99"/>
        </Node>
        <Node pos="r" depth="1" NCoef="0" IVar="-1" Cut="0.0000000000000000e+00" cType="1" res="-3.2430330757051706e-03" rms="3.7232750654220581e-01" purity="2.1621622145175934e-01" nType="-99"/>
      </Node>
    </BinaryTree>
    <BinaryTree type="DecisionTree" boostWeight="1.0000000000000000e+00" itree="1451">
      <Node pos="s" depth="0" NCoef="0" IVar="1" Cut="1.5829585790634155e+00" cType="1" res="-4.8707931910030311e-07" rms="3.2230219244956970e-01" purity="5.9855979681015015e-01" nType="0">
        <Node pos="l" depth="1" NCoef="0" IVar="-1" Cut="0.0000000000000000e+00" cType="1" res="1.9369972505955957e-05" rms="3.2217392325401306e-01" purity="6.0176652669906616e-01" nType="-99"/>
        <Node pos="r" depth="1" NCoef="0" IVar="2" Cut="2.0490391254425049e+00" cType="1" res="-5.5483658798038960e-03" rms="3.3904254436492920e-01" purity="1.6795866191387177e-01" nType="0">
          <Node pos="l" depth="2" NCoef="0" IVar="-1" Cut="0.0000000000000000e+00" cType="1" res="6.3191098161041737e-04" rms="3.3641955256462097e-01" purity="1.6961130499839783e-01" nType="-99"/>
          <Node pos="r" depth="2" NCoef="0" IVar="-1" Cut="0.0000000000000000e+00" cType="1" res="-9.0390136465430260e-03" rms="3.4532812237739563e-01" purity="1.6346153616905212e-01" nType="-99"/>
        </Node>
      </Node>
    </BinaryTree>
    <BinaryTree type="DecisionTree" boostWeight="1.0000000000000000e+00" itree="1452">
      <Node pos="s" depth="0" NCoef="0" IVar="0" Cut="1.9465267658233643e+00" cType="1" res="-4.6215777160796279e-07" rms="3.2230195403099060e-01" purity="5.9855979681015015e-01" nType="0">
        <Node pos="l" depth="1" NCoef="0" IVar="-1" Cut="0.0000000000000000e+00" cType="1" res="-2.9842278308933601e-05" rms="3.2221627235412598e-01" purity="6.0647767782211304e-01" nType="-99"/>
        <Node pos="r" depth="1" NCoef="0" IVar="0" Cut="2.0435578823089600e+00" cType="1" res="3.5063242539763451e-03" rms="3.2705801725387573e-01" purity="1.5393012762069702e-01" nType="0">
          <Node pos="l" depth="2" NCoef="0" IVar="-1" Cut="0.0000000000000000e+00" cType="1" res="2.5966610759496689e-02" rms="3.6491623520851135e-01" purity="1.9417475163936615e-01" nType="-99"/>
          <Node pos="r" depth="2" NCoef="0" IVar="-1" Cut="0.0000000000000000e+00" cType="1" res="-1.4241288881748915e-03" rms="3.2130452990531921e-01" purity="1.4883148670196533e-01" nType="-99"/>
        </Node>
      </Node>
    </BinaryTree>
    <BinaryTree type="DecisionTree" boostWeight="1.0000000000000000e+00" itree="1453">
      <Node pos="s" depth="0" NCoef="0" IVar="1" Cut="1.5704647302627563e+00" cType="1" res="-6.1173847143436433e-07" rms="3.2229897379875183e-01" purity="5.9855979681015015e-01" nType="0">
        <Node pos="l" depth="1" NCoef="0" IVar="-1" Cut="0.0000000000000000e+00" cType="1" res="-1.8926346456282772e-05" rms="3.2209151983261108e-01" purity="6.0177844762802124e-01" nType="-99"/>
        <Node pos="r" depth="1" NCoef="0" IVar="1" Cut="1.7793014049530029e+00" cType="0" res="5.1271375268697739e-03" rms="3.4828475117683411e-01" purity="1.7839196324348450e-01" nType="0">
          <Node pos="l" depth="2" NCoef="0" IVar="-1" Cut="0.0000000000000000e+00" cType="1" res="-1.2538232840597630e-03" rms="3.6087575554847717e-01" purity="1.9424460828304291e-01" nType="-99"/>
          <Node pos="r" depth="2" NCoef="0" IVar="-1" Cut="0.0000000000000000e+00" cType="1" res="1.3351297937333584e-02" rms="3.1626534461975098e-01" purity="1.4166666567325592e-01" nType="-99"/>
        </Node>
      </Node>
    </BinaryTree>
    <BinaryTree type="DecisionTree" boostWeight="1.0000000000000000e+00" itree="1454">
      <Node pos="s" depth="0" NCoef="0" IVar="1" Cut="1.5829585790634155e+00" cType="1" res="-6.0410832247725921e-07" rms="3.2229775190353394e-01" purity="5.9855979681015015e-01" nType="0">
        <Node pos="l" depth="1" NCoef="0" IVar="-1" Cut="0.0000000000000000e+00" cType="1" res="1.8793518393067643e-05" rms="3.2216969132423401e-01" purity="6.0176652669906616e-01" nType="-99"/>
        <Node pos="r" depth="1" NCoef="0" IVar="0" Cut="2.0102448463439941e+00" cType="0" res="-5.4013277404010296e-03" rms="3.3901026844978333e-01" purity="1.6795866191387177e-01" nType="0">
          <Node pos="l" depth="2" NCoef="0" IVar="-1" Cut="0.0000000000000000e+00" cType="1" res="3.9297798648476601e-03" rms="4.1491919755935669e-01" purity="2.7272728085517883e-01" nType="-99"/>
          <Node pos="r" depth="2" NCoef="0" IVar="-1" Cut="0.0000000000000000e+00" cType="1" res="-5.9501542709767818e-03" rms="3.0329537391662598e-01" purity="1.2635378539562225e-01" nType="-99"/>
        </Node>
      </Node>
    </BinaryTree>
    <BinaryTree type="DecisionTree" boostWeight="1.0000000000000000e+00" itree="1455">
      <Node pos="s" depth="0" NCoef="0" IVar="1" Cut="1.7341328859329224e+00" cType="1" res="-5.7476313486404251e-07" rms="3.2229769229888916e-01" purity="5.9855979681015015e-01" nType="0">
        <Node pos="l" depth="1" NCoef="0" IVar="-1" Cut="0.0000000000000000e+00" cType="1" res="-1.7359789126203395e-05" rms="3.2204404473304749e-01" purity="6.0092604160308838e-01" nType="-99"/>
        <Node pos="r" depth="1" NCoef="0" IVar="0" Cut="1.4305347204208374e+00" cType="0" res="6.1242659576237202e-03" rms="3.6282113194465637e-01" purity="1.9607843458652496e-01" nType="0">
          <Node pos="l" depth="2" NCoef="0" IVar="-1" Cut="0.0000000000000000e+00" cType="1" res="-4.1659101843833923e-03" rms="3.6160632967948914e-01" purity="2.0000000298023224e-01" nType="-99"/>
          <Node pos="r" depth="2" NCoef="0" IVar="-1" Cut="0.0000000000000000e+00" cType="1" res="8.2503966987133026e-03" rms="3.6309269070625305e-01" purity="1.9277107715606689e-01" nType="-99"/>
        </Node>
      </Node>
    </BinaryTree>
    <BinaryTree type="DecisionTree" boostWeight="1.0000000000000000e+00" itree="1456">
      <Node pos="s" depth="0" NCoef="0" IVar="1" Cut="1.5829585790634155e+00" cType="1" res="-5.5788387953725760e-07" rms="3.2229676842689514e-01" purity="5.9855979681015015e-01" nType="0">
        <Node pos="l" depth="1" NCoef="0" IVar="-1" Cut="0.0000000000000000e+00" cType="1" res="1.8649987396202050e-05" rms="3.2216969132423401e-01" purity="6.0176652669906616e-01" nType="-99"/>
        <Node pos="r" depth="1" NCoef="0" IVar="0" Cut="2.0102448463439941e+00" cType="0" res="-5.3544444963335991e-03" rms="3.3888286352157593e-01" purity="1.6795866191387177e-01" nType="0">
          <Node pos="l" depth="2" NCoef="0" IVar="-1" Cut="0.0000000000000000e+00" cType="1" res="3.8924077525734901e-03" rms="4.1492763161659241e-01" purity="2.7272728085517883e-01" nType="-99"/>
          <Node pos="r" depth="2" NCoef="0" IVar="-1" Cut="0.0000000000000000e+00" cType="1" res="-5.9044267982244492e-03" rms="3.0309814214706421e-01" purity="1.2635378539562225e-01" nType="-99"/>
        </Node>
      </Node>
    </BinaryTree>
    <BinaryTree type="DecisionTree" boostWeight="1.0000000000000000e+00" itree="1457">
      <Node pos="s" depth="0" NCoef="0" IVar="1" Cut="1.7341328859329224e+00" cType="1" res="-5.3234879260344314e-07" rms="3.2229670882225037e-01" purity="5.9855979681015015e-01" nType="0">
        <Node pos="l" depth="1" NCoef="0" IVar="-1" Cut="0.0000000000000000e+00" cType="1" res="-1.7226655472768471e-05" rms="3.2204380631446838e-01" purity="6.0092604160308838e-01" nType="-99"/>
        <Node pos="r" depth="1" NCoef="0" IVar="0" Cut="1.4305347204208374e+00" cType="0" res="6.0837636701762676e-03" rms="3.6270621418952942e-01" purity="1.9607843458652496e-01" nType="0">
          <Node pos="l" depth="2" NCoef="0" IVar="-1" Cut="0.0000000000000000e+00" cType="1" res="-3.9614164270460606e-03" rms="3.6148175597190857e-01" purity="2.0000000298023224e-01" nType="-99"/>
          <Node pos="r" depth="2" NCoef="0" IVar="-1" Cut="0.0000000000000000e+00" cType="1" res="7.9934662207961082e-03" rms="3.6304008960723877e-01" purity="1.9277107715606689e-01" nType="-99"/>
        </Node>
      </Node>
    </BinaryTree>
    <BinaryTree type="DecisionTree" boostWeight="1.0000000000000000e+00" itree="1458">
      <Node pos="s" depth="0" NCoef="0" IVar="1" Cut="1.5829585790634155e+00" cType="1" res="-5.1675112899829401e-07" rms="3.2229581475257874e-01" purity="5.9855979681015015e-01" nType="0">
        <Node pos="l" depth="1" NCoef="0" IVar="-1" Cut="0.0000000000000000e+00" cType="1" res="1.8507740605855361e-05" rms="3.2216969132423401e-01" purity="6.0176652669906616e-01" nType="-99"/>
        <Node pos="r" depth="1" NCoef="0" IVar="0" Cut="2.0102448463439941e+00" cType="0" res="-5.3086145780980587e-03" rms="3.3876198530197144e-01" purity="1.6795866191387177e-01" nType="0">
          <Node pos="l" depth="2" NCoef="0" IVar="-1" Cut="0.0000000000000000e+00" cType="1" res="3.8406411185860634e-03" rms="4.1493302583694458e-01" purity="2.7272728085517883e-01" nType="-99"/>
          <Node pos="r" depth="2" NCoef="0" IVar="-1" Cut="0.0000000000000000e+00" cType="1" res="-5.8507546782493591e-03" rms="3.0291435122489929e-01" purity="1.2635378539562225e-01" nType="-99"/>
        </Node>
      </Node>
    </BinaryTree>
    <BinaryTree type="DecisionTree" boostWeight="1.0000000000000000e+00" itree="1459">
      <Node pos="s" depth="0" NCoef="0" IVar="1" Cut="1.7341328859329224e+00" cType="1" res="-4.9501392140882672e-07" rms="3.2229578495025635e-01" purity="5.9855979681015015e-01" nType="0">
        <Node pos="l" depth="1" NCoef="0" IVar="-1" Cut="0.0000000000000000e+00" cType="1" res="-1.7099277101806365e-05" rms="3.2204356789588928e-01" purity="6.0092604160308838e-01" nType="-99"/>
        <Node pos="r" depth="1" NCoef="0" IVar="3" Cut="2.3375508189201355e-01" cType="1" res="6.0444567352533340e-03" rms="3.6259794235229492e-01" purity="1.9607843458652496e-01" nType="0">
          <Node pos="l" depth="2" NCoef="0" IVar="-1" Cut="0.0000000000000000e+00" cType="1" res="8.0903945490717888e-03" rms="3.7380838394165039e-01" purity="2.1232876181602478e-01" nType="-99"/>
          <Node pos="r" depth="2" NCoef="0" IVar="-1" Cut="0.0000000000000000e+00" cType="1" res="-3.3746864646673203e-03" rms="3.5134041309356689e-01" purity="1.8125000596046448e-01" nType="-99"/>
        </Node>
      </Node>
    </BinaryTree>
    <BinaryTree type="DecisionTree" boostWeight="1.0000000000000000e+00" itree="1460">
      <Node pos="s" depth="0" NCoef="0" IVar="1" Cut="1.5829585790634155e+00" cType="1" res="-4.7836692829150707e-07" rms="3.2229483127593994e-01" purity="5.9855979681015015e-01" nType="0">
        <Node pos="l" depth="1" NCoef="0" IVar="-1" Cut="0.0000000000000000e+00" cType="1" res="1.8366925360169262e-05" rms="3.2216969132423401e-01" purity="6.0176652669906616e-01" nType="-99"/>
        <Node pos="r" depth="1" NCoef="0" IVar="2" Cut="1.7287795543670654e+00" cType="0" res="-5.2635613828897476e-03" rms="3.3863782882690430e-01" purity="1.6795866191387177e-01" nType="0">
          <Node pos="l" depth="2" NCoef="0" IVar="-1" Cut="0.0000000000000000e+00" cType="1" res="3.7706815637648106e-03" rms="3.6353221535682678e-01" purity="1.9718310236930847e-01" nType="-99"/>
          <Node pos="r" depth="2" NCoef="0" IVar="-1" Cut="0.0000000000000000e+00" cType="1" res="-5.6986566632986069e-03" rms="3.2298499345779419e-01" purity="1.5102040767669678e-01" nType="-99"/>
        </Node>
      </Node>
    </BinaryTree>
    <BinaryTree type="DecisionTree" boostWeight="1.0000000000000000e+00" itree="1461">
      <Node pos="s" depth="0" NCoef="0" IVar="1" Cut="1.7341328859329224e+00" cType="1" res="-4.5765767708871863e-07" rms="3.2229474186897278e-01" purity="5.9855979681015015e-01" nType="0">
        <Node pos="l" depth="1" NCoef="0" IVar="-1" Cut="0.0000000000000000e+00" cType="1" res="-1.7018426660797559e-05" rms="3.2204326987266541e-01" purity="6.0092604160308838e-01" nType="-99"/>
        <Node pos="r" depth="1" NCoef="0" IVar="0" Cut="1.4305347204208374e+00" cType="0" res="6.0218470171093941e-03" rms="3.6248627305030823e-01" purity="1.9607843458652496e-01" nType="0">
          <Node pos="l" depth="2" NCoef="0" IVar="-1" Cut="0.0000000000000000e+00" cType="1" res="-4.0550557896494865e-03" rms="3.6126974225044250e-01" purity="2.0000000298023224e-01" nType="-99"/>
          <Node pos="r" depth="2" NCoef="0" IVar="-1" Cut="0.0000000000000000e+00" cType="1" res="8.0528249964118004e-03" rms="3.6279487609863281e-01" purity="1.9277107715606689e-01" nType="-99"/>
        </Node>
      </Node>
    </BinaryTree>
    <BinaryTree type="DecisionTree" boostWeight="1.0000000000000000e+00" itree="1462">
      <Node pos="s" depth="0" NCoef="0" IVar="1" Cut="1.5829585790634155e+00" cType="1" res="-4.5049756636217353e-07" rms="3.2229381799697876e-01" purity="5.9855979681015015e-01" nType="0">
        <Node pos="l" depth="1" NCoef="0" IVar="-1" Cut="0.0000000000000000e+00" cType="1" res="1.8231930880574510e-05" rms="3.2216969132423401e-01" purity="6.0176652669906616e-01" nType="-99"/>
        <Node pos="r" depth="1" NCoef="0" IVar="1" Cut="1.8089290857315063e+00" cType="0" res="-5.2215782925486565e-03" rms="3.3850702643394470e-01" purity="1.6795866191387177e-01" nType="0">
          <Node pos="l" depth="2" NCoef="0" IVar="-1" Cut="0.0000000000000000e+00" cType="1" res="8.5155933629721403e-04" rms="3.6618846654891968e-01" purity="2.0224718749523163e-01" nType="-99"/>
          <Node pos="r" depth="2" NCoef="0" IVar="-1" Cut="0.0000000000000000e+00" cType="1" res="-1.1910047382116318e-02" rms="2.6600059866905212e-01" purity="9.1666668653488159e-02" nType="-99"/>
        </Node>
      </Node>
    </BinaryTree>
    <BinaryTree type="DecisionTree" boostWeight="1.0000000000000000e+00" itree="1463">
      <Node pos="s" depth="0" NCoef="0" IVar="1" Cut="1.5704647302627563e+00" cType="1" res="-4.4708895075018518e-07" rms="3.2229372859001160e-01" purity="5.9855979681015015e-01" nType="0">
        <Node pos="l" depth="1" NCoef="0" IVar="-1" Cut="0.0000000000000000e+00" cType="1" res="-1.9418355805100873e-05" rms="3.2209151983261108e-01" purity="6.0177844762802124e-01" nType="-99"/>
        <Node pos="r" depth="1" NCoef="0" IVar="1" Cut="1.7793014049530029e+00" cType="0" res="5.2841659635305405e-03" rms="3.4764182567596436e-01" purity="1.7839196324348450e-01" nType="0">
          <Node pos="l" depth="2" NCoef="0" IVar="-1" Cut="0.0000000000000000e+00" cType="1" res="-1.2093465775251389e-03" rms="3.6028796434402466e-01" purity="1.9424460828304291e-01" nType="-99"/>
          <Node pos="r" depth="2" NCoef="0" IVar="-1" Cut="0.0000000000000000e+00" cType="1" res="1.3530316762626171e-02" rms="3.1546574831008911e-01" purity="1.4166666567325592e-01" nType="-99"/>
        </Node>
      </Node>
    </BinaryTree>
    <BinaryTree type="DecisionTree" boostWeight="1.0000000000000000e+00" itree="1464">
      <Node pos="s" depth="0" NCoef="0" IVar="2" Cut="3.8813500404357910e+00" cType="1" res="-4.5703299633714778e-07" rms="3.2229247689247131e-01" purity="5.9855979681015015e-01" nType="0">
        <Node pos="l" depth="1" NCoef="0" IVar="2" Cut="3.3121306896209717e+00" cType="1" res="2.0392857550177723e-05" rms="3.2221680879592896e-01" purity="5.9940659999847412e-01" nType="0">
          <Node pos="l" depth="2" NCoef="0" IVar="-1" Cut="0.0000000000000000e+00" cType="1" res="-1.5389872714877129e-05" rms="3.2212048768997192e-01" purity="6.0064917802810669e-01" nType="-99"/>
          <Node pos="r" depth="2" NCoef="0" IVar="-1" Cut="0.0000000000000000e+00" cType="1" res="6.0726930387318134e-03" rms="3.4964272379875183e-01" purity="2.2543352842330933e-01" nType="-99"/>
        </Node>
        <Node pos="r" depth="1" NCoef="0" IVar="-1" Cut="0.0000000000000000e+00" cType="1" res="-3.2809812109917402e-03" rms="3.5513997077941895e-01" purity="2.1052631735801697e-01" nType="-99"/>
      </Node>
    </BinaryTree>
    <BinaryTree type="DecisionTree" boostWeight="1.0000000000000000e+00" itree="1465">
      <Node pos="s" depth="0" NCoef="0" IVar="2" Cut="3.4542517662048340e+00" cType="1" res="-4.2840636638175056e-07" rms="3.2229191064834595e-01" purity="5.9855979681015015e-01" nType="0">
        <Node pos="l" depth="1" NCoef="0" IVar="-1" Cut="0.0000000000000000e+00" cType="1" res="1.4116981219558511e-05" rms="3.2218679785728455e-01" purity="6.0029160976409912e-01" nType="-99"/>
        <Node pos="r" depth="1" NCoef="0" IVar="2" Cut="3.9621815681457520e+00" cType="0" res="-6.9661685265600681e-03" rms="3.4561535716056824e-01" purity="1.9911503791809082e-01" nType="0">
          <Node pos="l" depth="2" NCoef="0" IVar="-1" Cut="0.0000000000000000e+00" cType="1" res="2.5615664198994637e-03" rms="3.7123298645019531e-01" purity="2.3529411852359772e-01" nType="-99"/>
          <Node pos="r" depth="2" NCoef="0" IVar="-1" Cut="0.0000000000000000e+00" cType="1" res="-7.3924525640904903e-03" rms="3.2253092527389526e-01" purity="1.6935484111309052e-01" nType="-99"/>
        </Node>
      </Node>
    </BinaryTree>
    <BinaryTree type="DecisionTree" boostWeight="1.0000000000000000e+00" itree="1466">
      <Node pos="s" depth="0" NCoef="0" IVar="1" Cut="1.7991004884243011e-01" cType="1" res="-4.0332417938770959e-07" rms="3.2229179143905640e-01" purity="5.9855979681015015e-01" nType="0">
        <Node pos="l" depth="1" NCoef="0" IVar="-1" Cut="0.0000000000000000e+00" cType="1" res="1.2719031656160951e-04" rms="3.1368276476860046e-01" purity="7.0187205076217651e-01" nType="-99"/>
        <Node pos="r" depth="1" NCoef="0" IVar="0" Cut="5.2473764866590500e-02" cType="1" res="-7.7683880226686597e-04" rms="3.4708955883979797e-01" purity="2.8532922267913818e-01" nType="0">
          <Node pos="l" depth="2" NCoef="0" IVar="-1" Cut="0.0000000000000000e+00" cType="1" res="-3.2878844067454338e-03" rms="4.1270470619201660e-01" purity="7.0837438106536865e-01" nType="-99"/>
          <Node pos="r" depth="2" NCoef="0" IVar="-1" Cut="0.0000000000000000e+00" cType="1" res="1.0972131276503205e-03" rms="3.2427981495857239e-01" purity="1.5573440492153168e-01" nType="-99"/>
        </Node>
      </Node>
    </BinaryTree>
    <BinaryTree type="DecisionTree" boostWeight="1.0000000000000000e+00" itree="1467">
      <Node pos="s" depth="0" NCoef="0" IVar="0" Cut="5.9970013797283173e-02" cType="1" res="-3.1052201165948645e-07" rms="3.2228824496269226e-01" purity="5.9855979681015015e-01" nType="0">
        <Node pos="l" depth="1" NCoef="0" IVar="-1" Cut="0.0000000000000000e+00" cType="1" res="3.3177851582877338e-04" rms="2.8218892216682434e-01" purity="8.9877647161483765e-01" nType="-99"/>
        <Node pos="r" depth="1" NCoef="0" IVar="3" Cut="4.1463568806648254e-01" cType="0" res="-5.5705307750031352e-04" rms="3.5915008187294006e-01" purity="2.8743678331375122e-01" nType="0">
          <Node pos="l" depth="2" NCoef="0" IVar="-1" Cut="0.0000000000000000e+00" cType="1" res="-6.4517669379711151e-03" rms="4.4867578148841858e-01" purity="5.0656169652938843e-01" nType="-99"/>
          <Node pos="r" depth="2" NCoef="0" IVar="-1" Cut="0.0000000000000000e+00" cType="1" res="-6.7966495407745242e-05" rms="3.5761874914169312e-01" purity="2.8414070606231689e-01" nType="-99"/>
        </Node>
      </Node>
    </BinaryTree>
    <BinaryTree type="DecisionTree" boostWeight="1.0000000000000000e+00" itree="1468">
      <Node pos="s" depth="0" NCoef="0" IVar="0" Cut="5.9970013797283173e-02" cType="1" res="-2.6605746938912489e-07" rms="3.2228633761405945e-01" purity="5.9855979681015015e-01" nType="0">
        <Node pos="l" depth="1" NCoef="0" IVar="-1" Cut="0.0000000000000000e+00" cType="1" res="2.9874575557187200e-04" rms="2.8218945860862732e-01" purity="8.9877647161483765e-01" nType="-99"/>
        <Node pos="r" depth="1" NCoef="0" IVar="1" Cut="8.7456271052360535e-02" cType="1" res="-5.0133216427639127e-04" rms="3.5914632678031921e-01" purity="2.8743678331375122e-01" nType="0">
          <Node pos="l" depth="2" NCoef="0" IVar="-1" Cut="0.0000000000000000e+00" cType="1" res="-1.1779923224821687e-03" rms="3.8323044776916504e-01" purity="4.0370827913284302e-01" nType="-99"/>
          <Node pos="r" depth="2" NCoef="0" IVar="-1" Cut="0.0000000000000000e+00" cType="1" res="9.6052809385582805e-04" rms="3.3613646030426025e-01" purity="1.8349908292293549e-01" nType="-99"/>
        </Node>
      </Node>
    </BinaryTree>
    <BinaryTree type="DecisionTree" boostWeight="1.0000000000000000e+00" itree="1469">
      <Node pos="s" depth="0" NCoef="0" IVar="1" Cut="5.2473764866590500e-02" cType="1" res="-2.6201004743597878e-07" rms="3.2228448987007141e-01" purity="5.9855979681015015e-01" nType="0">
        <Node pos="l" depth="1" NCoef="0" IVar="-1" Cut="0.0000000000000000e+00" cType="1" res="2.6046668062917888e-04" rms="3.0199182033538818e-01" purity="7.4758082628250122e-01" nType="-99"/>
        <Node pos="r" depth="1" NCoef="0" IVar="3" Cut="3.6153465509414673e-01" cType="0" res="-5.5315182544291019e-04" rms="3.4381476044654846e-01" purity="4.2985135316848755e-01" nType="0">
          <Node pos="l" depth="2" NCoef="0" IVar="-1" Cut="0.0000000000000000e+00" cType="1" res="1.8295415211468935e-03" rms="4.0710899233818054e-01" purity="6.4418298006057739e-01" nType="-99"/>
          <Node pos="r" depth="2" NCoef="0" IVar="-1" Cut="0.0000000000000000e+00" cType="1" res="-7.9490494681522250e-04" rms="3.3080109953880310e-01" purity="3.9030390977859497e-01" nType="-99"/>
        </Node>
      </Node>
    </BinaryTree>
    <BinaryTree type="DecisionTree" boostWeight="1.0000000000000000e+00" itree="1470">
      <Node pos="s" depth="0" NCoef="0" IVar="3" Cut="2.6085385680198669e-01" cType="1" res="-2.2449690106896014e-07" rms="3.2228395342826843e-01" purity="5.9855979681015015e-01" nType="0">
        <Node pos="l" depth="1" NCoef="0" IVar="-1" Cut="0.0000000000000000e+00" cType="1" res="2.8012649272568524e-04" rms="2.8172150254249573e-01" purity="6.1474961042404175e-01" nType="-99"/>
        <Node pos="r" depth="1" NCoef="0" IVar="3" Cut="2.6479849219322205e-01" cType="0" res="-4.9742509145289660e-04" rms="3.6120763421058655e-01" purity="5.8097934722900391e-01" nType="0">
          <Node pos="l" depth="2" NCoef="0" IVar="-1" Cut="0.0000000000000000e+00" cType="1" res="-6.5454078139737248e-05" rms="3.6212804913520813e-01" purity="5.8744484186172485e-01" nType="-99"/>
          <Node pos="r" depth="2" NCoef="0" IVar="-1" Cut="0.0000000000000000e+00" cType="1" res="-6.0062757693231106e-03" rms="3.2217189669609070e-01" purity="3.2357722520828247e-01" nType="-99"/>
        </Node>
      </Node>
    </BinaryTree>
    <BinaryTree type="DecisionTree" boostWeight="1.0000000000000000e+00" itree="1471">
      <Node pos="s" depth="0" NCoef="0" IVar="0" Cut="1.1081959009170532e+00" cType="1" res="-2.1968457986076828e-07" rms="3.2228329777717590e-01" purity="5.9855979681015015e-01" nType="0">
        <Node pos="l" depth="1" NCoef="0" IVar="-1" Cut="0.0000000000000000e+00" cType="1" res="5.5474280088674277e-05" rms="3.2491815090179443e-01" purity="6.3016062974929810e-01" nType="-99"/>
        <Node pos="r" depth="1" NCoef="0" IVar="3" Cut="3.1162634491920471e-01" cType="0" res="-1.8829387845471501e-03" rms="2.7725532650947571e-01" purity="9.8360657691955566e-02" nType="0">
          <Node pos="l" depth="2" NCoef="0" IVar="-1" Cut="0.0000000000000000e+00" cType="1" res="7.2792395949363708e-03" rms="4.0143764019012451e-01" purity="2.8169015049934387e-01" nType="-99"/>
          <Node pos="r" depth="2" NCoef="0" IVar="-1" Cut="0.0000000000000000e+00" cType="1" res="-2.4475445970892906e-03" rms="2.6575171947479248e-01" purity="8.4886126220226288e-02" nType="-99"/>
        </Node>
      </Node>
    </BinaryTree>
    <BinaryTree type="DecisionTree" boostWeight="1.0000000000000000e+00" itree="1472">
      <Node pos="s" depth="0" NCoef="0" IVar="3" Cut="2.6560118794441223e-01" cType="1" res="-2.6256779506184103e-07" rms="3.2228308916091919e-01" purity="5.9855979681015015e-01" nType="0">
        <Node pos="l" depth="1" NCoef="0" IVar="-1" Cut="0.0000000000000000e+00" cType="1" res="2.7330647571943700e-04" rms="2.8309929370880127e-01" purity="6.0753571987152100e-01" nType="-99"/>
        <Node pos="r" depth="1" NCoef="0" IVar="3" Cut="2.6633852720260620e-01" cType="0" res="-5.1861192332580686e-04" rms="3.6213028430938721e-01" purity="5.8824014663696289e-01" nType="0">
          <Node pos="l" depth="2" NCoef="0" IVar="-1" Cut="0.0000000000000000e+00" cType="1" res="-1.3871904229745269e-04" rms="3.6219251155853271e-01" purity="5.8942854404449463e-01" nType="-99"/>
          <Node pos="r" depth="2" NCoef="0" IVar="-1" Cut="0.0000000000000000e+00" cType="1" res="-1.5407653525471687e-02" rms="3.4473916888237000e-01" purity="3.0000001192092896e-01" nType="-99"/>
        </Node>
      </Node>
    </BinaryTree>
    <BinaryTree type="DecisionTree" boostWeight="1.0000000000000000e+00" itree="1473">
      <Node pos="s" depth="0" NCoef="0" IVar="0" Cut="1.2493752874433994e-03" cType="1" res="-2.6087641913363768e-07" rms="3.2228213548660278e-01" purity="5.9855979681015015e-01" nType="0">
        <Node pos="l" depth="1" NCoef="0" IVar="-1" Cut="0.0000000000000000e+00" cType="1" res="-4.4820661423727870e-04" rms="2.7181524038314819e-01" purity="9.0791207551956177e-01" nType="-99"/>
        <Node pos="r" depth="1" NCoef="0" IVar="0" Cut="1.0949736461043358e-02" cType="1" res="3.3018123940564692e-04" rms="3.4471410512924194e-01" purity="4.4418039917945862e-01" nType="0">
          <Node pos="l" depth="2" NCoef="0" IVar="-1" Cut="0.0000000000000000e+00" cType="1" res="3.3085700124502182e-02" rms="9.9996730685234070e-02" purity="9.8880594968795776e-01" nType="-99"/>
          <Node pos="r" depth="2" NCoef="0" IVar="-1" Cut="0.0000000000000000e+00" cType="1" res="7.7318829426076263e-05" rms="3.4592884778976440e-01" purity="4.3996882438659668e-01" nType="-99"/>
        </Node>
      </Node>
    </BinaryTree>
    <BinaryTree type="DecisionTree" boostWeight="1.0000000000000000e+00" itree="1474">
      <Node pos="s" depth="0" NCoef="0" IVar="1" Cut="1.5829585790634155e+00" cType="1" res="4.9647262301277806e-08" rms="3.2228136062622070e-01" purity="5.9855979681015015e-01" nType="0">
        <Node pos="l" depth="1" NCoef="0" IVar="-1" Cut="0.0000000000000000e+00" cType="1" res="1.8855158486985601e-05" rms="3.2215797901153564e-01" purity="6.0176652669906616e-01" nType="-99"/>
        <Node pos="r" depth="1" NCoef="0" IVar="1" Cut="1.8089290857315063e+00" cType="0" res="-5.3295739926397800e-03" rms="3.3839756250381470e-01" purity="1.6795866191387177e-01" nType="0">
          <Node pos="l" depth="2" NCoef="0" IVar="-1" Cut="0.0000000000000000e+00" cType="1" res="8.0144213279709220e-04" rms="3.6617270112037659e-01" purity="2.0224718749523163e-01" nType="-99"/>
          <Node pos="r" depth="2" NCoef="0" IVar="-1" Cut="0.0000000000000000e+00" cType="1" res="-1.1914484202861786e-02" rms="2.6560732722282410e-01" purity="9.1666668653488159e-02" nType="-99"/>
        </Node>
      </Node>
    </BinaryTree>
    <BinaryTree type="DecisionTree" boostWeight="1.0000000000000000e+00" itree="1475">
      <Node pos="s" depth="0" NCoef="0" IVar="3" Cut="2.6760008931159973e-01" cType="1" res="3.1520948073904265e-09" rms="3.2228127121925354e-01" purity="5.9855979681015015e-01" nType="0">
        <Node pos="l" depth="1" NCoef="0" IVar="-1" Cut="0.0000000000000000e+00" cType="1" res="2.5567816919647157e-04" rms="2.8396794199943542e-01" purity="6.0426145792007446e-01" nType="-99"/>
        <Node pos="r" depth="1" NCoef="0" IVar="3" Cut="2.6842343807220459e-01" cType="0" res="-5.0046161049976945e-04" rms="3.6234134435653687e-01" purity="5.9182739257812500e-01" nType="0">
          <Node pos="l" depth="2" NCoef="0" IVar="-1" Cut="0.0000000000000000e+00" cType="1" res="-1.2594685540534556e-04" rms="3.6260434985160828e-01" purity="5.9353405237197876e-01" nType="-99"/>
          <Node pos="r" depth="2" NCoef="0" IVar="-1" Cut="0.0000000000000000e+00" cType="1" res="-1.3970969244837761e-02" rms="3.0780801177024841e-01" purity="2.7343750000000000e-01" nType="-99"/>
        </Node>
      </Node>
    </BinaryTree>
    <BinaryTree type="DecisionTree" boostWeight="1.0000000000000000e+00" itree="1476">
      <Node pos="s" depth="0" NCoef="0" IVar="1" Cut="5.2473764866590500e-02" cType="1" res="-2.6526238983137773e-08" rms="3.2228058576583862e-01" purity="5.9855979681015015e-01" nType="0">
        <Node pos="l" depth="1" NCoef="0" IVar="-1" Cut="0.0000000000000000e+00" cType="1" res="2.2930791601538658e-04" rms="3.0198737978935242e-01" purity="7.4758082628250122e-01" nType="-99"/>
        <Node pos="r" depth="1" NCoef="0" IVar="3" Cut="3.6153465509414673e-01" cType="0" res="-4.8639115993864834e-04" rms="3.4381157159805298e-01" purity="4.2985135316848755e-01" nType="0">
          <Node pos="l" depth="2" NCoef="0" IVar="-1" Cut="0.0000000000000000e+00" cType="1" res="1.6736213583499193e-03" rms="4.0710562467575073e-01" purity="6.4418298006057739e-01" nType="-99"/>
          <Node pos="r" depth="2" NCoef="0" IVar="-1" Cut="0.0000000000000000e+00" cType="1" res="-7.1681645931676030e-04" rms="3.3080032467842102e-01" purity="3.9030390977859497e-01" nType="-99"/>
        </Node>
      </Node>
    </BinaryTree>
    <BinaryTree type="DecisionTree" boostWeight="1.0000000000000000e+00" itree="1477">
      <Node pos="s" depth="0" NCoef="0" IVar="3" Cut="3.0407965183258057e-01" cType="0" res="-1.3801537690483201e-08" rms="3.2228019833564758e-01" purity="5.9855979681015015e-01" nType="0">
        <Node pos="l" depth="1" NCoef="0" IVar="-1" Cut="0.0000000000000000e+00" cType="1" res="-2.5048930547200143e-04" rms="3.6864945292472839e-01" purity="6.5125590562820435e-01" nType="-99"/>
        <Node pos="r" depth="1" NCoef="0" IVar="3" Cut="3.0314764380455017e-01" cType="1" res="3.6453042412176728e-04" rms="2.9452139139175415e-01" purity="5.7039856910705566e-01" nType="0">
          <Node pos="l" depth="2" NCoef="0" IVar="-1" Cut="0.0000000000000000e+00" cType="1" res="6.7024644522462040e-05" rms="2.9413014650344849e-01" purity="5.7054132223129272e-01" nType="-99"/>
          <Node pos="r" depth="2" NCoef="0" IVar="-1" Cut="0.0000000000000000e+00" cType="1" res="2.3050092160701752e-02" rms="3.6979097127914429e-01" purity="5.3741496801376343e-01" nType="-99"/>
        </Node>
      </Node>
    </BinaryTree>
    <BinaryTree type="DecisionTree" boostWeight="1.0000000000000000e+00" itree="1478">
      <Node pos="s" depth="0" NCoef="0" IVar="3" Cut="2.9058721661567688e-01" cType="0" res="-3.5398670661379583e-08" rms="3.2227638363838196e-01" purity="5.9855979681015015e-01" nType="0">
        <Node pos="l" depth="1" NCoef="0" IVar="-1" Cut="0.0000000000000000e+00" cType="1" res="-2.2156465274747461e-04" rms="3.6700913310050964e-01" purity="6.2768095731735229e-01" nType="-99"/>
        <Node pos="r" depth="1" NCoef="0" IVar="3" Cut="2.8216436505317688e-01" cType="1" res="3.8099774974398315e-04" rms="2.9020071029663086e-01" purity="5.8000564575195312e-01" nType="0">
          <Node pos="l" depth="2" NCoef="0" IVar="-1" Cut="0.0000000000000000e+00" cType="1" res="-7.1993126766756177e-05" rms="2.8740966320037842e-01" purity="5.8664315938949585e-01" nType="-99"/>
          <Node pos="r" depth="2" NCoef="0" IVar="-1" Cut="0.0000000000000000e+00" cType="1" res="4.9927420914173126e-03" rms="3.4889072179794312e-01" purity="4.2498096823692322e-01" nType="-99"/>
        </Node>
      </Node>
    </BinaryTree>
    <BinaryTree type="DecisionTree" boostWeight="1.0000000000000000e+00" itree="1479">
      <Node pos="s" depth="0" NCoef="0" IVar="3" Cut="2.7884379029273987e-01" cType="0" res="-5.0205891000132397e-08" rms="3.2227447628974915e-01" purity="5.9855979681015015e-01" nType="0">
        <Node pos="l" depth="1" NCoef="0" IVar="-1" Cut="0.0000000000000000e+00" cType="1" res="-2.1332562027964741e-04" rms="3.6507144570350647e-01" purity="6.0930609703063965e-01" nType="-99"/>
        <Node pos="r" depth="1" NCoef="0" IVar="3" Cut="2.7814462780952454e-01" cType="1" res="4.2049572221003473e-04" rms="2.8664654493331909e-01" purity="5.9063452482223511e-01" nType="0">
          <Node pos="l" depth="2" NCoef="0" IVar="-1" Cut="0.0000000000000000e+00" cType="1" res="1.6576696361880749e-04" rms="2.8633478283882141e-01" purity="5.9130287170410156e-01" nType="-99"/>
          <Node pos="r" depth="2" NCoef="0" IVar="-1" Cut="0.0000000000000000e+00" cType="1" res="1.4495828188955784e-02" rms="3.5343948006629944e-01" purity="4.2622950673103333e-01" nType="-99"/>
        </Node>
      </Node>
    </BinaryTree>
    <BinaryTree type="DecisionTree" boostWeight="1.0000000000000000e+00" itree="1480">
      <Node pos="s" depth="0" NCoef="0" IVar="1" Cut="1.5704647302627563e+00" cType="1" res="-6.2411118051386438e-08" rms="3.2227298617362976e-01" purity="5.9855979681015015e-01" nType="0">
        <Node pos="l" depth="1" NCoef="0" IVar="-1" Cut="0.0000000000000000e+00" cType="1" res="-1.8903789168689400e-05" rms="3.2207202911376953e-01" purity="6.0177844762802124e-01" nType="-99"/>
        <Node pos="r" depth="1" NCoef="0" IVar="1" Cut="1.7793014049530029e+00" cType="0" res="5.1919682882726192e-03" rms="3.4746995568275452e-01" purity="1.7839196324348450e-01" nType="0">
          <Node pos="l" depth="2" NCoef="0" IVar="-1" Cut="0.0000000000000000e+00" cType="1" res="-1.1675513815134764e-03" rms="3.6025607585906982e-01" purity="1.9424460828304291e-01" nType="-99"/>
          <Node pos="r" depth="2" NCoef="0" IVar="-1" Cut="0.0000000000000000e+00" cType="1" res="1.3160770758986473e-02" rms="3.1496766209602356e-01" purity="1.4166666567325592e-01" nType="-99"/>
        </Node>
      </Node>
    </BinaryTree>
    <BinaryTree type="DecisionTree" boostWeight="1.0000000000000000e+00" itree="1481">
      <Node pos="s" depth="0" NCoef="0" IVar="3" Cut="4.9697157740592957e-01" cType="0" res="-1.0804121330920680e-07" rms="3.2227173447608948e-01" purity="5.9855979681015015e-01" nType="0">
        <Node pos="l" depth="1" NCoef="0" IVar="-1" Cut="0.0000000000000000e+00" cType="1" res="-3.7766078021377325e-03" rms="3.4745067358016968e-01" purity="8.3458644151687622e-01" nType="-99"/>
        <Node pos="r" depth="1" NCoef="0" IVar="3" Cut="4.9217540025711060e-01" cType="0" res="2.2498514226754196e-05" rms="3.2220479846000671e-01" purity="5.9795868396759033e-01" nType="0">
          <Node pos="l" depth="2" NCoef="0" IVar="-1" Cut="0.0000000000000000e+00" cType="1" res="7.1341404691338539e-03" rms="2.6005977392196655e-01" purity="9.0322577953338623e-01" nType="-99"/>
          <Node pos="r" depth="2" NCoef="0" IVar="-1" Cut="0.0000000000000000e+00" cType="1" res="-1.1031958820240106e-05" rms="3.2240453362464905e-01" purity="5.9686750173568726e-01" nType="-99"/>
        </Node>
      </Node>
    </BinaryTree>
    <BinaryTree type="DecisionTree" boostWeight="1.0000000000000000e+00" itree="1482">
      <Node pos="s" depth="0" NCoef="0" IVar="3" Cut="2.7259728312492371e-01" cType="0" res="-6.8351077686656936e-08" rms="3.2227203249931335e-01" purity="5.9855979681015015e-01" nType="0">
        <Node pos="l" depth="1" NCoef="0" IVar="-1" Cut="0.0000000000000000e+00" cType="1" res="-1.8922670278698206e-04" rms="3.6350661516189575e-01" purity="5.9957766532897949e-01" nType="-99"/>
        <Node pos="r" depth="1" NCoef="0" IVar="3" Cut="2.5624132156372070e-01" cType="1" res="4.0016157436184585e-04" rms="2.8522086143493652e-01" purity="5.9774965047836304e-01" nType="0">
          <Node pos="l" depth="2" NCoef="0" IVar="-1" Cut="0.0000000000000000e+00" cType="1" res="-2.1791459585074335e-04" rms="2.7987799048423767e-01" purity="6.2042009830474854e-01" nType="-99"/>
          <Node pos="r" depth="2" NCoef="0" IVar="-1" Cut="0.0000000000000000e+00" cType="1" res="3.6011843476444483e-03" rms="3.3602797985076904e-01" purity="3.6023622751235962e-01" nType="-99"/>
        </Node>
      </Node>
    </BinaryTree>
    <BinaryTree type="DecisionTree" boostWeight="1.0000000000000000e+00" itree="1483">
      <Node pos="s" depth="0" NCoef="0" IVar="3" Cut="3.9228022098541260e-02" cType="1" res="-8.9462680818996887e-08" rms="3.2226994633674622e-01" purity="5.9855979681015015e-01" nType="0">
        <Node pos="l" depth="1" NCoef="0" IVar="-1" Cut="0.0000000000000000e+00" cType="1" res="6.2635476933792233e-04" rms="2.4984687566757202e-01" purity="9.1970020532608032e-01" nType="-99"/>
        <Node pos="r" depth="1" NCoef="0" IVar="2" Cut="1.9952782988548279e-01" cType="1" res="-2.6386743411421776e-04" rms="3.4300369024276733e-01" purity="4.9164927005767822e-01" nType="0">
          <Node pos="l" depth="2" NCoef="0" IVar="-1" Cut="0.0000000000000000e+00" cType="1" res="-3.4897637087851763e-03" rms="3.3828732371330261e-01" purity="6.1498397588729858e-01" nType="-99"/>
          <Node pos="r" depth="2" NCoef="0" IVar="-1" Cut="0.0000000000000000e+00" cType="1" res="1.0385250061517581e-04" rms="3.4331536293029785e-01" purity="4.8327985405921936e-01" nType="-99"/>
        </Node>
      </Node>
    </BinaryTree>
    <BinaryTree type="DecisionTree" boostWeight="1.0000000000000000e+00" itree="1484">
      <Node pos="s" depth="0" NCoef="0" IVar="3" Cut="2.2162583470344543e-01" cType="1" res="-3.9872965373888292e-08" rms="3.2226818799972534e-01" purity="5.9855979681015015e-01" nType="0">
        <Node pos="l" depth="1" NCoef="0" IVar="-1" Cut="0.0000000000000000e+00" cType="1" res="3.6659254692494869e-04" rms="2.7303755283355713e-01" purity="6.8584614992141724e-01" nType="-99"/>
        <Node pos="r" depth="1" NCoef="0" IVar="3" Cut="2.2622206807136536e-01" cType="0" res="-4.0205131517723203e-04" rms="3.5341241955757141e-01" purity="5.3588420152664185e-01" nType="0">
          <Node pos="l" depth="2" NCoef="0" IVar="-1" Cut="0.0000000000000000e+00" cType="1" res="4.3584484956227243e-05" rms="3.5470488667488098e-01" purity="5.4089373350143433e-01" nType="-99"/>
          <Node pos="r" depth="2" NCoef="0" IVar="-1" Cut="0.0000000000000000e+00" cType="1" res="-1.4488201588392258e-02" rms="2.7329877018928528e-01" purity="2.6534295082092285e-01" nType="-99"/>
        </Node>
      </Node>
    </BinaryTree>
    <BinaryTree type="DecisionTree" boostWeight="1.0000000000000000e+00" itree="1485">
      <Node pos="s" depth="0" NCoef="0" IVar="0" Cut="1.2493752874433994e-03" cType="1" res="-1.2721781672553334e-07" rms="3.2226425409317017e-01" purity="5.9855979681015015e-01" nType="0">
        <Node pos="l" depth="1" NCoef="0" IVar="-1" Cut="0.0000000000000000e+00" cType="1" res="-4.6590281999669969e-04" rms="2.7181288599967957e-01" purity="9.0791207551956177e-01" nType="-99"/>
        <Node pos="r" depth="1" NCoef="0" IVar="3" Cut="4.3346023559570312e-01" cType="0" res="3.4332752693444490e-04" rms="3.4468993544578552e-01" purity="4.4418039917945862e-01" nType="0">
          <Node pos="l" depth="2" NCoef="0" IVar="-1" Cut="0.0000000000000000e+00" cType="1" res="-5.5589294061064720e-03" rms="4.0612980723381042e-01" purity="6.2500000000000000e-01" nType="-99"/>
          <Node pos="r" depth="2" NCoef="0" IVar="-1" Cut="0.0000000000000000e+00" cType="1" res="1.9715125381480902e-04" rms="3.4422284364700317e-01" purity="4.4292920827865601e-01" nType="-99"/>
        </Node>
      </Node>
    </BinaryTree>
    <BinaryTree type="DecisionTree" boostWeight="1.0000000000000000e+00" itree="1486">
      <Node pos="s" depth="0" NCoef="0" IVar="3" Cut="2.6784995198249817e-01" cType="1" res="-9.7027857748344104e-08" rms="3.2226294279098511e-01" purity="5.9855979681015015e-01" nType="0">
        <Node pos="l" depth="1" NCoef="0" IVar="-1" Cut="0.0000000000000000e+00" cType="1" res="2.5670396280474961e-04" rms="2.8399381041526794e-01" purity="6.0393178462982178e-01" nType="-99"/>
        <Node pos="r" depth="1" NCoef="0" IVar="3" Cut="2.8306087851524353e-01" cType="0" res="-5.0438678590580821e-04" rms="3.6238959431648254e-01" purity="5.9219861030578613e-01" nType="0">
          <Node pos="l" depth="2" NCoef="0" IVar="-1" Cut="0.0000000000000000e+00" cType="1" res="6.9230154622346163e-05" rms="3.6614504456520081e-01" purity="6.1644852161407471e-01" nType="-99"/>
          <Node pos="r" depth="2" NCoef="0" IVar="-1" Cut="0.0000000000000000e+00" cType="1" res="-2.8747438918799162e-03" rms="3.2705572247505188e-01" purity="3.7665015459060669e-01" nType="-99"/>
        </Node>
      </Node>
    </BinaryTree>
    <BinaryTree type="DecisionTree" boostWeight="1.0000000000000000e+00" itree="1487">
      <Node pos="s" depth="0" NCoef="0" IVar="3" Cut="4.2751049995422363e-01" cType="0" res="-1.0030150576767483e-07" rms="3.2226306200027466e-01" purity="5.9855979681015015e-01" nType="0">
        <Node pos="l" depth="1" NCoef="0" IVar="-1" Cut="0.0000000000000000e+00" cType="1" res="7.2848552372306585e-04" rms="3.3373430371284485e-01" purity="8.4197926521301270e-01" nType="-99"/>
        <Node pos="r" depth="1" NCoef="0" IVar="3" Cut="4.2622524499893188e-01" cType="0" res="-1.2771530600730330e-04" rms="3.2135832309722900e-01" purity="5.7973045110702515e-01" nType="0">
          <Node pos="l" depth="2" NCoef="0" IVar="-1" Cut="0.0000000000000000e+00" cType="1" res="-1.6670079901814461e-02" rms="4.0636733174324036e-01" purity="6.8000000715255737e-01" nType="-99"/>
          <Node pos="r" depth="2" NCoef="0" IVar="-1" Cut="0.0000000000000000e+00" cType="1" res="-1.0132913303095847e-05" rms="3.2115119695663452e-01" purity="5.7952368259429932e-01" nType="-99"/>
        </Node>
      </Node>
    </BinaryTree>
    <BinaryTree type="DecisionTree" boostWeight="1.0000000000000000e+00" itree="1488">
      <Node pos="s" depth="0" NCoef="0" IVar="0" Cut="1.2493752874433994e-03" cType="1" res="-2.0079772511394367e-08" rms="3.2226124405860901e-01" purity="5.9855979681015015e-01" nType="0">
        <Node pos="l" depth="1" NCoef="0" IVar="-1" Cut="0.0000000000000000e+00" cType="1" res="-4.4662106665782630e-04" rms="2.7180936932563782e-01" purity="9.0791207551956177e-01" nType="-99"/>
        <Node pos="r" depth="1" NCoef="0" IVar="3" Cut="4.4237715005874634e-01" cType="0" res="3.2935576746240258e-04" rms="3.4468713402748108e-01" purity="4.4418039917945862e-01" nType="0">
          <Node pos="l" depth="2" NCoef="0" IVar="-1" Cut="0.0000000000000000e+00" cType="1" res="8.3806859329342842e-03" rms="4.0774700045585632e-01" purity="6.2162160873413086e-01" nType="-99"/>
          <Node pos="r" depth="2" NCoef="0" IVar="-1" Cut="0.0000000000000000e+00" cType="1" res="9.7208256192971021e-05" rms="3.4446361660957336e-01" purity="4.4361463189125061e-01" nType="-99"/>
        </Node>
      </Node>
    </BinaryTree>
    <BinaryTree type="DecisionTree" boostWeight="1.0000000000000000e+00" itree="1489">
      <Node pos="s" depth="0" NCoef="0" IVar="1" Cut="1.5829585790634155e+00" cType="1" res="-4.8757904380636319e-09" rms="3.2226043939590454e-01" purity="5.9855979681015015e-01" nType="0">
        <Node pos="l" depth="1" NCoef="0" IVar="-1" Cut="0.0000000000000000e+00" cType="1" res="1.8654071027413011e-05" rms="3.2213699817657471e-01" purity="6.0176652669906616e-01" nType="-99"/>
        <Node pos="r" depth="1" NCoef="0" IVar="1" Cut="1.8089290857315063e+00" cType="0" res="-5.2804131992161274e-03" rms="3.3838638663291931e-01" purity="1.6795866191387177e-01" nType="0">
          <Node pos="l" depth="2" NCoef="0" IVar="-1" Cut="0.0000000000000000e+00" cType="1" res="8.2583667244762182e-04" rms="3.6619448661804199e-01" purity="2.0224718749523163e-01" nType="-99"/>
          <Node pos="r" depth="2" NCoef="0" IVar="-1" Cut="0.0000000000000000e+00" cType="1" res="-1.1916711926460266e-02" rms="2.6549002528190613e-01" purity="9.1666668653488159e-02" nType="-99"/>
        </Node>
      </Node>
    </BinaryTree>
    <BinaryTree type="DecisionTree" boostWeight="1.0000000000000000e+00" itree="1490">
      <Node pos="s" depth="0" NCoef="0" IVar="3" Cut="2.7859392762184143e-01" cType="0" res="-4.6379273754837413e-08" rms="3.2226034998893738e-01" purity="5.9855979681015015e-01" nType="0">
        <Node pos="l" depth="1" NCoef="0" IVar="-1" Cut="0.0000000000000000e+00" cType="1" res="-1.9771821098402143e-04" rms="3.6504840850830078e-01" purity="6.0879129171371460e-01" nType="-99"/>
        <Node pos="r" depth="1" NCoef="0" IVar="0" Cut="1.6991503536701202e-01" cType="1" res="3.9125693729147315e-04" rms="2.8649249672889709e-01" purity="5.9098464250564575e-01" nType="0">
          <Node pos="l" depth="2" NCoef="0" IVar="-1" Cut="0.0000000000000000e+00" cType="1" res="1.2102056061848998e-03" rms="2.8890398144721985e-01" purity="8.7828373908996582e-01" nType="-99"/>
          <Node pos="r" depth="2" NCoef="0" IVar="-1" Cut="0.0000000000000000e+00" cType="1" res="-1.4973378274589777e-03" rms="2.8228983283042908e-01" purity="9.8764315247535706e-02" nType="-99"/>
        </Node>
      </Node>
    </BinaryTree>
    <BinaryTree type="DecisionTree" boostWeight="1.0000000000000000e+00" itree="1491">
      <Node pos="s" depth="0" NCoef="0" IVar="0" Cut="1.2493752874433994e-03" cType="1" res="-4.3455997911223676e-08" rms="3.2226026058197021e-01" purity="5.9855979681015015e-01" nType="0">
        <Node pos="l" depth="1" NCoef="0" IVar="-1" Cut="0.0000000000000000e+00" cType="1" res="-4.7099540825001895e-04" rms="2.7180913090705872e-01" purity="9.0791207551956177e-01" nType="-99"/>
        <Node pos="r" depth="1" NCoef="0" IVar="3" Cut="4.0200340747833252e-01" cType="0" res="3.4714041976258159e-04" rms="3.4468579292297363e-01" purity="4.4418039917945862e-01" nType="0">
          <Node pos="l" depth="2" NCoef="0" IVar="-1" Cut="0.0000000000000000e+00" cType="1" res="2.5337741244584322e-03" rms="3.9707982540130615e-01" purity="6.8896794319152832e-01" nType="-99"/>
          <Node pos="r" depth="2" NCoef="0" IVar="-1" Cut="0.0000000000000000e+00" cType="1" res="6.9618063207599334e-06" rms="3.4231063723564148e-01" purity="4.3392005562782288e-01" nType="-99"/>
        </Node>
      </Node>
    </BinaryTree>
    <BinaryTree type="DecisionTree" boostWeight="1.0000000000000000e+00" itree="1492">
      <Node pos="s" depth="0" NCoef="0" IVar="0" Cut="1.5004997253417969e+00" cType="1" res="-1.6653658008181083e-08" rms="3.2226017117500305e-01" purity="5.9855979681015015e-01" nType="0">
        <Node pos="l" depth="1" NCoef="0" IVar="-1" Cut="0.0000000000000000e+00" cType="1" res="-4.0294809878105298e-05" rms="3.2282808423042297e-01" purity="6.1443549394607544e-01" nType="-99"/>
        <Node pos="r" depth="1" NCoef="0" IVar="1" Cut="1.8215892314910889e+00" cType="0" res="2.5374819524586201e-03" rms="3.0485260486602783e-01" purity="1.2580834329128265e-01" nType="0">
          <Node pos="l" depth="2" NCoef="0" IVar="-1" Cut="0.0000000000000000e+00" cType="1" res="-1.1446592397987843e-02" rms="3.4843546152114868e-01" purity="1.8487395346164703e-01" nType="-99"/>
          <Node pos="r" depth="2" NCoef="0" IVar="-1" Cut="0.0000000000000000e+00" cType="1" res="2.8797606937587261e-03" rms="3.0112543702125549e-01" purity="1.2136536091566086e-01" nType="-99"/>
        </Node>
      </Node>
    </BinaryTree>
    <BinaryTree type="DecisionTree" boostWeight="1.0000000000000000e+00" itree="1493">
      <Node pos="s" depth="0" NCoef="0" IVar="1" Cut="1.7341328859329224e+00" cType="1" res="-8.8940915077273530e-08" rms="3.2225868105888367e-01" purity="5.9855979681015015e-01" nType="0">
        <Node pos="l" depth="1" NCoef="0" IVar="-1" Cut="0.0000000000000000e+00" cType="1" res="-2.0174304154352285e-05" rms="3.2200881838798523e-01" purity="6.0092604160308838e-01" nType="-99"/>
        <Node pos="r" depth="1" NCoef="0" IVar="2" Cut="1.2996939420700073e+00" cType="1" res="7.2119547985494137e-03" rms="3.6218613386154175e-01" purity="1.9607843458652496e-01" nType="0">
          <Node pos="l" depth="2" NCoef="0" IVar="-1" Cut="0.0000000000000000e+00" cType="1" res="8.2098226994276047e-03" rms="3.6885356903076172e-01" purity="2.1333333849906921e-01" nType="-99"/>
          <Node pos="r" depth="2" NCoef="0" IVar="-1" Cut="0.0000000000000000e+00" cType="1" res="-2.9359750915318727e-03" rms="3.5497456789016724e-01" purity="1.7948718369007111e-01" nType="-99"/>
        </Node>
      </Node>
    </BinaryTree>
    <BinaryTree type="DecisionTree" boostWeight="1.0000000000000000e+00" itree="1494">
      <Node pos="s" depth="0" NCoef="0" IVar="1" Cut="1.5704647302627563e+00" cType="1" res="-1.1265382937608592e-07" rms="3.2225757837295532e-01" purity="5.9855979681015015e-01" nType="0">
        <Node pos="l" depth="1" NCoef="0" IVar="-1" Cut="0.0000000000000000e+00" cType="1" res="-2.0719098756671883e-05" rms="3.2205930352210999e-01" purity="6.0177844762802124e-01" nType="-99"/>
        <Node pos="r" depth="1" NCoef="0" IVar="0" Cut="6.1844080686569214e-01" cType="0" res="5.6828241795301437e-03" rms="3.4712406992912292e-01" purity="1.7839196324348450e-01" nType="0">
          <Node pos="l" depth="2" NCoef="0" IVar="-1" Cut="0.0000000000000000e+00" cType="1" res="5.5104023776948452e-03" rms="3.6332681775093079e-01" purity="2.0300751924514771e-01" nType="-99"/>
          <Node pos="r" depth="2" NCoef="0" IVar="-1" Cut="0.0000000000000000e+00" cType="1" res="-6.0493680648505688e-03" rms="3.1102666258811951e-01" purity="1.2878787517547607e-01" nType="-99"/>
        </Node>
      </Node>
    </BinaryTree>
    <BinaryTree type="DecisionTree" boostWeight="1.0000000000000000e+00" itree="1495">
      <Node pos="s" depth="0" NCoef="0" IVar="3" Cut="4.9747130274772644e-01" cType="0" res="-1.3685880162483954e-07" rms="3.2225644588470459e-01" purity="5.9855979681015015e-01" nType="0">
        <Node pos="l" depth="1" NCoef="0" IVar="-1" Cut="0.0000000000000000e+00" cType="1" res="4.4474331662058830e-03" rms="3.1820687651634216e-01" purity="8.5981309413909912e-01" nType="-99"/>
        <Node pos="r" depth="1" NCoef="0" IVar="3" Cut="4.9123075604438782e-01" cType="0" res="-2.0709936507046223e-05" rms="3.2226437330245972e-01" purity="5.9802478551864624e-01" nType="0">
          <Node pos="l" depth="2" NCoef="0" IVar="-1" Cut="0.0000000000000000e+00" cType="1" res="-6.1949202790856361e-03" rms="3.0017122626304626e-01" purity="8.7096774578094482e-01" nType="-99"/>
          <Node pos="r" depth="2" NCoef="0" IVar="-1" Cut="0.0000000000000000e+00" cType="1" res="1.6298048649332486e-05" rms="3.2236510515213013e-01" purity="5.9672302007675171e-01" nType="-99"/>
        </Node>
      </Node>
    </BinaryTree>
    <BinaryTree type="DecisionTree" boostWeight="1.0000000000000000e+00" itree="1496">
      <Node pos="s" depth="0" NCoef="0" IVar="2" Cut="2.9222521185874939e-01" cType="1" res="-9.3857316585399531e-08" rms="3.2225564122200012e-01" purity="5.9855979681015015e-01" nType="0">
        <Node pos="l" depth="1" NCoef="0" IVar="-1" Cut="0.0000000000000000e+00" cType="1" res="-4.1201917338185012e-04" rms="2.7544796466827393e-01" purity="8.4798938035964966e-01" nType="-99"/>
        <Node pos="r" depth="1" NCoef="0" IVar="3" Cut="1.7966404557228088e-01" cType="0" res="3.2982978154905140e-04" rms="3.4443670511245728e-01" purity="4.6671533584594727e-01" nType="0">
          <Node pos="l" depth="2" NCoef="0" IVar="-1" Cut="0.0000000000000000e+00" cType="1" res="-1.4855668268864974e-05" rms="3.4805560111999512e-01" purity="4.8694244027137756e-01" nType="-99"/>
          <Node pos="r" depth="2" NCoef="0" IVar="-1" Cut="0.0000000000000000e+00" cType="1" res="3.4783976152539253e-03" rms="2.8404232859611511e-01" purity="1.6062176227569580e-01" nType="-99"/>
        </Node>
      </Node>
    </BinaryTree>
    <BinaryTree type="DecisionTree" boostWeight="1.0000000000000000e+00" itree="1497">
      <Node pos="s" depth="0" NCoef="0" IVar="0" Cut="1.1081959009170532e+00" cType="1" res="-1.2283976502658334e-07" rms="3.2225337624549866e-01" purity="5.9855979681015015e-01" nType="0">
        <Node pos="l" depth="1" NCoef="0" IVar="-1" Cut="0.0000000000000000e+00" cType="1" res="5.6198336096713319e-05" rms="3.2489058375358582e-01" purity="6.3016062974929810e-01" nType="-99"/>
        <Node pos="r" depth="1" NCoef="0" IVar="0" Cut="1.1743897199630737e+00" cType="0" res="-1.9053420983254910e-03" rms="2.7718093991279602e-01" purity="9.8360657691955566e-02" nType="0">
          <Node pos="l" depth="2" NCoef="0" IVar="-1" Cut="0.0000000000000000e+00" cType="1" res="2.0075830980204046e-04" rms="2.8514751791954041e-01" purity="1.0505557805299759e-01" nType="-99"/>
          <Node pos="r" depth="2" NCoef="0" IVar="-1" Cut="0.0000000000000000e+00" cType="1" res="-1.8798340111970901e-02" rms="1.9391658902168274e-01" purity="4.0372669696807861e-02" nType="-99"/>
        </Node>
      </Node>
    </BinaryTree>
    <BinaryTree type="DecisionTree" boostWeight="1.0000000000000000e+00" itree="1498">
      <Node pos="s" depth="0" NCoef="0" IVar="2" Cut="2.6487591266632080e+00" cType="1" res="-3.1807721256882360e-07" rms="3.2225251197814941e-01" purity="5.9855979681015015e-01" nType="0">
        <Node pos="l" depth="1" NCoef="0" IVar="-1" Cut="0.0000000000000000e+00" cType="1" res="2.8038413802278228e-05" rms="3.2209682464599609e-01" purity="6.0597991943359375e-01" nType="-99"/>
        <Node pos="r" depth="1" NCoef="0" IVar="3" Cut="3.1746396422386169e-01" cType="0" res="-3.3383287955075502e-03" rms="3.3086887001991272e-01" purity="1.8142075836658478e-01" nType="0">
          <Node pos="l" depth="2" NCoef="0" IVar="-1" Cut="0.0000000000000000e+00" cType="1" res="-7.1058138273656368e-03" rms="3.6053636670112610e-01" purity="2.5679013133049011e-01" nType="-99"/>
          <Node pos="r" depth="2" NCoef="0" IVar="-1" Cut="0.0000000000000000e+00" cType="1" res="5.9961220249533653e-03" rms="3.0450117588043213e-01" purity="1.2156862765550613e-01" nType="-99"/>
        </Node>
      </Node>
    </BinaryTree>
    <BinaryTree type="DecisionTree" boostWeight="1.0000000000000000e+00" itree="1499">
      <Node pos="s" depth="0" NCoef="0" IVar="3" Cut="3.3206397294998169e-01" cType="0" res="-3.6886643783873296e-07" rms="3.2225108146667480e-01" purity="5.9855979681015015e-01" nType="0">
        <Node pos="l" depth="1" NCoef="0" IVar="-1" Cut="0.0000000000000000e+00" cType="1" res="2.8094474691897631e-04" rms="3.6876243352890015e-01" purity="7.0609885454177856e-01" nType="-99"/>
        <Node pos="r" depth="1" NCoef="0" IVar="3" Cut="3.3122923970222473e-01" cType="1" res="-2.7641179622150958e-04" rms="3.0377450585365295e-01" purity="5.5985867977142334e-01" nType="0">
          <Node pos="l" depth="2" NCoef="0" IVar="-1" Cut="0.0000000000000000e+00" cType="1" res="-7.1569127612747252e-05" rms="3.0339807271957397e-01" purity="5.6018650531768799e-01" nType="-99"/>
          <Node pos="r" depth="2" NCoef="0" IVar="-1" Cut="0.0000000000000000e+00" cType="1" res="-1.7509702593088150e-02" rms="4.1182747483253479e-01" purity="4.4545453786849976e-01" nType="-99"/>
        </Node>
      </Node>
    </BinaryTree>
    <BinaryTree type="DecisionTree" boostWeight="1.0000000000000000e+00" itree="1500">
      <Node pos="s" depth="0" NCoef="0" IVar="2" Cut="3.5966179370880127e+00" cType="1" res="-3.2962111617962364e-07" rms="3.2224908471107483e-01" purity="5.9855979681015015e-01" nType="0">
        <Node pos="l" depth="1" NCoef="0" IVar="2" Cut="3.2279355525970459e+00" cType="1" res="-2.6898702344624326e-05" rms="3.2210698723793030e-01" purity="5.9988498687744141e-01" nType="0">
          <Node pos="l" depth="2" NCoef="0" IVar="-1" Cut="0.0000000000000000e+00" cType="1" res="1.4937840205675457e-05" rms="3.2211846113204956e-01" purity="6.0103785991668701e-01" nType="-99"/>
          <Node pos="r" depth="2" NCoef="0" IVar="-1" Cut="0.0000000000000000e+00" cType="1" res="-8.2778856158256531e-03" rms="3.1727603077888489e-01" purity="1.8620689213275909e-01" nType="-99"/>
        </Node>
        <Node pos="r" depth="1" NCoef="0" IVar="-1" Cut="0.0000000000000000e+00" cType="1" res="2.7961872983723879e-03" rms="3.6121043562889099e-01" purity="2.1229049563407898e-01" nType="-99"/>
      </Node>
    </BinaryTree>
    <BinaryTree type="DecisionTree" boostWeight="1.0000000000000000e+00" itree="1501">
      <Node pos="s" depth="0" NCoef="0" IVar="2" Cut="2.9222519397735596e+00" cType="1" res="-3.2085281986837799e-07" rms="3.2224857807159424e-01" purity="5.9855979681015015e-01" nType="0">
        <Node pos="l" depth="1" NCoef="0" IVar="-1" Cut="0.0000000000000000e+00" cType="1" res="-2.4280328943859786e-05" rms="3.2217270135879517e-01" purity="6.0316354036331177e-01" nType="-99"/>
        <Node pos="r" depth="1" NCoef="0" IVar="3" Cut="3.4798771142959595e-01" cType="0" res="4.5634545385837555e-03" rms="3.2895407080650330e-01" purity="1.8544194102287292e-01" nType="0">
          <Node pos="l" depth="2" NCoef="0" IVar="-1" Cut="0.0000000000000000e+00" cType="1" res="9.8081296309828758e-03" rms="4.2287492752075195e-01" purity="4.3307086825370789e-01" nType="-99"/>
          <Node pos="r" depth="2" NCoef="0" IVar="-1" Cut="0.0000000000000000e+00" cType="1" res="-2.5077292229980230e-03" rms="2.9644709825515747e-01" purity="1.1555555462837219e-01" nType="-99"/>
        </Node>
      </Node>
    </BinaryTree>
    <BinaryTree type="DecisionTree" boostWeight="1.0000000000000000e+00" itree="1502">
      <Node pos="s" depth="0" NCoef="0" IVar="2" Cut="3.8813500404357910e+00" cType="1" res="-3.1234782227329561e-07" rms="3.2224711775779724e-01" purity="5.9855979681015015e-01" nType="0">
        <Node pos="l" depth="1" NCoef="0" IVar="2" Cut="3.3121306896209717e+00" cType="1" res="2.2027757950127125e-05" rms="3.2217341661453247e-01" purity="5.9940659999847412e-01" nType="0">
          <Node pos="l" depth="2" NCoef="0" IVar="-1" Cut="0.0000000000000000e+00" cType="1" res="-1.5449244529008865e-05" rms="3.2207754254341125e-01" purity="6.0064917802810669e-01" nType="-99"/>
          <Node pos="r" depth="2" NCoef="0" IVar="-1" Cut="0.0000000000000000e+00" cType="1" res="6.2953052110970020e-03" rms="3.4944951534271240e-01" purity="2.2543352842330933e-01" nType="-99"/>
        </Node>
        <Node pos="r" depth="1" NCoef="0" IVar="-1" Cut="0.0000000000000000e+00" cType="1" res="-3.5153841599822044e-03" rms="3.5426539182662964e-01" purity="2.1052631735801697e-01" nType="-99"/>
      </Node>
    </BinaryTree>
    <BinaryTree type="DecisionTree" boostWeight="1.0000000000000000e+00" itree="1503">
      <Node pos="s" depth="0" NCoef="0" IVar="2" Cut="3.4542517662048340e+00" cType="1" res="-2.9971204185130773e-07" rms="3.2224655151367188e-01" purity="5.9855979681015015e-01" nType="0">
        <Node pos="l" depth="1" NCoef="0" IVar="-1" Cut="0.0000000000000000e+00" cType="1" res="1.4601035218220204e-05" rms="3.2214364409446716e-01" purity="6.0029160976409912e-01" nType="-99"/>
        <Node pos="r" depth="1" NCoef="0" IVar="0" Cut="1.3097455501556396e+00" cType="1" res="-7.1682827547192574e-03" rms="3.4508639574050903e-01" purity="1.9911503791809082e-01" nType="0">
          <Node pos="l" depth="2" NCoef="0" IVar="-1" Cut="0.0000000000000000e+00" cType="1" res="2.2082766517996788e-03" rms="3.5630488395690918e-01" purity="2.1929824352264404e-01" nType="-99"/>
          <Node pos="r" depth="2" NCoef="0" IVar="-1" Cut="0.0000000000000000e+00" cType="1" res="-7.4581461958587170e-03" rms="3.3274400234222412e-01" purity="1.7857143282890320e-01" nType="-99"/>
        </Node>
      </Node>
    </BinaryTree>
    <BinaryTree type="DecisionTree" boostWeight="1.0000000000000000e+00" itree="1504">
      <Node pos="s" depth="0" NCoef="0" IVar="1" Cut="1.7341328859329224e+00" cType="1" res="-2.8654278594331117e-07" rms="3.2224637269973755e-01" purity="5.9855979681015015e-01" nType="0">
        <Node pos="l" depth="1" NCoef="0" IVar="-1" Cut="0.0000000000000000e+00" cType="1" res="-1.6454250726383179e-05" rms="3.2199925184249878e-01" purity="6.0092604160308838e-01" nType="-99"/>
        <Node pos="r" depth="1" NCoef="0" IVar="2" Cut="1.2996939420700073e+00" cType="1" res="5.8460580185055733e-03" rms="3.6178106069564819e-01" purity="1.9607843458652496e-01" nType="0">
          <Node pos="l" depth="2" NCoef="0" IVar="-1" Cut="0.0000000000000000e+00" cType="1" res="7.2423839010298252e-03" rms="3.6825406551361084e-01" purity="2.1333333849906921e-01" nType="-99"/>
          <Node pos="r" depth="2" NCoef="0" IVar="-1" Cut="0.0000000000000000e+00" cType="1" res="-3.0089633073657751e-03" rms="3.5486090183258057e-01" purity="1.7948718369007111e-01" nType="-99"/>
        </Node>
      </Node>
    </BinaryTree>
    <BinaryTree type="DecisionTree" boostWeight="1.0000000000000000e+00" itree="1505">
      <Node pos="s" depth="0" NCoef="0" IVar="1" Cut="8.0209892988204956e-01" cType="1" res="-2.8401996132743079e-07" rms="3.2224544882774353e-01" purity="5.9855979681015015e-01" nType="0">
        <Node pos="l" depth="1" NCoef="0" IVar="-1" Cut="0.0000000000000000e+00" cType="1" res="4.2201394535368308e-05" rms="3.2298767566680908e-01" purity="6.1697316169738770e-01" nType="-99"/>
        <Node pos="r" depth="1" NCoef="0" IVar="1" Cut="8.3491510152816772e-01" cType="0" res="-2.3215010296553373e-03" rms="3.0236509442329407e-01" purity="1.2133675813674927e-01" nType="0">
          <Node pos="l" depth="2" NCoef="0" IVar="-1" Cut="0.0000000000000000e+00" cType="1" res="7.1627192664891481e-04" rms="3.0693772435188293e-01" purity="1.2637968361377716e-01" nType="-99"/>
          <Node pos="r" depth="2" NCoef="0" IVar="-1" Cut="0.0000000000000000e+00" cType="1" res="-3.0135817825794220e-02" rms="2.2507919371128082e-01" purity="5.2631579339504242e-02" nType="-99"/>
        </Node>
      </Node>
    </BinaryTree>
    <BinaryTree type="DecisionTree" boostWeight="1.0000000000000000e+00" itree="1506">
      <Node pos="s" depth="0" NCoef="0" IVar="1" Cut="1.0457271337509155e+00" cType="1" res="-5.4218395462157787e-07" rms="3.2224208116531372e-01" purity="5.9855979681015015e-01" nType="0">
        <Node pos="l" depth="1" NCoef="0" IVar="-1" Cut="0.0000000000000000e+00" cType="1" res="3.2449679565615952e-05" rms="3.2254639267921448e-01" purity="6.0884672403335571e-01" nType="-99"/>
        <Node pos="r" depth="1" NCoef="0" IVar="0" Cut="7.5712144374847412e-01" cType="1" res="-3.1411133240908384e-03" rms="3.0806401371955872e-01" purity="1.3055062294006348e-01" nType="0">
          <Node pos="l" depth="2" NCoef="0" IVar="-1" Cut="0.0000000000000000e+00" cType="1" res="5.5735548958182335e-03" rms="3.1889072060585022e-01" purity="1.3243761658668518e-01" nType="-99"/>
          <Node pos="r" depth="2" NCoef="0" IVar="-1" Cut="0.0000000000000000e+00" cType="1" res="-6.9522745907306671e-03" rms="2.9788488149642944e-01" purity="1.2892562150955200e-01" nType="-99"/>
        </Node>
      </Node>
    </BinaryTree>
    <BinaryTree type="DecisionTree" boostWeight="1.0000000000000000e+00" itree="1507">
      <Node pos="s" depth="0" NCoef="0" IVar="2" Cut="1.7608441114425659e+00" cType="1" res="-6.0109027799626347e-07" rms="3.2224184274673462e-01" purity="5.9855979681015015e-01" nType="0">
        <Node pos="l" depth="1" NCoef="0" IVar="-1" Cut="0.0000000000000000e+00" cType="1" res="-6.6613138187676668e-05" rms="3.2111436128616333e-01" purity="6.3296103477478027e-01" nType="-99"/>
        <Node pos="r" depth="1" NCoef="0" IVar="0" Cut="9.3703150749206543e-02" cType="1" res="1.5950346132740378e-03" rms="3.3495160937309265e-01" purity="2.0229555666446686e-01" nType="0">
          <Node pos="l" depth="2" NCoef="0" IVar="-1" Cut="0.0000000000000000e+00" cType="1" res="1.2436951510608196e-02" rms="3.7829869985580444e-01" purity="7.9611653089523315e-01" nType="-99"/>
          <Node pos="r" depth="2" NCoef="0" IVar="-1" Cut="0.0000000000000000e+00" cType="1" res="-1.8857892428059131e-04" rms="3.3242586255073547e-01" purity="1.7152917385101318e-01" nType="-99"/>
        </Node>
      </Node>
    </BinaryTree>
    <BinaryTree type="DecisionTree" boostWeight="1.0000000000000000e+00" itree="1508">
      <Node pos="s" depth="0" NCoef="0" IVar="2" Cut="3.7989275455474854e+00" cType="1" res="-4.4868926352137350e-07" rms="3.2223927974700928e-01" purity="5.9855979681015015e-01" nType="0">
        <Node pos="l" depth="1" NCoef="0" IVar="2" Cut="3.3657162189483643e+00" cType="1" res="-2.3783237338648178e-05" rms="3.2211706042289734e-01" purity="5.9950596094131470e-01" nType="0">
          <Node pos="l" depth="2" NCoef="0" IVar="-1" Cut="0.0000000000000000e+00" cType="1" res="1.2949408301210497e-05" rms="3.2213324308395386e-01" purity="6.0052978992462158e-01" nType="-99"/>
          <Node pos="r" depth="2" NCoef="0" IVar="-1" Cut="0.0000000000000000e+00" cType="1" res="-7.8899729996919632e-03" rms="3.1484195590019226e-01" purity="1.8604651093482971e-01" nType="-99"/>
        </Node>
        <Node pos="r" depth="1" NCoef="0" IVar="-1" Cut="0.0000000000000000e+00" cType="1" res="3.2695950940251350e-03" rms="3.6762666702270508e-01" purity="2.2137404978275299e-01" nType="-99"/>
      </Node>
    </BinaryTree>
    <BinaryTree type="DecisionTree" boostWeight="1.0000000000000000e+00" itree="1509">
      <Node pos="s" depth="0" NCoef="0" IVar="2" Cut="3.2781672477722168e+00" cType="1" res="-4.2545792666714988e-07" rms="3.2223907113075256e-01" purity="5.9855979681015015e-01" nType="0">
        <Node pos="l" depth="1" NCoef="0" IVar="-1" Cut="0.0000000000000000e+00" cType="1" res="-1.8119626474799588e-05" rms="3.2205626368522644e-01" purity="6.0073769092559814e-01" nType="-99"/>
        <Node pos="r" depth="1" NCoef="0" IVar="1" Cut="1.2243878096342087e-01" cType="0" res="6.5935789607465267e-03" rms="3.5266107320785522e-01" purity="2.1812079846858978e-01" nType="0">
          <Node pos="l" depth="2" NCoef="0" IVar="-1" Cut="0.0000000000000000e+00" cType="1" res="7.2892233729362488e-03" rms="3.6130416393280029e-01" purity="2.2448979318141937e-01" nType="-99"/>
          <Node pos="r" depth="2" NCoef="0" IVar="-1" Cut="0.0000000000000000e+00" cType="1" res="-6.4946850761771202e-03" rms="3.3403751254081726e-01" purity="2.0588235557079315e-01" nType="-99"/>
        </Node>
      </Node>
    </BinaryTree>
    <BinaryTree type="DecisionTree" boostWeight="1.0000000000000000e+00" itree="1510">
      <Node pos="s" depth="0" NCoef="0" IVar="2" Cut="2.7723929882049561e+00" cType="1" res="-4.1661894556455081e-07" rms="3.2223835587501526e-01" purity="5.9855979681015015e-01" nType="0">
        <Node pos="l" depth="1" NCoef="0" IVar="-1" Cut="0.0000000000000000e+00" cType="1" res="-2.6113029889529571e-05" rms="3.2211998105049133e-01" purity="6.0449886322021484e-01" nType="-99"/>
        <Node pos="r" depth="1" NCoef="0" IVar="0" Cut="7.6586705446243286e-01" cType="1" res="3.8026801776140928e-03" rms="3.3035722374916077e-01" purity="1.8488529324531555e-01" nType="0">
          <Node pos="l" depth="2" NCoef="0" IVar="-1" Cut="0.0000000000000000e+00" cType="1" res="8.6917132139205933e-03" rms="3.8136079907417297e-01" purity="2.8315412998199463e-01" nType="-99"/>
          <Node pos="r" depth="2" NCoef="0" IVar="-1" Cut="0.0000000000000000e+00" cType="1" res="-4.3393466621637344e-03" rms="2.9459956288337708e-01" purity="1.2554112076759338e-01" nType="-99"/>
        </Node>
      </Node>
    </BinaryTree>
    <BinaryTree type="DecisionTree" boostWeight="1.0000000000000000e+00" itree="1511">
      <Node pos="s" depth="0" NCoef="0" IVar="0" Cut="2.3213393688201904e+00" cType="1" res="-4.3498471313796472e-07" rms="3.2223689556121826e-01" purity="5.9855979681015015e-01" nType="0">
        <Node pos="l" depth="1" NCoef="0" IVar="-1" Cut="0.0000000000000000e+00" cType="1" res="-2.3651076844544150e-05" rms="3.2194498181343079e-01" purity="6.0334169864654541e-01" nType="-99"/>
        <Node pos="r" depth="1" NCoef="0" IVar="1" Cut="1.6741628944873810e-01" cType="0" res="4.3755439110100269e-03" rms="3.4711357951164246e-01" purity="1.7465753853321075e-01" nType="0">
          <Node pos="l" depth="2" NCoef="0" IVar="-1" Cut="0.0000000000000000e+00" cType="1" res="-1.2041304726153612e-03" rms="3.4919682145118713e-01" purity="1.7768594622612000e-01" nType="-99"/>
          <Node pos="r" depth="2" NCoef="0" IVar="-1" Cut="0.0000000000000000e+00" cType="1" res="2.1815912798047066e-02" rms="3.3443033695220947e-01" purity="1.5999999642372131e-01" nType="-99"/>
        </Node>
      </Node>
    </BinaryTree>
    <BinaryTree type="DecisionTree" boostWeight="1.0000000000000000e+00" itree="1512">
      <Node pos="s" depth="0" NCoef="0" IVar="1" Cut="2.1589205265045166e+00" cType="1" res="-5.0674805152084446e-07" rms="3.2223543524742126e-01" purity="5.9855979681015015e-01" nType="0">
        <Node pos="l" depth="1" NCoef="0" IVar="1" Cut="1.8215161561965942e+00" cType="1" res="-2.4265349566121586e-05" rms="3.2204470038414001e-01" purity="5.9953266382217407e-01" nType="0">
          <Node pos="l" depth="2" NCoef="0" IVar="-1" Cut="0.0000000000000000e+00" cType="1" res="6.8458939495030791e-06" rms="3.2202473282814026e-01" purity="6.0055667161941528e-01" nType="-99"/>
          <Node pos="r" depth="2" NCoef="0" IVar="-1" Cut="0.0000000000000000e+00" cType="1" res="-6.6785742528736591e-03" rms="3.3023253083229065e-01" purity="1.5126051008701324e-01" nType="-99"/>
        </Node>
        <Node pos="r" depth="1" NCoef="0" IVar="-1" Cut="0.0000000000000000e+00" cType="1" res="2.7098157443106174e-03" rms="3.8676780462265015e-01" purity="2.3571428656578064e-01" nType="-99"/>
      </Node>
    </BinaryTree>
    <BinaryTree type="DecisionTree" boostWeight="1.0000000000000000e+00" itree="1513">
      <Node pos="s" depth="0" NCoef="0" IVar="1" Cut="1.7341328859329224e+00" cType="1" res="-4.7380567025356868e-07" rms="3.2223522663116455e-01" purity="5.9855979681015015e-01" nType="0">
        <Node pos="l" depth="1" NCoef="0" IVar="-1" Cut="0.0000000000000000e+00" cType="1" res="-1.7390339053235948e-05" rms="3.2198905944824219e-01" purity="6.0092604160308838e-01" nType="-99"/>
        <Node pos="r" depth="1" NCoef="0" IVar="3" Cut="2.3375508189201355e-01" cType="1" res="6.1487439088523388e-03" rms="3.6162191629409790e-01" purity="1.9607843458652496e-01" nType="0">
          <Node pos="l" depth="2" NCoef="0" IVar="-1" Cut="0.0000000000000000e+00" cType="1" res="7.3776710778474808e-03" rms="3.7291106581687927e-01" purity="2.1232876181602478e-01" nType="-99"/>
          <Node pos="r" depth="2" NCoef="0" IVar="-1" Cut="0.0000000000000000e+00" cType="1" res="-2.6957693044096231e-03" rms="3.5044565796852112e-01" purity="1.8125000596046448e-01" nType="-99"/>
        </Node>
      </Node>
    </BinaryTree>
    <BinaryTree type="DecisionTree" boostWeight="1.0000000000000000e+00" itree="1514">
      <Node pos="s" depth="0" NCoef="0" IVar="3" Cut="2.7859392762184143e-01" cType="0" res="-4.5279807636688929e-07" rms="3.2223439216613770e-01" purity="5.9855979681015015e-01" nType="0">
        <Node pos="l" depth="1" NCoef="0" IVar="-1" Cut="0.0000000000000000e+00" cType="1" res="-1.9448553211987019e-04" rms="3.6501383781433105e-01" purity="6.0879129171371460e-01" nType="-99"/>
        <Node pos="r" depth="1" NCoef="0" IVar="3" Cut="2.7399381995201111e-01" cType="1" res="3.8407751708291471e-04" rms="2.8647431731224060e-01" purity="5.9098464250564575e-01" nType="0">
          <Node pos="l" depth="2" NCoef="0" IVar="-1" Cut="0.0000000000000000e+00" cType="1" res="3.6235469451639801e-05" rms="2.8563985228538513e-01" purity="5.9568965435028076e-01" nType="-99"/>
          <Node pos="r" depth="2" NCoef="0" IVar="-1" Cut="0.0000000000000000e+00" cType="1" res="6.0183750465512276e-03" rms="3.1875801086425781e-01" purity="3.9662447571754456e-01" nType="-99"/>
        </Node>
      </Node>
    </BinaryTree>
    <BinaryTree type="DecisionTree" boostWeight="1.0000000000000000e+00" itree="1515">
      <Node pos="s" depth="0" NCoef="0" IVar="2" Cut="2.6487591266632080e+00" cType="1" res="-4.2504791508690687e-07" rms="3.2223263382911682e-01" purity="5.9855979681015015e-01" nType="0">
        <Node pos="l" depth="1" NCoef="0" IVar="-1" Cut="0.0000000000000000e+00" cType="1" res="2.8007874789182097e-05" rms="3.2208412885665894e-01" purity="6.0597991943359375e-01" nType="-99"/>
        <Node pos="r" depth="1" NCoef="0" IVar="3" Cut="3.1746396422386169e-01" cType="0" res="-3.3406189177185297e-03" rms="3.3045753836631775e-01" purity="1.8142075836658478e-01" nType="0">
          <Node pos="l" depth="2" NCoef="0" IVar="-1" Cut="0.0000000000000000e+00" cType="1" res="-7.0559093728661537e-03" rms="3.6000618338584900e-01" purity="2.5679013133049011e-01" nType="-99"/>
          <Node pos="r" depth="2" NCoef="0" IVar="-1" Cut="0.0000000000000000e+00" cType="1" res="5.8868541382253170e-03" rms="3.0421689152717590e-01" purity="1.2156862765550613e-01" nType="-99"/>
        </Node>
      </Node>
    </BinaryTree>
    <BinaryTree type="DecisionTree" boostWeight="1.0000000000000000e+00" itree="1516">
      <Node pos="s" depth="0" NCoef="0" IVar="2" Cut="3.3118855953216553e+00" cType="1" res="-4.6247220097939135e-07" rms="3.2223123311996460e-01" purity="5.9855979681015015e-01" nType="0">
        <Node pos="l" depth="1" NCoef="0" IVar="-1" Cut="0.0000000000000000e+00" cType="1" res="-1.6506333849974908e-05" rms="3.2206436991691589e-01" purity="6.0064917802810669e-01" nType="-99"/>
        <Node pos="r" depth="1" NCoef="0" IVar="1" Cut="4.3103447556495667e-01" cType="1" res="6.2254508957266808e-03" rms="3.5113787651062012e-01" purity="2.1951219439506531e-01" nType="0">
          <Node pos="l" depth="2" NCoef="0" IVar="-1" Cut="0.0000000000000000e+00" cType="1" res="7.5467480346560478e-03" rms="3.5667732357978821e-01" purity="2.4175824224948883e-01" nType="-99"/>
          <Node pos="r" depth="2" NCoef="0" IVar="-1" Cut="0.0000000000000000e+00" cType="1" res="-6.5034581348299980e-03" rms="3.3994364738464355e-01" purity="1.8095238506793976e-01" nType="-99"/>
        </Node>
      </Node>
    </BinaryTree>
    <BinaryTree type="DecisionTree" boostWeight="1.0000000000000000e+00" itree="1517">
      <Node pos="s" depth="0" NCoef="0" IVar="2" Cut="3.4542517662048340e+00" cType="1" res="-4.4996150450060668e-07" rms="3.2223030924797058e-01" purity="5.9855979681015015e-01" nType="0">
        <Node pos="l" depth="1" NCoef="0" IVar="-1" Cut="0.0000000000000000e+00" cType="1" res="1.3534858226194046e-05" rms="3.2213008403778076e-01" purity="6.0029160976409912e-01" nType="-99"/>
        <Node pos="r" depth="1" NCoef="0" IVar="2" Cut="3.9621815681457520e+00" cType="0" res="-6.6846250556409359e-03" rms="3.4450465440750122e-01" purity="1.9911503791809082e-01" nType="0">
          <Node pos="l" depth="2" NCoef="0" IVar="-1" Cut="0.0000000000000000e+00" cType="1" res="2.2890677209943533e-03" rms="3.6953270435333252e-01" purity="2.3529411852359772e-01" nType="-99"/>
          <Node pos="r" depth="2" NCoef="0" IVar="-1" Cut="0.0000000000000000e+00" cType="1" res="-6.9758980534970760e-03" rms="3.2204136252403259e-01" purity="1.6935484111309052e-01" nType="-99"/>
        </Node>
      </Node>
    </BinaryTree>
    <BinaryTree type="DecisionTree" boostWeight="1.0000000000000000e+00" itree="1518">
      <Node pos="s" depth="0" NCoef="0" IVar="2" Cut="3.8813500404357910e+00" cType="1" res="-4.2074145767401205e-07" rms="3.2223024964332581e-01" purity="5.9855979681015015e-01" nType="0">
        <Node pos="l" depth="1" NCoef="0" IVar="2" Cut="3.3121306896209717e+00" cType="1" res="2.0869294530712068e-05" rms="3.2215851545333862e-01" purity="5.9940659999847412e-01" nType="0">
          <Node pos="l" depth="2" NCoef="0" IVar="-1" Cut="0.0000000000000000e+00" cType="1" res="-1.6209085515583865e-05" rms="3.2206436991691589e-01" purity="6.0064917802810669e-01" nType="-99"/>
          <Node pos="r" depth="2" NCoef="0" IVar="-1" Cut="0.0000000000000000e+00" cType="1" res="6.3533997163176537e-03" rms="3.4894606471061707e-01" purity="2.2543352842330933e-01" nType="-99"/>
        </Node>
        <Node pos="r" depth="1" NCoef="0" IVar="-1" Cut="0.0000000000000000e+00" cType="1" res="-3.3524923492223024e-03" rms="3.5343784093856812e-01" purity="2.1052631735801697e-01" nType="-99"/>
      </Node>
    </BinaryTree>
    <BinaryTree type="DecisionTree" boostWeight="1.0000000000000000e+00" itree="1519">
      <Node pos="s" depth="0" NCoef="0" IVar="1" Cut="3.3483257889747620e-01" cType="1" res="-3.9728408296468842e-07" rms="3.2222962379455566e-01" purity="5.9855979681015015e-01" nType="0">
        <Node pos="l" depth="1" NCoef="0" IVar="-1" Cut="0.0000000000000000e+00" cType="1" res="-8.5006548033561558e-05" rms="3.2028654217720032e-01" purity="6.6436380147933960e-01" nType="-99"/>
        <Node pos="r" depth="1" NCoef="0" IVar="3" Cut="3.7439137697219849e-01" cType="0" res="1.0815998539328575e-03" rms="3.3390039205551147e-01" purity="1.9487598538398743e-01" nType="0">
          <Node pos="l" depth="2" NCoef="0" IVar="-1" Cut="0.0000000000000000e+00" cType="1" res="6.8279220722615719e-03" rms="4.4431477785110474e-01" purity="4.0705129504203796e-01" nType="-99"/>
          <Node pos="r" depth="2" NCoef="0" IVar="-1" Cut="0.0000000000000000e+00" cType="1" res="-6.1200989875942469e-04" rms="3.2161456346511841e-01" purity="1.7515638470649719e-01" nType="-99"/>
        </Node>
      </Node>
    </BinaryTree>
    <BinaryTree type="DecisionTree" boostWeight="1.0000000000000000e+00" itree="1520">
      <Node pos="s" depth="0" NCoef="0" IVar="3" Cut="3.8353511691093445e-01" cType="0" res="-3.9926391082190094e-07" rms="3.2222703099250793e-01" purity="5.9855979681015015e-01" nType="0">
        <Node pos="l" depth="1" NCoef="0" IVar="-1" Cut="0.0000000000000000e+00" cType="1" res="-4.3831727816723287e-04" rms="3.5347366333007812e-01" purity="7.9233652353286743e-01" nType="-99"/>
        <Node pos="r" depth="1" NCoef="0" IVar="3" Cut="3.7912556529045105e-01" cType="0" res="1.8273999739903957e-04" rms="3.1673243641853333e-01" purity="5.6633996963500977e-01" nType="0">
          <Node pos="l" depth="2" NCoef="0" IVar="-1" Cut="0.0000000000000000e+00" cType="1" res="9.9942786619067192e-03" rms="3.7820041179656982e-01" purity="7.2661870718002319e-01" nType="-99"/>
          <Node pos="r" depth="2" NCoef="0" IVar="-1" Cut="0.0000000000000000e+00" cType="1" res="-4.4522366806631908e-05" rms="3.1608679890632629e-01" purity="5.6483709812164307e-01" nType="-99"/>
        </Node>
      </Node>
    </BinaryTree>
    <BinaryTree type="DecisionTree" boostWeight="1.0000000000000000e+00" itree="1521">
      <Node pos="s" depth="0" NCoef="0" IVar="3" Cut="2.7259728312492371e-01" cType="0" res="-2.9903750942139595e-07" rms="3.2222402095794678e-01" purity="5.9855979681015015e-01" nType="0">
        <Node pos="l" depth="1" NCoef="0" IVar="-1" Cut="0.0000000000000000e+00" cType="1" res="-1.9024792709387839e-04" rms="3.6344400048255920e-01" purity="5.9957766532897949e-01" nType="-99"/>
        <Node pos="r" depth="1" NCoef="0" IVar="3" Cut="2.7177110314369202e-01" cType="1" res="4.0191994048655033e-04" rms="2.8518691658973694e-01" purity="5.9774965047836304e-01" nType="0">
          <Node pos="l" depth="2" NCoef="0" IVar="-1" Cut="0.0000000000000000e+00" cType="1" res="1.5098958101589233e-04" rms="2.8489625453948975e-01" purity="5.9816080331802368e-01" nType="-99"/>
          <Node pos="r" depth="2" NCoef="0" IVar="-1" Cut="0.0000000000000000e+00" cType="1" res="1.4417723752558231e-02" rms="3.4795081615447998e-01" purity="4.9572649598121643e-01" nType="-99"/>
        </Node>
      </Node>
    </BinaryTree>
    <BinaryTree type="DecisionTree" boostWeight="1.0000000000000000e+00" itree="1522">
      <Node pos="s" depth="0" NCoef="0" IVar="1" Cut="1.7991004884243011e-01" cType="1" res="-2.8153107223261031e-07" rms="3.2222199440002441e-01" purity="5.9855979681015015e-01" nType="0">
        <Node pos="l" depth="1" NCoef="0" IVar="-1" Cut="0.0000000000000000e+00" cType="1" res="1.2555038847494870e-04" rms="3.1362885236740112e-01" purity="7.0187205076217651e-01" nType="-99"/>
        <Node pos="r" depth="1" NCoef="0" IVar="2" Cut="5.7695746421813965e-01" cType="1" res="-7.6567078940570354e-04" rms="3.4697598218917847e-01" purity="2.8532922267913818e-01" nType="0">
          <Node pos="l" depth="2" NCoef="0" IVar="-1" Cut="0.0000000000000000e+00" cType="1" res="-2.7333067264407873e-03" rms="3.7591853737831116e-01" purity="4.7295048832893372e-01" nType="-99"/>
          <Node pos="r" depth="2" NCoef="0" IVar="-1" Cut="0.0000000000000000e+00" cType="1" res="1.5179151669144630e-03" rms="3.2871454954147339e-01" purity="1.7508253455162048e-01" nType="-99"/>
        </Node>
      </Node>
    </BinaryTree>
    <BinaryTree type="DecisionTree" boostWeight="1.0000000000000000e+00" itree="1523">
      <Node pos="s" depth="0" NCoef="0" IVar="2" Cut="1.7158864736557007e+00" cType="1" res="-2.7349102538209991e-07" rms="3.2221868634223938e-01" purity="5.9855979681015015e-01" nType="0">
        <Node pos="l" depth="1" NCoef="0" IVar="-1" Cut="0.0000000000000000e+00" cType="1" res="7.1365386247634888e-05" rms="3.2103610038757324e-01" purity="6.3621157407760620e-01" nType="-99"/>
        <Node pos="r" depth="1" NCoef="0" IVar="2" Cut="1.7275501489639282e+00" cType="0" res="-1.5779135283082724e-03" rms="3.3446174860000610e-01" purity="2.0048630237579346e-01" nType="0">
          <Node pos="l" depth="2" NCoef="0" IVar="-1" Cut="0.0000000000000000e+00" cType="1" res="1.1878929626618628e-06" rms="3.3540689945220947e-01" purity="2.0235134661197662e-01" nType="-99"/>
          <Node pos="r" depth="2" NCoef="0" IVar="-1" Cut="0.0000000000000000e+00" cType="1" res="-3.0652681365609169e-02" rms="2.8149074316024780e-01" purity="1.1881188303232193e-01" nType="-99"/>
        </Node>
      </Node>
    </BinaryTree>
    <BinaryTree type="DecisionTree" boostWeight="1.0000000000000000e+00" itree="1524">
      <Node pos="s" depth="0" NCoef="0" IVar="2" Cut="1.9256891012191772e+00" cType="1" res="-4.2707361558314005e-07" rms="3.2221519947052002e-01" purity="5.9855979681015015e-01" nType="0">
        <Node pos="l" depth="1" NCoef="0" IVar="-1" Cut="0.0000000000000000e+00" cType="1" res="5.7415469200350344e-05" rms="3.2171231508255005e-01" purity="6.2506610155105591e-01" nType="-99"/>
        <Node pos="r" depth="1" NCoef="0" IVar="0" Cut="1.7116442322731018e-01" cType="1" res="-1.8736105412244797e-03" rms="3.2990846037864685e-01" purity="1.8757881224155426e-01" nType="0">
          <Node pos="l" depth="2" NCoef="0" IVar="-1" Cut="0.0000000000000000e+00" cType="1" res="-7.0877447724342346e-03" rms="4.3369635939598083e-01" purity="6.1092150211334229e-01" nType="-99"/>
          <Node pos="r" depth="2" NCoef="0" IVar="-1" Cut="0.0000000000000000e+00" cType="1" res="3.6259528133086860e-04" rms="3.1732842326164246e-01" purity="1.4449462294578552e-01" nType="-99"/>
        </Node>
      </Node>
    </BinaryTree>
    <BinaryTree type="DecisionTree" boostWeight="1.0000000000000000e+00" itree="1525">
      <Node pos="s" depth="0" NCoef="0" IVar="2" Cut="1.0115487873554230e-01" cType="1" res="-3.6009865311825706e-07" rms="3.2221344113349915e-01" purity="5.9855979681015015e-01" nType="0">
        <Node pos="l" depth="1" NCoef="0" IVar="-1" Cut="0.0000000000000000e+00" cType="1" res="5.9808569494634867e-04" rms="2.5476604700088501e-01" purity="9.0582728385925293e-01" nType="-99"/>
        <Node pos="r" depth="1" NCoef="0" IVar="2" Cut="1.1232008785009384e-01" cType="1" res="-2.7666124515235424e-04" rms="3.4290328621864319e-01" purity="4.8990356922149658e-01" nType="0">
          <Node pos="l" depth="2" NCoef="0" IVar="-1" Cut="0.0000000000000000e+00" cType="1" res="-2.1291859447956085e-02" rms="3.3901131153106689e-01" purity="5.2903223037719727e-01" nType="-99"/>
          <Node pos="r" depth="2" NCoef="0" IVar="-1" Cut="0.0000000000000000e+00" cType="1" res="-4.4972031901124865e-05" rms="3.4290847182273865e-01" purity="4.8974612355232239e-01" nType="-99"/>
        </Node>
      </Node>
    </BinaryTree>
    <BinaryTree type="DecisionTree" boostWeight="1.0000000000000000e+00" itree="1526">
      <Node pos="s" depth="0" NCoef="0" IVar="2" Cut="2.6487591266632080e+00" cType="1" res="-2.7034059257857734e-07" rms="3.2221120595932007e-01" purity="5.9855979681015015e-01" nType="0">
        <Node pos="l" depth="1" NCoef="0" IVar="-1" Cut="0.0000000000000000e+00" cType="1" res="2.8583412131411023e-05" rms="3.2206651568412781e-01" purity="6.0597991943359375e-01" nType="-99"/>
        <Node pos="r" depth="1" NCoef="0" IVar="0" Cut="5.6596702337265015e-01" cType="1" res="-3.4002903848886490e-03" rms="3.3022481203079224e-01" purity="1.8142075836658478e-01" nType="0">
          <Node pos="l" depth="2" NCoef="0" IVar="-1" Cut="0.0000000000000000e+00" cType="1" res="-8.7485993281006813e-03" rms="3.8215270638465881e-01" purity="3.0932202935218811e-01" nType="-99"/>
          <Node pos="r" depth="2" NCoef="0" IVar="-1" Cut="0.0000000000000000e+00" cType="1" res="2.6646011974662542e-03" rms="3.0965998768806458e-01" purity="1.3696612417697906e-01" nType="-99"/>
        </Node>
      </Node>
    </BinaryTree>
    <BinaryTree type="DecisionTree" boostWeight="1.0000000000000000e+00" itree="1527">
      <Node pos="s" depth="0" NCoef="0" IVar="0" Cut="6.6341829299926758e-01" cType="1" res="-2.8126132178840635e-07" rms="3.2221004366874695e-01" purity="5.9855979681015015e-01" nType="0">
        <Node pos="l" depth="1" NCoef="0" IVar="-1" Cut="0.0000000000000000e+00" cType="1" res="7.8942728578113019e-05" rms="3.3129265904426575e-01" purity="6.7677879333496094e-01" nType="-99"/>
        <Node pos="r" depth="1" NCoef="0" IVar="2" Cut="9.1039389371871948e-01" cType="0" res="-1.1720862239599228e-03" rms="2.5350037217140198e-01" purity="7.7294684946537018e-02" nType="0">
          <Node pos="l" depth="2" NCoef="0" IVar="-1" Cut="0.0000000000000000e+00" cType="1" res="-2.8622387908399105e-03" rms="2.5368803739547729e-01" purity="7.9312488436698914e-02" nType="-99"/>
          <Node pos="r" depth="2" NCoef="0" IVar="-1" Cut="0.0000000000000000e+00" cType="1" res="4.8544276505708694e-03" rms="2.5291019678115845e-01" purity="7.2427570819854736e-02" nType="-99"/>
        </Node>
      </Node>
    </BinaryTree>
    <BinaryTree type="DecisionTree" boostWeight="1.0000000000000000e+00" itree="1528">
      <Node pos="s" depth="0" NCoef="0" IVar="2" Cut="1.5360555648803711e+00" cType="1" res="-4.2259156884938420e-07" rms="3.2221019268035889e-01" purity="5.9855979681015015e-01" nType="0">
        <Node pos="l" depth="1" NCoef="0" IVar="-1" Cut="0.0000000000000000e+00" cType="1" res="-9.0671761427074671e-05" rms="3.1984671950340271e-01" purity="6.4864921569824219e-01" nType="-99"/>
        <Node pos="r" depth="1" NCoef="0" IVar="0" Cut="3.5482257604598999e-01" cType="1" res="1.4367646072059870e-03" rms="3.3976119756698608e-01" purity="2.1498262882232666e-01" nType="0">
          <Node pos="l" depth="2" NCoef="0" IVar="-1" Cut="0.0000000000000000e+00" cType="1" res="2.8487648814916611e-03" rms="4.4078609347343445e-01" purity="4.6932354569435120e-01" nType="-99"/>
          <Node pos="r" depth="2" NCoef="0" IVar="-1" Cut="0.0000000000000000e+00" cType="1" res="-1.7550697084516287e-03" rms="2.8116354346275330e-01" purity="9.7826085984706879e-02" nType="-99"/>
        </Node>
      </Node>
    </BinaryTree>
    <BinaryTree type="DecisionTree" boostWeight="1.0000000000000000e+00" itree="1529">
      <Node pos="s" depth="0" NCoef="0" IVar="2" Cut="2.6300268173217773e+00" cType="1" res="-4.1819052398750500e-07" rms="3.2220926880836487e-01" purity="5.9855979681015015e-01" nType="0">
        <Node pos="l" depth="1" NCoef="0" IVar="-1" Cut="0.0000000000000000e+00" cType="1" res="-3.3256990718655288e-05" rms="3.2196372747421265e-01" purity="6.0616320371627808e-01" nType="-99"/>
        <Node pos="r" depth="1" NCoef="0" IVar="3" Cut="3.7615677714347839e-01" cType="0" res="3.7585319951176643e-03" rms="3.3517846465110779e-01" purity="1.8802520632743835e-01" nType="0">
          <Node pos="l" depth="2" NCoef="0" IVar="-1" Cut="0.0000000000000000e+00" cType="1" res="-1.0279512032866478e-02" rms="4.3116813898086548e-01" purity="4.6000000834465027e-01" nType="-99"/>
          <Node pos="r" depth="2" NCoef="0" IVar="-1" Cut="0.0000000000000000e+00" cType="1" res="4.0786904282867908e-03" rms="3.2165572047233582e-01" purity="1.5610328316688538e-01" nType="-99"/>
        </Node>
      </Node>
    </BinaryTree>
    <BinaryTree type="DecisionTree" boostWeight="1.0000000000000000e+00" itree="1530">
      <Node pos="s" depth="0" NCoef="0" IVar="2" Cut="2.0455763339996338e+00" cType="1" res="-4.1281933249592839e-07" rms="3.2220712304115295e-01" purity="5.9855979681015015e-01" nType="0">
        <Node pos="l" depth="1" NCoef="0" IVar="-1" Cut="0.0000000000000000e+00" cType="1" res="-5.1084174629068002e-05" rms="3.2171326875686646e-01" purity="6.2023001909255981e-01" nType="-99"/>
        <Node pos="r" depth="1" NCoef="0" IVar="2" Cut="2.0702438354492188e+00" cType="1" res="2.0310294348746538e-03" rms="3.3145055174827576e-01" purity="1.8654434382915497e-01" nType="0">
          <Node pos="l" depth="2" NCoef="0" IVar="-1" Cut="0.0000000000000000e+00" cType="1" res="2.1650847047567368e-02" rms="3.6516356468200684e-01" purity="2.4770642817020416e-01" nType="-99"/>
          <Node pos="r" depth="2" NCoef="0" IVar="-1" Cut="0.0000000000000000e+00" cType="1" res="-1.1451201135059819e-04" rms="3.2971489429473877e-01" purity="1.8388512730598450e-01" nType="-99"/>
        </Node>
      </Node>
    </BinaryTree>
    <BinaryTree type="DecisionTree" boostWeight="1.0000000000000000e+00" itree="1531">
      <Node pos="s" depth="0" NCoef="0" IVar="2" Cut="2.6300268173217773e+00" cType="1" res="-4.8416814024676569e-07" rms="3.2220426201820374e-01" purity="5.9855979681015015e-01" nType="0">
        <Node pos="l" depth="1" NCoef="0" IVar="-1" Cut="0.0000000000000000e+00" cType="1" res="-3.0201408662833273e-05" rms="3.2196077704429626e-01" purity="6.0616320371627808e-01" nType="-99"/>
        <Node pos="r" depth="1" NCoef="0" IVar="3" Cut="3.7615677714347839e-01" cType="0" res="3.4077158197760582e-03" rms="3.3507016301155090e-01" purity="1.8802520632743835e-01" nType="0">
          <Node pos="l" depth="2" NCoef="0" IVar="-1" Cut="0.0000000000000000e+00" cType="1" res="-9.2460354790091515e-03" rms="4.3122360110282898e-01" purity="4.6000000834465027e-01" nType="-99"/>
          <Node pos="r" depth="2" NCoef="0" IVar="-1" Cut="0.0000000000000000e+00" cType="1" res="3.6645981017500162e-03" rms="3.2159450650215149e-01" purity="1.5610328316688538e-01" nType="-99"/>
        </Node>
      </Node>
    </BinaryTree>
    <BinaryTree type="DecisionTree" boostWeight="1.0000000000000000e+00" itree="1532">
      <Node pos="s" depth="0" NCoef="0" IVar="2" Cut="3.2294631004333496e+00" cType="1" res="-4.6531110342584725e-07" rms="3.2220247387886047e-01" purity="5.9855979681015015e-01" nType="0">
        <Node pos="l" depth="1" NCoef="0" IVar="-1" Cut="0.0000000000000000e+00" cType="1" res="1.7188034689752385e-05" rms="3.2207685708999634e-01" purity="6.0102629661560059e-01" nType="-99"/>
        <Node pos="r" depth="1" NCoef="0" IVar="0" Cut="1.7004076242446899e+00" cType="0" res="-5.9100720100104809e-03" rms="3.4178093075752258e-01" purity="2.0123839378356934e-01" nType="0">
          <Node pos="l" depth="2" NCoef="0" IVar="-1" Cut="0.0000000000000000e+00" cType="1" res="9.0169133618474007e-03" rms="3.8239264488220215e-01" purity="2.5742575526237488e-01" nType="-99"/>
          <Node pos="r" depth="2" NCoef="0" IVar="-1" Cut="0.0000000000000000e+00" cType="1" res="-8.2369297742843628e-03" rms="3.2049274444580078e-01" purity="1.7567567527294159e-01" nType="-99"/>
        </Node>
      </Node>
    </BinaryTree>
    <BinaryTree type="DecisionTree" boostWeight="1.0000000000000000e+00" itree="1533">
      <Node pos="s" depth="0" NCoef="0" IVar="0" Cut="2.0439779758453369e+00" cType="1" res="-4.7273954351112479e-07" rms="3.2220160961151123e-01" purity="5.9855979681015015e-01" nType="0">
        <Node pos="l" depth="1" NCoef="0" IVar="-1" Cut="0.0000000000000000e+00" cType="1" res="2.7434096409706399e-05" rms="3.2222110033035278e-01" purity="6.0564202070236206e-01" nType="-99"/>
        <Node pos="r" depth="1" NCoef="0" IVar="1" Cut="1.2093952894210815e+00" cType="0" res="-3.7004649639129639e-03" rms="3.2093971967697144e-01" purity="1.4901477098464966e-01" nType="0">
          <Node pos="l" depth="2" NCoef="0" IVar="-1" Cut="0.0000000000000000e+00" cType="1" res="7.0137302391231060e-03" rms="3.9195603132247925e-01" purity="2.5000000000000000e-01" nType="-99"/>
          <Node pos="r" depth="2" NCoef="0" IVar="-1" Cut="0.0000000000000000e+00" cType="1" res="-5.5855670943856239e-03" rms="2.9648584127426147e-01" purity="1.1942674964666367e-01" nType="-99"/>
        </Node>
      </Node>
    </BinaryTree>
    <BinaryTree type="DecisionTree" boostWeight="1.0000000000000000e+00" itree="1534">
      <Node pos="s" depth="0" NCoef="0" IVar="1" Cut="2.3250875473022461e+00" cType="1" res="-5.0115278327211854e-07" rms="3.2220029830932617e-01" purity="5.9855979681015015e-01" nType="0">
        <Node pos="l" depth="1" NCoef="0" IVar="1" Cut="1.7344640493392944e+00" cType="1" res="2.2665717551717535e-05" rms="3.2208859920501709e-01" purity="5.9937214851379395e-01" nType="0">
          <Node pos="l" depth="2" NCoef="0" IVar="-1" Cut="0.0000000000000000e+00" cType="1" res="-1.2747756045428105e-05" rms="3.2195696234703064e-01" purity="6.0092604160308838e-01" nType="-99"/>
          <Node pos="r" depth="2" NCoef="0" IVar="-1" Cut="0.0000000000000000e+00" cType="1" res="5.0852806307375431e-03" rms="3.5523775219917297e-01" purity="1.8461538851261139e-01" nType="-99"/>
        </Node>
        <Node pos="r" depth="1" NCoef="0" IVar="-1" Cut="0.0000000000000000e+00" cType="1" res="-3.3476729877293110e-03" rms="3.7090227007865906e-01" purity="2.1621622145175934e-01" nType="-99"/>
      </Node>
    </BinaryTree>
    <BinaryTree type="DecisionTree" boostWeight="1.0000000000000000e+00" itree="1535">
      <Node pos="s" depth="0" NCoef="0" IVar="1" Cut="1.5829585790634155e+00" cType="1" res="-4.6898279038032342e-07" rms="3.2219976186752319e-01" purity="5.9855979681015015e-01" nType="0">
        <Node pos="l" depth="1" NCoef="0" IVar="-1" Cut="0.0000000000000000e+00" cType="1" res="2.1618532628053799e-05" rms="3.2208451628684998e-01" purity="6.0176652669906616e-01" nType="-99"/>
        <Node pos="r" depth="1" NCoef="0" IVar="2" Cut="1.1131349802017212e+00" cType="0" res="-6.1799203976988792e-03" rms="3.3725875616073608e-01" purity="1.6795866191387177e-01" nType="0">
          <Node pos="l" depth="2" NCoef="0" IVar="-1" Cut="0.0000000000000000e+00" cType="1" res="1.8363390117883682e-03" rms="3.5257989168167114e-01" purity="1.8454936146736145e-01" nType="-99"/>
          <Node pos="r" depth="2" NCoef="0" IVar="-1" Cut="0.0000000000000000e+00" cType="1" res="-9.1510321944952011e-03" rms="3.1190285086631775e-01" purity="1.4285714924335480e-01" nType="-99"/>
        </Node>
      </Node>
    </BinaryTree>
    <BinaryTree type="DecisionTree" boostWeight="1.0000000000000000e+00" itree="1536">
      <Node pos="s" depth="0" NCoef="0" IVar="1" Cut="1.5829585790634155e+00" cType="1" res="-4.5881142796133645e-07" rms="3.2219964265823364e-01" purity="5.9855979681015015e-01" nType="0">
        <Node pos="l" depth="1" NCoef="0" IVar="-1" Cut="0.0000000000000000e+00" cType="1" res="1.9456778318271972e-05" rms="3.2208451628684998e-01" purity="6.0176652669906616e-01" nType="-99"/>
        <Node pos="r" depth="1" NCoef="0" IVar="2" Cut="1.7287795543670654e+00" cType="0" res="-5.5668912827968597e-03" rms="3.3725515007972717e-01" purity="1.6795866191387177e-01" nType="0">
          <Node pos="l" depth="2" NCoef="0" IVar="-1" Cut="0.0000000000000000e+00" cType="1" res="3.8869623094797134e-03" rms="3.6205992102622986e-01" purity="1.9718310236930847e-01" nType="-99"/>
          <Node pos="r" depth="2" NCoef="0" IVar="-1" Cut="0.0000000000000000e+00" cType="1" res="-5.9518646448850632e-03" rms="3.2162764668464661e-01" purity="1.5102040767669678e-01" nType="-99"/>
        </Node>
      </Node>
    </BinaryTree>
    <BinaryTree type="DecisionTree" boostWeight="1.0000000000000000e+00" itree="1537">
      <Node pos="s" depth="0" NCoef="0" IVar="2" Cut="3.8813500404357910e+00" cType="1" res="-4.4229079776414437e-07" rms="3.2219952344894409e-01" purity="5.9855979681015015e-01" nType="0">
        <Node pos="l" depth="1" NCoef="0" IVar="2" Cut="3.3121306896209717e+00" cType="1" res="2.1128062144271098e-05" rms="3.2212734222412109e-01" purity="5.9940659999847412e-01" nType="0">
          <Node pos="l" depth="2" NCoef="0" IVar="-1" Cut="0.0000000000000000e+00" cType="1" res="-1.4036399079486728e-05" rms="3.2203692197799683e-01" purity="6.0064917802810669e-01" nType="-99"/>
          <Node pos="r" depth="2" NCoef="0" IVar="-1" Cut="0.0000000000000000e+00" cType="1" res="5.8006192557513714e-03" rms="3.4794175624847412e-01" purity="2.2543352842330933e-01" nType="-99"/>
        </Node>
        <Node pos="r" depth="1" NCoef="0" IVar="-1" Cut="0.0000000000000000e+00" cType="1" res="-3.3939124550670385e-03" rms="3.5358923673629761e-01" purity="2.1052631735801697e-01" nType="-99"/>
      </Node>
    </BinaryTree>
    <BinaryTree type="DecisionTree" boostWeight="1.0000000000000000e+00" itree="1538">
      <Node pos="s" depth="0" NCoef="0" IVar="2" Cut="3.2294631004333496e+00" cType="1" res="-4.1412440054955368e-07" rms="3.2219898700714111e-01" purity="5.9855979681015015e-01" nType="0">
        <Node pos="l" depth="1" NCoef="0" IVar="-1" Cut="0.0000000000000000e+00" cType="1" res="1.7197027773363516e-05" rms="3.2207474112510681e-01" purity="6.0102629661560059e-01" nType="-99"/>
        <Node pos="r" depth="1" NCoef="0" IVar="1" Cut="1.0744627565145493e-01" cType="0" res="-5.9042521752417088e-03" rms="3.4157198667526245e-01" purity="2.0123839378356934e-01" nType="0">
          <Node pos="l" depth="2" NCoef="0" IVar="-1" Cut="0.0000000000000000e+00" cType="1" res="3.1861891038715839e-03" rms="3.5114377737045288e-01" purity="2.1028037369251251e-01" nType="-99"/>
          <Node pos="r" depth="2" NCoef="0" IVar="-1" Cut="0.0000000000000000e+00" cType="1" res="-1.2510212138295174e-02" rms="3.2008254528045654e-01" purity="1.8348623812198639e-01" nType="-99"/>
        </Node>
      </Node>
    </BinaryTree>
    <BinaryTree type="DecisionTree" boostWeight="1.0000000000000000e+00" itree="1539">
      <Node pos="s" depth="0" NCoef="0" IVar="1" Cut="1.0457271337509155e+00" cType="1" res="-4.1554994822945446e-07" rms="3.2219842076301575e-01" purity="5.9855979681015015e-01" nType="0">
        <Node pos="l" depth="1" NCoef="0" IVar="-1" Cut="0.0000000000000000e+00" cType="1" res="3.2039213692769408e-05" rms="3.2250836491584778e-01" purity="6.0884672403335571e-01" nType="-99"/>
        <Node pos="r" depth="1" NCoef="0" IVar="2" Cut="8.3546435832977295e-01" cType="1" res="-3.0960701406002045e-03" rms="3.0775055289268494e-01" purity="1.3055062294006348e-01" nType="0">
          <Node pos="l" depth="2" NCoef="0" IVar="-1" Cut="0.0000000000000000e+00" cType="1" res="7.0605305954813957e-03" rms="3.2576245069503784e-01" purity="1.4070351421833038e-01" nType="-99"/>
          <Node pos="r" depth="2" NCoef="0" IVar="-1" Cut="0.0000000000000000e+00" cType="1" res="-5.9197363443672657e-03" rms="2.9700759053230286e-01" purity="1.2500000000000000e-01" nType="-99"/>
        </Node>
      </Node>
    </BinaryTree>
    <BinaryTree type="DecisionTree" boostWeight="1.0000000000000000e+00" itree="1540">
      <Node pos="s" depth="0" NCoef="0" IVar="2" Cut="2.6300268173217773e+00" cType="1" res="-4.8752639258964336e-07" rms="3.2219785451889038e-01" purity="5.9855979681015015e-01" nType="0">
        <Node pos="l" depth="1" NCoef="0" IVar="-1" Cut="0.0000000000000000e+00" cType="1" res="-3.0320697987917811e-05" rms="3.2195842266082764e-01" purity="6.0616320371627808e-01" nType="-99"/>
        <Node pos="r" depth="1" NCoef="0" IVar="3" Cut="3.7615677714347839e-01" cType="0" res="3.4206614363938570e-03" rms="3.3485358953475952e-01" purity="1.8802520632743835e-01" nType="0">
          <Node pos="l" depth="2" NCoef="0" IVar="-1" Cut="0.0000000000000000e+00" cType="1" res="-8.0367457121610641e-03" rms="4.3087023496627808e-01" purity="4.6000000834465027e-01" nType="-99"/>
          <Node pos="r" depth="2" NCoef="0" IVar="-1" Cut="0.0000000000000000e+00" cType="1" res="3.4089605323970318e-03" rms="3.2146862149238586e-01" purity="1.5610328316688538e-01" nType="-99"/>
        </Node>
      </Node>
    </BinaryTree>
    <BinaryTree type="DecisionTree" boostWeight="1.0000000000000000e+00" itree="1541">
      <Node pos="s" depth="0" NCoef="0" IVar="3" Cut="2.6784995198249817e-01" cType="1" res="-4.6383763674384682e-07" rms="3.2219633460044861e-01" purity="5.9855979681015015e-01" nType="0">
        <Node pos="l" depth="1" NCoef="0" IVar="-1" Cut="0.0000000000000000e+00" cType="1" res="2.5165092665702105e-04" rms="2.8395947813987732e-01" purity="6.0393178462982178e-01" nType="-99"/>
        <Node pos="r" depth="1" NCoef="0" IVar="2" Cut="4.4492575526237488e-01" cType="1" res="-4.9484445480629802e-04" rms="3.6229211091995239e-01" purity="5.9219861030578613e-01" nType="0">
          <Node pos="l" depth="2" NCoef="0" IVar="-1" Cut="0.0000000000000000e+00" cType="1" res="1.5940567245706916e-03" rms="3.2336241006851196e-01" purity="8.3468484878540039e-01" nType="-99"/>
          <Node pos="r" depth="2" NCoef="0" IVar="-1" Cut="0.0000000000000000e+00" cType="1" res="-5.8219418860971928e-04" rms="3.7290760874748230e-01" purity="5.2124679088592529e-01" nType="-99"/>
        </Node>
      </Node>
    </BinaryTree>
    <BinaryTree type="DecisionTree" boostWeight="1.0000000000000000e+00" itree="1542">
      <Node pos="s" depth="0" NCoef="0" IVar="2" Cut="1.0003093481063843e+00" cType="1" res="-3.8606512475780619e-07" rms="3.2219579815864563e-01" purity="5.9855979681015015e-01" nType="0">
        <Node pos="l" depth="1" NCoef="0" IVar="-1" Cut="0.0000000000000000e+00" cType="1" res="-1.4262716285884380e-04" rms="3.1264528632164001e-01" purity="7.0816254615783691e-01" nType="-99"/>
        <Node pos="r" depth="1" NCoef="0" IVar="0" Cut="3.6356821656227112e-01" cType="1" res="8.2513457164168358e-04" rms="3.4867367148399353e-01" purity="2.7743580937385559e-01" nType="0">
          <Node pos="l" depth="2" NCoef="0" IVar="-1" Cut="0.0000000000000000e+00" cType="1" res="1.8703612731769681e-03" rms="4.2593750357627869e-01" purity="5.1173710823059082e-01" nType="-99"/>
          <Node pos="r" depth="2" NCoef="0" IVar="-1" Cut="0.0000000000000000e+00" cType="1" res="-2.5435355491936207e-03" rms="2.7020424604415894e-01" purity="8.7523780763149261e-02" nType="-99"/>
        </Node>
      </Node>
    </BinaryTree>
    <BinaryTree type="DecisionTree" boostWeight="1.0000000000000000e+00" itree="1543">
      <Node pos="s" depth="0" NCoef="0" IVar="0" Cut="4.5977011322975159e-01" cType="1" res="-4.5551743710348092e-07" rms="3.2219442725181580e-01" purity="5.9855979681015015e-01" nType="0">
        <Node pos="l" depth="1" NCoef="0" IVar="-1" Cut="0.0000000000000000e+00" cType="1" res="-1.1218427971471101e-04" rms="3.3549666404724121e-01" purity="7.2192019224166870e-01" nType="-99"/>
        <Node pos="r" depth="1" NCoef="0" IVar="0" Cut="4.7819709777832031e-01" cType="1" res="1.0776225244626403e-03" rms="2.5877225399017334e-01" purity="7.9036429524421692e-02" nType="0">
          <Node pos="l" depth="2" NCoef="0" IVar="-1" Cut="0.0000000000000000e+00" cType="1" res="1.9214851781725883e-02" rms="3.5477501153945923e-01" purity="1.5536722540855408e-01" nType="-99"/>
          <Node pos="r" depth="2" NCoef="0" IVar="-1" Cut="0.0000000000000000e+00" cType="1" res="-2.1488680795300752e-04" rms="2.5447732210159302e-01" purity="7.6248452067375183e-02" nType="-99"/>
        </Node>
      </Node>
    </BinaryTree>
    <BinaryTree type="DecisionTree" boostWeight="1.0000000000000000e+00" itree="1544">
      <Node pos="s" depth="0" NCoef="0" IVar="0" Cut="5.7346326112747192e-01" cType="1" res="-7.7496650874309125e-07" rms="3.2219079136848450e-01" purity="5.9855979681015015e-01" nType="0">
        <Node pos="l" depth="1" NCoef="0" IVar="-1" Cut="0.0000000000000000e+00" cType="1" res="-9.7841730166692287e-05" rms="3.3269426226615906e-01" purity="6.9335353374481201e-01" nType="-99"/>
        <Node pos="r" depth="1" NCoef="0" IVar="3" Cut="3.0649366974830627e-01" cType="0" res="1.2012193910777569e-03" rms="2.5707343220710754e-01" purity="7.8761607408523560e-02" nType="0">
          <Node pos="l" depth="2" NCoef="0" IVar="-1" Cut="0.0000000000000000e+00" cType="1" res="6.8739429116249084e-03" rms="3.3442744612693787e-01" purity="1.5235456824302673e-01" nType="-99"/>
          <Node pos="r" depth="2" NCoef="0" IVar="-1" Cut="0.0000000000000000e+00" cType="1" res="-7.2149315383285284e-04" rms="2.4283157289028168e-01" purity="6.7362703382968903e-02" nType="-99"/>
        </Node>
      </Node>
    </BinaryTree>
    <BinaryTree type="DecisionTree" boostWeight="1.0000000000000000e+00" itree="1545">
      <Node pos="s" depth="0" NCoef="0" IVar="3" Cut="2.6784995198249817e-01" cType="1" res="-8.3528698269219603e-07" rms="3.2218891382217407e-01" purity="5.9855979681015015e-01" nType="0">
        <Node pos="l" depth="1" NCoef="0" IVar="-1" Cut="0.0000000000000000e+00" cType="1" res="2.7628501993604004e-04" rms="2.8395637869834900e-01" purity="6.0393178462982178e-01" nType="-99"/>
        <Node pos="r" depth="1" NCoef="0" IVar="2" Cut="4.4492575526237488e-01" cType="1" res="-5.4384232498705387e-04" rms="3.6228045821189880e-01" purity="5.9219861030578613e-01" nType="0">
          <Node pos="l" depth="2" NCoef="0" IVar="-1" Cut="0.0000000000000000e+00" cType="1" res="1.4668479561805725e-03" rms="3.2336682081222534e-01" purity="8.3468484878540039e-01" nType="-99"/>
          <Node pos="r" depth="2" NCoef="0" IVar="-1" Cut="0.0000000000000000e+00" cType="1" res="-5.7610101066529751e-04" rms="3.7289270758628845e-01" purity="5.2124679088592529e-01" nType="-99"/>
        </Node>
      </Node>
    </BinaryTree>
    <BinaryTree type="DecisionTree" boostWeight="1.0000000000000000e+00" itree="1546">
      <Node pos="s" depth="0" NCoef="0" IVar="3" Cut="4.5849314332008362e-01" cType="0" res="-7.2520765570516232e-07" rms="3.2218843698501587e-01" purity="5.9855979681015015e-01" nType="0">
        <Node pos="l" depth="1" NCoef="0" IVar="-1" Cut="0.0000000000000000e+00" cType="1" res="1.2083699693903327e-03" rms="3.2019877433776855e-01" purity="8.6518049240112305e-01" nType="-99"/>
        <Node pos="r" depth="1" NCoef="0" IVar="3" Cut="4.5482206344604492e-01" cType="0" res="-9.4118244305718690e-05" rms="3.2226207852363586e-01" purity="5.8860707283020020e-01" nType="0">
          <Node pos="l" depth="2" NCoef="0" IVar="-1" Cut="0.0000000000000000e+00" cType="1" res="-1.1633208021521568e-02" rms="3.9144477248191833e-01" purity="7.9144382476806641e-01" nType="-99"/>
          <Node pos="r" depth="2" NCoef="0" IVar="-1" Cut="0.0000000000000000e+00" cType="1" res="5.5006621551001444e-06" rms="3.2197237014770508e-01" purity="5.8785277605056763e-01" nType="-99"/>
        </Node>
      </Node>
    </BinaryTree>
    <BinaryTree type="DecisionTree" boostWeight="1.0000000000000000e+00" itree="1547">
      <Node pos="s" depth="0" NCoef="0" IVar="3" Cut="4.2751049995422363e-01" cType="0" res="-5.8061635854755878e-07" rms="3.2218760251998901e-01" purity="5.9855979681015015e-01" nType="0">
        <Node pos="l" depth="1" NCoef="0" IVar="-1" Cut="0.0000000000000000e+00" cType="1" res="7.6202867785468698e-04" rms="3.3368924260139465e-01" purity="8.4197926521301270e-01" nType="-99"/>
        <Node pos="r" depth="1" NCoef="0" IVar="3" Cut="4.2601159214973450e-01" cType="0" res="-1.3437555753625929e-04" rms="3.2128039002418518e-01" purity="5.7973045110702515e-01" nType="0">
          <Node pos="l" depth="2" NCoef="0" IVar="-1" Cut="0.0000000000000000e+00" cType="1" res="-1.3731316663324833e-02" rms="4.0310376882553101e-01" purity="6.9354838132858276e-01" nType="-99"/>
          <Node pos="r" depth="2" NCoef="0" IVar="-1" Cut="0.0000000000000000e+00" cType="1" res="-1.2466036423575133e-05" rms="3.2103717327117920e-01" purity="5.7943922281265259e-01" nType="-99"/>
        </Node>
      </Node>
    </BinaryTree>
    <BinaryTree type="DecisionTree" boostWeight="1.0000000000000000e+00" itree="1548">
      <Node pos="s" depth="0" NCoef="0" IVar="0" Cut="1.0644677877426147e+00" cType="1" res="-4.6321531499415869e-07" rms="3.2218590378761292e-01" purity="5.9855979681015015e-01" nType="0">
        <Node pos="l" depth="1" NCoef="0" IVar="-1" Cut="0.0000000000000000e+00" cType="1" res="-5.8241825172444806e-05" rms="3.2484990358352661e-01" purity="6.3259059190750122e-01" nType="-99"/>
        <Node pos="r" depth="1" NCoef="0" IVar="0" Cut="1.1005825996398926e+00" cType="1" res="1.8204267835244536e-03" rms="2.8027448058128357e-01" purity="1.0011954605579376e-01" nType="0">
          <Node pos="l" depth="2" NCoef="0" IVar="-1" Cut="0.0000000000000000e+00" cType="1" res="3.5582013428211212e-02" rms="3.2937881350517273e-01" purity="1.3333334028720856e-01" nType="-99"/>
          <Node pos="r" depth="2" NCoef="0" IVar="-1" Cut="0.0000000000000000e+00" cType="1" res="-7.6486589387059212e-04" rms="2.7665629982948303e-01" purity="9.8064109683036804e-02" nType="-99"/>
        </Node>
      </Node>
    </BinaryTree>
    <BinaryTree type="DecisionTree" boostWeight="1.0000000000000000e+00" itree="1549">
      <Node pos="s" depth="0" NCoef="0" IVar="0" Cut="1.2981009483337402e+00" cType="1" res="-9.6698249762994237e-07" rms="3.2218208909034729e-01" purity="5.9855979681015015e-01" nType="0">
        <Node pos="l" depth="1" NCoef="0" IVar="-1" Cut="0.0000000000000000e+00" cType="1" res="-4.9364291044184938e-05" rms="3.2339745759963989e-01" purity="6.2081432342529297e-01" nType="-99"/>
        <Node pos="r" depth="1" NCoef="0" IVar="2" Cut="2.1317453384399414e+00" cType="0" res="2.2572060115635395e-03" rms="2.9451036453247070e-01" purity="1.1468288302421570e-01" nType="0">
          <Node pos="l" depth="2" NCoef="0" IVar="-1" Cut="0.0000000000000000e+00" cType="1" res="-7.0231244899332523e-03" rms="2.9087176918983459e-01" purity="1.2816455960273743e-01" nType="-99"/>
          <Node pos="r" depth="2" NCoef="0" IVar="-1" Cut="0.0000000000000000e+00" cType="1" res="5.1694707944989204e-03" rms="2.9561349749565125e-01" purity="1.0958083719015121e-01" nType="-99"/>
        </Node>
      </Node>
    </BinaryTree>
    <BinaryTree type="DecisionTree" boostWeight="1.0000000000000000e+00" itree="1550">
      <Node pos="s" depth="0" NCoef="0" IVar="2" Cut="2.2741115093231201e+00" cType="1" res="-1.0487585768714780e-06" rms="3.2218030095100403e-01" purity="5.9855979681015015e-01" nType="0">
        <Node pos="l" depth="1" NCoef="0" IVar="-1" Cut="0.0000000000000000e+00" cType="1" res="-4.7824069042690098e-05" rms="3.2183787226676941e-01" purity="6.1308050155639648e-01" nType="-99"/>
        <Node pos="r" depth="1" NCoef="0" IVar="0" Cut="1.7116442322731018e-01" cType="1" res="2.8348816558718681e-03" rms="3.3177715539932251e-01" purity="1.8478873372077942e-01" nType="0">
          <Node pos="l" depth="2" NCoef="0" IVar="-1" Cut="0.0000000000000000e+00" cType="1" res="-1.4651808887720108e-02" rms="4.2588880658149719e-01" purity="6.0000002384185791e-01" nType="-99"/>
          <Node pos="r" depth="2" NCoef="0" IVar="-1" Cut="0.0000000000000000e+00" cType="1" res="3.1568121630698442e-03" rms="3.2383799552917480e-01" purity="1.5602409839630127e-01" nType="-99"/>
        </Node>
      </Node>
    </BinaryTree>
    <BinaryTree type="DecisionTree" boostWeight="1.0000000000000000e+00" itree="1551">
      <Node pos="s" depth="0" NCoef="0" IVar="2" Cut="2.2741115093231201e+00" cType="1" res="-9.3673628498436301e-07" rms="3.2217594981193542e-01" purity="5.9855979681015015e-01" nType="0">
        <Node pos="l" depth="1" NCoef="0" IVar="-1" Cut="0.0000000000000000e+00" cType="1" res="-4.3040919990744442e-05" rms="3.2183787226676941e-01" purity="6.1308050155639648e-01" nType="-99"/>
        <Node pos="r" depth="1" NCoef="0" IVar="0" Cut="1.7116442322731018e-01" cType="1" res="2.5515987072139978e-03" rms="3.3165460824966431e-01" purity="1.8478873372077942e-01" nType="0">
          <Node pos="l" depth="2" NCoef="0" IVar="-1" Cut="0.0000000000000000e+00" cType="1" res="-1.3083709403872490e-02" rms="4.2577838897705078e-01" purity="6.0000002384185791e-01" nType="-99"/>
          <Node pos="r" depth="2" NCoef="0" IVar="-1" Cut="0.0000000000000000e+00" cType="1" res="2.8303614817559719e-03" rms="3.2379186153411865e-01" purity="1.5602409839630127e-01" nType="-99"/>
        </Node>
      </Node>
    </BinaryTree>
    <BinaryTree type="DecisionTree" boostWeight="1.0000000000000000e+00" itree="1552">
      <Node pos="s" depth="0" NCoef="0" IVar="3" Cut="4.1851553320884705e-01" cType="0" res="-8.3861760913350736e-07" rms="3.2217231392860413e-01" purity="5.9855979681015015e-01" nType="0">
        <Node pos="l" depth="1" NCoef="0" IVar="-1" Cut="0.0000000000000000e+00" cType="1" res="6.8713247310370207e-04" rms="3.3719927072525024e-01" purity="8.3232861757278442e-01" nType="-99"/>
        <Node pos="r" depth="1" NCoef="0" IVar="3" Cut="4.1411685943603516e-01" cType="0" res="-1.5047508350107819e-04" rms="3.2073003053665161e-01" purity="5.7668930292129517e-01" nType="0">
          <Node pos="l" depth="2" NCoef="0" IVar="-1" Cut="0.0000000000000000e+00" cType="1" res="-8.7909074500203133e-03" rms="3.8083675503730774e-01" purity="7.3899370431900024e-01" nType="-99"/>
          <Node pos="r" depth="2" NCoef="0" IVar="-1" Cut="0.0000000000000000e+00" cType="1" res="5.4406309573096223e-06" rms="3.2028397917747498e-01" purity="5.7560402154922485e-01" nType="-99"/>
        </Node>
      </Node>
    </BinaryTree>
    <BinaryTree type="DecisionTree" boostWeight="1.0000000000000000e+00" itree="1553">
      <Node pos="s" depth="0" NCoef="0" IVar="2" Cut="3.2294631004333496e+00" cType="1" res="-6.9630686994059943e-07" rms="3.2217040657997131e-01" purity="5.9855979681015015e-01" nType="0">
        <Node pos="l" depth="1" NCoef="0" IVar="-1" Cut="0.0000000000000000e+00" cType="1" res="1.7774622392607853e-05" rms="3.2204955816268921e-01" purity="6.0102629661560059e-01" nType="-99"/>
        <Node pos="r" depth="1" NCoef="0" IVar="0" Cut="1.7004076242446899e+00" cType="0" res="-6.1467234045267105e-03" rms="3.4102469682693481e-01" purity="2.0123839378356934e-01" nType="0">
          <Node pos="l" depth="2" NCoef="0" IVar="-1" Cut="0.0000000000000000e+00" cType="1" res="8.0229789018630981e-03" rms="3.8173341751098633e-01" purity="2.5742575526237488e-01" nType="-99"/>
          <Node pos="r" depth="2" NCoef="0" IVar="-1" Cut="0.0000000000000000e+00" cType="1" res="-7.8571802005171776e-03" rms="3.1984665989875793e-01" purity="1.7567567527294159e-01" nType="-99"/>
        </Node>
      </Node>
    </BinaryTree>
    <BinaryTree type="DecisionTree" boostWeight="1.0000000000000000e+00" itree="1554">
      <Node pos="s" depth="0" NCoef="0" IVar="3" Cut="4.1251888871192932e-01" cType="0" res="-6.7343768250793801e-07" rms="3.2216972112655640e-01" purity="5.9855979681015015e-01" nType="0">
        <Node pos="l" depth="1" NCoef="0" IVar="-1" Cut="0.0000000000000000e+00" cType="1" res="6.0608255444094539e-04" rms="3.3984124660491943e-01" purity="8.2630831003189087e-01" nType="-99"/>
        <Node pos="r" depth="1" NCoef="0" IVar="3" Cut="4.1106268763542175e-01" cType="0" res="-1.4903502597007900e-04" rms="3.2028442621231079e-01" purity="5.7498472929000854e-01" nType="0">
          <Node pos="l" depth="2" NCoef="0" IVar="-1" Cut="0.0000000000000000e+00" cType="1" res="-1.4430500566959381e-02" rms="3.9476114511489868e-01" purity="6.6972476243972778e-01" nType="-99"/>
          <Node pos="r" depth="2" NCoef="0" IVar="-1" Cut="0.0000000000000000e+00" cType="1" res="-2.2560743673238903e-05" rms="3.2008585333824158e-01" purity="5.7476657629013062e-01" nType="-99"/>
        </Node>
      </Node>
    </BinaryTree>
    <BinaryTree type="DecisionTree" boostWeight="1.0000000000000000e+00" itree="1555">
      <Node pos="s" depth="0" NCoef="0" IVar="2" Cut="7.9050660133361816e-01" cType="1" res="-5.5352114713969058e-07" rms="3.2216802239418030e-01" purity="5.9855979681015015e-01" nType="0">
        <Node pos="l" depth="1" NCoef="0" IVar="-1" Cut="0.0000000000000000e+00" cType="1" res="-1.7450655286666006e-04" rms="3.0662456154823303e-01" purity="7.4346238374710083e-01" nType="-99"/>
        <Node pos="r" depth="1" NCoef="0" IVar="2" Cut="7.9391616582870483e-01" cType="1" res="6.2465702649205923e-04" rms="3.4963244199752808e-01" purity="3.2500413060188293e-01" nType="0">
          <Node pos="l" depth="2" NCoef="0" IVar="-1" Cut="0.0000000000000000e+00" cType="1" res="2.4773204699158669e-02" rms="3.4643939137458801e-01" purity="5.6000000238418579e-01" nType="-99"/>
          <Node pos="r" depth="2" NCoef="0" IVar="-1" Cut="0.0000000000000000e+00" cType="1" res="1.2151398550486192e-04" rms="3.4962356090545654e-01" purity="3.2370069622993469e-01" nType="-99"/>
        </Node>
      </Node>
    </BinaryTree>
    <BinaryTree type="DecisionTree" boostWeight="1.0000000000000000e+00" itree="1556">
      <Node pos="s" depth="0" NCoef="0" IVar="0" Cut="4.2478761076927185e-01" cType="1" res="-4.7599991148672416e-07" rms="3.2216465473175049e-01" purity="5.9855979681015015e-01" nType="0">
        <Node pos="l" depth="1" NCoef="0" IVar="-1" Cut="0.0000000000000000e+00" cType="1" res="1.0193347407039255e-04" rms="3.3649939298629761e-01" purity="7.3304802179336548e-01" nType="-99"/>
        <Node pos="r" depth="1" NCoef="0" IVar="0" Cut="4.3205511569976807e-01" cType="0" res="-9.0593297500163317e-04" rms="2.5945413112640381e-01" purity="7.9045139253139496e-02" nType="0">
          <Node pos="l" depth="2" NCoef="0" IVar="-1" Cut="0.0000000000000000e+00" cType="1" res="-3.6172492400510237e-05" rms="2.6001271605491638e-01" purity="7.9540096223354340e-02" nType="-99"/>
          <Node pos="r" depth="2" NCoef="0" IVar="-1" Cut="0.0000000000000000e+00" cType="1" res="-3.2442037016153336e-02" rms="2.0969659090042114e-01" purity="4.5161291956901550e-02" nType="-99"/>
        </Node>
      </Node>
    </BinaryTree>
    <BinaryTree type="DecisionTree" boostWeight="1.0000000000000000e+00" itree="1557">
      <Node pos="s" depth="0" NCoef="0" IVar="2" Cut="2.2741115093231201e+00" cType="1" res="-8.5572798980138032e-07" rms="3.2216098904609680e-01" purity="5.9855979681015015e-01" nType="0">
        <Node pos="l" depth="1" NCoef="0" IVar="-1" Cut="0.0000000000000000e+00" cType="1" res="-4.1169867472490296e-05" rms="3.2182750105857849e-01" purity="6.1308050155639648e-01" nType="-99"/>
        <Node pos="r" depth="1" NCoef="0" IVar="0" Cut="6.5217393636703491e-01" cType="1" res="2.4415291845798492e-03" rms="3.3151403069496155e-01" purity="1.8478873372077942e-01" nType="0">
          <Node pos="l" depth="2" NCoef="0" IVar="-1" Cut="0.0000000000000000e+00" cType="1" res="6.0024606063961983e-03" rms="4.0123766660690308e-01" purity="3.0678465962409973e-01" nType="-99"/>
          <Node pos="r" depth="2" NCoef="0" IVar="-1" Cut="0.0000000000000000e+00" cType="1" res="-4.1506253182888031e-03" rms="2.7938902378082275e-01" purity="1.0938924551010132e-01" nType="-99"/>
        </Node>
      </Node>
    </BinaryTree>
    <BinaryTree type="DecisionTree" boostWeight="1.0000000000000000e+00" itree="1558">
      <Node pos="s" depth="0" NCoef="0" IVar="1" Cut="1.5704647302627563e+00" cType="1" res="-8.5969162455512560e-07" rms="3.2215994596481323e-01" purity="5.9855979681015015e-01" nType="0">
        <Node pos="l" depth="1" NCoef="0" IVar="-1" Cut="0.0000000000000000e+00" cType="1" res="-1.9601895473897457e-05" rms="3.2197022438049316e-01" purity="6.0177844762802124e-01" nType="-99"/>
        <Node pos="r" depth="1" NCoef="0" IVar="0" Cut="6.1844080686569214e-01" cType="0" res="5.2779382094740868e-03" rms="3.4599378705024719e-01" purity="1.7839196324348450e-01" nType="0">
          <Node pos="l" depth="2" NCoef="0" IVar="-1" Cut="0.0000000000000000e+00" cType="1" res="5.1883580163121223e-03" rms="3.6198267340660095e-01" purity="2.0300751924514771e-01" nType="-99"/>
          <Node pos="r" depth="2" NCoef="0" IVar="-1" Cut="0.0000000000000000e+00" cType="1" res="-5.8472123928368092e-03" rms="3.1047025322914124e-01" purity="1.2878787517547607e-01" nType="-99"/>
        </Node>
      </Node>
    </BinaryTree>
    <BinaryTree type="DecisionTree" boostWeight="1.0000000000000000e+00" itree="1559">
      <Node pos="s" depth="0" NCoef="0" IVar="1" Cut="1.0457271337509155e+00" cType="1" res="-8.0536091218164074e-07" rms="3.2215890288352966e-01" purity="5.9855979681015015e-01" nType="0">
        <Node pos="l" depth="1" NCoef="0" IVar="-1" Cut="0.0000000000000000e+00" cType="1" res="3.1157687772065401e-05" rms="3.2247129082679749e-01" purity="6.0884672403335571e-01" nType="-99"/>
        <Node pos="r" depth="1" NCoef="0" IVar="0" Cut="1.9365317821502686e+00" cType="0" res="-3.0296333134174347e-03" rms="3.0759570002555847e-01" purity="1.3055062294006348e-01" nType="0">
          <Node pos="l" depth="2" NCoef="0" IVar="-1" Cut="0.0000000000000000e+00" cType="1" res="6.4438818953931332e-03" rms="3.8977828621864319e-01" purity="2.3828125000000000e-01" nType="-99"/>
          <Node pos="r" depth="2" NCoef="0" IVar="-1" Cut="0.0000000000000000e+00" cType="1" res="-5.4763248190283775e-03" rms="2.7847120165824890e-01" purity="9.8850578069686890e-02" nType="-99"/>
        </Node>
      </Node>
    </BinaryTree>
    <BinaryTree type="DecisionTree" boostWeight="1.0000000000000000e+00" itree="1560">
      <Node pos="s" depth="0" NCoef="0" IVar="0" Cut="2.0439779758453369e+00" cType="1" res="-8.1763801063061692e-07" rms="3.2215791940689087e-01" purity="5.9855979681015015e-01" nType="0">
        <Node pos="l" depth="1" NCoef="0" IVar="-1" Cut="0.0000000000000000e+00" cType="1" res="2.8742981157847680e-05" rms="3.2217994332313538e-01" purity="6.0564202070236206e-01" nType="-99"/>
        <Node pos="r" depth="1" NCoef="0" IVar="2" Cut="8.7674933671951294e-01" cType="0" res="-3.8972476031631231e-03" rms="3.2073214650154114e-01" purity="1.4901477098464966e-01" nType="0">
          <Node pos="l" depth="2" NCoef="0" IVar="-1" Cut="0.0000000000000000e+00" cType="1" res="1.1071277549490333e-03" rms="3.2430878281593323e-01" purity="1.5813252329826355e-01" nType="-99"/>
          <Node pos="r" depth="2" NCoef="0" IVar="-1" Cut="0.0000000000000000e+00" cType="1" res="-1.4279387891292572e-02" rms="3.0247130990028381e-01" purity="1.0810811072587967e-01" nType="-99"/>
        </Node>
      </Node>
    </BinaryTree>
    <BinaryTree type="DecisionTree" boostWeight="1.0000000000000000e+00" itree="1561">
      <Node pos="s" depth="0" NCoef="0" IVar="2" Cut="2.6487591266632080e+00" cType="1" res="-8.2540401535879937e-07" rms="3.2215681672096252e-01" purity="5.9855979681015015e-01" nType="0">
        <Node pos="l" depth="1" NCoef="0" IVar="-1" Cut="0.0000000000000000e+00" cType="1" res="2.8942715289304033e-05" rms="3.2202684879302979e-01" purity="6.0597991943359375e-01" nType="-99"/>
        <Node pos="r" depth="1" NCoef="0" IVar="2" Cut="2.7253909111022949e+00" cType="0" res="-3.4732643980532885e-03" rms="3.2936242222785950e-01" purity="1.8142075836658478e-01" nType="0">
          <Node pos="l" depth="2" NCoef="0" IVar="-1" Cut="0.0000000000000000e+00" cType="1" res="7.3112244717776775e-04" rms="3.3451727032661438e-01" purity="1.8734490871429443e-01" nType="-99"/>
          <Node pos="r" depth="2" NCoef="0" IVar="-1" Cut="0.0000000000000000e+00" cType="1" res="-1.8019285053014755e-02" rms="2.8545677661895752e-01" purity="1.3761468231678009e-01" nType="-99"/>
        </Node>
      </Node>
    </BinaryTree>
    <BinaryTree type="DecisionTree" boostWeight="1.0000000000000000e+00" itree="1562">
      <Node pos="s" depth="0" NCoef="0" IVar="2" Cut="3.0084209442138672e+00" cType="1" res="-8.2191132833031588e-07" rms="3.2215568423271179e-01" purity="5.9855979681015015e-01" nType="0">
        <Node pos="l" depth="1" NCoef="0" IVar="-1" Cut="0.0000000000000000e+00" cType="1" res="2.1898656996199861e-05" rms="3.2218253612518311e-01" purity="6.0270804166793823e-01" nType="-99"/>
        <Node pos="r" depth="1" NCoef="0" IVar="2" Cut="3.1307530403137207e+00" cType="0" res="-4.7951913438737392e-03" rms="3.1936776638031006e-01" purity="1.7519685626029968e-01" nType="0">
          <Node pos="l" depth="2" NCoef="0" IVar="-1" Cut="0.0000000000000000e+00" cType="1" res="1.4248371589928865e-03" rms="3.3992940187454224e-01" purity="1.9117647409439087e-01" nType="-99"/>
          <Node pos="r" depth="2" NCoef="0" IVar="-1" Cut="0.0000000000000000e+00" cType="1" res="-2.0280070602893829e-02" rms="2.1269945800304413e-01" purity="1.0999999940395355e-01" nType="-99"/>
        </Node>
      </Node>
    </BinaryTree>
    <BinaryTree type="DecisionTree" boostWeight="1.0000000000000000e+00" itree="1563">
      <Node pos="s" depth="0" NCoef="0" IVar="2" Cut="3.1470406055450439e+00" cType="1" res="-8.2010802771037561e-07" rms="3.2215568423271179e-01" purity="5.9855979681015015e-01" nType="0">
        <Node pos="l" depth="1" NCoef="0" IVar="-1" Cut="0.0000000000000000e+00" cType="1" res="2.0165736714261584e-05" rms="3.2209566235542297e-01" purity="6.0167813301086426e-01" nType="-99"/>
        <Node pos="r" depth="1" NCoef="0" IVar="2" Cut="3.3106193542480469e+00" cType="0" res="-5.7571581564843655e-03" rms="3.2998397946357727e-01" purity="1.8414321541786194e-01" nType="0">
          <Node pos="l" depth="2" NCoef="0" IVar="-1" Cut="0.0000000000000000e+00" cType="1" res="1.5911527443677187e-03" rms="3.4973725676536560e-01" purity="2.1951219439506531e-01" nType="-99"/>
          <Node pos="r" depth="2" NCoef="0" IVar="-1" Cut="0.0000000000000000e+00" cType="1" res="-1.8469978123903275e-02" rms="2.6602578163146973e-01" purity="8.6538463830947876e-02" nType="-99"/>
        </Node>
      </Node>
    </BinaryTree>
    <BinaryTree type="DecisionTree" boostWeight="1.0000000000000000e+00" itree="1564">
      <Node pos="s" depth="0" NCoef="0" IVar="2" Cut="3.3643362522125244e+00" cType="1" res="-8.1329233125870815e-07" rms="3.2215440273284912e-01" purity="5.9855979681015015e-01" nType="0">
        <Node pos="l" depth="1" NCoef="0" IVar="-1" Cut="0.0000000000000000e+00" cType="1" res="1.7076334188459441e-05" rms="3.2205629348754883e-01" purity="6.0052978992462158e-01" nType="-99"/>
        <Node pos="r" depth="1" NCoef="0" IVar="0" Cut="1.0401382446289062e+00" cType="0" res="-7.3724864050745964e-03" rms="3.4116238355636597e-01" purity="2.0384615659713745e-01" nType="0">
          <Node pos="l" depth="2" NCoef="0" IVar="-1" Cut="0.0000000000000000e+00" cType="1" res="5.1103285513818264e-03" rms="3.5361871123313904e-01" purity="2.0689655840396881e-01" nType="-99"/>
          <Node pos="r" depth="2" NCoef="0" IVar="-1" Cut="0.0000000000000000e+00" cType="1" res="-1.1983952485024929e-02" rms="3.2280847430229187e-01" purity="2.0000000298023224e-01" nType="-99"/>
        </Node>
      </Node>
    </BinaryTree>
    <BinaryTree type="DecisionTree" boostWeight="1.0000000000000000e+00" itree="1565">
      <Node pos="s" depth="0" NCoef="0" IVar="2" Cut="2.6300268173217773e+00" cType="1" res="-7.7680948606939637e-07" rms="3.2215374708175659e-01" purity="5.9855979681015015e-01" nType="0">
        <Node pos="l" depth="1" NCoef="0" IVar="-1" Cut="0.0000000000000000e+00" cType="1" res="-3.4303138818359002e-05" rms="3.2192632555961609e-01" purity="6.0616320371627808e-01" nType="-99"/>
        <Node pos="r" depth="1" NCoef="0" IVar="1" Cut="1.0944527387619019e+00" cType="1" res="3.8567618466913700e-03" rms="3.3418095111846924e-01" purity="1.8802520632743835e-01" nType="0">
          <Node pos="l" depth="2" NCoef="0" IVar="-1" Cut="0.0000000000000000e+00" cType="1" res="3.3167246729135513e-03" rms="3.3229947090148926e-01" purity="1.8918919563293457e-01" nType="-99"/>
          <Node pos="r" depth="2" NCoef="0" IVar="-1" Cut="0.0000000000000000e+00" cType="1" res="-1.0034930892288685e-02" rms="3.4797495603561401e-01" purity="1.7821782827377319e-01" nType="-99"/>
        </Node>
      </Node>
    </BinaryTree>
    <BinaryTree type="DecisionTree" boostWeight="1.0000000000000000e+00" itree="1566">
      <Node pos="s" depth="0" NCoef="0" IVar="2" Cut="3.4542517662048340e+00" cType="1" res="-7.4467664035182679e-07" rms="3.2215231657028198e-01" purity="5.9855979681015015e-01" nType="0">
        <Node pos="l" depth="1" NCoef="0" IVar="-1" Cut="0.0000000000000000e+00" cType="1" res="1.4858609574730508e-05" rms="3.2205745577812195e-01" purity="6.0029160976409912e-01" nType="-99"/>
        <Node pos="r" depth="1" NCoef="0" IVar="0" Cut="1.3097455501556396e+00" cType="1" res="-7.3950979858636856e-03" rms="3.4325549006462097e-01" purity="1.9911503791809082e-01" nType="0">
          <Node pos="l" depth="2" NCoef="0" IVar="-1" Cut="0.0000000000000000e+00" cType="1" res="3.5554552450776100e-03" rms="3.5407048463821411e-01" purity="2.1929824352264404e-01" nType="-99"/>
          <Node pos="r" depth="2" NCoef="0" IVar="-1" Cut="0.0000000000000000e+00" cType="1" res="-8.8552674278616905e-03" rms="3.3098465204238892e-01" purity="1.7857143282890320e-01" nType="-99"/>
        </Node>
      </Node>
    </BinaryTree>
    <BinaryTree type="DecisionTree" boostWeight="1.0000000000000000e+00" itree="1567">
      <Node pos="s" depth="0" NCoef="0" IVar="2" Cut="2.6300268173217773e+00" cType="1" res="-6.9437447791642626e-07" rms="3.2215192914009094e-01" purity="5.9855979681015015e-01" nType="0">
        <Node pos="l" depth="1" NCoef="0" IVar="-1" Cut="0.0000000000000000e+00" cType="1" res="-3.2358315365854651e-05" rms="3.2192632555961609e-01" purity="6.0616320371627808e-01" nType="-99"/>
        <Node pos="r" depth="1" NCoef="0" IVar="3" Cut="2.9015767574310303e-01" cType="0" res="3.6402344703674316e-03" rms="3.3408612012863159e-01" purity="1.8802520632743835e-01" nType="0">
          <Node pos="l" depth="2" NCoef="0" IVar="-1" Cut="0.0000000000000000e+00" cType="1" res="-1.6667281743139029e-03" rms="3.4815013408660889e-01" purity="2.2400000691413879e-01" nType="-99"/>
          <Node pos="r" depth="2" NCoef="0" IVar="-1" Cut="0.0000000000000000e+00" cType="1" res="1.1344578117132187e-02" rms="3.0479949712753296e-01" purity="1.1926605552434921e-01" nType="-99"/>
        </Node>
      </Node>
    </BinaryTree>
    <BinaryTree type="DecisionTree" boostWeight="1.0000000000000000e+00" itree="1568">
      <Node pos="s" depth="0" NCoef="0" IVar="2" Cut="3.3643362522125244e+00" cType="1" res="-7.2763134539854946e-07" rms="3.2215043902397156e-01" purity="5.9855979681015015e-01" nType="0">
        <Node pos="l" depth="1" NCoef="0" IVar="-1" Cut="0.0000000000000000e+00" cType="1" res="1.5286319467122667e-05" rms="3.2205477356910706e-01" purity="6.0052978992462158e-01" nType="-99"/>
        <Node pos="r" depth="1" NCoef="0" IVar="0" Cut="1.0401382446289062e+00" cType="0" res="-6.6001340746879578e-03" rms="3.4070780873298645e-01" purity="2.0384615659713745e-01" nType="0">
          <Node pos="l" depth="2" NCoef="0" IVar="-1" Cut="0.0000000000000000e+00" cType="1" res="4.9498840235173702e-03" rms="3.5301676392555237e-01" purity="2.0689655840396881e-01" nType="-99"/>
          <Node pos="r" depth="2" NCoef="0" IVar="-1" Cut="0.0000000000000000e+00" cType="1" res="-1.1270136572420597e-02" rms="3.2276257872581482e-01" purity="2.0000000298023224e-01" nType="-99"/>
        </Node>
      </Node>
    </BinaryTree>
    <BinaryTree type="DecisionTree" boostWeight="1.0000000000000000e+00" itree="1569">
      <Node pos="s" depth="0" NCoef="0" IVar="0" Cut="2.0439779758453369e+00" cType="1" res="-6.9526907964245765e-07" rms="3.2214987277984619e-01" purity="5.9855979681015015e-01" nType="0">
        <Node pos="l" depth="1" NCoef="0" IVar="-1" Cut="0.0000000000000000e+00" cType="1" res="2.7790056265075691e-05" rms="3.2217437028884888e-01" purity="6.0564202070236206e-01" nType="-99"/>
        <Node pos="r" depth="1" NCoef="0" IVar="1" Cut="1.1119440793991089e+00" cType="0" res="-3.7616482004523277e-03" rms="3.2056888937950134e-01" purity="1.4901477098464966e-01" nType="0">
          <Node pos="l" depth="2" NCoef="0" IVar="-1" Cut="0.0000000000000000e+00" cType="1" res="5.4626008495688438e-03" rms="3.8898387551307678e-01" purity="2.4170616269111633e-01" nType="-99"/>
          <Node pos="r" depth="2" NCoef="0" IVar="-1" Cut="0.0000000000000000e+00" cType="1" res="-5.5669536814093590e-03" rms="2.9241913557052612e-01" purity="1.1647254228591919e-01" nType="-99"/>
        </Node>
      </Node>
    </BinaryTree>
    <BinaryTree type="DecisionTree" boostWeight="1.0000000000000000e+00" itree="1570">
      <Node pos="s" depth="0" NCoef="0" IVar="2" Cut="2.6300268173217773e+00" cType="1" res="-6.9102196675885352e-07" rms="3.2214897871017456e-01" purity="5.9855979681015015e-01" nType="0">
        <Node pos="l" depth="1" NCoef="0" IVar="-1" Cut="0.0000000000000000e+00" cType="1" res="-3.1000527087599039e-05" rms="3.2192566990852356e-01" purity="6.0616320371627808e-01" nType="-99"/>
        <Node pos="r" depth="1" NCoef="0" IVar="1" Cut="8.9955024421215057e-02" cType="1" res="3.4859115257859230e-03" rms="3.3396664261817932e-01" purity="1.8802520632743835e-01" nType="0">
          <Node pos="l" depth="2" NCoef="0" IVar="-1" Cut="0.0000000000000000e+00" cType="1" res="7.5050056912004948e-03" rms="3.5989776253700256e-01" purity="2.5762712955474854e-01" nType="-99"/>
          <Node pos="r" depth="2" NCoef="0" IVar="-1" Cut="0.0000000000000000e+00" cType="1" res="-1.6543989768251777e-03" rms="3.2138103246688843e-01" purity="1.5677320957183838e-01" nType="-99"/>
        </Node>
      </Node>
    </BinaryTree>
    <BinaryTree type="DecisionTree" boostWeight="1.0000000000000000e+00" itree="1571">
      <Node pos="s" depth="0" NCoef="0" IVar="2" Cut="3.4542517662048340e+00" cType="1" res="-6.5597293996688677e-07" rms="3.2214757800102234e-01" purity="5.9855979681015015e-01" nType="0">
        <Node pos="l" depth="1" NCoef="0" IVar="-1" Cut="0.0000000000000000e+00" cType="1" res="1.3631603906105738e-05" rms="3.2205283641815186e-01" purity="6.0029160976409912e-01" nType="-99"/>
        <Node pos="r" depth="1" NCoef="0" IVar="0" Cut="1.3097455501556396e+00" cType="1" res="-6.7781978286802769e-03" rms="3.4324064850807190e-01" purity="1.9911503791809082e-01" nType="0">
          <Node pos="l" depth="2" NCoef="0" IVar="-1" Cut="0.0000000000000000e+00" cType="1" res="3.9021691773086786e-03" rms="3.5382410883903503e-01" purity="2.1929824352264404e-01" nType="-99"/>
          <Node pos="r" depth="2" NCoef="0" IVar="-1" Cut="0.0000000000000000e+00" cType="1" res="-8.7422933429479599e-03" rms="3.3118963241577148e-01" purity="1.7857143282890320e-01" nType="-99"/>
        </Node>
      </Node>
    </BinaryTree>
    <BinaryTree type="DecisionTree" boostWeight="1.0000000000000000e+00" itree="1572">
      <Node pos="s" depth="0" NCoef="0" IVar="1" Cut="3.2233881950378418e-01" cType="1" res="-6.1576582766065258e-07" rms="3.2214716076850891e-01" purity="5.9855979681015015e-01" nType="0">
        <Node pos="l" depth="1" NCoef="0" IVar="-1" Cut="0.0000000000000000e+00" cType="1" res="-9.0597779490053654e-05" rms="3.1972000002861023e-01" purity="6.6661447286605835e-01" nType="-99"/>
        <Node pos="r" depth="1" NCoef="0" IVar="1" Cut="3.2675138115882874e-01" cType="1" res="1.0951085714623332e-03" rms="3.3598649501800537e-01" purity="2.0062777400016785e-01" nType="0">
          <Node pos="l" depth="2" NCoef="0" IVar="-1" Cut="0.0000000000000000e+00" cType="1" res="2.0610716193914413e-02" rms="3.9466306567192078e-01" purity="4.2342340946197510e-01" nType="-99"/>
          <Node pos="r" depth="2" NCoef="0" IVar="-1" Cut="0.0000000000000000e+00" cType="1" res="1.1842943786177784e-04" rms="3.3497589826583862e-01" purity="1.9734571874141693e-01" nType="-99"/>
        </Node>
      </Node>
    </BinaryTree>
    <BinaryTree type="DecisionTree" boostWeight="1.0000000000000000e+00" itree="1573">
      <Node pos="s" depth="0" NCoef="0" IVar="2" Cut="2.9222519397735596e+00" cType="1" res="-5.7875547554431250e-07" rms="3.2214498519897461e-01" purity="5.9855979681015015e-01" nType="0">
        <Node pos="l" depth="1" NCoef="0" IVar="-1" Cut="0.0000000000000000e+00" cType="1" res="-2.2765538233215921e-05" rms="3.2209262251853943e-01" purity="6.0316354036331177e-01" nType="-99"/>
        <Node pos="r" depth="1" NCoef="0" IVar="3" Cut="3.4798771142959595e-01" cType="0" res="4.2527578771114349e-03" rms="3.2678020000457764e-01" purity="1.8544194102287292e-01" nType="0">
          <Node pos="l" depth="2" NCoef="0" IVar="-1" Cut="0.0000000000000000e+00" cType="1" res="1.0586307384073734e-02" rms="4.1924238204956055e-01" purity="4.3307086825370789e-01" nType="-99"/>
          <Node pos="r" depth="2" NCoef="0" IVar="-1" Cut="0.0000000000000000e+00" cType="1" res="-3.1454868149012327e-03" rms="2.9466924071311951e-01" purity="1.1555555462837219e-01" nType="-99"/>
        </Node>
      </Node>
    </BinaryTree>
    <BinaryTree type="DecisionTree" boostWeight="1.0000000000000000e+00" itree="1574">
      <Node pos="s" depth="0" NCoef="0" IVar="3" Cut="2.6385217905044556e-01" cType="1" res="-5.5089918760131695e-07" rms="3.2214334607124329e-01" purity="5.9855979681015015e-01" nType="0">
        <Node pos="l" depth="1" NCoef="0" IVar="-1" Cut="0.0000000000000000e+00" cType="1" res="2.5657011428847909e-04" rms="2.8256160020828247e-01" purity="6.1021900177001953e-01" nType="-99"/>
        <Node pos="r" depth="1" NCoef="0" IVar="3" Cut="2.6479646563529968e-01" cType="0" res="-4.7512189485132694e-04" rms="3.6151790618896484e-01" purity="5.8544701337814331e-01" nType="0">
          <Node pos="l" depth="2" NCoef="0" IVar="-1" Cut="0.0000000000000000e+00" cType="1" res="-5.3860945627093315e-05" rms="3.6192914843559265e-01" purity="5.8744484186172485e-01" nType="-99"/>
          <Node pos="r" depth="2" NCoef="0" IVar="-1" Cut="0.0000000000000000e+00" cType="1" res="-2.5539593771100044e-02" rms="2.8562977910041809e-01" purity="2.7388533949851990e-01" nType="-99"/>
        </Node>
      </Node>
    </BinaryTree>
    <BinaryTree type="DecisionTree" boostWeight="1.0000000000000000e+00" itree="1575">
      <Node pos="s" depth="0" NCoef="0" IVar="1" Cut="3.3483257889747620e-01" cType="1" res="-5.8574602235239581e-07" rms="3.2214039564132690e-01" purity="5.9855979681015015e-01" nType="0">
        <Node pos="l" depth="1" NCoef="0" IVar="-1" Cut="0.0000000000000000e+00" cType="1" res="-8.6327403550967574e-05" rms="3.2021135091781616e-01" purity="6.6436380147933960e-01" nType="-99"/>
        <Node pos="r" depth="1" NCoef="0" IVar="1" Cut="3.4252098202705383e-01" cType="1" res="1.0969898430630565e-03" rms="3.3372831344604492e-01" purity="1.9487598538398743e-01" nType="0">
          <Node pos="l" depth="2" NCoef="0" IVar="-1" Cut="0.0000000000000000e+00" cType="1" res="1.7401363700628281e-02" rms="3.5603553056716919e-01" purity="3.5648149251937866e-01" nType="-99"/>
          <Node pos="r" depth="2" NCoef="0" IVar="-1" Cut="0.0000000000000000e+00" cType="1" res="-1.0910851415246725e-04" rms="3.3293586969375610e-01" purity="1.8997472524642944e-01" nType="-99"/>
        </Node>
      </Node>
    </BinaryTree>
    <BinaryTree type="DecisionTree" boostWeight="1.0000000000000000e+00" itree="1576">
      <Node pos="s" depth="0" NCoef="0" IVar="1" Cut="6.4467763900756836e-01" cType="1" res="-5.7750560245040106e-07" rms="3.2213631272315979e-01" purity="5.9855979681015015e-01" nType="0">
        <Node pos="l" depth="1" NCoef="0" IVar="-1" Cut="0.0000000000000000e+00" cType="1" res="-5.0799557357095182e-05" rms="3.2270026206970215e-01" purity="6.2620604038238525e-01" nType="-99"/>
        <Node pos="r" depth="1" NCoef="0" IVar="1" Cut="6.6511845588684082e-01" cType="1" res="1.8119590822607279e-03" rms="3.1241121888160706e-01" purity="1.2967410683631897e-01" nType="0">
          <Node pos="l" depth="2" NCoef="0" IVar="-1" Cut="0.0000000000000000e+00" cType="1" res="1.6646895557641983e-02" rms="3.6968770623207092e-01" purity="1.9075144827365875e-01" nType="-99"/>
          <Node pos="r" depth="2" NCoef="0" IVar="-1" Cut="0.0000000000000000e+00" cType="1" res="-2.5448619271628559e-04" rms="3.0829352140426636e-01" purity="1.2582056224346161e-01" nType="-99"/>
        </Node>
      </Node>
    </BinaryTree>
    <BinaryTree type="DecisionTree" boostWeight="1.0000000000000000e+00" itree="1577">
      <Node pos="s" depth="0" NCoef="0" IVar="2" Cut="1.9256891012191772e+00" cType="1" res="-6.4178709635598352e-07" rms="3.2213458418846130e-01" purity="5.9855979681015015e-01" nType="0">
        <Node pos="l" depth="1" NCoef="0" IVar="-1" Cut="0.0000000000000000e+00" cType="1" res="5.3148822189541534e-05" rms="3.2167080044746399e-01" purity="6.2506610155105591e-01" nType="-99"/>
        <Node pos="r" depth="1" NCoef="0" IVar="0" Cut="1.0244877636432648e-01" cType="1" res="-1.7376723699271679e-03" rms="3.2923719286918640e-01" purity="1.8757881224155426e-01" nType="0">
          <Node pos="l" depth="2" NCoef="0" IVar="-1" Cut="0.0000000000000000e+00" cType="1" res="1.1580045334994793e-02" rms="3.8163653016090393e-01" purity="7.7857142686843872e-01" nType="-99"/>
          <Node pos="r" depth="2" NCoef="0" IVar="-1" Cut="0.0000000000000000e+00" cType="1" res="-1.5953178517520428e-03" rms="3.2648792862892151e-01" purity="1.6029024124145508e-01" nType="-99"/>
        </Node>
      </Node>
    </BinaryTree>
    <BinaryTree type="DecisionTree" boostWeight="1.0000000000000000e+00" itree="1578">
      <Node pos="s" depth="0" NCoef="0" IVar="2" Cut="2.6300268173217773e+00" cType="1" res="-5.4309430197463371e-07" rms="3.2213357090950012e-01" purity="5.9855979681015015e-01" nType="0">
        <Node pos="l" depth="1" NCoef="0" IVar="-1" Cut="0.0000000000000000e+00" cType="1" res="-2.9618820917676203e-05" rms="3.2191297411918640e-01" purity="6.0616320371627808e-01" nType="-99"/>
        <Node pos="r" depth="1" NCoef="0" IVar="1" Cut="2.4987505748867989e-03" cType="1" res="3.3370216842740774e-03" rms="3.3381155133247375e-01" purity="1.8802520632743835e-01" nType="0">
          <Node pos="l" depth="2" NCoef="0" IVar="-1" Cut="0.0000000000000000e+00" cType="1" res="-8.2476986572146416e-03" rms="3.4934121370315552e-01" purity="2.3353293538093567e-01" nType="-99"/>
          <Node pos="r" depth="2" NCoef="0" IVar="-1" Cut="0.0000000000000000e+00" cType="1" res="3.6970770452171564e-03" rms="3.3017608523368835e-01" purity="1.7834395170211792e-01" nType="-99"/>
        </Node>
      </Node>
    </BinaryTree>
    <BinaryTree type="DecisionTree" boostWeight="1.0000000000000000e+00" itree="1579">
      <Node pos="s" depth="0" NCoef="0" IVar="2" Cut="3.2294631004333496e+00" cType="1" res="-5.3202376193439704e-07" rms="3.2213252782821655e-01" purity="5.9855979681015015e-01" nType="0">
        <Node pos="l" depth="1" NCoef="0" IVar="-1" Cut="0.0000000000000000e+00" cType="1" res="1.6373760445276275e-05" rms="3.2201775908470154e-01" purity="6.0102629661560059e-01" nType="-99"/>
        <Node pos="r" depth="1" NCoef="0" IVar="1" Cut="1.0744627565145493e-01" cType="0" res="-5.6427996605634689e-03" rms="3.4006643295288086e-01" purity="2.0123839378356934e-01" nType="0">
          <Node pos="l" depth="2" NCoef="0" IVar="-1" Cut="0.0000000000000000e+00" cType="1" res="2.8420649468898773e-03" rms="3.5003250837326050e-01" purity="2.1028037369251251e-01" nType="-99"/>
          <Node pos="r" depth="2" NCoef="0" IVar="-1" Cut="0.0000000000000000e+00" cType="1" res="-1.1683534830808640e-02" rms="3.1800386309623718e-01" purity="1.8348623812198639e-01" nType="-99"/>
        </Node>
      </Node>
    </BinaryTree>
    <BinaryTree type="DecisionTree" boostWeight="1.0000000000000000e+00" itree="1580">
      <Node pos="s" depth="0" NCoef="0" IVar="1" Cut="2.4237881600856781e-01" cType="1" res="-5.1534436806832673e-07" rms="3.2213211059570312e-01" purity="5.9855979681015015e-01" nType="0">
        <Node pos="l" depth="1" NCoef="0" IVar="-1" Cut="0.0000000000000000e+00" cType="1" res="1.0756895062513649e-04" rms="3.1692135334014893e-01" purity="6.8525755405426025e-01" nType="-99"/>
        <Node pos="r" depth="1" NCoef="0" IVar="1" Cut="2.4690221250057220e-01" cType="1" res="-9.1951806098222733e-04" rms="3.4300103783607483e-01" purity="2.3714087903499603e-01" nType="0">
          <Node pos="l" depth="2" NCoef="0" IVar="-1" Cut="0.0000000000000000e+00" cType="1" res="-2.0467650145292282e-02" rms="3.6629718542098999e-01" purity="3.5260117053985596e-01" nType="-99"/>
          <Node pos="r" depth="2" NCoef="0" IVar="-1" Cut="0.0000000000000000e+00" cType="1" res="1.8915970940724947e-05" rms="3.4250271320343018e-01" purity="2.3513458669185638e-01" nType="-99"/>
        </Node>
      </Node>
    </BinaryTree>
    <BinaryTree type="DecisionTree" boostWeight="1.0000000000000000e+00" itree="1581">
      <Node pos="s" depth="0" NCoef="0" IVar="0" Cut="1.2493752874433994e-03" cType="1" res="-4.8488089987586136e-07" rms="3.2212731242179871e-01" purity="5.9855979681015015e-01" nType="0">
        <Node pos="l" depth="1" NCoef="0" IVar="-1" Cut="0.0000000000000000e+00" cType="1" res="-4.2036621016450226e-04" rms="2.7177494764328003e-01" purity="9.0791207551956177e-01" nType="-99"/>
        <Node pos="r" depth="1" NCoef="0" IVar="3" Cut="4.3346023559570312e-01" cType="0" res="3.0939219868741930e-04" rms="3.4451302886009216e-01" purity="4.4418039917945862e-01" nType="0">
          <Node pos="l" depth="2" NCoef="0" IVar="-1" Cut="0.0000000000000000e+00" cType="1" res="-5.9827361255884171e-03" rms="4.0562382340431213e-01" purity="6.2500000000000000e-01" nType="-99"/>
          <Node pos="r" depth="2" NCoef="0" IVar="-1" Cut="0.0000000000000000e+00" cType="1" res="1.8730165902525187e-04" rms="3.4404799342155457e-01" purity="4.4292920827865601e-01" nType="-99"/>
        </Node>
      </Node>
    </BinaryTree>
    <BinaryTree type="DecisionTree" boostWeight="1.0000000000000000e+00" itree="1582">
      <Node pos="s" depth="0" NCoef="0" IVar="3" Cut="4.0327405929565430e-01" cType="0" res="-4.1941353856600472e-07" rms="3.2212588191032410e-01" purity="5.9855979681015015e-01" nType="0">
        <Node pos="l" depth="1" NCoef="0" IVar="-1" Cut="0.0000000000000000e+00" cType="1" res="5.5318075465038419e-04" rms="3.4645426273345947e-01" purity="8.1618291139602661e-01" nType="-99"/>
        <Node pos="r" depth="1" NCoef="0" IVar="3" Cut="4.0045061707496643e-01" cType="0" res="-1.6406035865657032e-04" rms="3.1903520226478577e-01" purity="5.7204997539520264e-01" nType="0">
          <Node pos="l" depth="2" NCoef="0" IVar="-1" Cut="0.0000000000000000e+00" cType="1" res="-1.1195690371096134e-02" rms="4.0075632929801941e-01" purity="7.1367520093917847e-01" nType="-99"/>
          <Node pos="r" depth="2" NCoef="0" IVar="-1" Cut="0.0000000000000000e+00" cType="1" res="-1.4009367532707984e-06" rms="3.1856217980384827e-01" purity="5.7133626937866211e-01" nType="-99"/>
        </Node>
      </Node>
    </BinaryTree>
    <BinaryTree type="DecisionTree" boostWeight="1.0000000000000000e+00" itree="1583">
      <Node pos="s" depth="0" NCoef="0" IVar="2" Cut="1.2363373488187790e-01" cType="1" res="-3.1463821414945414e-07" rms="3.2212466001510620e-01" purity="5.9855979681015015e-01" nType="0">
        <Node pos="l" depth="1" NCoef="0" IVar="-1" Cut="0.0000000000000000e+00" cType="1" res="5.4459524108096957e-04" rms="2.5668781995773315e-01" purity="8.9801156520843506e-01" nType="-99"/>
        <Node pos="r" depth="1" NCoef="0" IVar="2" Cut="1.9737957417964935e-01" cType="1" res="-2.6480923406779766e-04" rms="3.4297412633895874e-01" purity="4.8892310261726379e-01" nType="0">
          <Node pos="l" depth="2" NCoef="0" IVar="-1" Cut="0.0000000000000000e+00" cType="1" res="-5.5042463354766369e-03" rms="3.3909389376640320e-01" purity="6.2189388275146484e-01" nType="-99"/>
          <Node pos="r" depth="2" NCoef="0" IVar="-1" Cut="0.0000000000000000e+00" cType="1" res="9.6069386927410960e-05" rms="3.4312084317207336e-01" purity="4.8354780673980713e-01" nType="-99"/>
        </Node>
      </Node>
    </BinaryTree>
    <BinaryTree type="DecisionTree" boostWeight="1.0000000000000000e+00" itree="1584">
      <Node pos="s" depth="0" NCoef="0" IVar="3" Cut="2.6784995198249817e-01" cType="1" res="-2.2803287436090613e-07" rms="3.2212236523628235e-01" purity="5.9855979681015015e-01" nType="0">
        <Node pos="l" depth="1" NCoef="0" IVar="-1" Cut="0.0000000000000000e+00" cType="1" res="2.5245602591894567e-04" rms="2.8392115235328674e-01" purity="6.0393178462982178e-01" nType="-99"/>
        <Node pos="r" depth="1" NCoef="0" IVar="0" Cut="1.2243878096342087e-01" cType="1" res="-4.9596233293414116e-04" rms="3.6218401789665222e-01" purity="5.9219861030578613e-01" nType="0">
          <Node pos="l" depth="2" NCoef="0" IVar="-1" Cut="0.0000000000000000e+00" cType="1" res="-8.7459478527307510e-04" rms="3.4874418377876282e-01" purity="8.2409703731536865e-01" nType="-99"/>
          <Node pos="r" depth="2" NCoef="0" IVar="-1" Cut="0.0000000000000000e+00" cType="1" res="6.7574263084679842e-04" rms="3.8186007738113403e-01" purity="2.3663073778152466e-01" nType="-99"/>
        </Node>
      </Node>
    </BinaryTree>
    <BinaryTree type="DecisionTree" boostWeight="1.0000000000000000e+00" itree="1585">
      <Node pos="s" depth="0" NCoef="0" IVar="3" Cut="4.0327405929565430e-01" cType="0" res="-1.8649208755050495e-07" rms="3.2212030887603760e-01" purity="5.9855979681015015e-01" nType="0">
        <Node pos="l" depth="1" NCoef="0" IVar="-1" Cut="0.0000000000000000e+00" cType="1" res="5.6091730948537588e-04" rms="3.4645116329193115e-01" purity="8.1618291139602661e-01" nType="-99"/>
        <Node pos="r" depth="1" NCoef="0" IVar="3" Cut="4.0045061707496643e-01" cType="0" res="-1.6613540356047451e-04" rms="3.1902927160263062e-01" purity="5.7204997539520264e-01" nType="0">
          <Node pos="l" depth="2" NCoef="0" IVar="-1" Cut="0.0000000000000000e+00" cType="1" res="-9.9475719034671783e-03" rms="4.0074586868286133e-01" purity="7.1367520093917847e-01" nType="-99"/>
          <Node pos="r" depth="2" NCoef="0" IVar="-1" Cut="0.0000000000000000e+00" cType="1" res="-1.0532822670938913e-05" rms="3.1855788826942444e-01" purity="5.7133626937866211e-01" nType="-99"/>
        </Node>
      </Node>
    </BinaryTree>
    <BinaryTree type="DecisionTree" boostWeight="1.0000000000000000e+00" itree="1586">
      <Node pos="s" depth="0" NCoef="0" IVar="2" Cut="1.9256891012191772e+00" cType="1" res="-1.1729326132581264e-07" rms="3.2211935520172119e-01" purity="5.9855979681015015e-01" nType="0">
        <Node pos="l" depth="1" NCoef="0" IVar="-1" Cut="0.0000000000000000e+00" cType="1" res="5.3419655159814283e-05" rms="3.2165861129760742e-01" purity="6.2506610155105591e-01" nType="-99"/>
        <Node pos="r" depth="1" NCoef="0" IVar="3" Cut="4.0190321207046509e-01" cType="0" res="-1.7384963575750589e-03" rms="3.2917588949203491e-01" purity="1.8757881224155426e-01" nType="0">
          <Node pos="l" depth="2" NCoef="0" IVar="-1" Cut="0.0000000000000000e+00" cType="1" res="9.3168541789054871e-03" rms="4.1469508409500122e-01" purity="6.1688309907913208e-01" nType="-99"/>
          <Node pos="r" depth="2" NCoef="0" IVar="-1" Cut="0.0000000000000000e+00" cType="1" res="-1.5940922312438488e-03" rms="3.2409667968750000e-01" purity="1.6567263007164001e-01" nType="-99"/>
        </Node>
      </Node>
    </BinaryTree>
    <BinaryTree type="DecisionTree" boostWeight="1.0000000000000000e+00" itree="1587">
      <Node pos="s" depth="0" NCoef="0" IVar="0" Cut="1.2493752874433994e-03" cType="1" res="-1.0975928432799265e-07" rms="3.2211896777153015e-01" purity="5.9855979681015015e-01" nType="0">
        <Node pos="l" depth="1" NCoef="0" IVar="-1" Cut="0.0000000000000000e+00" cType="1" res="-4.2800392839126289e-04" rms="2.7176788449287415e-01" purity="9.0791207551956177e-01" nType="-99"/>
        <Node pos="r" depth="1" NCoef="0" IVar="3" Cut="4.3346023559570312e-01" cType="0" res="3.1553860753774643e-04" rms="3.4450411796569824e-01" purity="4.4418039917945862e-01" nType="0">
          <Node pos="l" depth="2" NCoef="0" IVar="-1" Cut="0.0000000000000000e+00" cType="1" res="-5.5248141288757324e-03" rms="4.0551456809043884e-01" purity="6.2500000000000000e-01" nType="-99"/>
          <Node pos="r" depth="2" NCoef="0" IVar="-1" Cut="0.0000000000000000e+00" cType="1" res="1.8541851022746414e-04" rms="3.4404051303863525e-01" purity="4.4292920827865601e-01" nType="-99"/>
        </Node>
      </Node>
    </BinaryTree>
    <BinaryTree type="DecisionTree" boostWeight="1.0000000000000000e+00" itree="1588">
      <Node pos="s" depth="0" NCoef="0" IVar="0" Cut="5.9970013797283173e-02" cType="1" res="-8.3049947363633692e-08" rms="3.2211768627166748e-01" purity="5.9855979681015015e-01" nType="0">
        <Node pos="l" depth="1" NCoef="0" IVar="-1" Cut="0.0000000000000000e+00" cType="1" res="2.7761905221268535e-04" rms="2.8212547302246094e-01" purity="8.9877647161483765e-01" nType="-99"/>
        <Node pos="r" depth="1" NCoef="0" IVar="3" Cut="4.1463568806648254e-01" cType="0" res="-4.6532513806596398e-04" rms="3.5889032483100891e-01" purity="2.8743678331375122e-01" nType="0">
          <Node pos="l" depth="2" NCoef="0" IVar="-1" Cut="0.0000000000000000e+00" cType="1" res="-5.8198287151753902e-03" rms="4.4804206490516663e-01" purity="5.0656169652938843e-01" nType="-99"/>
          <Node pos="r" depth="2" NCoef="0" IVar="-1" Cut="0.0000000000000000e+00" cType="1" res="-4.6436067350441590e-05" rms="3.5736835002899170e-01" purity="2.8414070606231689e-01" nType="-99"/>
        </Node>
      </Node>
    </BinaryTree>
    <BinaryTree type="DecisionTree" boostWeight="1.0000000000000000e+00" itree="1589">
      <Node pos="s" depth="0" NCoef="0" IVar="3" Cut="4.1201916337013245e-01" cType="0" res="-6.4494365403788834e-08" rms="3.2211607694625854e-01" purity="5.9855979681015015e-01" nType="0">
        <Node pos="l" depth="1" NCoef="0" IVar="-1" Cut="0.0000000000000000e+00" cType="1" res="6.3682690961286426e-04" rms="3.4016010165214539e-01" purity="8.2571774721145630e-01" nType="-99"/>
        <Node pos="r" depth="1" NCoef="0" IVar="3" Cut="4.0850508213043213e-01" cType="0" res="-1.5734187036287040e-04" rms="3.2017460465431213e-01" purity="5.7486081123352051e-01" nType="0">
          <Node pos="l" depth="2" NCoef="0" IVar="-1" Cut="0.0000000000000000e+00" cType="1" res="-8.0184238031506538e-03" rms="4.0095970034599304e-01" purity="7.3214286565780640e-01" nType="-99"/>
          <Node pos="r" depth="2" NCoef="0" IVar="-1" Cut="0.0000000000000000e+00" cType="1" res="-9.8430791695136577e-06" rms="3.1962865591049194e-01" purity="5.7392632961273193e-01" nType="-99"/>
        </Node>
      </Node>
    </BinaryTree>
    <BinaryTree type="DecisionTree" boostWeight="1.0000000000000000e+00" itree="1590">
      <Node pos="s" depth="0" NCoef="0" IVar="3" Cut="4.0327405929565430e-01" cType="0" res="-1.0514620285562160e-08" rms="3.2211515307426453e-01" purity="5.9855979681015015e-01" nType="0">
        <Node pos="l" depth="1" NCoef="0" IVar="-1" Cut="0.0000000000000000e+00" cType="1" res="5.5622664513066411e-04" rms="3.4641551971435547e-01" purity="8.1618291139602661e-01" nType="-99"/>
        <Node pos="r" depth="1" NCoef="0" IVar="3" Cut="4.0045061707496643e-01" cType="0" res="-1.6444451466668397e-04" rms="3.1902816891670227e-01" purity="5.7204997539520264e-01" nType="0">
          <Node pos="l" depth="2" NCoef="0" IVar="-1" Cut="0.0000000000000000e+00" cType="1" res="-8.9391162618994713e-03" rms="4.0067559480667114e-01" purity="7.1367520093917847e-01" nType="-99"/>
          <Node pos="r" depth="2" NCoef="0" IVar="-1" Cut="0.0000000000000000e+00" cType="1" res="-1.6388121366617270e-05" rms="3.1855839490890503e-01" purity="5.7133626937866211e-01" nType="-99"/>
        </Node>
      </Node>
    </BinaryTree>
    <BinaryTree type="DecisionTree" boostWeight="1.0000000000000000e+00" itree="1591">
      <Node pos="s" depth="0" NCoef="0" IVar="0" Cut="1.2493752874433994e-03" cType="1" res="3.2143312012067327e-08" rms="3.2211440801620483e-01" purity="5.9855979681015015e-01" nType="0">
        <Node pos="l" depth="1" NCoef="0" IVar="-1" Cut="0.0000000000000000e+00" cType="1" res="-4.3644700781442225e-04" rms="2.7176329493522644e-01" purity="9.0791207551956177e-01" nType="-99"/>
        <Node pos="r" depth="1" NCoef="0" IVar="3" Cut="4.0200340747833252e-01" cType="0" res="3.2195250969380140e-04" rms="3.4449949860572815e-01" purity="4.4418039917945862e-01" nType="0">
          <Node pos="l" depth="2" NCoef="0" IVar="-1" Cut="0.0000000000000000e+00" cType="1" res="2.7134739793837070e-03" rms="3.9664214849472046e-01" purity="6.8896794319152832e-01" nType="-99"/>
          <Node pos="r" depth="2" NCoef="0" IVar="-1" Cut="0.0000000000000000e+00" cType="1" res="-1.4422783351619728e-05" rms="3.4213584661483765e-01" purity="4.3392005562782288e-01" nType="-99"/>
        </Node>
      </Node>
    </BinaryTree>
    <BinaryTree type="DecisionTree" boostWeight="1.0000000000000000e+00" itree="1592">
      <Node pos="s" depth="0" NCoef="0" IVar="2" Cut="2.6300268173217773e+00" cType="1" res="5.2200263667145919e-08" rms="3.2211434841156006e-01" purity="5.9855979681015015e-01" nType="0">
        <Node pos="l" depth="1" NCoef="0" IVar="-1" Cut="0.0000000000000000e+00" cType="1" res="-2.8526983442134224e-05" rms="3.2189488410949707e-01" purity="6.0616320371627808e-01" nType="-99"/>
        <Node pos="r" depth="1" NCoef="0" IVar="1" Cut="8.9955024421215057e-02" cType="1" res="3.2468938734382391e-03" rms="3.3373379707336426e-01" purity="1.8802520632743835e-01" nType="0">
          <Node pos="l" depth="2" NCoef="0" IVar="-1" Cut="0.0000000000000000e+00" cType="1" res="7.3940837755799294e-03" rms="3.5937732458114624e-01" purity="2.5762712955474854e-01" nType="-99"/>
          <Node pos="r" depth="2" NCoef="0" IVar="-1" Cut="0.0000000000000000e+00" cType="1" res="-1.7406190745532513e-03" rms="3.2129564881324768e-01" purity="1.5677320957183838e-01" nType="-99"/>
        </Node>
      </Node>
    </BinaryTree>
    <BinaryTree type="DecisionTree" boostWeight="1.0000000000000000e+00" itree="1593">
      <Node pos="s" depth="0" NCoef="0" IVar="2" Cut="2.6487591266632080e+00" cType="1" res="1.3179742630597957e-08" rms="3.2211297750473022e-01" purity="5.9855979681015015e-01" nType="0">
        <Node pos="l" depth="1" NCoef="0" IVar="-1" Cut="0.0000000000000000e+00" cType="1" res="2.8298960387473926e-05" rms="3.2199522852897644e-01" purity="6.0597991943359375e-01" nType="-99"/>
        <Node pos="r" depth="1" NCoef="0" IVar="2" Cut="2.7253909111022949e+00" cType="0" res="-3.3502236474305391e-03" rms="3.2864758372306824e-01" purity="1.8142075836658478e-01" nType="0">
          <Node pos="l" depth="2" NCoef="0" IVar="-1" Cut="0.0000000000000000e+00" cType="1" res="6.4960989402607083e-04" rms="3.3377176523208618e-01" purity="1.8734490871429443e-01" nType="-99"/>
          <Node pos="r" depth="2" NCoef="0" IVar="-1" Cut="0.0000000000000000e+00" cType="1" res="-1.7174774780869484e-02" rms="2.8534504771232605e-01" purity="1.3761468231678009e-01" nType="-99"/>
        </Node>
      </Node>
    </BinaryTree>
    <BinaryTree type="DecisionTree" boostWeight="1.0000000000000000e+00" itree="1594">
      <Node pos="s" depth="0" NCoef="0" IVar="2" Cut="2.6300268173217773e+00" cType="1" res="-5.8624152643460548e-08" rms="3.2211202383041382e-01" purity="5.9855979681015015e-01" nType="0">
        <Node pos="l" depth="1" NCoef="0" IVar="-1" Cut="0.0000000000000000e+00" cType="1" res="-2.8503882276709192e-05" rms="3.2189488410949707e-01" purity="6.0616320371627808e-01" nType="-99"/>
        <Node pos="r" depth="1" NCoef="0" IVar="3" Cut="2.9015767574310303e-01" cType="0" res="3.2381722703576088e-03" rms="3.3361071348190308e-01" purity="1.8802520632743835e-01" nType="0">
          <Node pos="l" depth="2" NCoef="0" IVar="-1" Cut="0.0000000000000000e+00" cType="1" res="-1.6798124415799975e-03" rms="3.4760743379592896e-01" purity="2.2400000691413879e-01" nType="-99"/>
          <Node pos="r" depth="2" NCoef="0" IVar="-1" Cut="0.0000000000000000e+00" cType="1" res="1.0576355271041393e-02" rms="3.0452325940132141e-01" purity="1.1926605552434921e-01" nType="-99"/>
        </Node>
      </Node>
    </BinaryTree>
    <BinaryTree type="DecisionTree" boostWeight="1.0000000000000000e+00" itree="1595">
      <Node pos="s" depth="0" NCoef="0" IVar="2" Cut="3.2294631004333496e+00" cType="1" res="-1.4292231753643136e-07" rms="3.2211065292358398e-01" purity="5.9855979681015015e-01" nType="0">
        <Node pos="l" depth="1" NCoef="0" IVar="-1" Cut="0.0000000000000000e+00" cType="1" res="1.7070031390176155e-05" rms="3.2199639081954956e-01" purity="6.0102629661560059e-01" nType="-99"/>
        <Node pos="r" depth="1" NCoef="0" IVar="0" Cut="1.7004076242446899e+00" cType="0" res="-5.8182235807180405e-03" rms="3.3996537327766418e-01" purity="2.0123839378356934e-01" nType="0">
          <Node pos="l" depth="2" NCoef="0" IVar="-1" Cut="0.0000000000000000e+00" cType="1" res="6.6676186397671700e-03" rms="3.8055580854415894e-01" purity="2.5742575526237488e-01" nType="-99"/>
          <Node pos="r" depth="2" NCoef="0" IVar="-1" Cut="0.0000000000000000e+00" cType="1" res="-7.0620183832943439e-03" rms="3.1908765435218811e-01" purity="1.7567567527294159e-01" nType="-99"/>
        </Node>
      </Node>
    </BinaryTree>
    <BinaryTree type="DecisionTree" boostWeight="1.0000000000000000e+00" itree="1596">
      <Node pos="s" depth="0" NCoef="0" IVar="1" Cut="1.5829585790634155e+00" cType="1" res="-1.6413206083143450e-07" rms="3.2211020588874817e-01" purity="5.9855979681015015e-01" nType="0">
        <Node pos="l" depth="1" NCoef="0" IVar="-1" Cut="0.0000000000000000e+00" cType="1" res="1.8399363398202695e-05" rms="3.2199826836585999e-01" purity="6.0176652669906616e-01" nType="-99"/>
        <Node pos="r" depth="1" NCoef="0" IVar="3" Cut="2.2992578148841858e-01" cType="0" res="-5.2288048900663853e-03" rms="3.3676263689994812e-01" purity="1.6795866191387177e-01" nType="0">
          <Node pos="l" depth="2" NCoef="0" IVar="-1" Cut="0.0000000000000000e+00" cType="1" res="2.3907362483441830e-03" rms="3.4436404705047607e-01" purity="1.7511521279811859e-01" nType="-99"/>
          <Node pos="r" depth="2" NCoef="0" IVar="-1" Cut="0.0000000000000000e+00" cType="1" res="-7.2974488139152527e-03" rms="3.2623755931854248e-01" purity="1.5882353484630585e-01" nType="-99"/>
        </Node>
      </Node>
    </BinaryTree>
    <BinaryTree type="DecisionTree" boostWeight="1.0000000000000000e+00" itree="1597">
      <Node pos="s" depth="0" NCoef="0" IVar="1" Cut="1.7341328859329224e+00" cType="1" res="-1.7612696012747620e-07" rms="3.2211008667945862e-01" purity="5.9855979681015015e-01" nType="0">
        <Node pos="l" depth="1" NCoef="0" IVar="-1" Cut="0.0000000000000000e+00" cType="1" res="-1.6250671251327731e-05" rms="3.2186868786811829e-01" purity="6.0092604160308838e-01" nType="-99"/>
        <Node pos="r" depth="1" NCoef="0" IVar="0" Cut="1.4305347204208374e+00" cType="0" res="5.7931155897676945e-03" rms="3.6078095436096191e-01" purity="1.9607843458652496e-01" nType="0">
          <Node pos="l" depth="2" NCoef="0" IVar="-1" Cut="0.0000000000000000e+00" cType="1" res="-4.0382747538387775e-03" rms="3.5956925153732300e-01" purity="2.0000000298023224e-01" nType="-99"/>
          <Node pos="r" depth="2" NCoef="0" IVar="-1" Cut="0.0000000000000000e+00" cType="1" res="7.8704040497541428e-03" rms="3.6110648512840271e-01" purity="1.9277107715606689e-01" nType="-99"/>
        </Node>
      </Node>
    </BinaryTree>
    <BinaryTree type="DecisionTree" boostWeight="1.0000000000000000e+00" itree="1598">
      <Node pos="s" depth="0" NCoef="0" IVar="1" Cut="1.5829585790634155e+00" cType="1" res="-1.9507344006797211e-07" rms="3.2210919260978699e-01" purity="5.9855979681015015e-01" nType="0">
        <Node pos="l" depth="1" NCoef="0" IVar="-1" Cut="0.0000000000000000e+00" cType="1" res="1.8184524378739297e-05" rms="3.2199826836585999e-01" purity="6.0176652669906616e-01" nType="-99"/>
        <Node pos="r" depth="1" NCoef="0" IVar="2" Cut="9.8254376649856567e-01" cType="0" res="-5.1721930503845215e-03" rms="3.3663371205329895e-01" purity="1.6795866191387177e-01" nType="0">
          <Node pos="l" depth="2" NCoef="0" IVar="-1" Cut="0.0000000000000000e+00" cType="1" res="1.1532036587595940e-03" rms="3.5465186834335327e-01" purity="1.9066147506237030e-01" nType="-99"/>
          <Node pos="r" depth="2" NCoef="0" IVar="-1" Cut="0.0000000000000000e+00" cType="1" res="-9.5352353528141975e-03" rms="2.9713156819343567e-01" purity="1.2307692319154739e-01" nType="-99"/>
        </Node>
      </Node>
    </BinaryTree>
    <BinaryTree type="DecisionTree" boostWeight="1.0000000000000000e+00" itree="1599">
      <Node pos="s" depth="0" NCoef="0" IVar="1" Cut="1.7341328859329224e+00" cType="1" res="-2.0789146049082774e-07" rms="3.2210913300514221e-01" purity="5.9855979681015015e-01" nType="0">
        <Node pos="l" depth="1" NCoef="0" IVar="-1" Cut="0.0000000000000000e+00" cType="1" res="-1.6220334146055393e-05" rms="3.2186844944953918e-01" purity="6.0092604160308838e-01" nType="-99"/>
        <Node pos="r" depth="1" NCoef="0" IVar="2" Cut="1.2996939420700073e+00" cType="1" res="5.7767853140830994e-03" rms="3.6067372560501099e-01" purity="1.9607843458652496e-01" nType="0">
          <Node pos="l" depth="2" NCoef="0" IVar="-1" Cut="0.0000000000000000e+00" cType="1" res="7.6398388482630253e-03" rms="3.6717730760574341e-01" purity="2.1333333849906921e-01" nType="-99"/>
          <Node pos="r" depth="2" NCoef="0" IVar="-1" Cut="0.0000000000000000e+00" cType="1" res="-3.4018165897578001e-03" rms="3.5363194346427917e-01" purity="1.7948718369007111e-01" nType="-99"/>
        </Node>
      </Node>
    </BinaryTree>
    <BinaryTree type="DecisionTree" boostWeight="1.0000000000000000e+00" itree="1600">
      <Node pos="s" depth="0" NCoef="0" IVar="1" Cut="1.5829585790634155e+00" cType="1" res="-2.1680186534922541e-07" rms="3.2210811972618103e-01" purity="5.9855979681015015e-01" nType="0">
        <Node pos="l" depth="1" NCoef="0" IVar="-1" Cut="0.0000000000000000e+00" cType="1" res="1.7988122635870241e-05" rms="3.2199826836585999e-01" purity="6.0176652669906616e-01" nType="-99"/>
        <Node pos="r" depth="1" NCoef="0" IVar="2" Cut="1.1131349802017212e+00" cType="0" res="-5.1195528358221054e-03" rms="3.3649688959121704e-01" purity="1.6795866191387177e-01" nType="0">
          <Node pos="l" depth="2" NCoef="0" IVar="-1" Cut="0.0000000000000000e+00" cType="1" res="1.6106319380924106e-03" rms="3.5167658329010010e-01" purity="1.8454936146736145e-01" nType="-99"/>
          <Node pos="r" depth="2" NCoef="0" IVar="-1" Cut="0.0000000000000000e+00" cType="1" res="-7.8630633652210236e-03" rms="3.1158673763275146e-01" purity="1.4285714924335480e-01" nType="-99"/>
        </Node>
      </Node>
    </BinaryTree>
    <BinaryTree type="DecisionTree" boostWeight="1.0000000000000000e+00" itree="1601">
      <Node pos="s" depth="0" NCoef="0" IVar="1" Cut="1.5704647302627563e+00" cType="1" res="-2.2216072181890922e-07" rms="3.2210811972618103e-01" purity="5.9855979681015015e-01" nType="0">
        <Node pos="l" depth="1" NCoef="0" IVar="-1" Cut="0.0000000000000000e+00" cType="1" res="-1.8522909158491530e-05" rms="3.2192328572273254e-01" purity="6.0177844762802124e-01" nType="-99"/>
        <Node pos="r" depth="1" NCoef="0" IVar="2" Cut="8.2396864891052246e-01" cType="0" res="5.0659109838306904e-03" rms="3.4535095095634460e-01" purity="1.7839196324348450e-01" nType="0">
          <Node pos="l" depth="2" NCoef="0" IVar="-1" Cut="0.0000000000000000e+00" cType="1" res="-1.0991805465891957e-03" rms="3.4205853939056396e-01" purity="1.7894737422466278e-01" nType="-99"/>
          <Node pos="r" depth="2" NCoef="0" IVar="-1" Cut="0.0000000000000000e+00" cType="1" res="1.0710752569139004e-02" rms="3.5270771384239197e-01" purity="1.7699114978313446e-01" nType="-99"/>
        </Node>
      </Node>
    </BinaryTree>
    <BinaryTree type="DecisionTree" boostWeight="1.0000000000000000e+00" itree="1602">
      <Node pos="s" depth="0" NCoef="0" IVar="1" Cut="1.5829585790634155e+00" cType="1" res="-2.3541943505733798e-07" rms="3.2210731506347656e-01" purity="5.9855979681015015e-01" nType="0">
        <Node pos="l" depth="1" NCoef="0" IVar="-1" Cut="0.0000000000000000e+00" cType="1" res="1.7908620066009462e-05" rms="3.2199776172637939e-01" purity="6.0176652669906616e-01" nType="-99"/>
        <Node pos="r" depth="1" NCoef="0" IVar="2" Cut="9.8254376649856567e-01" cType="0" res="-5.0995838828384876e-03" rms="3.3645629882812500e-01" purity="1.6795866191387177e-01" nType="0">
          <Node pos="l" depth="2" NCoef="0" IVar="-1" Cut="0.0000000000000000e+00" cType="1" res="1.1244490742683411e-03" rms="3.5449948906898499e-01" purity="1.9066147506237030e-01" nType="-99"/>
          <Node pos="r" depth="2" NCoef="0" IVar="-1" Cut="0.0000000000000000e+00" cType="1" res="-9.3976622447371483e-03" rms="2.9691773653030396e-01" purity="1.2307692319154739e-01" nType="-99"/>
        </Node>
      </Node>
    </BinaryTree>
    <BinaryTree type="DecisionTree" boostWeight="1.0000000000000000e+00" itree="1603">
      <Node pos="s" depth="0" NCoef="0" IVar="1" Cut="1.7341328859329224e+00" cType="1" res="-2.4323887259924959e-07" rms="3.2210728526115417e-01" purity="5.9855979681015015e-01" nType="0">
        <Node pos="l" depth="1" NCoef="0" IVar="-1" Cut="0.0000000000000000e+00" cType="1" res="-1.6288635379169136e-05" rms="3.2186761498451233e-01" purity="6.0092604160308838e-01" nType="-99"/>
        <Node pos="r" depth="1" NCoef="0" IVar="0" Cut="1.4305347204208374e+00" cType="0" res="5.7952068746089935e-03" rms="3.6051607131958008e-01" purity="1.9607843458652496e-01" nType="0">
          <Node pos="l" depth="2" NCoef="0" IVar="-1" Cut="0.0000000000000000e+00" cType="1" res="-3.6245267838239670e-03" rms="3.5938313603401184e-01" purity="2.0000000298023224e-01" nType="-99"/>
          <Node pos="r" depth="2" NCoef="0" IVar="-1" Cut="0.0000000000000000e+00" cType="1" res="7.4288598261773586e-03" rms="3.6087152361869812e-01" purity="1.9277107715606689e-01" nType="-99"/>
        </Node>
      </Node>
    </BinaryTree>
    <BinaryTree type="DecisionTree" boostWeight="1.0000000000000000e+00" itree="1604">
      <Node pos="s" depth="0" NCoef="0" IVar="3" Cut="4.9697157740592957e-01" cType="0" res="-2.5106291445808893e-07" rms="3.2210645079612732e-01" purity="5.9855979681015015e-01" nType="0">
        <Node pos="l" depth="1" NCoef="0" IVar="-1" Cut="0.0000000000000000e+00" cType="1" res="-3.6969305947422981e-03" rms="3.4728169441223145e-01" purity="8.3458644151687622e-01" nType="-99"/>
        <Node pos="r" depth="1" NCoef="0" IVar="3" Cut="4.9217540025711060e-01" cType="0" res="2.1909279894316569e-05" rms="3.2203951478004456e-01" purity="5.9795868396759033e-01" nType="0">
          <Node pos="l" depth="2" NCoef="0" IVar="-1" Cut="0.0000000000000000e+00" cType="1" res="6.9885840639472008e-03" rms="2.6025018095970154e-01" purity="9.0322577953338623e-01" nType="-99"/>
          <Node pos="r" depth="2" NCoef="0" IVar="-1" Cut="0.0000000000000000e+00" cType="1" res="-1.0830256542249117e-05" rms="3.2223826646804810e-01" purity="5.9686750173568726e-01" nType="-99"/>
        </Node>
      </Node>
    </BinaryTree>
    <BinaryTree type="DecisionTree" boostWeight="1.0000000000000000e+00" itree="1605">
      <Node pos="s" depth="0" NCoef="0" IVar="1" Cut="1.5829585790634155e+00" cType="1" res="-1.9849557020279462e-07" rms="3.2210674881935120e-01" purity="5.9855979681015015e-01" nType="0">
        <Node pos="l" depth="1" NCoef="0" IVar="-1" Cut="0.0000000000000000e+00" cType="1" res="1.7761880371836014e-05" rms="3.2199802994728088e-01" purity="6.0176652669906616e-01" nType="-99"/>
        <Node pos="r" depth="1" NCoef="0" IVar="2" Cut="1.7287795543670654e+00" cType="0" res="-5.0529940053820610e-03" rms="3.3634546399116516e-01" purity="1.6795866191387177e-01" nType="0">
          <Node pos="l" depth="2" NCoef="0" IVar="-1" Cut="0.0000000000000000e+00" cType="1" res="3.4923201892524958e-03" rms="3.6040976643562317e-01" purity="1.9718310236930847e-01" nType="-99"/>
          <Node pos="r" depth="2" NCoef="0" IVar="-1" Cut="0.0000000000000000e+00" cType="1" res="-5.4289866238832474e-03" rms="3.2126691937446594e-01" purity="1.5102040767669678e-01" nType="-99"/>
        </Node>
      </Node>
    </BinaryTree>
    <BinaryTree type="DecisionTree" boostWeight="1.0000000000000000e+00" itree="1606">
      <Node pos="s" depth="0" NCoef="0" IVar="1" Cut="1.5704647302627563e+00" cType="1" res="-2.0285848734147294e-07" rms="3.2210668921470642e-01" purity="5.9855979681015015e-01" nType="0">
        <Node pos="l" depth="1" NCoef="0" IVar="-1" Cut="0.0000000000000000e+00" cType="1" res="-1.8594293578644283e-05" rms="3.2192355394363403e-01" purity="6.0177844762802124e-01" nType="-99"/>
        <Node pos="r" depth="1" NCoef="0" IVar="2" Cut="1.2996939420700073e+00" cType="1" res="5.0880145281553268e-03" rms="3.4513944387435913e-01" purity="1.7839196324348450e-01" nType="0">
          <Node pos="l" depth="2" NCoef="0" IVar="-1" Cut="0.0000000000000000e+00" cType="1" res="7.1475477889180183e-03" rms="3.5002863407135010e-01" purity="1.8877550959587097e-01" nType="-99"/>
          <Node pos="r" depth="2" NCoef="0" IVar="-1" Cut="0.0000000000000000e+00" cType="1" res="-2.9283449985086918e-03" rms="3.3983740210533142e-01" purity="1.6831682622432709e-01" nType="-99"/>
        </Node>
      </Node>
    </BinaryTree>
    <BinaryTree type="DecisionTree" boostWeight="1.0000000000000000e+00" itree="1607">
      <Node pos="s" depth="0" NCoef="0" IVar="1" Cut="1.5829585790634155e+00" cType="1" res="-2.1405863037671224e-07" rms="3.2210567593574524e-01" purity="5.9855979681015015e-01" nType="0">
        <Node pos="l" depth="1" NCoef="0" IVar="-1" Cut="0.0000000000000000e+00" cType="1" res="1.7789978301152587e-05" rms="3.2199776172637939e-01" purity="6.0176652669906616e-01" nType="-99"/>
        <Node pos="r" depth="1" NCoef="0" IVar="2" Cut="1.1131349802017212e+00" cType="0" res="-5.0630564801394939e-03" rms="3.3624303340911865e-01" purity="1.6795866191387177e-01" nType="0">
          <Node pos="l" depth="2" NCoef="0" IVar="-1" Cut="0.0000000000000000e+00" cType="1" res="1.5175865264609456e-03" rms="3.5132458806037903e-01" purity="1.8454936146736145e-01" nType="-99"/>
          <Node pos="r" depth="2" NCoef="0" IVar="-1" Cut="0.0000000000000000e+00" cType="1" res="-7.6740789227187634e-03" rms="3.1153306365013123e-01" purity="1.4285714924335480e-01" nType="-99"/>
        </Node>
      </Node>
    </BinaryTree>
    <BinaryTree type="DecisionTree" boostWeight="1.0000000000000000e+00" itree="1608">
      <Node pos="s" depth="0" NCoef="0" IVar="1" Cut="1.5704647302627563e+00" cType="1" res="-2.1808759242958331e-07" rms="3.2210567593574524e-01" purity="5.9855979681015015e-01" nType="0">
        <Node pos="l" depth="1" NCoef="0" IVar="-1" Cut="0.0000000000000000e+00" cType="1" res="-1.8513846953283064e-05" rms="3.2192355394363403e-01" purity="6.0177844762802124e-01" nType="-99"/>
        <Node pos="r" depth="1" NCoef="0" IVar="3" Cut="1.8912068009376526e-01" cType="1" res="5.0638839602470398e-03" rms="3.4501776099205017e-01" purity="1.7839196324348450e-01" nType="0">
          <Node pos="l" depth="2" NCoef="0" IVar="-1" Cut="0.0000000000000000e+00" cType="1" res="9.2355366796255112e-03" rms="3.6849102377891541e-01" purity="2.2330096364021301e-01" nType="-99"/>
          <Node pos="r" depth="2" NCoef="0" IVar="-1" Cut="0.0000000000000000e+00" cType="1" res="-9.6944597316905856e-04" rms="3.3611378073692322e-01" purity="1.6271185874938965e-01" nType="-99"/>
        </Node>
      </Node>
    </BinaryTree>
    <BinaryTree type="DecisionTree" boostWeight="1.0000000000000000e+00" itree="1609">
      <Node pos="s" depth="0" NCoef="0" IVar="1" Cut="1.5829585790634155e+00" cType="1" res="-2.2130745946924435e-07" rms="3.2210469245910645e-01" purity="5.9855979681015015e-01" nType="0">
        <Node pos="l" depth="1" NCoef="0" IVar="-1" Cut="0.0000000000000000e+00" cType="1" res="1.7819767890614457e-05" rms="3.2199755311012268e-01" purity="6.0176652669906616e-01" nType="-99"/>
        <Node pos="r" depth="1" NCoef="0" IVar="3" Cut="2.2992578148841858e-01" cType="0" res="-5.0724707543849945e-03" rms="3.3614224195480347e-01" purity="1.6795866191387177e-01" nType="0">
          <Node pos="l" depth="2" NCoef="0" IVar="-1" Cut="0.0000000000000000e+00" cType="1" res="1.9907518289983273e-03" rms="3.4380275011062622e-01" purity="1.7511521279811859e-01" nType="-99"/>
          <Node pos="r" depth="2" NCoef="0" IVar="-1" Cut="0.0000000000000000e+00" cType="1" res="-6.7552956752479076e-03" rms="3.2564502954483032e-01" purity="1.5882353484630585e-01" nType="-99"/>
        </Node>
      </Node>
    </BinaryTree>
    <BinaryTree type="DecisionTree" boostWeight="1.0000000000000000e+00" itree="1610">
      <Node pos="s" depth="0" NCoef="0" IVar="1" Cut="1.7341328859329224e+00" cType="1" res="-2.2249328424095438e-07" rms="3.2210466265678406e-01" purity="5.9855979681015015e-01" nType="0">
        <Node pos="l" depth="1" NCoef="0" IVar="-1" Cut="0.0000000000000000e+00" cType="1" res="-1.6218073142226785e-05" rms="3.2186692953109741e-01" purity="6.0092604160308838e-01" nType="-99"/>
        <Node pos="r" depth="1" NCoef="0" IVar="2" Cut="1.2996939420700073e+00" cType="1" res="5.7733859866857529e-03" rms="3.6021992564201355e-01" purity="1.9607843458652496e-01" nType="0">
          <Node pos="l" depth="2" NCoef="0" IVar="-1" Cut="0.0000000000000000e+00" cType="1" res="7.4126026593148708e-03" rms="3.6673784255981445e-01" purity="2.1333333849906921e-01" nType="-99"/>
          <Node pos="r" depth="2" NCoef="0" IVar="-1" Cut="0.0000000000000000e+00" cType="1" res="-3.2002571970224380e-03" rms="3.5321405529975891e-01" purity="1.7948718369007111e-01" nType="-99"/>
        </Node>
      </Node>
    </BinaryTree>
    <BinaryTree type="DecisionTree" boostWeight="1.0000000000000000e+00" itree="1611">
      <Node pos="s" depth="0" NCoef="0" IVar="1" Cut="1.5829585790634155e+00" cType="1" res="-2.2800644217113586e-07" rms="3.2210370898246765e-01" purity="5.9855979681015015e-01" nType="0">
        <Node pos="l" depth="1" NCoef="0" IVar="-1" Cut="0.0000000000000000e+00" cType="1" res="1.7659820514381863e-05" rms="3.2199755311012268e-01" purity="6.0176652669906616e-01" nType="-99"/>
        <Node pos="r" depth="1" NCoef="0" IVar="2" Cut="1.7287795543670654e+00" cType="0" res="-5.0281137228012085e-03" rms="3.3601471781730652e-01" purity="1.6795866191387177e-01" nType="0">
          <Node pos="l" depth="2" NCoef="0" IVar="-1" Cut="0.0000000000000000e+00" cType="1" res="3.5950816236436367e-03" rms="3.6030313372612000e-01" purity="1.9718310236930847e-01" nType="-99"/>
          <Node pos="r" depth="2" NCoef="0" IVar="-1" Cut="0.0000000000000000e+00" cType="1" res="-5.4804026149213314e-03" rms="3.2077875733375549e-01" purity="1.5102040767669678e-01" nType="-99"/>
        </Node>
      </Node>
    </BinaryTree>
    <BinaryTree type="DecisionTree" boostWeight="1.0000000000000000e+00" itree="1612">
      <Node pos="s" depth="0" NCoef="0" IVar="1" Cut="1.5704647302627563e+00" cType="1" res="-2.2980283631568454e-07" rms="3.2210361957550049e-01" purity="5.9855979681015015e-01" nType="0">
        <Node pos="l" depth="1" NCoef="0" IVar="-1" Cut="0.0000000000000000e+00" cType="1" res="-1.8588481907499954e-05" rms="3.2192355394363403e-01" purity="6.0177844762802124e-01" nType="-99"/>
        <Node pos="r" depth="1" NCoef="0" IVar="1" Cut="1.7793014049530029e+00" cType="0" res="5.0828717648983002e-03" rms="3.4476545453071594e-01" purity="1.7839196324348450e-01" nType="0">
          <Node pos="l" depth="2" NCoef="0" IVar="-1" Cut="0.0000000000000000e+00" cType="1" res="-1.0767069179564714e-03" rms="3.5801383852958679e-01" purity="1.9424460828304291e-01" nType="-99"/>
          <Node pos="r" depth="2" NCoef="0" IVar="-1" Cut="0.0000000000000000e+00" cType="1" res="1.2636047787964344e-02" rms="3.1108868122100830e-01" purity="1.4166666567325592e-01" nType="-99"/>
        </Node>
      </Node>
    </BinaryTree>
    <BinaryTree type="DecisionTree" boostWeight="1.0000000000000000e+00" itree="1613">
      <Node pos="s" depth="0" NCoef="0" IVar="1" Cut="1.7341328859329224e+00" cType="1" res="-2.5365628175677557e-07" rms="3.2210239768028259e-01" purity="5.9855979681015015e-01" nType="0">
        <Node pos="l" depth="1" NCoef="0" IVar="-1" Cut="0.0000000000000000e+00" cType="1" res="-1.6329182471963577e-05" rms="3.2186609506607056e-01" purity="6.0092604160308838e-01" nType="-99"/>
        <Node pos="r" depth="1" NCoef="0" IVar="3" Cut="2.3375508189201355e-01" cType="1" res="5.8080293238162994e-03" rms="3.5999712347984314e-01" purity="1.9607843458652496e-01" nType="0">
          <Node pos="l" depth="2" NCoef="0" IVar="-1" Cut="0.0000000000000000e+00" cType="1" res="7.4611790478229523e-03" rms="3.7151369452476501e-01" purity="2.1232876181602478e-01" nType="-99"/>
          <Node pos="r" depth="2" NCoef="0" IVar="-1" Cut="0.0000000000000000e+00" cType="1" res="-2.9893820174038410e-03" rms="3.4855625033378601e-01" purity="1.8125000596046448e-01" nType="-99"/>
        </Node>
      </Node>
    </BinaryTree>
    <BinaryTree type="DecisionTree" boostWeight="1.0000000000000000e+00" itree="1614">
      <Node pos="s" depth="0" NCoef="0" IVar="1" Cut="1.5829585790634155e+00" cType="1" res="-2.5579964813005063e-07" rms="3.2210156321525574e-01" purity="5.9855979681015015e-01" nType="0">
        <Node pos="l" depth="1" NCoef="0" IVar="-1" Cut="0.0000000000000000e+00" cType="1" res="1.8998949599335901e-05" rms="3.2199659943580627e-01" purity="6.0176652669906616e-01" nType="-99"/>
        <Node pos="r" depth="1" NCoef="0" IVar="2" Cut="2.0490391254425049e+00" cType="1" res="-5.4108602926135063e-03" rms="3.3585405349731445e-01" purity="1.6795866191387177e-01" nType="0">
          <Node pos="l" depth="2" NCoef="0" IVar="-1" Cut="0.0000000000000000e+00" cType="1" res="6.3383678207173944e-04" rms="3.3342015743255615e-01" purity="1.6961130499839783e-01" nType="-99"/>
          <Node pos="r" depth="2" NCoef="0" IVar="-1" Cut="0.0000000000000000e+00" cType="1" res="-8.8654151186347008e-03" rms="3.4165996313095093e-01" purity="1.6346153616905212e-01" nType="-99"/>
        </Node>
      </Node>
    </BinaryTree>
    <BinaryTree type="DecisionTree" boostWeight="1.0000000000000000e+00" itree="1615">
      <Node pos="s" depth="0" NCoef="0" IVar="1" Cut="1.7341328859329224e+00" cType="1" res="-2.5320886720692215e-07" rms="3.2210135459899902e-01" purity="5.9855979681015015e-01" nType="0">
        <Node pos="l" depth="1" NCoef="0" IVar="-1" Cut="0.0000000000000000e+00" cType="1" res="-1.6275957023026422e-05" rms="3.2186636328697205e-01" purity="6.0092604160308838e-01" nType="-99"/>
        <Node pos="r" depth="1" NCoef="0" IVar="0" Cut="1.4305347204208374e+00" cType="0" res="5.7890070602297783e-03" rms="3.5980010032653809e-01" purity="1.9607843458652496e-01" nType="0">
          <Node pos="l" depth="2" NCoef="0" IVar="-1" Cut="0.0000000000000000e+00" cType="1" res="-3.1167753040790558e-03" rms="3.5866239666938782e-01" purity="2.0000000298023224e-01" nType="-99"/>
          <Node pos="r" depth="2" NCoef="0" IVar="-1" Cut="0.0000000000000000e+00" cType="1" res="6.8958601914346218e-03" rms="3.6026629805564880e-01" purity="1.9277107715606689e-01" nType="-99"/>
        </Node>
      </Node>
    </BinaryTree>
    <BinaryTree type="DecisionTree" boostWeight="1.0000000000000000e+00" itree="1616">
      <Node pos="s" depth="0" NCoef="0" IVar="1" Cut="1.5829585790634155e+00" cType="1" res="-2.5469611841799633e-07" rms="3.2210063934326172e-01" purity="5.9855979681015015e-01" nType="0">
        <Node pos="l" depth="1" NCoef="0" IVar="-1" Cut="0.0000000000000000e+00" cType="1" res="1.8726655980572104e-05" rms="3.2199659943580627e-01" purity="6.0176652669906616e-01" nType="-99"/>
        <Node pos="r" depth="1" NCoef="0" IVar="2" Cut="1.7287795543670654e+00" cType="0" res="-5.3336541168391705e-03" rms="3.3573558926582336e-01" purity="1.6795866191387177e-01" nType="0">
          <Node pos="l" depth="2" NCoef="0" IVar="-1" Cut="0.0000000000000000e+00" cType="1" res="3.6217330489307642e-03" rms="3.5996612906455994e-01" purity="1.9718310236930847e-01" nType="-99"/>
          <Node pos="r" depth="2" NCoef="0" IVar="-1" Cut="0.0000000000000000e+00" cType="1" res="-5.6768008507788181e-03" rms="3.2051935791969299e-01" purity="1.5102040767669678e-01" nType="-99"/>
        </Node>
      </Node>
    </BinaryTree>
    <BinaryTree type="DecisionTree" boostWeight="1.0000000000000000e+00" itree="1617">
      <Node pos="s" depth="0" NCoef="0" IVar="1" Cut="1.7341328859329224e+00" cType="1" res="-2.5538261638757831e-07" rms="3.2210054993629456e-01" purity="5.9855979681015015e-01" nType="0">
        <Node pos="l" depth="1" NCoef="0" IVar="-1" Cut="0.0000000000000000e+00" cType="1" res="-1.6331587175955065e-05" rms="3.2186609506607056e-01" purity="6.0092604160308838e-01" nType="-99"/>
        <Node pos="r" depth="1" NCoef="0" IVar="2" Cut="1.2996939420700073e+00" cType="1" res="5.8085490018129349e-03" rms="3.5971698164939880e-01" purity="1.9607843458652496e-01" nType="0">
          <Node pos="l" depth="2" NCoef="0" IVar="-1" Cut="0.0000000000000000e+00" cType="1" res="7.0124031044542789e-03" rms="3.6639142036437988e-01" purity="2.1333333849906921e-01" nType="-99"/>
          <Node pos="r" depth="2" NCoef="0" IVar="-1" Cut="0.0000000000000000e+00" cType="1" res="-2.8221991378813982e-03" rms="3.5263982415199280e-01" purity="1.7948718369007111e-01" nType="-99"/>
        </Node>
      </Node>
    </BinaryTree>
    <BinaryTree type="DecisionTree" boostWeight="1.0000000000000000e+00" itree="1618">
      <Node pos="s" depth="0" NCoef="0" IVar="1" Cut="1.5829585790634155e+00" cType="1" res="-2.5430134087400802e-07" rms="3.2209965586662292e-01" purity="5.9855979681015015e-01" nType="0">
        <Node pos="l" depth="1" NCoef="0" IVar="-1" Cut="0.0000000000000000e+00" cType="1" res="1.8487133274902590e-05" rms="3.2199659943580627e-01" purity="6.0176652669906616e-01" nType="-99"/>
        <Node pos="r" depth="1" NCoef="0" IVar="2" Cut="1.1131349802017212e+00" cType="0" res="-5.2658184431493282e-03" rms="3.3561089634895325e-01" purity="1.6795866191387177e-01" nType="0">
          <Node pos="l" depth="2" NCoef="0" IVar="-1" Cut="0.0000000000000000e+00" cType="1" res="1.5965650090947747e-03" rms="3.5056856274604797e-01" purity="1.8454936146736145e-01" nType="-99"/>
          <Node pos="r" depth="2" NCoef="0" IVar="-1" Cut="0.0000000000000000e+00" cType="1" res="-7.9821320250630379e-03" rms="3.1106135249137878e-01" purity="1.4285714924335480e-01" nType="-99"/>
        </Node>
      </Node>
    </BinaryTree>
    <BinaryTree type="DecisionTree" boostWeight="1.0000000000000000e+00" itree="1619">
      <Node pos="s" depth="0" NCoef="0" IVar="1" Cut="1.7341328859329224e+00" cType="1" res="-2.5629773858781846e-07" rms="3.2209965586662292e-01" purity="5.9855979681015015e-01" nType="0">
        <Node pos="l" depth="1" NCoef="0" IVar="-1" Cut="0.0000000000000000e+00" cType="1" res="-1.6377147403545678e-05" rms="3.2186576724052429e-01" purity="6.0092604160308838e-01" nType="-99"/>
        <Node pos="r" depth="1" NCoef="0" IVar="2" Cut="1.2996939420700073e+00" cType="1" res="5.8246999979019165e-03" rms="3.5962933301925659e-01" purity="1.9607843458652496e-01" nType="0">
          <Node pos="l" depth="2" NCoef="0" IVar="-1" Cut="0.0000000000000000e+00" cType="1" res="6.8950317800045013e-03" rms="3.6621931195259094e-01" purity="2.1333333849906921e-01" nType="-99"/>
          <Node pos="r" depth="2" NCoef="0" IVar="-1" Cut="0.0000000000000000e+00" cType="1" res="-2.7032494544982910e-03" rms="3.5266181826591492e-01" purity="1.7948718369007111e-01" nType="-99"/>
        </Node>
      </Node>
    </BinaryTree>
    <BinaryTree type="DecisionTree" boostWeight="1.0000000000000000e+00" itree="1620">
      <Node pos="s" depth="0" NCoef="0" IVar="1" Cut="1.5829585790634155e+00" cType="1" res="-2.5428283834116883e-07" rms="3.2209879159927368e-01" purity="5.9855979681015015e-01" nType="0">
        <Node pos="l" depth="1" NCoef="0" IVar="-1" Cut="0.0000000000000000e+00" cType="1" res="1.8276112314197235e-05" rms="3.2199659943580627e-01" purity="6.0176652669906616e-01" nType="-99"/>
        <Node pos="r" depth="1" NCoef="0" IVar="3" Cut="2.2992578148841858e-01" cType="0" res="-5.2060983143746853e-03" rms="3.3549746870994568e-01" purity="1.6795866191387177e-01" nType="0">
          <Node pos="l" depth="2" NCoef="0" IVar="-1" Cut="0.0000000000000000e+00" cType="1" res="1.9583362154662609e-03" rms="3.4320941567420959e-01" purity="1.7511521279811859e-01" nType="-99"/>
          <Node pos="r" depth="2" NCoef="0" IVar="-1" Cut="0.0000000000000000e+00" cType="1" res="-6.8375063128769398e-03" rms="3.2492402195930481e-01" purity="1.5882353484630585e-01" nType="-99"/>
        </Node>
      </Node>
    </BinaryTree>
    <BinaryTree type="DecisionTree" boostWeight="1.0000000000000000e+00" itree="1621">
      <Node pos="s" depth="0" NCoef="0" IVar="1" Cut="2.1589205265045166e+00" cType="1" res="-2.5298373884652392e-07" rms="3.2209876179695129e-01" purity="5.9855979681015015e-01" nType="0">
        <Node pos="l" depth="1" NCoef="0" IVar="1" Cut="1.5831768512725830e+00" cType="1" res="-2.3492866603191942e-05" rms="3.2191565632820129e-01" purity="5.9953266382217407e-01" nType="0">
          <Node pos="l" depth="2" NCoef="0" IVar="-1" Cut="0.0000000000000000e+00" cType="1" res="1.4170901522447821e-05" rms="3.2199153304100037e-01" purity="6.0174334049224854e-01" nType="-99"/>
          <Node pos="r" depth="2" NCoef="0" IVar="-1" Cut="0.0000000000000000e+00" cType="1" res="-5.1213237456977367e-03" rms="3.0518698692321777e-01" purity="1.3061223924160004e-01" nType="-99"/>
        </Node>
        <Node pos="r" depth="1" NCoef="0" IVar="-1" Cut="0.0000000000000000e+00" cType="1" res="2.6607564650475979e-03" rms="3.8425579667091370e-01" purity="2.3571428656578064e-01" nType="-99"/>
      </Node>
    </BinaryTree>
    <BinaryTree type="DecisionTree" boostWeight="1.0000000000000000e+00" itree="1622">
      <Node pos="s" depth="0" NCoef="0" IVar="1" Cut="1.7341328859329224e+00" cType="1" res="-2.4726907099648088e-07" rms="3.2209882140159607e-01" purity="5.9855979681015015e-01" nType="0">
        <Node pos="l" depth="1" NCoef="0" IVar="-1" Cut="0.0000000000000000e+00" cType="1" res="-1.7113714420702308e-05" rms="3.2186537981033325e-01" purity="6.0092604160308838e-01" nType="-99"/>
        <Node pos="r" depth="1" NCoef="0" IVar="3" Cut="2.3375508189201355e-01" cType="1" res="6.0900868847966194e-03" rms="3.5955336689949036e-01" purity="1.9607843458652496e-01" nType="0">
          <Node pos="l" depth="2" NCoef="0" IVar="-1" Cut="0.0000000000000000e+00" cType="1" res="7.3447236791253090e-03" rms="3.7089288234710693e-01" purity="2.1232876181602478e-01" nType="-99"/>
          <Node pos="r" depth="2" NCoef="0" IVar="-1" Cut="0.0000000000000000e+00" cType="1" res="-2.6911282911896706e-03" rms="3.4833073616027832e-01" purity="1.8125000596046448e-01" nType="-99"/>
        </Node>
      </Node>
    </BinaryTree>
    <BinaryTree type="DecisionTree" boostWeight="1.0000000000000000e+00" itree="1623">
      <Node pos="s" depth="0" NCoef="0" IVar="2" Cut="2.2741115093231201e+00" cType="1" res="-2.4756710104156809e-07" rms="3.2209798693656921e-01" purity="5.9855979681015015e-01" nType="0">
        <Node pos="l" depth="1" NCoef="0" IVar="-1" Cut="0.0000000000000000e+00" cType="1" res="-3.9358885260298848e-05" rms="3.2178533077239990e-01" purity="6.1308050155639648e-01" nType="-99"/>
        <Node pos="r" depth="1" NCoef="0" IVar="0" Cut="1.7116442322731018e-01" cType="1" res="2.3515752982348204e-03" rms="3.3087444305419922e-01" purity="1.8478873372077942e-01" nType="0">
          <Node pos="l" depth="2" NCoef="0" IVar="-1" Cut="0.0000000000000000e+00" cType="1" res="-1.2917011976242065e-02" rms="4.2449280619621277e-01" purity="6.0000002384185791e-01" nType="-99"/>
          <Node pos="r" depth="2" NCoef="0" IVar="-1" Cut="0.0000000000000000e+00" cType="1" res="2.7091447263956070e-03" rms="3.2306659221649170e-01" purity="1.5602409839630127e-01" nType="-99"/>
        </Node>
      </Node>
    </BinaryTree>
    <BinaryTree type="DecisionTree" boostWeight="1.0000000000000000e+00" itree="1624">
      <Node pos="s" depth="0" NCoef="0" IVar="2" Cut="2.6487591266632080e+00" cType="1" res="-2.1767777980130631e-07" rms="3.2209447026252747e-01" purity="5.9855979681015015e-01" nType="0">
        <Node pos="l" depth="1" NCoef="0" IVar="-1" Cut="0.0000000000000000e+00" cType="1" res="2.8468646632973105e-05" rms="3.2198283076286316e-01" purity="6.0597991943359375e-01" nType="-99"/>
        <Node pos="r" depth="1" NCoef="0" IVar="2" Cut="2.7253909111022949e+00" cType="0" res="-3.3836688380688429e-03" rms="3.2829126715660095e-01" purity="1.8142075836658478e-01" nType="0">
          <Node pos="l" depth="2" NCoef="0" IVar="-1" Cut="0.0000000000000000e+00" cType="1" res="4.2731093708425760e-04" rms="3.3342128992080688e-01" purity="1.8734490871429443e-01" nType="-99"/>
          <Node pos="r" depth="2" NCoef="0" IVar="-1" Cut="0.0000000000000000e+00" cType="1" res="-1.5795685350894928e-02" rms="2.8542751073837280e-01" purity="1.3761468231678009e-01" nType="-99"/>
        </Node>
      </Node>
    </BinaryTree>
    <BinaryTree type="DecisionTree" boostWeight="1.0000000000000000e+00" itree="1625">
      <Node pos="s" depth="0" NCoef="0" IVar="2" Cut="3.4542517662048340e+00" cType="1" res="-2.5553666205269110e-07" rms="3.2209375500679016e-01" purity="5.9855979681015015e-01" nType="0">
        <Node pos="l" depth="1" NCoef="0" IVar="-1" Cut="0.0000000000000000e+00" cType="1" res="1.4074225873628166e-05" rms="3.2200297713279724e-01" purity="6.0029160976409912e-01" nType="-99"/>
        <Node pos="r" depth="1" NCoef="0" IVar="0" Cut="1.3097455501556396e+00" cType="1" res="-6.9034593179821968e-03" rms="3.4231686592102051e-01" purity="1.9911503791809082e-01" nType="0">
          <Node pos="l" depth="2" NCoef="0" IVar="-1" Cut="0.0000000000000000e+00" cType="1" res="3.8518039509654045e-03" rms="3.5318484902381897e-01" purity="2.1929824352264404e-01" nType="-99"/>
          <Node pos="r" depth="2" NCoef="0" IVar="-1" Cut="0.0000000000000000e+00" cType="1" res="-8.7836878374218941e-03" rms="3.2995393872261047e-01" purity="1.7857143282890320e-01" nType="-99"/>
        </Node>
      </Node>
    </BinaryTree>
    <BinaryTree type="DecisionTree" boostWeight="1.0000000000000000e+00" itree="1626">
      <Node pos="s" depth="0" NCoef="0" IVar="2" Cut="2.6300268173217773e+00" cType="1" res="-2.5507128498247766e-07" rms="3.2209333777427673e-01" purity="5.9855979681015015e-01" nType="0">
        <Node pos="l" depth="1" NCoef="0" IVar="-1" Cut="0.0000000000000000e+00" cType="1" res="-2.9727954824920744e-05" rms="3.2188296318054199e-01" purity="6.0616320371627808e-01" nType="-99"/>
        <Node pos="r" depth="1" NCoef="0" IVar="1" Cut="2.4987505748867989e-03" cType="1" res="3.3666847739368677e-03" rms="3.3323875069618225e-01" purity="1.8802520632743835e-01" nType="0">
          <Node pos="l" depth="2" NCoef="0" IVar="-1" Cut="0.0000000000000000e+00" cType="1" res="-7.5079691596329212e-03" rms="3.4870347380638123e-01" purity="2.3353293538093567e-01" nType="-99"/>
          <Node pos="r" depth="2" NCoef="0" IVar="-1" Cut="0.0000000000000000e+00" cType="1" res="3.5241288132965565e-03" rms="3.2965251803398132e-01" purity="1.7834395170211792e-01" nType="-99"/>
        </Node>
      </Node>
    </BinaryTree>
    <BinaryTree type="DecisionTree" boostWeight="1.0000000000000000e+00" itree="1627">
      <Node pos="s" depth="0" NCoef="0" IVar="2" Cut="3.1470406055450439e+00" cType="1" res="-2.6757817295219866e-07" rms="3.2209238409996033e-01" purity="5.9855979681015015e-01" nType="0">
        <Node pos="l" depth="1" NCoef="0" IVar="-1" Cut="0.0000000000000000e+00" cType="1" res="1.8560102034825832e-05" rms="3.2204204797744751e-01" purity="6.0167813301086426e-01" nType="-99"/>
        <Node pos="r" depth="1" NCoef="0" IVar="2" Cut="3.3106193542480469e+00" cType="0" res="-5.2359472028911114e-03" rms="3.2867068052291870e-01" purity="1.8414321541786194e-01" nType="0">
          <Node pos="l" depth="2" NCoef="0" IVar="-1" Cut="0.0000000000000000e+00" cType="1" res="1.7633824609220028e-03" rms="3.4818148612976074e-01" purity="2.1951219439506531e-01" nType="-99"/>
          <Node pos="r" depth="2" NCoef="0" IVar="-1" Cut="0.0000000000000000e+00" cType="1" res="-1.8178332597017288e-02" rms="2.6556485891342163e-01" purity="8.6538463830947876e-02" nType="-99"/>
        </Node>
      </Node>
    </BinaryTree>
    <BinaryTree type="DecisionTree" boostWeight="1.0000000000000000e+00" itree="1628">
      <Node pos="s" depth="0" NCoef="0" IVar="2" Cut="3.4542517662048340e+00" cType="1" res="-3.1327635952038690e-07" rms="3.2209110260009766e-01" purity="5.9855979681015015e-01" nType="0">
        <Node pos="l" depth="1" NCoef="0" IVar="-1" Cut="0.0000000000000000e+00" cType="1" res="1.4637323147326242e-05" rms="3.2200118899345398e-01" purity="6.0029160976409912e-01" nType="-99"/>
        <Node pos="r" depth="1" NCoef="0" IVar="0" Cut="1.3097455501556396e+00" cType="1" res="-7.1906363591551781e-03" rms="3.4212020039558411e-01" purity="1.9911503791809082e-01" nType="0">
          <Node pos="l" depth="2" NCoef="0" IVar="-1" Cut="0.0000000000000000e+00" cType="1" res="3.2043904066085815e-03" rms="3.5295253992080688e-01" purity="2.1929824352264404e-01" nType="-99"/>
          <Node pos="r" depth="2" NCoef="0" IVar="-1" Cut="0.0000000000000000e+00" cType="1" res="-8.4061184898018837e-03" rms="3.2994183897972107e-01" purity="1.7857143282890320e-01" nType="-99"/>
        </Node>
      </Node>
    </BinaryTree>
    <BinaryTree type="DecisionTree" boostWeight="1.0000000000000000e+00" itree="1629">
      <Node pos="s" depth="0" NCoef="0" IVar="2" Cut="2.6300268173217773e+00" cType="1" res="-3.0468564204966242e-07" rms="3.2209077477455139e-01" purity="5.9855979681015015e-01" nType="0">
        <Node pos="l" depth="1" NCoef="0" IVar="-1" Cut="0.0000000000000000e+00" cType="1" res="-3.0075058020884171e-05" rms="3.2188296318054199e-01" purity="6.0616320371627808e-01" nType="-99"/>
        <Node pos="r" depth="1" NCoef="0" IVar="1" Cut="8.9955024421215057e-02" cType="1" res="3.4034259151667356e-03" rms="3.3310222625732422e-01" purity="1.8802520632743835e-01" nType="0">
          <Node pos="l" depth="2" NCoef="0" IVar="-1" Cut="0.0000000000000000e+00" cType="1" res="7.3517798446118832e-03" rms="3.5872545838356018e-01" purity="2.5762712955474854e-01" nType="-99"/>
          <Node pos="r" depth="2" NCoef="0" IVar="-1" Cut="0.0000000000000000e+00" cType="1" res="-1.6335624968633056e-03" rms="3.2067835330963135e-01" purity="1.5677320957183838e-01" nType="-99"/>
        </Node>
      </Node>
    </BinaryTree>
    <BinaryTree type="DecisionTree" boostWeight="1.0000000000000000e+00" itree="1630">
      <Node pos="s" depth="0" NCoef="0" IVar="2" Cut="3.3643362522125244e+00" cType="1" res="-3.0720136123818520e-07" rms="3.2208943367004395e-01" purity="5.9855979681015015e-01" nType="0">
        <Node pos="l" depth="1" NCoef="0" IVar="-1" Cut="0.0000000000000000e+00" cType="1" res="1.4876415662001818e-05" rms="3.2199954986572266e-01" purity="6.0052978992462158e-01" nType="-99"/>
        <Node pos="r" depth="1" NCoef="0" IVar="0" Cut="1.0401382446289062e+00" cType="0" res="-6.3448771834373474e-03" rms="3.3956056833267212e-01" purity="2.0384615659713745e-01" nType="0">
          <Node pos="l" depth="2" NCoef="0" IVar="-1" Cut="0.0000000000000000e+00" cType="1" res="5.3477217443287373e-03" rms="3.5171225666999817e-01" purity="2.0689655840396881e-01" nType="-99"/>
          <Node pos="r" depth="2" NCoef="0" IVar="-1" Cut="0.0000000000000000e+00" cType="1" res="-1.1524496600031853e-02" rms="3.2168504595756531e-01" purity="2.0000000298023224e-01" nType="-99"/>
        </Node>
      </Node>
    </BinaryTree>
    <BinaryTree type="DecisionTree" boostWeight="1.0000000000000000e+00" itree="1631">
      <Node pos="s" depth="0" NCoef="0" IVar="1" Cut="2.3250875473022461e+00" cType="1" res="-3.1987232773644791e-07" rms="3.2208877801895142e-01" purity="5.9855979681015015e-01" nType="0">
        <Node pos="l" depth="1" NCoef="0" IVar="1" Cut="1.7344640493392944e+00" cType="1" res="1.9979665012215264e-05" rms="3.2198175787925720e-01" purity="5.9937214851379395e-01" nType="0">
          <Node pos="l" depth="2" NCoef="0" IVar="-1" Cut="0.0000000000000000e+00" cType="1" res="-1.5293348042177968e-05" rms="3.2185623049736023e-01" purity="6.0092604160308838e-01" nType="-99"/>
          <Node pos="r" depth="2" NCoef="0" IVar="-1" Cut="0.0000000000000000e+00" cType="1" res="5.3861453197896481e-03" rms="3.5361850261688232e-01" purity="1.8461538851261139e-01" nType="-99"/>
        </Node>
        <Node pos="r" depth="1" NCoef="0" IVar="-1" Cut="0.0000000000000000e+00" cType="1" res="-2.9569815378636122e-03" rms="3.6890897154808044e-01" purity="2.1621622145175934e-01" nType="-99"/>
      </Node>
    </BinaryTree>
    <BinaryTree type="DecisionTree" boostWeight="1.0000000000000000e+00" itree="1632">
      <Node pos="s" depth="0" NCoef="0" IVar="1" Cut="1.5829585790634155e+00" cType="1" res="-3.0641257353636320e-07" rms="3.2208815217018127e-01" purity="5.9855979681015015e-01" nType="0">
        <Node pos="l" depth="1" NCoef="0" IVar="-1" Cut="0.0000000000000000e+00" cType="1" res="1.8451240975991823e-05" rms="3.2198756933212280e-01" purity="6.0176652669906616e-01" nType="-99"/>
        <Node pos="r" depth="1" NCoef="0" IVar="0" Cut="2.0102448463439941e+00" cType="0" res="-5.2632000297307968e-03" rms="3.3527967333793640e-01" purity="1.6795866191387177e-01" nType="0">
          <Node pos="l" depth="2" NCoef="0" IVar="-1" Cut="0.0000000000000000e+00" cType="1" res="3.5703449975699186e-03" rms="4.1059812903404236e-01" purity="2.7272728085517883e-01" nType="-99"/>
          <Node pos="r" depth="2" NCoef="0" IVar="-1" Cut="0.0000000000000000e+00" cType="1" res="-5.7034320197999477e-03" rms="2.9986613988876343e-01" purity="1.2635378539562225e-01" nType="-99"/>
        </Node>
      </Node>
    </BinaryTree>
    <BinaryTree type="DecisionTree" boostWeight="1.0000000000000000e+00" itree="1633">
      <Node pos="s" depth="0" NCoef="0" IVar="0" Cut="1.6116940975189209e-01" cType="1" res="-3.0287461072475708e-07" rms="3.2208815217018127e-01" purity="5.9855979681015015e-01" nType="0">
        <Node pos="l" depth="1" NCoef="0" IVar="-1" Cut="0.0000000000000000e+00" cType="1" res="1.5360562247224152e-04" rms="3.2180932164192200e-01" purity="8.4581202268600464e-01" nType="-99"/>
        <Node pos="r" depth="1" NCoef="0" IVar="2" Cut="9.7408398985862732e-02" cType="1" res="-5.9621391119435430e-04" rms="3.2260224223136902e-01" purity="1.4138005673885345e-01" nType="0">
          <Node pos="l" depth="2" NCoef="0" IVar="-1" Cut="0.0000000000000000e+00" cType="1" res="1.2714426033198833e-02" rms="3.5373038053512573e-01" purity="1.8118466436862946e-01" nType="-99"/>
          <Node pos="r" depth="2" NCoef="0" IVar="-1" Cut="0.0000000000000000e+00" cType="1" res="-4.8703333595767617e-04" rms="3.2206439971923828e-01" purity="1.4074851572513580e-01" nType="-99"/>
        </Node>
      </Node>
    </BinaryTree>
    <BinaryTree type="DecisionTree" boostWeight="1.0000000000000000e+00" itree="1634">
      <Node pos="s" depth="0" NCoef="0" IVar="2" Cut="1.5360555648803711e+00" cType="1" res="-3.8052297668400570e-07" rms="3.2208755612373352e-01" purity="5.9855979681015015e-01" nType="0">
        <Node pos="l" depth="1" NCoef="0" IVar="-1" Cut="0.0000000000000000e+00" cType="1" res="-7.9242301580961794e-05" rms="3.1978702545166016e-01" purity="6.4864921569824219e-01" nType="-99"/>
        <Node pos="r" depth="1" NCoef="0" IVar="0" Cut="3.1234383583068848e-02" cType="1" res="1.2555763823911548e-03" rms="3.3918508887290955e-01" purity="2.1498262882232666e-01" nType="0">
          <Node pos="l" depth="2" NCoef="0" IVar="-1" Cut="0.0000000000000000e+00" cType="1" res="-1.4149347320199013e-02" rms="4.0354788303375244e-01" purity="6.9444441795349121e-01" nType="-99"/>
          <Node pos="r" depth="2" NCoef="0" IVar="-1" Cut="0.0000000000000000e+00" cType="1" res="8.8875490473583341e-04" rms="3.3784100413322449e-01" purity="2.0626367628574371e-01" nType="-99"/>
        </Node>
      </Node>
    </BinaryTree>
    <BinaryTree type="DecisionTree" boostWeight="1.0000000000000000e+00" itree="1635">
      <Node pos="s" depth="0" NCoef="0" IVar="0" Cut="6.6341829299926758e-01" cType="1" res="-2.9405870805021550e-07" rms="3.2208496332168579e-01" purity="5.9855979681015015e-01" nType="0">
        <Node pos="l" depth="1" NCoef="0" IVar="-1" Cut="0.0000000000000000e+00" cType="1" res="7.5853073212783784e-05" rms="3.3119541406631470e-01" purity="6.7677879333496094e-01" nType="-99"/>
        <Node pos="r" depth="1" NCoef="0" IVar="3" Cut="1.5300242602825165e-01" cType="0" res="-1.1265829671174288e-03" rms="2.5312873721122742e-01" purity="7.7294684946537018e-02" nType="0">
          <Node pos="l" depth="2" NCoef="0" IVar="-1" Cut="0.0000000000000000e+00" cType="1" res="4.1679793503135443e-04" rms="2.5765794515609741e-01" purity="8.0113254487514496e-02" nType="-99"/>
          <Node pos="r" depth="2" NCoef="0" IVar="-1" Cut="0.0000000000000000e+00" cType="1" res="-1.0825460776686668e-02" rms="2.1703796088695526e-01" purity="5.6831922382116318e-02" nType="-99"/>
        </Node>
      </Node>
    </BinaryTree>
    <BinaryTree type="DecisionTree" boostWeight="1.0000000000000000e+00" itree="1636">
      <Node pos="s" depth="0" NCoef="0" IVar="0" Cut="1.2981009483337402e+00" cType="1" res="-4.4766994733436150e-07" rms="3.2208511233329773e-01" purity="5.9855979681015015e-01" nType="0">
        <Node pos="l" depth="1" NCoef="0" IVar="-1" Cut="0.0000000000000000e+00" cType="1" res="-4.4885749957757071e-05" rms="3.2331648468971252e-01" purity="6.2081432342529297e-01" nType="-99"/>
        <Node pos="r" depth="1" NCoef="0" IVar="2" Cut="2.1317453384399414e+00" cType="0" res="2.0627533085644245e-03" rms="2.9403197765350342e-01" purity="1.1468288302421570e-01" nType="0">
          <Node pos="l" depth="2" NCoef="0" IVar="-1" Cut="0.0000000000000000e+00" cType="1" res="-6.9704814814031124e-03" rms="2.8980943560600281e-01" purity="1.2816455960273743e-01" nType="-99"/>
          <Node pos="r" depth="2" NCoef="0" IVar="-1" Cut="0.0000000000000000e+00" cType="1" res="4.9698608927428722e-03" rms="2.9536199569702148e-01" purity="1.0958083719015121e-01" nType="-99"/>
        </Node>
      </Node>
    </BinaryTree>
    <BinaryTree type="DecisionTree" boostWeight="1.0000000000000000e+00" itree="1637">
      <Node pos="s" depth="0" NCoef="0" IVar="2" Cut="2.6300268173217773e+00" cType="1" res="-5.7201793879357865e-07" rms="3.2208347320556641e-01" purity="5.9855979681015015e-01" nType="0">
        <Node pos="l" depth="1" NCoef="0" IVar="-1" Cut="0.0000000000000000e+00" cType="1" res="-3.2359435863327235e-05" rms="3.2187688350677490e-01" purity="6.0616320371627808e-01" nType="-99"/>
        <Node pos="r" depth="1" NCoef="0" IVar="1" Cut="2.4987505748867989e-03" cType="1" res="3.6482301075011492e-03" rms="3.3302789926528931e-01" purity="1.8802520632743835e-01" nType="0">
          <Node pos="l" depth="2" NCoef="0" IVar="-1" Cut="0.0000000000000000e+00" cType="1" res="-7.2140470147132874e-03" rms="3.4869837760925293e-01" purity="2.3353293538093567e-01" nType="-99"/>
          <Node pos="r" depth="2" NCoef="0" IVar="-1" Cut="0.0000000000000000e+00" cType="1" res="3.6004339344799519e-03" rms="3.2940453290939331e-01" purity="1.7834395170211792e-01" nType="-99"/>
        </Node>
      </Node>
    </BinaryTree>
    <BinaryTree type="DecisionTree" boostWeight="1.0000000000000000e+00" itree="1638">
      <Node pos="s" depth="0" NCoef="0" IVar="2" Cut="2.2741115093231201e+00" cType="1" res="-5.5233533657883527e-07" rms="3.2208248972892761e-01" purity="5.9855979681015015e-01" nType="0">
        <Node pos="l" depth="1" NCoef="0" IVar="-1" Cut="0.0000000000000000e+00" cType="1" res="-4.0848746721167117e-05" rms="3.2177910208702087e-01" purity="6.1308050155639648e-01" nType="-99"/>
        <Node pos="r" depth="1" NCoef="0" IVar="0" Cut="1.7116442322731018e-01" cType="1" res="2.4317598436027765e-03" rms="3.3060136437416077e-01" purity="1.8478873372077942e-01" nType="0">
          <Node pos="l" depth="2" NCoef="0" IVar="-1" Cut="0.0000000000000000e+00" cType="1" res="-1.1443440802395344e-02" rms="4.2439511418342590e-01" purity="6.0000002384185791e-01" nType="-99"/>
          <Node pos="r" depth="2" NCoef="0" IVar="-1" Cut="0.0000000000000000e+00" cType="1" res="2.5751357898116112e-03" rms="3.2283779978752136e-01" purity="1.5602409839630127e-01" nType="-99"/>
        </Node>
      </Node>
    </BinaryTree>
    <BinaryTree type="DecisionTree" boostWeight="1.0000000000000000e+00" itree="1639">
      <Node pos="s" depth="0" NCoef="0" IVar="0" Cut="6.6341829299926758e-01" cType="1" res="-4.9706460458764923e-07" rms="3.2207944989204407e-01" purity="5.9855979681015015e-01" nType="0">
        <Node pos="l" depth="1" NCoef="0" IVar="-1" Cut="0.0000000000000000e+00" cType="1" res="8.0278186942450702e-05" rms="3.3119174838066101e-01" purity="6.7677879333496094e-01" nType="-99"/>
        <Node pos="r" depth="1" NCoef="0" IVar="2" Cut="9.1039389371871948e-01" cType="0" res="-1.1938434327021241e-03" rms="2.5310665369033813e-01" purity="7.7294684946537018e-02" nType="0">
          <Node pos="l" depth="2" NCoef="0" IVar="-1" Cut="0.0000000000000000e+00" cType="1" res="-2.7743680402636528e-03" rms="2.5322604179382324e-01" purity="7.9312488436698914e-02" nType="-99"/>
          <Node pos="r" depth="2" NCoef="0" IVar="-1" Cut="0.0000000000000000e+00" cType="1" res="4.4949455186724663e-03" rms="2.5269582867622375e-01" purity="7.2427570819854736e-02" nType="-99"/>
        </Node>
      </Node>
    </BinaryTree>
    <BinaryTree type="DecisionTree" boostWeight="1.0000000000000000e+00" itree="1640">
      <Node pos="s" depth="0" NCoef="0" IVar="2" Cut="2.0455763339996338e+00" cType="1" res="-5.9927617712673964e-07" rms="3.2207965850830078e-01" purity="5.9855979681015015e-01" nType="0">
        <Node pos="l" depth="1" NCoef="0" IVar="-1" Cut="0.0000000000000000e+00" cType="1" res="-5.1430470193736255e-05" rms="3.2163998484611511e-01" purity="6.2023001909255981e-01" nType="-99"/>
        <Node pos="r" depth="1" NCoef="0" IVar="2" Cut="2.0702438354492188e+00" cType="1" res="2.0411703735589981e-03" rms="3.3032146096229553e-01" purity="1.8654434382915497e-01" nType="0">
          <Node pos="l" depth="2" NCoef="0" IVar="-1" Cut="0.0000000000000000e+00" cType="1" res="1.9165147095918655e-02" rms="3.6411380767822266e-01" purity="2.4770642817020416e-01" nType="-99"/>
          <Node pos="r" depth="2" NCoef="0" IVar="-1" Cut="0.0000000000000000e+00" cType="1" res="-6.5383142100472469e-06" rms="3.2861906290054321e-01" purity="1.8388512730598450e-01" nType="-99"/>
        </Node>
      </Node>
    </BinaryTree>
    <BinaryTree type="DecisionTree" boostWeight="1.0000000000000000e+00" itree="1641">
      <Node pos="s" depth="0" NCoef="0" IVar="2" Cut="2.2741115093231201e+00" cType="1" res="-6.2700473790755495e-07" rms="3.2207730412483215e-01" purity="5.9855979681015015e-01" nType="0">
        <Node pos="l" depth="1" NCoef="0" IVar="-1" Cut="0.0000000000000000e+00" cType="1" res="-4.1887542465701699e-05" rms="3.2177641987800598e-01" purity="6.1308050155639648e-01" nType="-99"/>
        <Node pos="r" depth="1" NCoef="0" IVar="0" Cut="6.5217393636703491e-01" cType="1" res="2.4918322451412678e-03" rms="3.3052605390548706e-01" purity="1.8478873372077942e-01" nType="0">
          <Node pos="l" depth="2" NCoef="0" IVar="-1" Cut="0.0000000000000000e+00" cType="1" res="5.7014129124581814e-03" rms="4.0011608600616455e-01" purity="3.0678465962409973e-01" nType="-99"/>
          <Node pos="r" depth="2" NCoef="0" IVar="-1" Cut="0.0000000000000000e+00" cType="1" res="-3.8397472817450762e-03" rms="2.7853894233703613e-01" purity="1.0938924551010132e-01" nType="-99"/>
        </Node>
      </Node>
    </BinaryTree>
    <BinaryTree type="DecisionTree" boostWeight="1.0000000000000000e+00" itree="1642">
      <Node pos="s" depth="0" NCoef="0" IVar="1" Cut="1.5704647302627563e+00" cType="1" res="-6.4242755115628825e-07" rms="3.2207641005516052e-01" purity="5.9855979681015015e-01" nType="0">
        <Node pos="l" depth="1" NCoef="0" IVar="-1" Cut="0.0000000000000000e+00" cType="1" res="-1.8952587197418325e-05" rms="3.2190367579460144e-01" purity="6.0177844762802124e-01" nType="-99"/>
        <Node pos="r" depth="1" NCoef="0" IVar="3" Cut="2.2992578148841858e-01" cType="0" res="5.1293172873556614e-03" rms="3.4384122490882874e-01" purity="1.7839196324348450e-01" nType="0">
          <Node pos="l" depth="2" NCoef="0" IVar="-1" Cut="0.0000000000000000e+00" cType="1" res="6.3417390920221806e-03" rms="3.5148870944976807e-01" purity="1.8750000000000000e-01" nType="-99"/>
          <Node pos="r" depth="2" NCoef="0" IVar="-1" Cut="0.0000000000000000e+00" cType="1" res="-3.4502316266298294e-03" rms="3.3319523930549622e-01" purity="1.6666667163372040e-01" nType="-99"/>
        </Node>
      </Node>
    </BinaryTree>
    <BinaryTree type="DecisionTree" boostWeight="1.0000000000000000e+00" itree="1643">
      <Node pos="s" depth="0" NCoef="0" IVar="2" Cut="1.9256891012191772e+00" cType="1" res="-6.0772981669288129e-07" rms="3.2207551598548889e-01" purity="5.9855979681015015e-01" nType="0">
        <Node pos="l" depth="1" NCoef="0" IVar="-1" Cut="0.0000000000000000e+00" cType="1" res="5.5013617384247482e-05" rms="3.2163956761360168e-01" purity="6.2506610155105591e-01" nType="-99"/>
        <Node pos="r" depth="1" NCoef="0" IVar="0" Cut="1.0244877636432648e-01" cType="1" res="-1.7983652651309967e-03" rms="3.2875570654869080e-01" purity="1.8757881224155426e-01" nType="0">
          <Node pos="l" depth="2" NCoef="0" IVar="-1" Cut="0.0000000000000000e+00" cType="1" res="1.1075010523200035e-02" rms="3.8186195492744446e-01" purity="7.7857142686843872e-01" nType="-99"/>
          <Node pos="r" depth="2" NCoef="0" IVar="-1" Cut="0.0000000000000000e+00" cType="1" res="-1.5852900687605143e-03" rms="3.2597863674163818e-01" purity="1.6029024124145508e-01" nType="-99"/>
        </Node>
      </Node>
    </BinaryTree>
    <BinaryTree type="DecisionTree" boostWeight="1.0000000000000000e+00" itree="1644">
      <Node pos="s" depth="0" NCoef="0" IVar="2" Cut="2.6300268173217773e+00" cType="1" res="-5.1620781960082240e-07" rms="3.2207465171813965e-01" purity="5.9855979681015015e-01" nType="0">
        <Node pos="l" depth="1" NCoef="0" IVar="-1" Cut="0.0000000000000000e+00" cType="1" res="-3.0432240237132646e-05" rms="3.2187011837959290e-01" purity="6.0616320371627808e-01" nType="-99"/>
        <Node pos="r" depth="1" NCoef="0" IVar="3" Cut="2.9015767574310303e-01" cType="0" res="3.4320079721510410e-03" rms="3.3291423320770264e-01" purity="1.8802520632743835e-01" nType="0">
          <Node pos="l" depth="2" NCoef="0" IVar="-1" Cut="0.0000000000000000e+00" cType="1" res="-1.3905299128964543e-03" rms="3.4687873721122742e-01" purity="2.2400000691413879e-01" nType="-99"/>
          <Node pos="r" depth="2" NCoef="0" IVar="-1" Cut="0.0000000000000000e+00" cType="1" res="9.9594267085194588e-03" rms="3.0397260189056396e-01" purity="1.1926605552434921e-01" nType="-99"/>
        </Node>
      </Node>
    </BinaryTree>
    <BinaryTree type="DecisionTree" boostWeight="1.0000000000000000e+00" itree="1645">
      <Node pos="s" depth="0" NCoef="0" IVar="2" Cut="1.9256891012191772e+00" cType="1" res="-5.4378187996917404e-07" rms="3.2207337021827698e-01" purity="5.9855979681015015e-01" nType="0">
        <Node pos="l" depth="1" NCoef="0" IVar="-1" Cut="0.0000000000000000e+00" cType="1" res="5.2555897127604112e-05" rms="3.2163956761360168e-01" purity="6.2506610155105591e-01" nType="-99"/>
        <Node pos="r" depth="1" NCoef="0" IVar="2" Cut="1.9620925188064575e+00" cType="0" res="-1.7174016684293747e-03" rms="3.2872176170349121e-01" purity="1.8757881224155426e-01" nType="0">
          <Node pos="l" depth="2" NCoef="0" IVar="-1" Cut="0.0000000000000000e+00" cType="1" res="3.6617475416278467e-05" rms="3.2961371541023254e-01" purity="1.8872305750846863e-01" nType="-99"/>
          <Node pos="r" depth="2" NCoef="0" IVar="-1" Cut="0.0000000000000000e+00" cType="1" res="-1.5107605606317520e-02" rms="3.0906426906585693e-01" purity="1.6560509800910950e-01" nType="-99"/>
        </Node>
      </Node>
    </BinaryTree>
    <BinaryTree type="DecisionTree" boostWeight="1.0000000000000000e+00" itree="1646">
      <Node pos="s" depth="0" NCoef="0" IVar="2" Cut="1.5360555648803711e+00" cType="1" res="-5.5726025038893567e-07" rms="3.2207235693931580e-01" purity="5.9855979681015015e-01" nType="0">
        <Node pos="l" depth="1" NCoef="0" IVar="-1" Cut="0.0000000000000000e+00" cType="1" res="-7.5888739957008511e-05" rms="3.1978586316108704e-01" purity="6.4864921569824219e-01" nType="-99"/>
        <Node pos="r" depth="1" NCoef="0" IVar="2" Cut="1.5748881101608276e+00" cType="1" res="1.2008822523057461e-03" rms="3.3906888961791992e-01" purity="2.1498262882232666e-01" nType="0">
          <Node pos="l" depth="2" NCoef="0" IVar="-1" Cut="0.0000000000000000e+00" cType="1" res="1.0342701338231564e-02" rms="3.6080619692802429e-01" purity="3.1286549568176270e-01" nType="-99"/>
          <Node pos="r" depth="2" NCoef="0" IVar="-1" Cut="0.0000000000000000e+00" cType="1" res="-1.2366051669232547e-04" rms="3.3766284584999084e-01" purity="2.0911480486392975e-01" nType="-99"/>
        </Node>
      </Node>
    </BinaryTree>
    <BinaryTree type="DecisionTree" boostWeight="1.0000000000000000e+00" itree="1647">
      <Node pos="s" depth="0" NCoef="0" IVar="3" Cut="4.9122479557991028e-01" cType="0" res="-5.4749841638113139e-07" rms="3.2207044959068298e-01" purity="5.9855979681015015e-01" nType="0">
        <Node pos="l" depth="1" NCoef="0" IVar="-1" Cut="0.0000000000000000e+00" cType="1" res="-2.6289762463420630e-03" rms="3.0584293603897095e-01" purity="8.6760562658309937e-01" nType="-99"/>
        <Node pos="r" depth="1" NCoef="0" IVar="3" Cut="4.8899042606353760e-01" cType="0" res="3.5077944630756974e-05" rms="3.2217812538146973e-01" purity="5.9672302007675171e-01" nType="0">
          <Node pos="l" depth="2" NCoef="0" IVar="-1" Cut="0.0000000000000000e+00" cType="1" res="2.1353766322135925e-02" rms="2.3104329407215118e-01" purity="9.3000000715255737e-01" nType="-99"/>
          <Node pos="r" depth="2" NCoef="0" IVar="-1" Cut="0.0000000000000000e+00" cType="1" res="-1.4262054719438311e-05" rms="3.2232543826103210e-01" purity="5.9608083963394165e-01" nType="-99"/>
        </Node>
      </Node>
    </BinaryTree>
    <BinaryTree type="DecisionTree" boostWeight="1.0000000000000000e+00" itree="1648">
      <Node pos="s" depth="0" NCoef="0" IVar="3" Cut="4.9747130274772644e-01" cType="0" res="-3.9377462712764100e-07" rms="3.2206949591636658e-01" purity="5.9855979681015015e-01" nType="0">
        <Node pos="l" depth="1" NCoef="0" IVar="-1" Cut="0.0000000000000000e+00" cType="1" res="4.4759619049727917e-03" rms="3.1819316744804382e-01" purity="8.5981309413909912e-01" nType="-99"/>
        <Node pos="r" depth="1" NCoef="0" IVar="3" Cut="4.9123075604438782e-01" cType="0" res="-2.1117133655934595e-05" rms="3.2207706570625305e-01" purity="5.9802478551864624e-01" nType="0">
          <Node pos="l" depth="2" NCoef="0" IVar="-1" Cut="0.0000000000000000e+00" cType="1" res="-5.9091821312904358e-03" rms="3.0008658766746521e-01" purity="8.7096774578094482e-01" nType="-99"/>
          <Node pos="r" depth="2" NCoef="0" IVar="-1" Cut="0.0000000000000000e+00" cType="1" res="1.4994238881627098e-05" rms="3.2217741012573242e-01" purity="5.9672302007675171e-01" nType="-99"/>
        </Node>
      </Node>
    </BinaryTree>
    <BinaryTree type="DecisionTree" boostWeight="1.0000000000000000e+00" itree="1649">
      <Node pos="s" depth="0" NCoef="0" IVar="0" Cut="5.9970013797283173e-02" cType="1" res="-3.2678045158718305e-07" rms="3.2206872105598450e-01" purity="5.9855979681015015e-01" nType="0">
        <Node pos="l" depth="1" NCoef="0" IVar="-1" Cut="0.0000000000000000e+00" cType="1" res="2.6237912243232131e-04" rms="2.8211262822151184e-01" purity="8.9877647161483765e-01" nType="-99"/>
        <Node pos="r" depth="1" NCoef="0" IVar="2" Cut="6.8935173749923706e-01" cType="1" res="-4.4018882908858359e-04" rms="3.5881140828132629e-01" purity="2.8743678331375122e-01" nType="0">
          <Node pos="l" depth="2" NCoef="0" IVar="-1" Cut="0.0000000000000000e+00" cType="1" res="-1.5684409299865365e-03" rms="3.7488019466400146e-01" purity="3.6898520588874817e-01" nType="-99"/>
          <Node pos="r" depth="2" NCoef="0" IVar="-1" Cut="0.0000000000000000e+00" cType="1" res="6.1469065258279443e-04" rms="3.5046473145484924e-01" purity="2.4656973779201508e-01" nType="-99"/>
        </Node>
      </Node>
    </BinaryTree>
    <BinaryTree type="DecisionTree" boostWeight="1.0000000000000000e+00" itree="1650">
      <Node pos="s" depth="0" NCoef="0" IVar="2" Cut="1.3861964941024780e+00" cType="1" res="-3.0834812037028314e-07" rms="3.2206666469573975e-01" purity="5.9855979681015015e-01" nType="0">
        <Node pos="l" depth="1" NCoef="0" IVar="-1" Cut="0.0000000000000000e+00" cType="1" res="9.6825031505431980e-05" rms="3.1855922937393188e-01" purity="6.6170328855514526e-01" nType="-99"/>
        <Node pos="r" depth="1" NCoef="0" IVar="2" Cut="1.4106334447860718e+00" cType="1" res="-1.1829539434984326e-03" rms="3.4211236238479614e-01" purity="2.2436830401420593e-01" nType="0">
          <Node pos="l" depth="2" NCoef="0" IVar="-1" Cut="0.0000000000000000e+00" cType="1" res="-1.4958692714571953e-02" rms="3.4539538621902466e-01" purity="2.5555557012557983e-01" nType="-99"/>
          <Node pos="r" depth="2" NCoef="0" IVar="-1" Cut="0.0000000000000000e+00" cType="1" res="8.9671557361725718e-05" rms="3.4190994501113892e-01" purity="2.2321306169033051e-01" nType="-99"/>
        </Node>
      </Node>
    </BinaryTree>
    <BinaryTree type="DecisionTree" boostWeight="1.0000000000000000e+00" itree="1651">
      <Node pos="s" depth="0" NCoef="0" IVar="3" Cut="2.6560118794441223e-01" cType="1" res="-3.4134973248001188e-07" rms="3.2206407189369202e-01" purity="5.9855979681015015e-01" nType="0">
        <Node pos="l" depth="1" NCoef="0" IVar="-1" Cut="0.0000000000000000e+00" cType="1" res="2.5371895753778517e-04" rms="2.8296479582786560e-01" purity="6.0753571987152100e-01" nType="-99"/>
        <Node pos="r" depth="1" NCoef="0" IVar="3" Cut="2.6692408323287964e-01" cType="0" res="-4.8124755267053843e-04" rms="3.6183223128318787e-01" purity="5.8824014663696289e-01" nType="0">
          <Node pos="l" depth="2" NCoef="0" IVar="-1" Cut="0.0000000000000000e+00" cType="1" res="-1.0168271546717733e-04" rms="3.6191383004188538e-01" purity="5.9056651592254639e-01" nType="-99"/>
          <Node pos="r" depth="2" NCoef="0" IVar="-1" Cut="0.0000000000000000e+00" cType="1" res="-1.0779442265629768e-02" rms="3.5125079751014709e-01" purity="3.1553396582603455e-01" nType="-99"/>
        </Node>
      </Node>
    </BinaryTree>
    <BinaryTree type="DecisionTree" boostWeight="1.0000000000000000e+00" itree="1652">
      <Node pos="s" depth="0" NCoef="0" IVar="0" Cut="1.2493752874433994e-03" cType="1" res="-3.2966690355351602e-07" rms="3.2206284999847412e-01" purity="5.9855979681015015e-01" nType="0">
        <Node pos="l" depth="1" NCoef="0" IVar="-1" Cut="0.0000000000000000e+00" cType="1" res="-4.2586622294038534e-04" rms="2.7175393700599670e-01" purity="9.0791207551956177e-01" nType="-99"/>
        <Node pos="r" depth="1" NCoef="0" IVar="3" Cut="4.4237715005874634e-01" cType="0" res="3.1360017601400614e-04" rms="3.4443095326423645e-01" purity="4.4418039917945862e-01" nType="0">
          <Node pos="l" depth="2" NCoef="0" IVar="-1" Cut="0.0000000000000000e+00" cType="1" res="8.2072410732507706e-03" rms="4.0687146782875061e-01" purity="6.2162160873413086e-01" nType="-99"/>
          <Node pos="r" depth="2" NCoef="0" IVar="-1" Cut="0.0000000000000000e+00" cType="1" res="9.1614114353433251e-05" rms="3.4420990943908691e-01" purity="4.4361463189125061e-01" nType="-99"/>
        </Node>
      </Node>
    </BinaryTree>
    <BinaryTree type="DecisionTree" boostWeight="1.0000000000000000e+00" itree="1653">
      <Node pos="s" depth="0" NCoef="0" IVar="0" Cut="1.6116940975189209e-01" cType="1" res="-2.8460601697588572e-07" rms="3.2206207513809204e-01" purity="5.9855979681015015e-01" nType="0">
        <Node pos="l" depth="1" NCoef="0" IVar="-1" Cut="0.0000000000000000e+00" cType="1" res="1.5541269385721534e-04" rms="3.2179281115531921e-01" purity="8.4581202268600464e-01" nType="-99"/>
        <Node pos="r" depth="1" NCoef="0" IVar="1" Cut="4.1229385882616043e-02" cType="1" res="-6.0311361448839307e-04" rms="3.2255852222442627e-01" purity="1.4138005673885345e-01" nType="0">
          <Node pos="l" depth="2" NCoef="0" IVar="-1" Cut="0.0000000000000000e+00" cType="1" res="-2.2391919046640396e-03" rms="3.5586473345756531e-01" purity="1.8640072643756866e-01" nType="-99"/>
          <Node pos="r" depth="2" NCoef="0" IVar="-1" Cut="0.0000000000000000e+00" cType="1" res="8.7801576592028141e-04" rms="3.0714353919029236e-01" purity="1.2207449227571487e-01" nType="-99"/>
        </Node>
      </Node>
    </BinaryTree>
    <BinaryTree type="DecisionTree" boostWeight="1.0000000000000000e+00" itree="1654">
      <Node pos="s" depth="0" NCoef="0" IVar="1" Cut="4.4977512210607529e-02" cType="1" res="-3.4131971915485337e-07" rms="3.2206043601036072e-01" purity="5.9855979681015015e-01" nType="0">
        <Node pos="l" depth="1" NCoef="0" IVar="-1" Cut="0.0000000000000000e+00" cType="1" res="2.7995294658467174e-04" rms="3.0084919929504395e-01" purity="7.4969816207885742e-01" nType="-99"/>
        <Node pos="r" depth="1" NCoef="0" IVar="2" Cut="1.2700556516647339e+00" cType="1" res="-5.3471652790904045e-04" rms="3.4244608879089355e-01" purity="4.4359767436981201e-01" nType="0">
          <Node pos="l" depth="2" NCoef="0" IVar="-1" Cut="0.0000000000000000e+00" cType="1" res="3.7905696080997586e-04" rms="3.4578686952590942e-01" purity="5.2440190315246582e-01" nType="-99"/>
          <Node pos="r" depth="2" NCoef="0" IVar="-1" Cut="0.0000000000000000e+00" cType="1" res="-2.3513843771070242e-03" rms="3.3109614253044128e-01" purity="1.7597998678684235e-01" nType="-99"/>
        </Node>
      </Node>
    </BinaryTree>
    <BinaryTree type="DecisionTree" boostWeight="1.0000000000000000e+00" itree="1655">
      <Node pos="s" depth="0" NCoef="0" IVar="2" Cut="1.3412387371063232e+00" cType="1" res="-3.6864713592876797e-07" rms="3.2206052541732788e-01" purity="5.9855979681015015e-01" nType="0">
        <Node pos="l" depth="1" NCoef="0" IVar="-1" Cut="0.0000000000000000e+00" cType="1" res="-1.0430790280224755e-04" rms="3.1811133027076721e-01" purity="6.6577047109603882e-01" nType="-99"/>
        <Node pos="r" depth="1" NCoef="0" IVar="2" Cut="1.3535865545272827e+00" cType="1" res="1.1677941074594855e-03" rms="3.4284979104995728e-01" purity="2.3103533685207367e-01" nType="0">
          <Node pos="l" depth="2" NCoef="0" IVar="-1" Cut="0.0000000000000000e+00" cType="1" res="2.5549698621034622e-02" rms="3.3302891254425049e-01" purity="3.7583893537521362e-01" nType="-99"/>
          <Node pos="r" depth="2" NCoef="0" IVar="-1" Cut="0.0000000000000000e+00" cType="1" res="-1.5181161870714277e-05" rms="3.4291633963584900e-01" purity="2.2831970453262329e-01" nType="-99"/>
        </Node>
      </Node>
    </BinaryTree>
    <BinaryTree type="DecisionTree" boostWeight="1.0000000000000000e+00" itree="1656">
      <Node pos="s" depth="0" NCoef="0" IVar="1" Cut="4.4977512210607529e-02" cType="1" res="-4.2690902546382858e-07" rms="3.2205381989479065e-01" purity="5.9855979681015015e-01" nType="0">
        <Node pos="l" depth="1" NCoef="0" IVar="-1" Cut="0.0000000000000000e+00" cType="1" res="2.5196888600476086e-04" rms="3.0084267258644104e-01" purity="7.4969816207885742e-01" nType="-99"/>
        <Node pos="r" depth="1" NCoef="0" IVar="3" Cut="4.5323005318641663e-01" cType="0" res="-4.8145223991014063e-04" rms="3.4243953227996826e-01" purity="4.4359767436981201e-01" nType="0">
          <Node pos="l" depth="2" NCoef="0" IVar="-1" Cut="0.0000000000000000e+00" cType="1" res="4.9459426663815975e-03" rms="3.6387357115745544e-01" purity="8.0122697353363037e-01" nType="-99"/>
          <Node pos="r" depth="2" NCoef="0" IVar="-1" Cut="0.0000000000000000e+00" cType="1" res="-3.9924413431435823e-04" rms="3.4170940518379211e-01" purity="4.3195524811744690e-01" nType="-99"/>
        </Node>
      </Node>
    </BinaryTree>
    <BinaryTree type="DecisionTree" boostWeight="1.0000000000000000e+00" itree="1657">
      <Node pos="s" depth="0" NCoef="0" IVar="3" Cut="4.6998670697212219e-01" cType="0" res="-3.3232407758987392e-07" rms="3.2205310463905334e-01" purity="5.9855979681015015e-01" nType="0">
        <Node pos="l" depth="1" NCoef="0" IVar="-1" Cut="0.0000000000000000e+00" cType="1" res="-1.6172152245417237e-03" rms="3.1773126125335693e-01" purity="8.6805558204650879e-01" nType="-99"/>
        <Node pos="r" depth="1" NCoef="0" IVar="3" Cut="4.6080595254898071e-01" cType="0" res="8.0565187090542167e-05" rms="3.2216164469718933e-01" purity="5.9171921014785767e-01" nType="0">
          <Node pos="l" depth="2" NCoef="0" IVar="-1" Cut="0.0000000000000000e+00" cType="1" res="7.4217799119651318e-03" rms="3.0858322978019714e-01" purity="8.6892175674438477e-01" nType="-99"/>
          <Node pos="r" depth="2" NCoef="0" IVar="-1" Cut="0.0000000000000000e+00" cType="1" res="-3.2567328162258491e-05" rms="3.2228216528892517e-01" purity="5.8912718296051025e-01" nType="-99"/>
        </Node>
      </Node>
    </BinaryTree>
    <BinaryTree type="DecisionTree" boostWeight="1.0000000000000000e+00" itree="1658">
      <Node pos="s" depth="0" NCoef="0" IVar="0" Cut="1.2493752874433994e-03" cType="1" res="-2.2492822893127595e-07" rms="3.2205238938331604e-01" purity="5.9855979681015015e-01" nType="0">
        <Node pos="l" depth="1" NCoef="0" IVar="-1" Cut="0.0000000000000000e+00" cType="1" res="-4.6826348989270627e-04" rms="2.7174350619316101e-01" purity="9.0791207551956177e-01" nType="-99"/>
        <Node pos="r" depth="1" NCoef="0" IVar="3" Cut="4.3346023559570312e-01" cType="0" res="3.4486188087612391e-04" rms="3.4442028403282166e-01" purity="4.4418039917945862e-01" nType="0">
          <Node pos="l" depth="2" NCoef="0" IVar="-1" Cut="0.0000000000000000e+00" cType="1" res="-5.5315056815743446e-03" rms="4.0491700172424316e-01" purity="6.2500000000000000e-01" nType="-99"/>
          <Node pos="r" depth="2" NCoef="0" IVar="-1" Cut="0.0000000000000000e+00" cType="1" res="1.9776861881837249e-04" rms="3.4396085143089294e-01" purity="4.4292920827865601e-01" nType="-99"/>
        </Node>
      </Node>
    </BinaryTree>
    <BinaryTree type="DecisionTree" boostWeight="1.0000000000000000e+00" itree="1659">
      <Node pos="s" depth="0" NCoef="0" IVar="2" Cut="1.7608441114425659e+00" cType="1" res="-1.8524431766309135e-07" rms="3.2205104827880859e-01" purity="5.9855979681015015e-01" nType="0">
        <Node pos="l" depth="1" NCoef="0" IVar="-1" Cut="0.0000000000000000e+00" cType="1" res="-6.6054060880560428e-05" rms="3.2100343704223633e-01" purity="6.3296103477478027e-01" nType="-99"/>
        <Node pos="r" depth="1" NCoef="0" IVar="0" Cut="3.6356821656227112e-01" cType="1" res="1.5865983441472054e-03" rms="3.3387717604637146e-01" purity="2.0229555666446686e-01" nType="0">
          <Node pos="l" depth="2" NCoef="0" IVar="-1" Cut="0.0000000000000000e+00" cType="1" res="3.8069805596023798e-03" rms="4.3993735313415527e-01" purity="4.6562227606773376e-01" nType="-99"/>
          <Node pos="r" depth="2" NCoef="0" IVar="-1" Cut="0.0000000000000000e+00" cType="1" res="-1.9812269601970911e-03" rms="2.8335314989089966e-01" purity="1.0253874212503433e-01" nType="-99"/>
        </Node>
      </Node>
    </BinaryTree>
    <BinaryTree type="DecisionTree" boostWeight="1.0000000000000000e+00" itree="1660">
      <Node pos="s" depth="0" NCoef="0" IVar="2" Cut="2.6300268173217773e+00" cType="1" res="-2.0602578842954244e-07" rms="3.2204982638359070e-01" purity="5.9855979681015015e-01" nType="0">
        <Node pos="l" depth="1" NCoef="0" IVar="-1" Cut="0.0000000000000000e+00" cType="1" res="-3.0702169169671834e-05" rms="3.2184591889381409e-01" purity="6.0616320371627808e-01" nType="-99"/>
        <Node pos="r" depth="1" NCoef="0" IVar="1" Cut="8.9955024421215057e-02" cType="1" res="3.4780451096594334e-03" rms="3.3285614848136902e-01" purity="1.8802520632743835e-01" nType="0">
          <Node pos="l" depth="2" NCoef="0" IVar="-1" Cut="0.0000000000000000e+00" cType="1" res="7.0562865585088730e-03" rms="3.5840380191802979e-01" purity="2.5762712955474854e-01" nType="-99"/>
          <Node pos="r" depth="2" NCoef="0" IVar="-1" Cut="0.0000000000000000e+00" cType="1" res="-1.4363734517246485e-03" rms="3.2049590349197388e-01" purity="1.5677320957183838e-01" nType="-99"/>
        </Node>
      </Node>
    </BinaryTree>
    <BinaryTree type="DecisionTree" boostWeight="1.0000000000000000e+00" itree="1661">
      <Node pos="s" depth="0" NCoef="0" IVar="0" Cut="1.5004997253417969e+00" cType="1" res="-2.1510388137357950e-07" rms="3.2204857468605042e-01" purity="5.9855979681015015e-01" nType="0">
        <Node pos="l" depth="1" NCoef="0" IVar="-1" Cut="0.0000000000000000e+00" cType="1" res="-4.1033741581486538e-05" rms="3.2263812422752380e-01" purity="6.1443549394607544e-01" nType="-99"/>
        <Node pos="r" depth="1" NCoef="0" IVar="3" Cut="2.7140808105468750e-01" cType="0" res="2.5775677058845758e-03" rms="3.0395781993865967e-01" purity="1.2580834329128265e-01" nType="0">
          <Node pos="l" depth="2" NCoef="0" IVar="-1" Cut="0.0000000000000000e+00" cType="1" res="7.9115135595202446e-03" rms="4.0752643346786499e-01" purity="2.8787878155708313e-01" nType="-99"/>
          <Node pos="r" depth="2" NCoef="0" IVar="-1" Cut="0.0000000000000000e+00" cType="1" res="-1.1073683854192495e-03" rms="2.8057944774627686e-01" purity="9.6033401787281036e-02" nType="-99"/>
        </Node>
      </Node>
    </BinaryTree>
    <BinaryTree type="DecisionTree" boostWeight="1.0000000000000000e+00" itree="1662">
      <Node pos="s" depth="0" NCoef="0" IVar="3" Cut="2.6784995198249817e-01" cType="1" res="-2.3995875153559609e-07" rms="3.2204723358154297e-01" purity="5.9855979681015015e-01" nType="0">
        <Node pos="l" depth="1" NCoef="0" IVar="-1" Cut="0.0000000000000000e+00" cType="1" res="2.7124510961584747e-04" rms="2.8388041257858276e-01" purity="6.0393178462982178e-01" nType="-99"/>
        <Node pos="r" depth="1" NCoef="0" IVar="2" Cut="4.4492575526237488e-01" cType="1" res="-5.3274392848834395e-04" rms="3.6207580566406250e-01" purity="5.9219861030578613e-01" nType="0">
          <Node pos="l" depth="2" NCoef="0" IVar="-1" Cut="0.0000000000000000e+00" cType="1" res="1.4861745294183493e-03" rms="3.2329612970352173e-01" purity="8.3468484878540039e-01" nType="-99"/>
          <Node pos="r" depth="2" NCoef="0" IVar="-1" Cut="0.0000000000000000e+00" cType="1" res="-5.7555211242288351e-04" rms="3.7265351414680481e-01" purity="5.2124679088592529e-01" nType="-99"/>
        </Node>
      </Node>
    </BinaryTree>
    <BinaryTree type="DecisionTree" boostWeight="1.0000000000000000e+00" itree="1663">
      <Node pos="s" depth="0" NCoef="0" IVar="2" Cut="1.1052106618881226e+00" cType="1" res="-1.8841706150851678e-07" rms="3.2204675674438477e-01" purity="5.9855979681015015e-01" nType="0">
        <Node pos="l" depth="1" NCoef="0" IVar="-1" Cut="0.0000000000000000e+00" cType="1" res="-1.1969074694206938e-04" rms="3.1446075439453125e-01" purity="6.9274878501892090e-01" nType="-99"/>
        <Node pos="r" depth="1" NCoef="0" IVar="0" Cut="3.9980009198188782e-02" cType="1" res="8.4748369408771396e-04" rms="3.4753015637397766e-01" purity="2.6569670438766479e-01" nType="0">
          <Node pos="l" depth="2" NCoef="0" IVar="-1" Cut="0.0000000000000000e+00" cType="1" res="-7.4788625352084637e-03" rms="3.8714405894279480e-01" purity="7.8627145290374756e-01" nType="-99"/>
          <Node pos="r" depth="2" NCoef="0" IVar="-1" Cut="0.0000000000000000e+00" cType="1" res="8.6194503819569945e-04" rms="3.4501814842224121e-01" purity="2.3509994149208069e-01" nType="-99"/>
        </Node>
      </Node>
    </BinaryTree>
    <BinaryTree type="DecisionTree" boostWeight="1.0000000000000000e+00" itree="1664">
      <Node pos="s" depth="0" NCoef="0" IVar="2" Cut="2.6487591266632080e+00" cType="1" res="-7.8107518675096799e-08" rms="3.2204359769821167e-01" purity="5.9855979681015015e-01" nType="0">
        <Node pos="l" depth="1" NCoef="0" IVar="-1" Cut="0.0000000000000000e+00" cType="1" res="2.9343800633796491e-05" rms="3.2194024324417114e-01" purity="6.0597991943359375e-01" nType="-99"/>
        <Node pos="r" depth="1" NCoef="0" IVar="0" Cut="5.6596702337265015e-01" cType="1" res="-3.4777468536049128e-03" rms="3.2778337597846985e-01" purity="1.8142075836658478e-01" nType="0">
          <Node pos="l" depth="2" NCoef="0" IVar="-1" Cut="0.0000000000000000e+00" cType="1" res="-7.4461041949689388e-03" rms="3.7847059965133667e-01" purity="3.0932202935218811e-01" nType="-99"/>
          <Node pos="r" depth="2" NCoef="0" IVar="-1" Cut="0.0000000000000000e+00" cType="1" res="1.8887305632233620e-03" rms="3.0787989497184753e-01" purity="1.3696612417697906e-01" nType="-99"/>
        </Node>
      </Node>
    </BinaryTree>
    <BinaryTree type="DecisionTree" boostWeight="1.0000000000000000e+00" itree="1665">
      <Node pos="s" depth="0" NCoef="0" IVar="3" Cut="2.6784995198249817e-01" cType="1" res="-9.5708188041498943e-08" rms="3.2204285264015198e-01" purity="5.9855979681015015e-01" nType="0">
        <Node pos="l" depth="1" NCoef="0" IVar="-1" Cut="0.0000000000000000e+00" cType="1" res="2.4200438929256052e-04" rms="2.8387889266014099e-01" purity="6.0393178462982178e-01" nType="-99"/>
        <Node pos="r" depth="1" NCoef="0" IVar="1" Cut="4.4852572679519653e-01" cType="1" res="-4.7510891454294324e-04" rms="3.6206883192062378e-01" purity="5.9219861030578613e-01" nType="0">
          <Node pos="l" depth="2" NCoef="0" IVar="-1" Cut="0.0000000000000000e+00" cType="1" res="-4.0792700019665062e-04" rms="3.6185076832771301e-01" purity="6.2872010469436646e-01" nType="-99"/>
          <Node pos="r" depth="2" NCoef="0" IVar="-1" Cut="0.0000000000000000e+00" cType="1" res="2.1890066564083099e-03" rms="3.6431610584259033e-01" purity="2.0417070388793945e-01" nType="-99"/>
        </Node>
      </Node>
    </BinaryTree>
    <BinaryTree type="DecisionTree" boostWeight="1.0000000000000000e+00" itree="1666">
      <Node pos="s" depth="0" NCoef="0" IVar="1" Cut="2.6361820101737976e-01" cType="1" res="-1.0567273278638822e-07" rms="3.2204127311706543e-01" purity="5.9855979681015015e-01" nType="0">
        <Node pos="l" depth="1" NCoef="0" IVar="-1" Cut="0.0000000000000000e+00" cType="1" res="1.1087566963396966e-04" rms="3.1765112280845642e-01" purity="6.8005305528640747e-01" nType="-99"/>
        <Node pos="r" depth="1" NCoef="0" IVar="0" Cut="2.2488756105303764e-02" cType="1" res="-1.0413122363388538e-03" rms="3.4138289093971252e-01" purity="2.2617021203041077e-01" nType="0">
          <Node pos="l" depth="2" NCoef="0" IVar="-1" Cut="0.0000000000000000e+00" cType="1" res="-5.8025000616908073e-03" rms="4.4624227285385132e-01" purity="6.3082706928253174e-01" nType="-99"/>
          <Node pos="r" depth="2" NCoef="0" IVar="-1" Cut="0.0000000000000000e+00" cType="1" res="1.1253375560045242e-03" rms="3.2069763541221619e-01" purity="1.5947955846786499e-01" nType="-99"/>
        </Node>
      </Node>
    </BinaryTree>
    <BinaryTree type="DecisionTree" boostWeight="1.0000000000000000e+00" itree="1667">
      <Node pos="s" depth="0" NCoef="0" IVar="0" Cut="4.8725638538599014e-02" cType="1" res="-2.8746548252911452e-08" rms="3.2203668355941772e-01" purity="5.9855979681015015e-01" nType="0">
        <Node pos="l" depth="1" NCoef="0" IVar="-1" Cut="0.0000000000000000e+00" cType="1" res="3.2943813130259514e-04" rms="2.7651754021644592e-01" purity="9.0368217229843140e-01" nType="-99"/>
        <Node pos="r" depth="1" NCoef="0" IVar="2" Cut="5.1326733827590942e-01" cType="1" res="-4.7179116518236697e-04" rms="3.5887041687965393e-01" purity="3.1768158078193665e-01" nType="0">
          <Node pos="l" depth="2" NCoef="0" IVar="-1" Cut="0.0000000000000000e+00" cType="1" res="-2.2477379534393549e-03" rms="3.7545663118362427e-01" purity="4.3526607751846313e-01" nType="-99"/>
          <Node pos="r" depth="2" NCoef="0" IVar="-1" Cut="0.0000000000000000e+00" cType="1" res="4.9288087757304311e-04" rms="3.5371986031532288e-01" purity="2.8237539529800415e-01" nType="-99"/>
        </Node>
      </Node>
    </BinaryTree>
    <BinaryTree type="DecisionTree" boostWeight="1.0000000000000000e+00" itree="1668">
      <Node pos="s" depth="0" NCoef="0" IVar="2" Cut="1.7158864736557007e+00" cType="1" res="-2.3097685541983992e-08" rms="3.2203480601310730e-01" purity="5.9855979681015015e-01" nType="0">
        <Node pos="l" depth="1" NCoef="0" IVar="-1" Cut="0.0000000000000000e+00" cType="1" res="7.0986177888698876e-05" rms="3.2093223929405212e-01" purity="6.3621157407760620e-01" nType="-99"/>
        <Node pos="r" depth="1" NCoef="0" IVar="2" Cut="1.7275501489639282e+00" cType="0" res="-1.5666797989979386e-03" rms="3.3346459269523621e-01" purity="2.0048630237579346e-01" nType="0">
          <Node pos="l" depth="2" NCoef="0" IVar="-1" Cut="0.0000000000000000e+00" cType="1" res="-5.5364202125929296e-05" rms="3.3442667126655579e-01" purity="2.0235134661197662e-01" nType="-99"/>
          <Node pos="r" depth="2" NCoef="0" IVar="-1" Cut="0.0000000000000000e+00" cType="1" res="-2.8653619810938835e-02" rms="2.8109917044639587e-01" purity="1.1881188303232193e-01" nType="-99"/>
        </Node>
      </Node>
    </BinaryTree>
    <BinaryTree type="DecisionTree" boostWeight="1.0000000000000000e+00" itree="1669">
      <Node pos="s" depth="0" NCoef="0" IVar="1" Cut="1.3018491268157959e+00" cType="1" res="-1.7640400074014906e-07" rms="3.2203191518783569e-01" purity="5.9855979681015015e-01" nType="0">
        <Node pos="l" depth="1" NCoef="0" IVar="-1" Cut="0.0000000000000000e+00" cType="1" res="2.5165538318105973e-05" rms="3.2211789488792419e-01" purity="6.0432100296020508e-01" nType="-99"/>
        <Node pos="r" depth="1" NCoef="0" IVar="2" Cut="7.7421963214874268e-01" cType="1" res="-4.2162095196545124e-03" rms="3.1512153148651123e-01" purity="1.4241960644721985e-01" nType="0">
          <Node pos="l" depth="2" NCoef="0" IVar="-1" Cut="0.0000000000000000e+00" cType="1" res="1.0909067466855049e-02" rms="3.4202393889427185e-01" purity="1.5841583907604218e-01" nType="-99"/>
          <Node pos="r" depth="2" NCoef="0" IVar="-1" Cut="0.0000000000000000e+00" cType="1" res="-7.2476165369153023e-03" rms="3.0146345496177673e-01" purity="1.3525499403476715e-01" nType="-99"/>
        </Node>
      </Node>
    </BinaryTree>
    <BinaryTree type="DecisionTree" boostWeight="1.0000000000000000e+00" itree="1670">
      <Node pos="s" depth="0" NCoef="0" IVar="3" Cut="2.2312499582767487e-01" cType="1" res="-2.8150336106591567e-07" rms="3.2203108072280884e-01" purity="5.9855979681015015e-01" nType="0">
        <Node pos="l" depth="1" NCoef="0" IVar="-1" Cut="0.0000000000000000e+00" cType="1" res="3.5493186442181468e-04" rms="2.7270480990409851e-01" purity="6.8266052007675171e-01" nType="-99"/>
        <Node pos="r" depth="1" NCoef="0" IVar="3" Cut="2.2630822658538818e-01" cType="0" res="-3.9634254062548280e-04" rms="3.5367292165756226e-01" purity="5.3726512193679810e-01" nType="0">
          <Node pos="l" depth="2" NCoef="0" IVar="-1" Cut="0.0000000000000000e+00" cType="1" res="3.3005777368089184e-05" rms="3.5443773865699768e-01" purity="5.4101318120956421e-01" nType="-99"/>
          <Node pos="r" depth="2" NCoef="0" IVar="-1" Cut="0.0000000000000000e+00" cType="1" res="-1.9993130117654800e-02" rms="2.8421288728713989e-01" purity="2.4074074625968933e-01" nType="-99"/>
        </Node>
      </Node>
    </BinaryTree>
    <BinaryTree type="DecisionTree" boostWeight="1.0000000000000000e+00" itree="1671">
      <Node pos="s" depth="0" NCoef="0" IVar="3" Cut="2.6784995198249817e-01" cType="1" res="-3.9221572478709277e-07" rms="3.2202616333961487e-01" purity="5.9855979681015015e-01" nType="0">
        <Node pos="l" depth="1" NCoef="0" IVar="-1" Cut="0.0000000000000000e+00" cType="1" res="2.6108269230462611e-04" rms="2.8385564684867859e-01" purity="6.0393178462982178e-01" nType="-99"/>
        <Node pos="r" depth="1" NCoef="0" IVar="3" Cut="2.8306087851524353e-01" cType="0" res="-5.1312608411535621e-04" rms="3.6205789446830750e-01" purity="5.9219861030578613e-01" nType="0">
          <Node pos="l" depth="2" NCoef="0" IVar="-1" Cut="0.0000000000000000e+00" cType="1" res="5.4560514399781823e-05" rms="3.6580976843833923e-01" purity="6.1644852161407471e-01" nType="-99"/>
          <Node pos="r" depth="2" NCoef="0" IVar="-1" Cut="0.0000000000000000e+00" cType="1" res="-2.7650790289044380e-03" rms="3.2676288485527039e-01" purity="3.7665015459060669e-01" nType="-99"/>
        </Node>
      </Node>
    </BinaryTree>
    <BinaryTree type="DecisionTree" boostWeight="1.0000000000000000e+00" itree="1672">
      <Node pos="s" depth="0" NCoef="0" IVar="3" Cut="2.7859392762184143e-01" cType="0" res="-3.6489782928583736e-07" rms="3.2202631235122681e-01" purity="5.9855979681015015e-01" nType="0">
        <Node pos="l" depth="1" NCoef="0" IVar="-1" Cut="0.0000000000000000e+00" cType="1" res="-1.9165240519214422e-04" rms="3.6472398042678833e-01" purity="6.0879129171371460e-01" nType="-99"/>
        <Node pos="r" depth="1" NCoef="0" IVar="0" Cut="1.6991503536701202e-01" cType="1" res="3.7875238922424614e-04" rms="2.8634038567543030e-01" purity="5.9098464250564575e-01" nType="0">
          <Node pos="l" depth="2" NCoef="0" IVar="-1" Cut="0.0000000000000000e+00" cType="1" res="1.1792936129495502e-03" rms="2.8884127736091614e-01" purity="8.7828373908996582e-01" nType="-99"/>
          <Node pos="r" depth="2" NCoef="0" IVar="-1" Cut="0.0000000000000000e+00" cType="1" res="-1.4612238155677915e-03" rms="2.8198197484016418e-01" purity="9.8764315247535706e-02" nType="-99"/>
        </Node>
      </Node>
    </BinaryTree>
    <BinaryTree type="DecisionTree" boostWeight="1.0000000000000000e+00" itree="1673">
      <Node pos="s" depth="0" NCoef="0" IVar="0" Cut="1.2493752874433994e-03" cType="1" res="-3.3005872523972357e-07" rms="3.2202625274658203e-01" purity="5.9855979681015015e-01" nType="0">
        <Node pos="l" depth="1" NCoef="0" IVar="-1" Cut="0.0000000000000000e+00" cType="1" res="-4.6820461284369230e-04" rms="2.7174052596092224e-01" purity="9.0791207551956177e-01" nType="-99"/>
        <Node pos="r" depth="1" NCoef="0" IVar="3" Cut="4.0200340747833252e-01" cType="0" res="3.4431632957421243e-04" rms="3.4438484907150269e-01" purity="4.4418039917945862e-01" nType="0">
          <Node pos="l" depth="2" NCoef="0" IVar="-1" Cut="0.0000000000000000e+00" cType="1" res="2.5206787977367640e-03" rms="3.9650458097457886e-01" purity="6.8896794319152832e-01" nType="-99"/>
          <Node pos="r" depth="2" NCoef="0" IVar="-1" Cut="0.0000000000000000e+00" cType="1" res="6.3382804000866599e-06" rms="3.4202289581298828e-01" purity="4.3392005562782288e-01" nType="-99"/>
        </Node>
      </Node>
    </BinaryTree>
    <BinaryTree type="DecisionTree" boostWeight="1.0000000000000000e+00" itree="1674">
      <Node pos="s" depth="0" NCoef="0" IVar="2" Cut="3.5591530799865723e-01" cType="1" res="-2.7502412081048533e-07" rms="3.2202619314193726e-01" purity="5.9855979681015015e-01" nType="0">
        <Node pos="l" depth="1" NCoef="0" IVar="-1" Cut="0.0000000000000000e+00" cType="1" res="-3.5939289955422282e-04" rms="2.8133371472358704e-01" purity="8.3244299888610840e-01" nType="-99"/>
        <Node pos="r" depth="1" NCoef="0" IVar="0" Cut="1.8740630149841309e-01" cType="1" res="3.6274918238632381e-04" rms="3.4551614522933960e-01" purity="4.4918462634086609e-01" nType="0">
          <Node pos="l" depth="2" NCoef="0" IVar="-1" Cut="0.0000000000000000e+00" cType="1" res="7.8137574018910527e-04" rms="3.7571790814399719e-01" purity="7.6515668630599976e-01" nType="-99"/>
          <Node pos="r" depth="2" NCoef="0" IVar="-1" Cut="0.0000000000000000e+00" cType="1" res="-7.7954865992069244e-04" rms="3.1148189306259155e-01" purity="1.2493658065795898e-01" nType="-99"/>
        </Node>
      </Node>
    </BinaryTree>
    <BinaryTree type="DecisionTree" boostWeight="1.0000000000000000e+00" itree="1675">
      <Node pos="s" depth="0" NCoef="0" IVar="3" Cut="2.7859392762184143e-01" cType="0" res="-2.4555535560466524e-07" rms="3.2202646136283875e-01" purity="5.9855979681015015e-01" nType="0">
        <Node pos="l" depth="1" NCoef="0" IVar="-1" Cut="0.0000000000000000e+00" cType="1" res="-2.0991852215956897e-04" rms="3.6472553014755249e-01" purity="6.0879129171371460e-01" nType="-99"/>
        <Node pos="r" depth="1" NCoef="0" IVar="3" Cut="2.7636063098907471e-01" cType="1" res="4.1487658745609224e-04" rms="2.8633910417556763e-01" purity="5.9098464250564575e-01" nType="0">
          <Node pos="l" depth="2" NCoef="0" IVar="-1" Cut="0.0000000000000000e+00" cType="1" res="1.1881079990416765e-04" rms="2.8579843044281006e-01" purity="5.9303343296051025e-01" nType="-99"/>
          <Node pos="r" depth="2" NCoef="0" IVar="-1" Cut="0.0000000000000000e+00" cType="1" res="7.9036997631192207e-03" rms="3.2968631386756897e-01" purity="4.1176471114158630e-01" nType="-99"/>
        </Node>
      </Node>
    </BinaryTree>
    <BinaryTree type="DecisionTree" boostWeight="1.0000000000000000e+00" itree="1676">
      <Node pos="s" depth="0" NCoef="0" IVar="0" Cut="2.3213393688201904e+00" cType="1" res="-2.3484594180445129e-07" rms="3.2202515006065369e-01" purity="5.9855979681015015e-01" nType="0">
        <Node pos="l" depth="1" NCoef="0" IVar="-1" Cut="0.0000000000000000e+00" cType="1" res="-2.2969366909819655e-05" rms="3.2174456119537354e-01" purity="6.0334169864654541e-01" nType="-99"/>
        <Node pos="r" depth="1" NCoef="0" IVar="1" Cut="3.9855071902275085e-01" cType="0" res="4.2622871696949005e-03" rms="3.4597095847129822e-01" purity="1.7465753853321075e-01" nType="0">
          <Node pos="l" depth="2" NCoef="0" IVar="-1" Cut="0.0000000000000000e+00" cType="1" res="-2.6631760410964489e-03" rms="3.5240179300308228e-01" purity="1.8110236525535583e-01" nType="-99"/>
          <Node pos="r" depth="2" NCoef="0" IVar="-1" Cut="0.0000000000000000e+00" cType="1" res="1.2610780075192451e-02" rms="3.3247256278991699e-01" purity="1.6256158053874969e-01" nType="-99"/>
        </Node>
      </Node>
    </BinaryTree>
    <BinaryTree type="DecisionTree" boostWeight="1.0000000000000000e+00" itree="1677">
      <Node pos="s" depth="0" NCoef="0" IVar="1" Cut="1.5704647302627563e+00" cType="1" res="-2.9987197081027261e-07" rms="3.2202407717704773e-01" purity="5.9855979681015015e-01" nType="0">
        <Node pos="l" depth="1" NCoef="0" IVar="-1" Cut="0.0000000000000000e+00" cType="1" res="-1.9505134332575835e-05" rms="3.2185158133506775e-01" purity="6.0177844762802124e-01" nType="-99"/>
        <Node pos="r" depth="1" NCoef="0" IVar="0" Cut="6.1844080686569214e-01" cType="0" res="5.3194374777376652e-03" rms="3.4375947713851929e-01" purity="1.7839196324348450e-01" nType="0">
          <Node pos="l" depth="2" NCoef="0" IVar="-1" Cut="0.0000000000000000e+00" cType="1" res="5.2367788739502430e-03" rms="3.5921975970268250e-01" purity="2.0300751924514771e-01" nType="-99"/>
          <Node pos="r" depth="2" NCoef="0" IVar="-1" Cut="0.0000000000000000e+00" cType="1" res="-5.8731492608785629e-03" rms="3.0944502353668213e-01" purity="1.2878787517547607e-01" nType="-99"/>
        </Node>
      </Node>
    </BinaryTree>
    <BinaryTree type="DecisionTree" boostWeight="1.0000000000000000e+00" itree="1678">
      <Node pos="s" depth="0" NCoef="0" IVar="0" Cut="1.2493752874433994e-03" cType="1" res="-3.0194217970347381e-07" rms="3.2202297449111938e-01" purity="5.9855979681015015e-01" nType="0">
        <Node pos="l" depth="1" NCoef="0" IVar="-1" Cut="0.0000000000000000e+00" cType="1" res="-4.2280339403077960e-04" rms="2.7173930406570435e-01" purity="9.0791207551956177e-01" nType="-99"/>
        <Node pos="r" depth="1" NCoef="0" IVar="0" Cut="1.5932820737361908e-02" cType="1" res="3.1113286968320608e-04" rms="3.4438079595565796e-01" purity="4.4418039917945862e-01" nType="0">
          <Node pos="l" depth="2" NCoef="0" IVar="-1" Cut="0.0000000000000000e+00" cType="1" res="9.8646339029073715e-03" rms="1.8243563175201416e-01" purity="9.5916664600372314e-01" nType="-99"/>
          <Node pos="r" depth="2" NCoef="0" IVar="-1" Cut="0.0000000000000000e+00" cType="1" res="8.2167116488562897e-06" rms="3.4875687956809998e-01" purity="4.2585620284080505e-01" nType="-99"/>
        </Node>
      </Node>
    </BinaryTree>
    <BinaryTree type="DecisionTree" boostWeight="1.0000000000000000e+00" itree="1679">
      <Node pos="s" depth="0" NCoef="0" IVar="3" Cut="2.7259728312492371e-01" cType="0" res="-1.1035263725034383e-07" rms="3.2202279567718506e-01" purity="5.9855979681015015e-01" nType="0">
        <Node pos="l" depth="1" NCoef="0" IVar="-1" Cut="0.0000000000000000e+00" cType="1" res="-1.8996247672475874e-04" rms="3.6316984891891479e-01" purity="5.9957766532897949e-01" nType="-99"/>
        <Node pos="r" depth="1" NCoef="0" IVar="3" Cut="2.5624132156372070e-01" cType="1" res="4.0144677041098475e-04" rms="2.8505671024322510e-01" purity="5.9774965047836304e-01" nType="0">
          <Node pos="l" depth="2" NCoef="0" IVar="-1" Cut="0.0000000000000000e+00" cType="1" res="-1.8741683743428439e-04" rms="2.7973672747612000e-01" purity="6.2042009830474854e-01" nType="-99"/>
          <Node pos="r" depth="2" NCoef="0" IVar="-1" Cut="0.0000000000000000e+00" cType="1" res="3.3885040320456028e-03" rms="3.3567443490028381e-01" purity="3.6023622751235962e-01" nType="-99"/>
        </Node>
      </Node>
    </BinaryTree>
    <BinaryTree type="DecisionTree" boostWeight="1.0000000000000000e+00" itree="1680">
      <Node pos="s" depth="0" NCoef="0" IVar="3" Cut="4.2751049995422363e-01" cType="0" res="-1.2362363577267388e-07" rms="3.2202091813087463e-01" purity="5.9855979681015015e-01" nType="0">
        <Node pos="l" depth="1" NCoef="0" IVar="-1" Cut="0.0000000000000000e+00" cType="1" res="6.8158435169607401e-04" rms="3.3353385329246521e-01" purity="8.4197926521301270e-01" nType="-99"/>
        <Node pos="r" depth="1" NCoef="0" IVar="3" Cut="4.2622524499893188e-01" cType="0" res="-1.1950135376537219e-04" rms="3.2111284136772156e-01" purity="5.7973045110702515e-01" nType="0">
          <Node pos="l" depth="2" NCoef="0" IVar="-1" Cut="0.0000000000000000e+00" cType="1" res="-1.3816333375871181e-02" rms="4.0631195902824402e-01" purity="6.8000000715255737e-01" nType="-99"/>
          <Node pos="r" depth="2" NCoef="0" IVar="-1" Cut="0.0000000000000000e+00" cType="1" res="-1.4025231394043658e-05" rms="3.2090762257575989e-01" purity="5.7952368259429932e-01" nType="-99"/>
        </Node>
      </Node>
    </BinaryTree>
    <BinaryTree type="DecisionTree" boostWeight="1.0000000000000000e+00" itree="1681">
      <Node pos="s" depth="0" NCoef="0" IVar="2" Cut="1.1052106618881226e+00" cType="1" res="-6.2538184408822417e-08" rms="3.2201960682868958e-01" purity="5.9855979681015015e-01" nType="0">
        <Node pos="l" depth="1" NCoef="0" IVar="-1" Cut="0.0000000000000000e+00" cType="1" res="-1.1457328946562484e-04" rms="3.1444010138511658e-01" purity="6.9274878501892090e-01" nType="-99"/>
        <Node pos="r" depth="1" NCoef="0" IVar="2" Cut="1.1339648962020874e+00" cType="1" res="8.1121880793944001e-04" rms="3.4748226404190063e-01" purity="2.6569670438766479e-01" nType="0">
          <Node pos="l" depth="2" NCoef="0" IVar="-1" Cut="0.0000000000000000e+00" cType="1" res="1.0392826050519943e-02" rms="3.5629421472549438e-01" purity="4.0084388852119446e-01" nType="-99"/>
          <Node pos="r" depth="2" NCoef="0" IVar="-1" Cut="0.0000000000000000e+00" cType="1" res="-1.0887893586186692e-04" rms="3.4705907106399536e-01" purity="2.5991150736808777e-01" nType="-99"/>
        </Node>
      </Node>
    </BinaryTree>
    <BinaryTree type="DecisionTree" boostWeight="1.0000000000000000e+00" itree="1682">
      <Node pos="s" depth="0" NCoef="0" IVar="3" Cut="2.6784995198249817e-01" cType="1" res="-8.1939241169948218e-08" rms="3.2201653718948364e-01" purity="5.9855979681015015e-01" nType="0">
        <Node pos="l" depth="1" NCoef="0" IVar="-1" Cut="0.0000000000000000e+00" cType="1" res="2.4531013332307339e-04" rms="2.8384858369827271e-01" purity="6.0393178462982178e-01" nType="-99"/>
        <Node pos="r" depth="1" NCoef="0" IVar="0" Cut="1.2243878096342087e-01" cType="1" res="-4.8097138642333448e-04" rms="3.6204585433006287e-01" purity="5.9219861030578613e-01" nType="0">
          <Node pos="l" depth="2" NCoef="0" IVar="-1" Cut="0.0000000000000000e+00" cType="1" res="-8.5953320376574993e-04" rms="3.4864917397499084e-01" purity="8.2409703731536865e-01" nType="-99"/>
          <Node pos="r" depth="2" NCoef="0" IVar="-1" Cut="0.0000000000000000e+00" cType="1" res="6.6988379694521427e-04" rms="3.8166153430938721e-01" purity="2.3663073778152466e-01" nType="-99"/>
        </Node>
      </Node>
    </BinaryTree>
    <BinaryTree type="DecisionTree" boostWeight="1.0000000000000000e+00" itree="1683">
      <Node pos="s" depth="0" NCoef="0" IVar="3" Cut="4.1801580786705017e-01" cType="0" res="-5.5373028828853421e-08" rms="3.2201451063156128e-01" purity="5.9855979681015015e-01" nType="0">
        <Node pos="l" depth="1" NCoef="0" IVar="-1" Cut="0.0000000000000000e+00" cType="1" res="6.4884312450885773e-04" rms="3.3754989504814148e-01" purity="8.3137863874435425e-01" nType="-99"/>
        <Node pos="r" depth="1" NCoef="0" IVar="3" Cut="4.1466757655143738e-01" cType="0" res="-1.4281523181125522e-04" rms="3.2050758600234985e-01" purity="5.7656526565551758e-01" nType="0">
          <Node pos="l" depth="2" NCoef="0" IVar="-1" Cut="0.0000000000000000e+00" cType="1" res="-9.1784289106726646e-03" rms="3.7754625082015991e-01" purity="7.3839664459228516e-01" nType="-99"/>
          <Node pos="r" depth="2" NCoef="0" IVar="-1" Cut="0.0000000000000000e+00" cType="1" res="-7.3344749580428470e-06" rms="3.2019302248954773e-01" purity="5.7575947046279907e-01" nType="-99"/>
        </Node>
      </Node>
    </BinaryTree>
    <BinaryTree type="DecisionTree" boostWeight="1.0000000000000000e+00" itree="1684">
      <Node pos="s" depth="0" NCoef="0" IVar="3" Cut="4.1251888871192932e-01" cType="0" res="-4.9022780279628364e-10" rms="3.2201287150382996e-01" purity="5.9855979681015015e-01" nType="0">
        <Node pos="l" depth="1" NCoef="0" IVar="-1" Cut="0.0000000000000000e+00" cType="1" res="5.8624311350286007e-04" rms="3.3965629339218140e-01" purity="8.2630831003189087e-01" nType="-99"/>
        <Node pos="r" depth="1" NCoef="0" IVar="3" Cut="4.1106268763542175e-01" cType="0" res="-1.4331749116536230e-04" rms="3.2013067603111267e-01" purity="5.7498472929000854e-01" nType="0">
          <Node pos="l" depth="2" NCoef="0" IVar="-1" Cut="0.0000000000000000e+00" cType="1" res="-1.3049524277448654e-02" rms="3.9456653594970703e-01" purity="6.6972476243972778e-01" nType="-99"/>
          <Node pos="r" depth="2" NCoef="0" IVar="-1" Cut="0.0000000000000000e+00" cType="1" res="-2.3967273591551930e-05" rms="3.1993335485458374e-01" purity="5.7476657629013062e-01" nType="-99"/>
        </Node>
      </Node>
    </BinaryTree>
    <BinaryTree type="DecisionTree" boostWeight="1.0000000000000000e+00" itree="1685">
      <Node pos="s" depth="0" NCoef="0" IVar="2" Cut="2.6487591266632080e+00" cType="1" res="4.2743142358858677e-08" rms="3.2201144099235535e-01" purity="5.9855979681015015e-01" nType="0">
        <Node pos="l" depth="1" NCoef="0" IVar="-1" Cut="0.0000000000000000e+00" cType="1" res="2.7291391234030016e-05" rms="3.2190835475921631e-01" purity="6.0597991943359375e-01" nType="-99"/>
        <Node pos="r" depth="1" NCoef="0" IVar="1" Cut="1.0607196092605591e+00" cType="1" res="-3.2266625203192234e-03" rms="3.2773795723915100e-01" purity="1.8142075836658478e-01" nType="0">
          <Node pos="l" depth="2" NCoef="0" IVar="-1" Cut="0.0000000000000000e+00" cType="1" res="3.5658013075590134e-04" rms="3.2635203003883362e-01" purity="1.8349753320217133e-01" nType="-99"/>
          <Node pos="r" depth="2" NCoef="0" IVar="-1" Cut="0.0000000000000000e+00" cType="1" res="-1.2595270760357380e-02" rms="3.3675956726074219e-01" purity="1.6504853963851929e-01" nType="-99"/>
        </Node>
      </Node>
    </BinaryTree>
    <BinaryTree type="DecisionTree" boostWeight="1.0000000000000000e+00" itree="1686">
      <Node pos="s" depth="0" NCoef="0" IVar="1" Cut="2.1589205265045166e+00" cType="1" res="-2.3244639546504686e-09" rms="3.2201078534126282e-01" purity="5.9855979681015015e-01" nType="0">
        <Node pos="l" depth="1" NCoef="0" IVar="1" Cut="1.8215161561965942e+00" cType="1" res="-2.3376385797746480e-05" rms="3.2182839512825012e-01" purity="5.9953266382217407e-01" nType="0">
          <Node pos="l" depth="2" NCoef="0" IVar="-1" Cut="0.0000000000000000e+00" cType="1" res="6.3370612224389333e-06" rms="3.2181295752525330e-01" purity="6.0055667161941528e-01" nType="-99"/>
          <Node pos="r" depth="2" NCoef="0" IVar="-1" Cut="0.0000000000000000e+00" cType="1" res="-6.3756722956895828e-03" rms="3.2811984419822693e-01" purity="1.5126051008701324e-01" nType="-99"/>
        </Node>
        <Node pos="r" depth="1" NCoef="0" IVar="-1" Cut="0.0000000000000000e+00" cType="1" res="2.6783510111272335e-03" rms="3.8393872976303101e-01" purity="2.3571428656578064e-01" nType="-99"/>
      </Node>
    </BinaryTree>
    <BinaryTree type="DecisionTree" boostWeight="1.0000000000000000e+00" itree="1687">
      <Node pos="s" depth="0" NCoef="0" IVar="1" Cut="1.7341328859329224e+00" cType="1" res="-1.8575308402546398e-08" rms="3.2201060652732849e-01" purity="5.9855979681015015e-01" nType="0">
        <Node pos="l" depth="1" NCoef="0" IVar="-1" Cut="0.0000000000000000e+00" cType="1" res="-1.7027236026478931e-05" rms="3.2178029417991638e-01" purity="6.0092604160308838e-01" nType="-99"/>
        <Node pos="r" depth="1" NCoef="0" IVar="3" Cut="2.3375508189201355e-01" cType="1" res="6.0938741080462933e-03" rms="3.5898855328559875e-01" purity="1.9607843458652496e-01" nType="0">
          <Node pos="l" depth="2" NCoef="0" IVar="-1" Cut="0.0000000000000000e+00" cType="1" res="7.0040025748312473e-03" rms="3.7030470371246338e-01" purity="2.1232876181602478e-01" nType="-99"/>
          <Node pos="r" depth="2" NCoef="0" IVar="-1" Cut="0.0000000000000000e+00" cType="1" res="-2.3988506291061640e-03" rms="3.4785348176956177e-01" purity="1.8125000596046448e-01" nType="-99"/>
        </Node>
      </Node>
    </BinaryTree>
    <BinaryTree type="DecisionTree" boostWeight="1.0000000000000000e+00" itree="1688">
      <Node pos="s" depth="0" NCoef="0" IVar="2" Cut="2.6300268173217773e+00" cType="1" res="-3.9878123914149910e-08" rms="3.2200983166694641e-01" purity="5.9855979681015015e-01" nType="0">
        <Node pos="l" depth="1" NCoef="0" IVar="-1" Cut="0.0000000000000000e+00" cType="1" res="-2.8928247047588229e-05" rms="3.2180878520011902e-01" purity="6.0616320371627808e-01" nType="-99"/>
        <Node pos="r" depth="1" NCoef="0" IVar="1" Cut="2.7486255764961243e-01" cType="1" res="3.2848659902811050e-03" rms="3.3266708254814148e-01" purity="1.8802520632743835e-01" nType="0">
          <Node pos="l" depth="2" NCoef="0" IVar="-1" Cut="0.0000000000000000e+00" cType="1" res="-2.4622136261314154e-03" rms="3.3025220036506653e-01" purity="2.0784313976764679e-01" nType="-99"/>
          <Node pos="r" depth="2" NCoef="0" IVar="-1" Cut="0.0000000000000000e+00" cType="1" res="6.2572578899562359e-03" rms="3.3510527014732361e-01" purity="1.6515837609767914e-01" nType="-99"/>
        </Node>
      </Node>
    </BinaryTree>
    <BinaryTree type="DecisionTree" boostWeight="1.0000000000000000e+00" itree="1689">
      <Node pos="s" depth="0" NCoef="0" IVar="2" Cut="2.6487591266632080e+00" cType="1" res="-8.4189537119527813e-08" rms="3.2200884819030762e-01" purity="5.9855979681015015e-01" nType="0">
        <Node pos="l" depth="1" NCoef="0" IVar="-1" Cut="0.0000000000000000e+00" cType="1" res="2.7365365895093419e-05" rms="3.2190731167793274e-01" purity="6.0597991943359375e-01" nType="-99"/>
        <Node pos="r" depth="1" NCoef="0" IVar="2" Cut="2.7496106624603271e+00" cType="0" res="-3.2427194528281689e-03" rms="3.2764959335327148e-01" purity="1.8142075836658478e-01" nType="0">
          <Node pos="l" depth="2" NCoef="0" IVar="-1" Cut="0.0000000000000000e+00" cType="1" res="6.8463885691016912e-04" rms="3.3017238974571228e-01" purity="1.8547341227531433e-01" nType="-99"/>
          <Node pos="r" depth="2" NCoef="0" IVar="-1" Cut="0.0000000000000000e+00" cType="1" res="-1.2682218104600906e-02" rms="3.1250399351119995e-01" purity="1.5972222387790680e-01" nType="-99"/>
        </Node>
      </Node>
    </BinaryTree>
    <BinaryTree type="DecisionTree" boostWeight="1.0000000000000000e+00" itree="1690">
      <Node pos="s" depth="0" NCoef="0" IVar="2" Cut="2.6300268173217773e+00" cType="1" res="-1.2521796577402711e-07" rms="3.2200801372528076e-01" purity="5.9855979681015015e-01" nType="0">
        <Node pos="l" depth="1" NCoef="0" IVar="-1" Cut="0.0000000000000000e+00" cType="1" res="-2.8771859433618374e-05" rms="3.2180878520011902e-01" purity="6.0616320371627808e-01" nType="-99"/>
        <Node pos="r" depth="1" NCoef="0" IVar="2" Cut="2.7026529312133789e+00" cType="1" res="3.2624045852571726e-03" rms="3.3257141709327698e-01" purity="1.8802520632743835e-01" nType="0">
          <Node pos="l" depth="2" NCoef="0" IVar="-1" Cut="0.0000000000000000e+00" cType="1" res="1.4577066525816917e-02" rms="3.4033477306365967e-01" purity="1.9469027221202850e-01" nType="-99"/>
          <Node pos="r" depth="2" NCoef="0" IVar="-1" Cut="0.0000000000000000e+00" cType="1" res="-2.2213884221855551e-04" rms="3.3132866024971008e-01" purity="1.8712753057479858e-01" nType="-99"/>
        </Node>
      </Node>
    </BinaryTree>
    <BinaryTree type="DecisionTree" boostWeight="1.0000000000000000e+00" itree="1691">
      <Node pos="s" depth="0" NCoef="0" IVar="3" Cut="4.0727183222770691e-01" cType="0" res="-1.6438795569229114e-07" rms="3.2200703024864197e-01" purity="5.9855979681015015e-01" nType="0">
        <Node pos="l" depth="1" NCoef="0" IVar="-1" Cut="0.0000000000000000e+00" cType="1" res="5.3233827929943800e-04" rms="3.4333273768424988e-01" purity="8.2049363851547241e-01" nType="-99"/>
        <Node pos="r" depth="1" NCoef="0" IVar="3" Cut="4.0600001811981201e-01" cType="0" res="-1.4568011101800948e-04" rms="3.1949022412300110e-01" purity="5.7330977916717529e-01" nType="0">
          <Node pos="l" depth="2" NCoef="0" IVar="-1" Cut="0.0000000000000000e+00" cType="1" res="-1.7958993092179298e-02" rms="4.5155772566795349e-01" purity="6.7857140302658081e-01" nType="-99"/>
          <Node pos="r" depth="2" NCoef="0" IVar="-1" Cut="0.0000000000000000e+00" cType="1" res="-5.1066981541225687e-06" rms="3.1909739971160889e-01" purity="5.7305836677551270e-01" nType="-99"/>
        </Node>
      </Node>
    </BinaryTree>
    <BinaryTree type="DecisionTree" boostWeight="1.0000000000000000e+00" itree="1692">
      <Node pos="s" depth="0" NCoef="0" IVar="2" Cut="1.9256891012191772e+00" cType="1" res="-6.4769544394494005e-08" rms="3.2200506329536438e-01" purity="5.9855979681015015e-01" nType="0">
        <Node pos="l" depth="1" NCoef="0" IVar="-1" Cut="0.0000000000000000e+00" cType="1" res="5.1721224735956639e-05" rms="3.2157689332962036e-01" purity="6.2506610155105591e-01" nType="-99"/>
        <Node pos="r" depth="1" NCoef="0" IVar="1" Cut="8.7206399440765381e-01" cType="1" res="-1.6812680987641215e-03" rms="3.2856768369674683e-01" purity="1.8757881224155426e-01" nType="0">
          <Node pos="l" depth="2" NCoef="0" IVar="-1" Cut="0.0000000000000000e+00" cType="1" res="-1.9152585882693529e-03" rms="3.2593983411788940e-01" purity="1.8829786777496338e-01" nType="-99"/>
          <Node pos="r" depth="2" NCoef="0" IVar="-1" Cut="0.0000000000000000e+00" cType="1" res="8.5285026580095291e-03" rms="3.4811401367187500e-01" purity="1.8181818723678589e-01" nType="-99"/>
        </Node>
      </Node>
    </BinaryTree>
    <BinaryTree type="DecisionTree" boostWeight="1.0000000000000000e+00" itree="1693">
      <Node pos="s" depth="0" NCoef="0" IVar="1" Cut="1.3018491268157959e+00" cType="1" res="-1.4359521571805089e-07" rms="3.2200357317924500e-01" purity="5.9855979681015015e-01" nType="0">
        <Node pos="l" depth="1" NCoef="0" IVar="-1" Cut="0.0000000000000000e+00" cType="1" res="2.5968345653382130e-05" rms="3.2209190726280212e-01" purity="6.0432100296020508e-01" nType="-99"/>
        <Node pos="r" depth="1" NCoef="0" IVar="3" Cut="3.1144583225250244e-01" cType="0" res="-4.3444810435175896e-03" rms="3.1489917635917664e-01" purity="1.4241960644721985e-01" nType="0">
          <Node pos="l" depth="2" NCoef="0" IVar="-1" Cut="0.0000000000000000e+00" cType="1" res="1.2641374953091145e-02" rms="3.8501986861228943e-01" purity="2.2935779392719269e-01" nType="-99"/>
          <Node pos="r" depth="2" NCoef="0" IVar="-1" Cut="0.0000000000000000e+00" cType="1" res="-5.6147868745028973e-03" rms="2.9826474189758301e-01" purity="1.2500000000000000e-01" nType="-99"/>
        </Node>
      </Node>
    </BinaryTree>
    <BinaryTree type="DecisionTree" boostWeight="1.0000000000000000e+00" itree="1694">
      <Node pos="s" depth="0" NCoef="0" IVar="1" Cut="8.8330835103988647e-01" cType="1" res="-2.1781481507332501e-07" rms="3.2200300693511963e-01" purity="5.9855979681015015e-01" nType="0">
        <Node pos="l" depth="1" NCoef="0" IVar="-1" Cut="0.0000000000000000e+00" cType="1" res="3.8214624510146677e-05" rms="3.2264339923858643e-01" purity="6.1389672756195068e-01" nType="-99"/>
        <Node pos="r" depth="1" NCoef="0" IVar="2" Cut="1.8882243633270264e+00" cType="0" res="-2.5082798674702644e-03" rms="3.0147910118103027e-01" purity="1.2339645624160767e-01" nType="0">
          <Node pos="l" depth="2" NCoef="0" IVar="-1" Cut="0.0000000000000000e+00" cType="1" res="8.9562553912401199e-03" rms="3.4949541091918945e-01" purity="1.8591549992561340e-01" nType="-99"/>
          <Node pos="r" depth="2" NCoef="0" IVar="-1" Cut="0.0000000000000000e+00" cType="1" res="-4.9001770094037056e-03" rms="2.8640088438987732e-01" purity="1.0608424246311188e-01" nType="-99"/>
        </Node>
      </Node>
    </BinaryTree>
    <BinaryTree type="DecisionTree" boostWeight="1.0000000000000000e+00" itree="1695">
      <Node pos="s" depth="0" NCoef="0" IVar="2" Cut="3.3643362522125244e+00" cType="1" res="-3.4292730788365589e-07" rms="3.2200127840042114e-01" purity="5.9855979681015015e-01" nType="0">
        <Node pos="l" depth="1" NCoef="0" IVar="-1" Cut="0.0000000000000000e+00" cType="1" res="1.5819483451195993e-05" rms="3.2191303372383118e-01" purity="6.0052978992462158e-01" nType="-99"/>
        <Node pos="r" depth="1" NCoef="0" IVar="0" Cut="1.0401382446289062e+00" cType="0" res="-6.7438920959830284e-03" rms="3.3915671706199646e-01" purity="2.0384615659713745e-01" nType="0">
          <Node pos="l" depth="2" NCoef="0" IVar="-1" Cut="0.0000000000000000e+00" cType="1" res="4.1626137681305408e-03" rms="3.5158452391624451e-01" purity="2.0689655840396881e-01" nType="-99"/>
          <Node pos="r" depth="2" NCoef="0" IVar="-1" Cut="0.0000000000000000e+00" cType="1" res="-1.0557503439486027e-02" rms="3.2136085629463196e-01" purity="2.0000000298023224e-01" nType="-99"/>
        </Node>
      </Node>
    </BinaryTree>
    <BinaryTree type="DecisionTree" boostWeight="1.0000000000000000e+00" itree="1696">
      <Node pos="s" depth="0" NCoef="0" IVar="0" Cut="2.0439779758453369e+00" cType="1" res="-3.4205447718704818e-07" rms="3.2200086116790771e-01" purity="5.9855979681015015e-01" nType="0">
        <Node pos="l" depth="1" NCoef="0" IVar="-1" Cut="0.0000000000000000e+00" cType="1" res="2.8018737793900073e-05" rms="3.2203450798988342e-01" purity="6.0564202070236206e-01" nType="-99"/>
        <Node pos="r" depth="1" NCoef="0" IVar="3" Cut="1.3391660153865814e-01" cType="1" res="-3.7673814222216606e-03" rms="3.1983640789985657e-01" purity="1.4901477098464966e-01" nType="0">
          <Node pos="l" depth="2" NCoef="0" IVar="-1" Cut="0.0000000000000000e+00" cType="1" res="1.2085288763046265e-02" rms="3.6351037025451660e-01" purity="1.8627451360225677e-01" nType="-99"/>
          <Node pos="r" depth="2" NCoef="0" IVar="-1" Cut="0.0000000000000000e+00" cType="1" res="-3.7802809383720160e-03" rms="3.1276035308837891e-01" purity="1.4366197586059570e-01" nType="-99"/>
        </Node>
      </Node>
    </BinaryTree>
    <BinaryTree type="DecisionTree" boostWeight="1.0000000000000000e+00" itree="1697">
      <Node pos="s" depth="0" NCoef="0" IVar="0" Cut="1.4367816448211670e+00" cType="1" res="-3.7814280062775651e-07" rms="3.2200020551681519e-01" purity="5.9855979681015015e-01" nType="0">
        <Node pos="l" depth="1" NCoef="0" IVar="-1" Cut="0.0000000000000000e+00" cType="1" res="3.9529950299765915e-05" rms="3.2300430536270142e-01" purity="6.1641770601272583e-01" nType="-99"/>
        <Node pos="r" depth="1" NCoef="0" IVar="0" Cut="1.4840975999832153e+00" cType="0" res="-2.2669988684356213e-03" rms="2.9362127184867859e-01" purity="1.1698717623949051e-01" nType="0">
          <Node pos="l" depth="2" NCoef="0" IVar="-1" Cut="0.0000000000000000e+00" cType="1" res="6.9149374030530453e-04" rms="3.0128851532936096e-01" purity="1.2399999797344208e-01" nType="-99"/>
          <Node pos="r" depth="2" NCoef="0" IVar="-1" Cut="0.0000000000000000e+00" cType="1" res="-4.3014992028474808e-02" rms="1.3383935391902924e-01" purity="1.6393441706895828e-02" nType="-99"/>
        </Node>
      </Node>
    </BinaryTree>
    <BinaryTree type="DecisionTree" boostWeight="1.0000000000000000e+00" itree="1698">
      <Node pos="s" depth="0" NCoef="0" IVar="0" Cut="2.0439779758453369e+00" cType="1" res="-7.7173956469778204e-07" rms="3.2199719548225403e-01" purity="5.9855979681015015e-01" nType="0">
        <Node pos="l" depth="1" NCoef="0" IVar="-1" Cut="0.0000000000000000e+00" cType="1" res="2.6223446184303612e-05" rms="3.2203158736228943e-01" purity="6.0564202070236206e-01" nType="-99"/>
        <Node pos="r" depth="1" NCoef="0" IVar="1" Cut="1.5004997253417969e+00" cType="0" res="-3.5547479055821896e-03" rms="3.1978684663772583e-01" purity="1.4901477098464966e-01" nType="0">
          <Node pos="l" depth="2" NCoef="0" IVar="-1" Cut="0.0000000000000000e+00" cType="1" res="7.5137908570468426e-03" rms="4.0786418318748474e-01" purity="2.8455284237861633e-01" nType="-99"/>
          <Node pos="r" depth="2" NCoef="0" IVar="-1" Cut="0.0000000000000000e+00" cType="1" res="-4.2740218341350555e-03" rms="3.0105069279670715e-01" purity="1.2481857836246490e-01" nType="-99"/>
        </Node>
      </Node>
    </BinaryTree>
    <BinaryTree type="DecisionTree" boostWeight="1.0000000000000000e+00" itree="1699">
      <Node pos="s" depth="0" NCoef="0" IVar="1" Cut="1.5829585790634155e+00" cType="1" res="-7.4639171998569509e-07" rms="3.2199636101722717e-01" purity="5.9855979681015015e-01" nType="0">
        <Node pos="l" depth="1" NCoef="0" IVar="-1" Cut="0.0000000000000000e+00" cType="1" res="1.9618184524006210e-05" rms="3.2190015912055969e-01" purity="6.0176652669906616e-01" nType="-99"/>
        <Node pos="r" depth="1" NCoef="0" IVar="2" Cut="2.0490391254425049e+00" cType="1" res="-5.6465975940227509e-03" rms="3.3461424708366394e-01" purity="1.6795866191387177e-01" nType="0">
          <Node pos="l" depth="2" NCoef="0" IVar="-1" Cut="0.0000000000000000e+00" cType="1" res="6.8771513178944588e-04" rms="3.3209335803985596e-01" purity="1.6961130499839783e-01" nType="-99"/>
          <Node pos="r" depth="2" NCoef="0" IVar="-1" Cut="0.0000000000000000e+00" cType="1" res="-9.3018319457769394e-03" rms="3.4056988358497620e-01" purity="1.6346153616905212e-01" nType="-99"/>
        </Node>
      </Node>
    </BinaryTree>
    <BinaryTree type="DecisionTree" boostWeight="1.0000000000000000e+00" itree="1700">
      <Node pos="s" depth="0" NCoef="0" IVar="2" Cut="1.3412387371063232e+00" cType="1" res="-6.9648348244299996e-07" rms="3.2199615240097046e-01" purity="5.9855979681015015e-01" nType="0">
        <Node pos="l" depth="1" NCoef="0" IVar="-1" Cut="0.0000000000000000e+00" cType="1" res="-9.4643473858013749e-05" rms="3.1807419657707214e-01" purity="6.6577047109603882e-01" nType="-99"/>
        <Node pos="r" depth="1" NCoef="0" IVar="2" Cut="1.3535865545272827e+00" cType="1" res="1.0566174751147628e-03" rms="3.4264743328094482e-01" purity="2.3103533685207367e-01" nType="0">
          <Node pos="l" depth="2" NCoef="0" IVar="-1" Cut="0.0000000000000000e+00" cType="1" res="2.3039499297738075e-02" rms="3.3191385865211487e-01" purity="3.7583893537521362e-01" nType="-99"/>
          <Node pos="r" depth="2" NCoef="0" IVar="-1" Cut="0.0000000000000000e+00" cType="1" res="-1.6314748791046441e-05" rms="3.4275031089782715e-01" purity="2.2831970453262329e-01" nType="-99"/>
        </Node>
      </Node>
    </BinaryTree>
    <BinaryTree type="DecisionTree" boostWeight="1.0000000000000000e+00" itree="1701">
      <Node pos="s" depth="0" NCoef="0" IVar="2" Cut="1.5360555648803711e+00" cType="1" res="-7.0335096324924962e-07" rms="3.2199048995971680e-01" purity="5.9855979681015015e-01" nType="0">
        <Node pos="l" depth="1" NCoef="0" IVar="-1" Cut="0.0000000000000000e+00" cType="1" res="-7.8150354966055602e-05" rms="3.1972134113311768e-01" purity="6.4864921569824219e-01" nType="-99"/>
        <Node pos="r" depth="1" NCoef="0" IVar="0" Cut="3.5482257604598999e-01" cType="1" res="1.2344574788585305e-03" rms="3.3886131644248962e-01" purity="2.1498262882232666e-01" nType="0">
          <Node pos="l" depth="2" NCoef="0" IVar="-1" Cut="0.0000000000000000e+00" cType="1" res="2.4947132915258408e-03" rms="4.3980631232261658e-01" purity="4.6932354569435120e-01" nType="-99"/>
          <Node pos="r" depth="2" NCoef="0" IVar="-1" Cut="0.0000000000000000e+00" cType="1" res="-1.5709581784904003e-03" rms="2.8030762076377869e-01" purity="9.7826085984706879e-02" nType="-99"/>
        </Node>
      </Node>
    </BinaryTree>
    <BinaryTree type="DecisionTree" boostWeight="1.0000000000000000e+00" itree="1702">
      <Node pos="s" depth="0" NCoef="0" IVar="0" Cut="5.7346326112747192e-01" cType="1" res="-6.6351077521176194e-07" rms="3.2198992371559143e-01" purity="5.9855979681015015e-01" nType="0">
        <Node pos="l" depth="1" NCoef="0" IVar="-1" Cut="0.0000000000000000e+00" cType="1" res="-8.7861160864122212e-05" rms="3.3253157138824463e-01" purity="6.9335353374481201e-01" nType="-99"/>
        <Node pos="r" depth="1" NCoef="0" IVar="3" Cut="3.0649366974830627e-01" cType="0" res="1.0781651362776756e-03" rms="2.5659632682800293e-01" purity="7.8761607408523560e-02" nType="0">
          <Node pos="l" depth="2" NCoef="0" IVar="-1" Cut="0.0000000000000000e+00" cType="1" res="6.3938302919268608e-03" rms="3.3354043960571289e-01" purity="1.5235456824302673e-01" nType="-99"/>
          <Node pos="r" depth="2" NCoef="0" IVar="-1" Cut="0.0000000000000000e+00" cType="1" res="-7.1438861778005958e-04" rms="2.4244573712348938e-01" purity="6.7362703382968903e-02" nType="-99"/>
        </Node>
      </Node>
    </BinaryTree>
    <BinaryTree type="DecisionTree" boostWeight="1.0000000000000000e+00" itree="1703">
      <Node pos="s" depth="0" NCoef="0" IVar="3" Cut="2.6784995198249817e-01" cType="1" res="-7.1711463078827364e-07" rms="3.2198828458786011e-01" purity="5.9855979681015015e-01" nType="0">
        <Node pos="l" depth="1" NCoef="0" IVar="-1" Cut="0.0000000000000000e+00" cType="1" res="2.6508091832511127e-04" rms="2.8383907675743103e-01" purity="6.0393178462982178e-01" nType="-99"/>
        <Node pos="r" depth="1" NCoef="0" IVar="2" Cut="4.4492575526237488e-01" cType="1" res="-5.2075198618695140e-04" rms="3.6199966073036194e-01" purity="5.9219861030578613e-01" nType="0">
          <Node pos="l" depth="2" NCoef="0" IVar="-1" Cut="0.0000000000000000e+00" cType="1" res="1.5687851700931787e-03" rms="3.2327568531036377e-01" purity="8.3468484878540039e-01" nType="-99"/>
          <Node pos="r" depth="2" NCoef="0" IVar="-1" Cut="0.0000000000000000e+00" cType="1" res="-5.8829376939684153e-04" rms="3.7256246805191040e-01" purity="5.2124679088592529e-01" nType="-99"/>
        </Node>
      </Node>
    </BinaryTree>
    <BinaryTree type="DecisionTree" boostWeight="1.0000000000000000e+00" itree="1704">
      <Node pos="s" depth="0" NCoef="0" IVar="1" Cut="2.3250875473022461e+00" cType="1" res="-6.1518022675954853e-07" rms="3.2198774814605713e-01" purity="5.9855979681015015e-01" nType="0">
        <Node pos="l" depth="1" NCoef="0" IVar="1" Cut="1.7344640493392944e+00" cType="1" res="1.9731780412257649e-05" rms="3.2188254594802856e-01" purity="5.9937214851379395e-01" nType="0">
          <Node pos="l" depth="2" NCoef="0" IVar="-1" Cut="0.0000000000000000e+00" cType="1" res="-1.4394704521691892e-05" rms="3.2175970077514648e-01" purity="6.0092604160308838e-01" nType="-99"/>
          <Node pos="r" depth="2" NCoef="0" IVar="-1" Cut="0.0000000000000000e+00" cType="1" res="5.1667951047420502e-03" rms="3.5289445519447327e-01" purity="1.8461538851261139e-01" nType="-99"/>
        </Node>
        <Node pos="r" depth="1" NCoef="0" IVar="-1" Cut="0.0000000000000000e+00" cType="1" res="-2.9731292743235826e-03" rms="3.6805510520935059e-01" purity="2.1621622145175934e-01" nType="-99"/>
      </Node>
    </BinaryTree>
    <BinaryTree type="DecisionTree" boostWeight="1.0000000000000000e+00" itree="1705">
      <Node pos="s" depth="0" NCoef="0" IVar="1" Cut="1.5829585790634155e+00" cType="1" res="-5.7039898138100398e-07" rms="3.2198715209960938e-01" purity="5.9855979681015015e-01" nType="0">
        <Node pos="l" depth="1" NCoef="0" IVar="-1" Cut="0.0000000000000000e+00" cType="1" res="1.8887085388996638e-05" rms="3.2189163565635681e-01" purity="6.0176652669906616e-01" nType="-99"/>
        <Node pos="r" depth="1" NCoef="0" IVar="2" Cut="9.8254376649856567e-01" cType="0" res="-5.4156905971467495e-03" rms="3.3452233672142029e-01" purity="1.6795866191387177e-01" nType="0">
          <Node pos="l" depth="2" NCoef="0" IVar="-1" Cut="0.0000000000000000e+00" cType="1" res="9.9853507708758116e-04" rms="3.5240545868873596e-01" purity="1.9066147506237030e-01" nType="-99"/>
          <Node pos="r" depth="2" NCoef="0" IVar="-1" Cut="0.0000000000000000e+00" cType="1" res="-9.5214545726776123e-03" rms="2.9534280300140381e-01" purity="1.2307692319154739e-01" nType="-99"/>
        </Node>
      </Node>
    </BinaryTree>
    <BinaryTree type="DecisionTree" boostWeight="1.0000000000000000e+00" itree="1706">
      <Node pos="s" depth="0" NCoef="0" IVar="1" Cut="7.5837081670761108e-01" cType="1" res="-5.4487782108481042e-07" rms="3.2198715209960938e-01" purity="5.9855979681015015e-01" nType="0">
        <Node pos="l" depth="1" NCoef="0" IVar="-1" Cut="0.0000000000000000e+00" cType="1" res="-4.3218253267696127e-05" rms="3.2266756892204285e-01" purity="6.1891573667526245e-01" nType="-99"/>
        <Node pos="r" depth="1" NCoef="0" IVar="0" Cut="1.4242878556251526e-01" cType="1" res="2.1067424677312374e-03" rms="3.0576571822166443e-01" purity="1.2621359527111053e-01" nType="0">
          <Node pos="l" depth="2" NCoef="0" IVar="-1" Cut="0.0000000000000000e+00" cType="1" res="9.8704239353537560e-03" rms="4.1416719555854797e-01" purity="2.4709302186965942e-01" nType="-99"/>
          <Node pos="r" depth="2" NCoef="0" IVar="-1" Cut="0.0000000000000000e+00" cType="1" res="-2.0111643243581057e-03" rms="2.8024125099182129e-01" purity="1.0335349291563034e-01" nType="-99"/>
        </Node>
      </Node>
    </BinaryTree>
    <BinaryTree type="DecisionTree" boostWeight="1.0000000000000000e+00" itree="1707">
      <Node pos="s" depth="0" NCoef="0" IVar="0" Cut="1.2981009483337402e+00" cType="1" res="-6.1432444908859907e-07" rms="3.2198488712310791e-01" purity="5.9855979681015015e-01" nType="0">
        <Node pos="l" depth="1" NCoef="0" IVar="-1" Cut="0.0000000000000000e+00" cType="1" res="-4.6979501348687336e-05" rms="3.2322812080383301e-01" purity="6.2081432342529297e-01" nType="-99"/>
        <Node pos="r" depth="1" NCoef="0" IVar="2" Cut="2.1317453384399414e+00" cType="0" res="2.1536583080887794e-03" rms="2.9364627599716187e-01" purity="1.1468288302421570e-01" nType="0">
          <Node pos="l" depth="2" NCoef="0" IVar="-1" Cut="0.0000000000000000e+00" cType="1" res="-6.6302022896707058e-03" rms="2.8927633166313171e-01" purity="1.2816455960273743e-01" nType="-99"/>
          <Node pos="r" depth="2" NCoef="0" IVar="-1" Cut="0.0000000000000000e+00" cType="1" res="4.8536690883338451e-03" rms="2.9505291581153870e-01" purity="1.0958083719015121e-01" nType="-99"/>
        </Node>
      </Node>
    </BinaryTree>
    <BinaryTree type="DecisionTree" boostWeight="1.0000000000000000e+00" itree="1708">
      <Node pos="s" depth="0" NCoef="0" IVar="2" Cut="2.2741115093231201e+00" cType="1" res="-7.0963977805149625e-07" rms="3.2198333740234375e-01" purity="5.9855979681015015e-01" nType="0">
        <Node pos="l" depth="1" NCoef="0" IVar="-1" Cut="0.0000000000000000e+00" cType="1" res="-4.5229528041090816e-05" rms="3.2169359922409058e-01" purity="6.1308050155639648e-01" nType="-99"/>
        <Node pos="r" depth="1" NCoef="0" IVar="0" Cut="1.7116442322731018e-01" cType="1" res="2.6870612055063248e-03" rms="3.3012124896049500e-01" purity="1.8478873372077942e-01" nType="0">
          <Node pos="l" depth="2" NCoef="0" IVar="-1" Cut="0.0000000000000000e+00" cType="1" res="-1.1252086609601974e-02" rms="4.2358085513114929e-01" purity="6.0000002384185791e-01" nType="-99"/>
          <Node pos="r" depth="2" NCoef="0" IVar="-1" Cut="0.0000000000000000e+00" cType="1" res="2.6839245110750198e-03" rms="3.2239177823066711e-01" purity="1.5602409839630127e-01" nType="-99"/>
        </Node>
      </Node>
    </BinaryTree>
    <BinaryTree type="DecisionTree" boostWeight="1.0000000000000000e+00" itree="1709">
      <Node pos="s" depth="0" NCoef="0" IVar="2" Cut="2.2741115093231201e+00" cType="1" res="-6.4136787614188506e-07" rms="3.2198023796081543e-01" purity="5.9855979681015015e-01" nType="0">
        <Node pos="l" depth="1" NCoef="0" IVar="-1" Cut="0.0000000000000000e+00" cType="1" res="-4.0705876017455012e-05" rms="3.2169359922409058e-01" purity="6.1308050155639648e-01" nType="-99"/>
        <Node pos="r" depth="1" NCoef="0" IVar="0" Cut="6.5217393636703491e-01" cType="1" res="2.4182687047868967e-03" rms="3.3003425598144531e-01" purity="1.8478873372077942e-01" nType="0">
          <Node pos="l" depth="2" NCoef="0" IVar="-1" Cut="0.0000000000000000e+00" cType="1" res="5.4830922745168209e-03" rms="3.9951631426811218e-01" purity="3.0678465962409973e-01" nType="-99"/>
          <Node pos="r" depth="2" NCoef="0" IVar="-1" Cut="0.0000000000000000e+00" cType="1" res="-3.6994933616369963e-03" rms="2.7815911173820496e-01" purity="1.0938924551010132e-01" nType="-99"/>
        </Node>
      </Node>
    </BinaryTree>
    <BinaryTree type="DecisionTree" boostWeight="1.0000000000000000e+00" itree="1710">
      <Node pos="s" depth="0" NCoef="0" IVar="2" Cut="2.6300268173217773e+00" cType="1" res="-6.4965695401042467e-07" rms="3.2197940349578857e-01" purity="5.9855979681015015e-01" nType="0">
        <Node pos="l" depth="1" NCoef="0" IVar="-1" Cut="0.0000000000000000e+00" cType="1" res="-2.8650478270719759e-05" rms="3.2178452610969543e-01" purity="6.0616320371627808e-01" nType="-99"/>
        <Node pos="r" depth="1" NCoef="0" IVar="1" Cut="1.0944527387619019e+00" cType="1" res="3.2192054204642773e-03" rms="3.3231633901596069e-01" purity="1.8802520632743835e-01" nType="0">
          <Node pos="l" depth="2" NCoef="0" IVar="-1" Cut="0.0000000000000000e+00" cType="1" res="2.8934627771377563e-03" rms="3.3046725392341614e-01" purity="1.8918919563293457e-01" nType="-99"/>
          <Node pos="r" depth="2" NCoef="0" IVar="-1" Cut="0.0000000000000000e+00" cType="1" res="-9.4081694260239601e-03" rms="3.4609746932983398e-01" purity="1.7821782827377319e-01" nType="-99"/>
        </Node>
      </Node>
    </BinaryTree>
    <BinaryTree type="DecisionTree" boostWeight="1.0000000000000000e+00" itree="1711">
      <Node pos="s" depth="0" NCoef="0" IVar="1" Cut="1.5704647302627563e+00" cType="1" res="-6.2222488850238733e-07" rms="3.2197815179824829e-01" purity="5.9855979681015015e-01" nType="0">
        <Node pos="l" depth="1" NCoef="0" IVar="-1" Cut="0.0000000000000000e+00" cType="1" res="-1.9283663277747110e-05" rms="3.2181015610694885e-01" purity="6.0177844762802124e-01" nType="-99"/>
        <Node pos="r" depth="1" NCoef="0" IVar="3" Cut="2.7439603209495544e-01" cType="1" res="5.2182017825543880e-03" rms="3.4316307306289673e-01" purity="1.7839196324348450e-01" nType="0">
          <Node pos="l" depth="2" NCoef="0" IVar="-1" Cut="0.0000000000000000e+00" cType="1" res="5.1427748985588551e-03" rms="3.5258391499519348e-01" purity="1.9117647409439087e-01" nType="-99"/>
          <Node pos="r" depth="2" NCoef="0" IVar="-1" Cut="0.0000000000000000e+00" cType="1" res="-5.4649934172630310e-03" rms="3.2111620903015137e-01" purity="1.5079365670681000e-01" nType="-99"/>
        </Node>
      </Node>
    </BinaryTree>
    <BinaryTree type="DecisionTree" boostWeight="1.0000000000000000e+00" itree="1712">
      <Node pos="s" depth="0" NCoef="0" IVar="2" Cut="2.5101394653320312e+00" cType="1" res="-5.8909381550620310e-07" rms="3.2197716832160950e-01" purity="5.9855979681015015e-01" nType="0">
        <Node pos="l" depth="1" NCoef="0" IVar="-1" Cut="0.0000000000000000e+00" cType="1" res="3.1160685466602445e-05" rms="3.2192033529281616e-01" purity="6.0827422142028809e-01" nType="-99"/>
        <Node pos="r" depth="1" NCoef="0" IVar="2" Cut="2.6211988925933838e+00" cType="0" res="-2.8618685901165009e-03" rms="3.2441285252571106e-01" purity="1.7836010456085205e-01" nType="0">
          <Node pos="l" depth="2" NCoef="0" IVar="-1" Cut="0.0000000000000000e+00" cType="1" res="1.3177244691178203e-03" rms="3.3230310678482056e-01" purity="1.8821096420288086e-01" nType="-99"/>
          <Node pos="r" depth="2" NCoef="0" IVar="-1" Cut="0.0000000000000000e+00" cType="1" res="-1.3852832838892937e-02" rms="2.8489410877227783e-01" purity="1.3425925374031067e-01" nType="-99"/>
        </Node>
      </Node>
    </BinaryTree>
    <BinaryTree type="DecisionTree" boostWeight="1.0000000000000000e+00" itree="1713">
      <Node pos="s" depth="0" NCoef="0" IVar="2" Cut="2.6487591266632080e+00" cType="1" res="-6.2039822523729526e-07" rms="3.2197573781013489e-01" purity="5.9855979681015015e-01" nType="0">
        <Node pos="l" depth="1" NCoef="0" IVar="-1" Cut="0.0000000000000000e+00" cType="1" res="2.8941842174390331e-05" rms="3.2187908887863159e-01" purity="6.0597991943359375e-01" nType="-99"/>
        <Node pos="r" depth="1" NCoef="0" IVar="3" Cut="3.1746396422386169e-01" cType="0" res="-3.4592181909829378e-03" rms="3.2734358310699463e-01" purity="1.8142075836658478e-01" nType="0">
          <Node pos="l" depth="2" NCoef="0" IVar="-1" Cut="0.0000000000000000e+00" cType="1" res="-5.6372517719864845e-03" rms="3.5669451951980591e-01" purity="2.5679013133049011e-01" nType="-99"/>
          <Node pos="r" depth="2" NCoef="0" IVar="-1" Cut="0.0000000000000000e+00" cType="1" res="3.8541562389582396e-03" rms="3.0158090591430664e-01" purity="1.2156862765550613e-01" nType="-99"/>
        </Node>
      </Node>
    </BinaryTree>
    <BinaryTree type="DecisionTree" boostWeight="1.0000000000000000e+00" itree="1714">
      <Node pos="s" depth="0" NCoef="0" IVar="2" Cut="2.2741115093231201e+00" cType="1" res="-6.0086352959842770e-07" rms="3.2197502255439758e-01" purity="5.9855979681015015e-01" nType="0">
        <Node pos="l" depth="1" NCoef="0" IVar="-1" Cut="0.0000000000000000e+00" cType="1" res="-3.9702666981611401e-05" rms="3.2169288396835327e-01" purity="6.1308050155639648e-01" nType="-99"/>
        <Node pos="r" depth="1" NCoef="0" IVar="0" Cut="1.7116442322731018e-01" cType="1" res="2.3594636004418135e-03" rms="3.2990419864654541e-01" purity="1.8478873372077942e-01" nType="0">
          <Node pos="l" depth="2" NCoef="0" IVar="-1" Cut="0.0000000000000000e+00" cType="1" res="-1.0442372411489487e-02" rms="4.2352497577667236e-01" purity="6.0000002384185791e-01" nType="-99"/>
          <Node pos="r" depth="2" NCoef="0" IVar="-1" Cut="0.0000000000000000e+00" cType="1" res="2.4244640953838825e-03" rms="3.2219418883323669e-01" purity="1.5602409839630127e-01" nType="-99"/>
        </Node>
      </Node>
    </BinaryTree>
    <BinaryTree type="DecisionTree" boostWeight="1.0000000000000000e+00" itree="1715">
      <Node pos="s" depth="0" NCoef="0" IVar="2" Cut="2.6487591266632080e+00" cType="1" res="-5.4222215339905233e-07" rms="3.2197231054306030e-01" purity="5.9855979681015015e-01" nType="0">
        <Node pos="l" depth="1" NCoef="0" IVar="-1" Cut="0.0000000000000000e+00" cType="1" res="2.8902028134325519e-05" rms="3.2187789678573608e-01" purity="6.0597991943359375e-01" nType="-99"/>
        <Node pos="r" depth="1" NCoef="0" IVar="0" Cut="5.7971012592315674e-01" cType="1" res="-3.4502341877669096e-03" rms="3.2721701264381409e-01" purity="1.8142075836658478e-01" nType="0">
          <Node pos="l" depth="2" NCoef="0" IVar="-1" Cut="0.0000000000000000e+00" cType="1" res="-6.5222741104662418e-03" rms="3.7686350941658020e-01" purity="3.0120483040809631e-01" nType="-99"/>
          <Node pos="r" depth="2" NCoef="0" IVar="-1" Cut="0.0000000000000000e+00" cType="1" res="1.5900868456810713e-03" rms="3.0632752180099487e-01" purity="1.3663662970066071e-01" nType="-99"/>
        </Node>
      </Node>
    </BinaryTree>
    <BinaryTree type="DecisionTree" boostWeight="1.0000000000000000e+00" itree="1716">
      <Node pos="s" depth="0" NCoef="0" IVar="1" Cut="2.6361820101737976e-01" cType="1" res="-5.0907436843772302e-07" rms="3.2197174429893494e-01" purity="5.9855979681015015e-01" nType="0">
        <Node pos="l" depth="1" NCoef="0" IVar="-1" Cut="0.0000000000000000e+00" cType="1" res="9.9241195130161941e-05" rms="3.1760221719741821e-01" purity="6.8005305528640747e-01" nType="-99"/>
        <Node pos="r" depth="1" NCoef="0" IVar="0" Cut="2.2488756105303764e-02" cType="1" res="-9.3356706202030182e-04" rms="3.4122580289840698e-01" purity="2.2617021203041077e-01" nType="0">
          <Node pos="l" depth="2" NCoef="0" IVar="-1" Cut="0.0000000000000000e+00" cType="1" res="-5.3989524021744728e-03" rms="4.4622507691383362e-01" purity="6.3082706928253174e-01" nType="-99"/>
          <Node pos="r" depth="2" NCoef="0" IVar="-1" Cut="0.0000000000000000e+00" cType="1" res="1.0715958196669817e-03" rms="3.2052317261695862e-01" purity="1.5947955846786499e-01" nType="-99"/>
        </Node>
      </Node>
    </BinaryTree>
    <BinaryTree type="DecisionTree" boostWeight="1.0000000000000000e+00" itree="1717">
      <Node pos="s" depth="0" NCoef="0" IVar="3" Cut="4.0327405929565430e-01" cType="0" res="-4.0191386574406351e-07" rms="3.2196766138076782e-01" purity="5.9855979681015015e-01" nType="0">
        <Node pos="l" depth="1" NCoef="0" IVar="-1" Cut="0.0000000000000000e+00" cType="1" res="5.5624509695917368e-04" rms="3.4625980257987976e-01" purity="8.1618291139602661e-01" nType="-99"/>
        <Node pos="r" depth="1" NCoef="0" IVar="3" Cut="4.0145829319953918e-01" cType="0" res="-1.6489349945914000e-04" rms="3.1888169050216675e-01" purity="5.7204997539520264e-01" nType="0">
          <Node pos="l" depth="2" NCoef="0" IVar="-1" Cut="0.0000000000000000e+00" cType="1" res="-1.0050616227090359e-02" rms="4.0545549988746643e-01" purity="7.0469796657562256e-01" nType="-99"/>
          <Node pos="r" depth="2" NCoef="0" IVar="-1" Cut="0.0000000000000000e+00" cType="1" res="-3.3399297535652295e-05" rms="3.1856209039688110e-01" purity="5.7162511348724365e-01" nType="-99"/>
        </Node>
      </Node>
    </BinaryTree>
    <BinaryTree type="DecisionTree" boostWeight="1.0000000000000000e+00" itree="1718">
      <Node pos="s" depth="0" NCoef="0" IVar="1" Cut="1.5829585790634155e+00" cType="1" res="-3.2710417485759535e-07" rms="3.2196694612503052e-01" purity="5.9855979681015015e-01" nType="0">
        <Node pos="l" depth="1" NCoef="0" IVar="-1" Cut="0.0000000000000000e+00" cType="1" res="1.8151205949834548e-05" rms="3.2187336683273315e-01" purity="6.0176652669906616e-01" nType="-99"/>
        <Node pos="r" depth="1" NCoef="0" IVar="3" Cut="2.2992578148841858e-01" cType="0" res="-5.1778992637991905e-03" rms="3.3425402641296387e-01" purity="1.6795866191387177e-01" nType="0">
          <Node pos="l" depth="2" NCoef="0" IVar="-1" Cut="0.0000000000000000e+00" cType="1" res="1.9223258132115006e-03" rms="3.4173843264579773e-01" purity="1.7511521279811859e-01" nType="-99"/>
          <Node pos="r" depth="2" NCoef="0" IVar="-1" Cut="0.0000000000000000e+00" cType="1" res="-6.7851697094738483e-03" rms="3.2399699091911316e-01" purity="1.5882353484630585e-01" nType="-99"/>
        </Node>
      </Node>
    </BinaryTree>
    <BinaryTree type="DecisionTree" boostWeight="1.0000000000000000e+00" itree="1719">
      <Node pos="s" depth="0" NCoef="0" IVar="3" Cut="1.7989921569824219e-01" cType="1" res="-3.1767555697115313e-07" rms="3.2196691632270813e-01" purity="5.9855979681015015e-01" nType="0">
        <Node pos="l" depth="1" NCoef="0" IVar="-1" Cut="0.0000000000000000e+00" cType="1" res="4.3493745033629239e-04" rms="2.6695498824119568e-01" purity="7.7492380142211914e-01" nType="-99"/>
        <Node pos="r" depth="1" NCoef="0" IVar="3" Cut="1.8470232188701630e-01" cType="0" res="-3.2148894388228655e-04" rms="3.4674161672592163e-01" purity="5.0837182998657227e-01" nType="0">
          <Node pos="l" depth="2" NCoef="0" IVar="-1" Cut="0.0000000000000000e+00" cType="1" res="4.0387785702478141e-06" rms="3.4760785102844238e-01" purity="5.1085942983627319e-01" nType="-99"/>
          <Node pos="r" depth="2" NCoef="0" IVar="-1" Cut="0.0000000000000000e+00" cType="1" res="-1.6333622857928276e-02" rms="2.5629916787147522e-01" purity="2.8645834326744080e-01" nType="-99"/>
        </Node>
      </Node>
    </BinaryTree>
    <BinaryTree type="DecisionTree" boostWeight="1.0000000000000000e+00" itree="1720">
      <Node pos="s" depth="0" NCoef="0" IVar="3" Cut="2.6060399413108826e-01" cType="1" res="-3.3318983128083346e-07" rms="3.2196348905563354e-01" purity="5.9855979681015015e-01" nType="0">
        <Node pos="l" depth="1" NCoef="0" IVar="-1" Cut="0.0000000000000000e+00" cType="1" res="2.6147844619117677e-04" rms="2.8139621019363403e-01" purity="6.1518114805221558e-01" nType="-99"/>
        <Node pos="r" depth="1" NCoef="0" IVar="3" Cut="2.6132345199584961e-01" cType="0" res="-4.6184478560462594e-04" rms="3.6078265309333801e-01" purity="5.8056175708770752e-01" nType="0">
          <Node pos="l" depth="2" NCoef="0" IVar="-1" Cut="0.0000000000000000e+00" cType="1" res="-1.2344634160399437e-04" rms="3.6083504557609558e-01" purity="5.8195835351943970e-01" nType="-99"/>
          <Node pos="r" depth="2" NCoef="0" IVar="-1" Cut="0.0000000000000000e+00" cType="1" res="-1.5646293759346008e-02" rms="3.4652683138847351e-01" purity="2.4761904776096344e-01" nType="-99"/>
        </Node>
      </Node>
    </BinaryTree>
    <BinaryTree type="DecisionTree" boostWeight="1.0000000000000000e+00" itree="1721">
      <Node pos="s" depth="0" NCoef="0" IVar="3" Cut="4.0327405929565430e-01" cType="0" res="-3.2706293495721184e-07" rms="3.2196271419525146e-01" purity="5.9855979681015015e-01" nType="0">
        <Node pos="l" depth="1" NCoef="0" IVar="-1" Cut="0.0000000000000000e+00" cType="1" res="5.1074981456622481e-04" rms="3.4626114368438721e-01" purity="8.1618291139602661e-01" nType="-99"/>
        <Node pos="r" depth="1" NCoef="0" IVar="3" Cut="4.0045061707496643e-01" cType="0" res="-1.5128929226193577e-04" rms="3.1887596845626831e-01" purity="5.7204997539520264e-01" nType="0">
          <Node pos="l" depth="2" NCoef="0" IVar="-1" Cut="0.0000000000000000e+00" cType="1" res="-7.4414741247892380e-03" rms="4.0044993162155151e-01" purity="7.1367520093917847e-01" nType="-99"/>
          <Node pos="r" depth="2" NCoef="0" IVar="-1" Cut="0.0000000000000000e+00" cType="1" res="-2.0085244614165276e-05" rms="3.1840819120407104e-01" purity="5.7133626937866211e-01" nType="-99"/>
        </Node>
      </Node>
    </BinaryTree>
    <BinaryTree type="DecisionTree" boostWeight="1.0000000000000000e+00" itree="1722">
      <Node pos="s" depth="0" NCoef="0" IVar="2" Cut="3.5591530799865723e-01" cType="1" res="-2.6538046427049267e-07" rms="3.2196223735809326e-01" purity="5.9855979681015015e-01" nType="0">
        <Node pos="l" depth="1" NCoef="0" IVar="-1" Cut="0.0000000000000000e+00" cType="1" res="-3.3953887759707868e-04" rms="2.8131580352783203e-01" purity="8.3244299888610840e-01" nType="-99"/>
        <Node pos="r" depth="1" NCoef="0" IVar="0" Cut="1.8740630149841309e-01" cType="1" res="3.4278960083611310e-04" rms="3.4542781114578247e-01" purity="4.4918462634086609e-01" nType="0">
          <Node pos="l" depth="2" NCoef="0" IVar="-1" Cut="0.0000000000000000e+00" cType="1" res="7.8171718632802367e-04" rms="3.7564316391944885e-01" purity="7.6515668630599976e-01" nType="-99"/>
          <Node pos="r" depth="2" NCoef="0" IVar="-1" Cut="0.0000000000000000e+00" cType="1" res="-8.0030737444758415e-04" rms="3.1137561798095703e-01" purity="1.2493658065795898e-01" nType="-99"/>
        </Node>
      </Node>
    </BinaryTree>
    <BinaryTree type="DecisionTree" boostWeight="1.0000000000000000e+00" itree="1723">
      <Node pos="s" depth="0" NCoef="0" IVar="3" Cut="2.6784995198249817e-01" cType="1" res="-2.3838690310640231e-07" rms="3.2196253538131714e-01" purity="5.9855979681015015e-01" nType="0">
        <Node pos="l" depth="1" NCoef="0" IVar="-1" Cut="0.0000000000000000e+00" cType="1" res="2.6035099290311337e-04" rms="2.8381764888763428e-01" purity="6.0393178462982178e-01" nType="-99"/>
        <Node pos="r" depth="1" NCoef="0" IVar="3" Cut="2.8306087851524353e-01" cType="0" res="-5.1051739137619734e-04" rms="3.6196959018707275e-01" purity="5.9219861030578613e-01" nType="0">
          <Node pos="l" depth="2" NCoef="0" IVar="-1" Cut="0.0000000000000000e+00" cType="1" res="4.9710339226294309e-05" rms="3.6572456359863281e-01" purity="6.1644852161407471e-01" nType="-99"/>
          <Node pos="r" depth="2" NCoef="0" IVar="-1" Cut="0.0000000000000000e+00" cType="1" res="-2.7078047860413790e-03" rms="3.2664605975151062e-01" purity="3.7665015459060669e-01" nType="-99"/>
        </Node>
      </Node>
    </BinaryTree>
    <BinaryTree type="DecisionTree" boostWeight="1.0000000000000000e+00" itree="1724">
      <Node pos="s" depth="0" NCoef="0" IVar="3" Cut="3.0407965183258057e-01" cType="0" res="-2.2547854428012215e-07" rms="3.2196268439292908e-01" purity="5.9855979681015015e-01" nType="0">
        <Node pos="l" depth="1" NCoef="0" IVar="-1" Cut="0.0000000000000000e+00" cType="1" res="-2.2998654458206147e-04" rms="3.6820673942565918e-01" purity="6.5125590562820435e-01" nType="-99"/>
        <Node pos="r" depth="1" NCoef="0" IVar="3" Cut="3.0314764380455017e-01" cType="1" res="3.3449128386564553e-04" rms="2.9428449273109436e-01" purity="5.7039856910705566e-01" nType="0">
          <Node pos="l" depth="2" NCoef="0" IVar="-1" Cut="0.0000000000000000e+00" cType="1" res="6.3021245296113193e-05" rms="2.9389986395835876e-01" purity="5.7054132223129272e-01" nType="-99"/>
          <Node pos="r" depth="2" NCoef="0" IVar="-1" Cut="0.0000000000000000e+00" cType="1" res="2.0909871906042099e-02" rms="3.6909699440002441e-01" purity="5.3741496801376343e-01" nType="-99"/>
        </Node>
      </Node>
    </BinaryTree>
    <BinaryTree type="DecisionTree" boostWeight="1.0000000000000000e+00" itree="1725">
      <Node pos="s" depth="0" NCoef="0" IVar="2" Cut="2.2741115093231201e+00" cType="1" res="-2.2162490154187253e-07" rms="3.2195946574211121e-01" purity="5.9855979681015015e-01" nType="0">
        <Node pos="l" depth="1" NCoef="0" IVar="-1" Cut="0.0000000000000000e+00" cType="1" res="-4.0195609471993521e-05" rms="3.2168081402778625e-01" purity="6.1308050155639648e-01" nType="-99"/>
        <Node pos="r" depth="1" NCoef="0" IVar="0" Cut="4.2603698372840881e-01" cType="1" res="2.3990834597498178e-03" rms="3.2979208230972290e-01" purity="1.8478873372077942e-01" nType="0">
          <Node pos="l" depth="2" NCoef="0" IVar="-1" Cut="0.0000000000000000e+00" cType="1" res="6.3544716686010361e-03" rms="4.4014215469360352e-01" purity="4.3116882443428040e-01" nType="-99"/>
          <Node pos="r" depth="2" NCoef="0" IVar="-1" Cut="0.0000000000000000e+00" cType="1" res="-1.9474566215649247e-03" rms="2.9164502024650574e-01" purity="1.1654676496982574e-01" nType="-99"/>
        </Node>
      </Node>
    </BinaryTree>
    <BinaryTree type="DecisionTree" boostWeight="1.0000000000000000e+00" itree="1726">
      <Node pos="s" depth="0" NCoef="0" IVar="3" Cut="2.9058721661567688e-01" cType="0" res="-2.2973932800596231e-07" rms="3.2195851206779480e-01" purity="5.9855979681015015e-01" nType="0">
        <Node pos="l" depth="1" NCoef="0" IVar="-1" Cut="0.0000000000000000e+00" cType="1" res="-2.1228933474048972e-04" rms="3.6657640337944031e-01" purity="6.2768095731735229e-01" nType="-99"/>
        <Node pos="r" depth="1" NCoef="0" IVar="3" Cut="2.8216436505317688e-01" cType="1" res="3.6481226561591029e-04" rms="2.8997150063514709e-01" purity="5.8000564575195312e-01" nType="0">
          <Node pos="l" depth="2" NCoef="0" IVar="-1" Cut="0.0000000000000000e+00" cType="1" res="-6.9011679443065077e-05" rms="2.8719234466552734e-01" purity="5.8664315938949585e-01" nType="-99"/>
          <Node pos="r" depth="2" NCoef="0" IVar="-1" Cut="0.0000000000000000e+00" cType="1" res="4.7840620391070843e-03" rms="3.4844589233398438e-01" purity="4.2498096823692322e-01" nType="-99"/>
        </Node>
      </Node>
    </BinaryTree>
    <BinaryTree type="DecisionTree" boostWeight="1.0000000000000000e+00" itree="1727">
      <Node pos="s" depth="0" NCoef="0" IVar="1" Cut="1.5704647302627563e+00" cType="1" res="-2.2360423201917001e-07" rms="3.2195672392845154e-01" purity="5.9855979681015015e-01" nType="0">
        <Node pos="l" depth="1" NCoef="0" IVar="-1" Cut="0.0000000000000000e+00" cType="1" res="-1.8743030523182824e-05" rms="3.2179042696952820e-01" purity="6.0177844762802124e-01" nType="-99"/>
        <Node pos="r" depth="1" NCoef="0" IVar="1" Cut="1.7505661249160767e+00" cType="0" res="5.1204049959778786e-03" rms="3.4293770790100098e-01" purity="1.7839196324348450e-01" nType="0">
          <Node pos="l" depth="2" NCoef="0" IVar="-1" Cut="0.0000000000000000e+00" cType="1" res="-7.1401480818167329e-04" rms="3.5274401307106018e-01" purity="1.9047619402408600e-01" nType="-99"/>
          <Node pos="r" depth="2" NCoef="0" IVar="-1" Cut="0.0000000000000000e+00" cType="1" res="1.3276897370815277e-02" rms="3.1267976760864258e-01" purity="1.4423076808452606e-01" nType="-99"/>
        </Node>
      </Node>
    </BinaryTree>
    <BinaryTree type="DecisionTree" boostWeight="1.0000000000000000e+00" itree="1728">
      <Node pos="s" depth="0" NCoef="0" IVar="1" Cut="1.7341328859329224e+00" cType="1" res="-2.4447768964819261e-07" rms="3.2195559144020081e-01" purity="5.9855979681015015e-01" nType="0">
        <Node pos="l" depth="1" NCoef="0" IVar="-1" Cut="0.0000000000000000e+00" cType="1" res="-1.6645817595417611e-05" rms="3.2173010706901550e-01" purity="6.0092604160308838e-01" nType="-99"/>
        <Node pos="r" depth="1" NCoef="0" IVar="3" Cut="2.3375508189201355e-01" cType="1" res="5.9163556434214115e-03" rms="3.5820049047470093e-01" purity="1.9607843458652496e-01" nType="0">
          <Node pos="l" depth="2" NCoef="0" IVar="-1" Cut="0.0000000000000000e+00" cType="1" res="7.1395337581634521e-03" rms="3.6976626515388489e-01" purity="2.1232876181602478e-01" nType="-99"/>
          <Node pos="r" depth="2" NCoef="0" IVar="-1" Cut="0.0000000000000000e+00" cType="1" res="-2.6359339244663715e-03" rms="3.4678378701210022e-01" purity="1.8125000596046448e-01" nType="-99"/>
        </Node>
      </Node>
    </BinaryTree>
    <BinaryTree type="DecisionTree" boostWeight="1.0000000000000000e+00" itree="1729">
      <Node pos="s" depth="0" NCoef="0" IVar="1" Cut="1.5829585790634155e+00" cType="1" res="-2.4440228685307375e-07" rms="3.2195478677749634e-01" purity="5.9855979681015015e-01" nType="0">
        <Node pos="l" depth="1" NCoef="0" IVar="-1" Cut="0.0000000000000000e+00" cType="1" res="1.8199025362264365e-05" rms="3.2186171412467957e-01" purity="6.0176652669906616e-01" nType="-99"/>
        <Node pos="r" depth="1" NCoef="0" IVar="1" Cut="1.8520064353942871e+00" cType="0" res="-5.1772161386907101e-03" rms="3.3417692780494690e-01" purity="1.6795866191387177e-01" nType="0">
          <Node pos="l" depth="2" NCoef="0" IVar="-1" Cut="0.0000000000000000e+00" cType="1" res="1.2308367295190692e-03" rms="3.6710044741630554e-01" purity="2.0816326141357422e-01" nType="-99"/>
          <Node pos="r" depth="2" NCoef="0" IVar="-1" Cut="0.0000000000000000e+00" cType="1" res="-1.0596016421914101e-02" rms="2.6734122633934021e-01" purity="9.8591551184654236e-02" nType="-99"/>
        </Node>
      </Node>
    </BinaryTree>
    <BinaryTree type="DecisionTree" boostWeight="1.0000000000000000e+00" itree="1730">
      <Node pos="s" depth="0" NCoef="0" IVar="3" Cut="2.7859392762184143e-01" cType="0" res="-2.5907840495165146e-07" rms="3.2195484638214111e-01" purity="5.9855979681015015e-01" nType="0">
        <Node pos="l" depth="1" NCoef="0" IVar="-1" Cut="0.0000000000000000e+00" cType="1" res="-1.9195010827388614e-04" rms="3.6462420225143433e-01" purity="6.0879129171371460e-01" nType="-99"/>
        <Node pos="r" depth="1" NCoef="0" IVar="3" Cut="2.7399381995201111e-01" cType="1" res="3.7943216739222407e-04" rms="2.8629457950592041e-01" purity="5.9098464250564575e-01" nType="0">
          <Node pos="l" depth="2" NCoef="0" IVar="-1" Cut="0.0000000000000000e+00" cType="1" res="4.4302603782853112e-05" rms="2.8546258807182312e-01" purity="5.9568965435028076e-01" nType="-99"/>
          <Node pos="r" depth="2" NCoef="0" IVar="-1" Cut="0.0000000000000000e+00" cType="1" res="5.7007758878171444e-03" rms="3.1851598620414734e-01" purity="3.9662447571754456e-01" nType="-99"/>
        </Node>
      </Node>
    </BinaryTree>
    <BinaryTree type="DecisionTree" boostWeight="1.0000000000000000e+00" itree="1731">
      <Node pos="s" depth="0" NCoef="0" IVar="2" Cut="3.5966179370880127e+00" cType="1" res="-2.4885892457859882e-07" rms="3.2195323705673218e-01" purity="5.9855979681015015e-01" nType="0">
        <Node pos="l" depth="1" NCoef="0" IVar="2" Cut="3.2279355525970459e+00" cType="1" res="-2.5249548343708739e-05" rms="3.2182827591896057e-01" purity="5.9988498687744141e-01" nType="0">
          <Node pos="l" depth="2" NCoef="0" IVar="-1" Cut="0.0000000000000000e+00" cType="1" res="1.4602989722334314e-05" rms="3.2185149192810059e-01" purity="6.0103785991668701e-01" nType="-99"/>
          <Node pos="r" depth="2" NCoef="0" IVar="-1" Cut="0.0000000000000000e+00" cType="1" res="-7.9388599842786789e-03" rms="3.1274768710136414e-01" purity="1.8620689213275909e-01" nType="-99"/>
        </Node>
        <Node pos="r" depth="1" NCoef="0" IVar="-1" Cut="0.0000000000000000e+00" cType="1" res="2.6215717662125826e-03" rms="3.5643675923347473e-01" purity="2.1229049563407898e-01" nType="-99"/>
      </Node>
    </BinaryTree>
    <BinaryTree type="DecisionTree" boostWeight="1.0000000000000000e+00" itree="1732">
      <Node pos="s" depth="0" NCoef="0" IVar="2" Cut="3.2781672477722168e+00" cType="1" res="-2.4585386881881277e-07" rms="3.2195279002189636e-01" purity="5.9855979681015015e-01" nType="0">
        <Node pos="l" depth="1" NCoef="0" IVar="-1" Cut="0.0000000000000000e+00" cType="1" res="-1.5998930393834598e-05" rms="3.2179462909698486e-01" purity="6.0073769092559814e-01" nType="-99"/>
        <Node pos="r" depth="1" NCoef="0" IVar="0" Cut="7.6633840799331665e-01" cType="1" res="5.8397199027240276e-03" rms="3.4843215346336365e-01" purity="2.1812079846858978e-01" nType="0">
          <Node pos="l" depth="2" NCoef="0" IVar="-1" Cut="0.0000000000000000e+00" cType="1" res="1.2117201462388039e-02" rms="3.9578819274902344e-01" purity="3.1372550129890442e-01" nType="-99"/>
          <Node pos="r" depth="2" NCoef="0" IVar="-1" Cut="0.0000000000000000e+00" cType="1" res="-4.3863942846655846e-03" rms="3.1973662972450256e-01" purity="1.6836734116077423e-01" nType="-99"/>
        </Node>
      </Node>
    </BinaryTree>
    <BinaryTree type="DecisionTree" boostWeight="1.0000000000000000e+00" itree="1733">
      <Node pos="s" depth="0" NCoef="0" IVar="1" Cut="1.7341328859329224e+00" cType="1" res="-2.6115807827409299e-07" rms="3.2195168733596802e-01" purity="5.9855979681015015e-01" nType="0">
        <Node pos="l" depth="1" NCoef="0" IVar="-1" Cut="0.0000000000000000e+00" cType="1" res="-1.5770210666232742e-05" rms="3.2172647118568420e-01" purity="6.0092604160308838e-01" nType="-99"/>
        <Node pos="r" depth="1" NCoef="0" IVar="0" Cut="1.4305347204208374e+00" cType="0" res="5.6002535857260227e-03" rms="3.5816237330436707e-01" purity="1.9607843458652496e-01" nType="0">
          <Node pos="l" depth="2" NCoef="0" IVar="-1" Cut="0.0000000000000000e+00" cType="1" res="-3.1291444320231676e-03" rms="3.5746294260025024e-01" purity="2.0000000298023224e-01" nType="-99"/>
          <Node pos="r" depth="2" NCoef="0" IVar="-1" Cut="0.0000000000000000e+00" cType="1" res="6.7822881974279881e-03" rms="3.5826998949050903e-01" purity="1.9277107715606689e-01" nType="-99"/>
        </Node>
      </Node>
    </BinaryTree>
    <BinaryTree type="DecisionTree" boostWeight="1.0000000000000000e+00" itree="1734">
      <Node pos="s" depth="0" NCoef="0" IVar="1" Cut="1.5829585790634155e+00" cType="1" res="-2.6067934300044726e-07" rms="3.2195094227790833e-01" purity="5.9855979681015015e-01" nType="0">
        <Node pos="l" depth="1" NCoef="0" IVar="-1" Cut="0.0000000000000000e+00" cType="1" res="1.7629639842198230e-05" rms="3.2185807824134827e-01" purity="6.0176652669906616e-01" nType="-99"/>
        <Node pos="r" depth="1" NCoef="0" IVar="2" Cut="1.7287795543670654e+00" cType="0" res="-5.0187087617814541e-03" rms="3.3415117859840393e-01" purity="1.6795866191387177e-01" nType="0">
          <Node pos="l" depth="2" NCoef="0" IVar="-1" Cut="0.0000000000000000e+00" cType="1" res="3.8994646165519953e-03" rms="3.5781255364418030e-01" purity="1.9718310236930847e-01" nType="-99"/>
          <Node pos="r" depth="2" NCoef="0" IVar="-1" Cut="0.0000000000000000e+00" cType="1" res="-5.6695542298257351e-03" rms="3.1928190588951111e-01" purity="1.5102040767669678e-01" nType="-99"/>
        </Node>
      </Node>
    </BinaryTree>
    <BinaryTree type="DecisionTree" boostWeight="1.0000000000000000e+00" itree="1735">
      <Node pos="s" depth="0" NCoef="0" IVar="1" Cut="1.7341328859329224e+00" cType="1" res="-2.6111996476174681e-07" rms="3.2195082306861877e-01" purity="5.9855979681015015e-01" nType="0">
        <Node pos="l" depth="1" NCoef="0" IVar="-1" Cut="0.0000000000000000e+00" cType="1" res="-1.5796164007042535e-05" rms="3.2172620296478271e-01" purity="6.0092604160308838e-01" nType="-99"/>
        <Node pos="r" depth="1" NCoef="0" IVar="3" Cut="2.3375508189201355e-01" cType="1" res="5.6095328181982040e-03" rms="3.5807117819786072e-01" purity="1.9607843458652496e-01" nType="0">
          <Node pos="l" depth="2" NCoef="0" IVar="-1" Cut="0.0000000000000000e+00" cType="1" res="6.6511821933090687e-03" rms="3.6991840600967407e-01" purity="2.1232876181602478e-01" nType="-99"/>
          <Node pos="r" depth="2" NCoef="0" IVar="-1" Cut="0.0000000000000000e+00" cType="1" res="-2.4231376592069864e-03" rms="3.4645035862922668e-01" purity="1.8125000596046448e-01" nType="-99"/>
        </Node>
      </Node>
    </BinaryTree>
    <BinaryTree type="DecisionTree" boostWeight="1.0000000000000000e+00" itree="1736">
      <Node pos="s" depth="0" NCoef="0" IVar="1" Cut="1.5829585790634155e+00" cType="1" res="-2.5616290599828062e-07" rms="3.2195010781288147e-01" purity="5.9855979681015015e-01" nType="0">
        <Node pos="l" depth="1" NCoef="0" IVar="-1" Cut="0.0000000000000000e+00" cType="1" res="1.7446296624257229e-05" rms="3.2185807824134827e-01" purity="6.0176652669906616e-01" nType="-99"/>
        <Node pos="r" depth="1" NCoef="0" IVar="3" Cut="2.2992578148841858e-01" cType="0" res="-4.9662687815725803e-03" rms="3.3404326438903809e-01" purity="1.6795866191387177e-01" nType="0">
          <Node pos="l" depth="2" NCoef="0" IVar="-1" Cut="0.0000000000000000e+00" cType="1" res="2.1372912451624870e-03" rms="3.4119817614555359e-01" purity="1.7511521279811859e-01" nType="-99"/>
          <Node pos="r" depth="2" NCoef="0" IVar="-1" Cut="0.0000000000000000e+00" cType="1" res="-6.8579409271478653e-03" rms="3.2419931888580322e-01" purity="1.5882353484630585e-01" nType="-99"/>
        </Node>
      </Node>
    </BinaryTree>
    <BinaryTree type="DecisionTree" boostWeight="1.0000000000000000e+00" itree="1737">
      <Node pos="s" depth="0" NCoef="0" IVar="1" Cut="1.7341328859329224e+00" cType="1" res="-2.5489927679700486e-07" rms="3.2195007801055908e-01" purity="5.9855979681015015e-01" nType="0">
        <Node pos="l" depth="1" NCoef="0" IVar="-1" Cut="0.0000000000000000e+00" cType="1" res="-1.5750238162581809e-05" rms="3.2172599434852600e-01" purity="6.0092604160308838e-01" nType="-99"/>
        <Node pos="r" depth="1" NCoef="0" IVar="3" Cut="2.3375508189201355e-01" cType="1" res="5.5941399186849594e-03" rms="3.5798466205596924e-01" purity="1.9607843458652496e-01" nType="0">
          <Node pos="l" depth="2" NCoef="0" IVar="-1" Cut="0.0000000000000000e+00" cType="1" res="6.6071795299649239e-03" rms="3.6974343657493591e-01" purity="2.1232876181602478e-01" nType="-99"/>
          <Node pos="r" depth="2" NCoef="0" IVar="-1" Cut="0.0000000000000000e+00" cType="1" res="-2.3952710907906294e-03" rms="3.4645679593086243e-01" purity="1.8125000596046448e-01" nType="-99"/>
        </Node>
      </Node>
    </BinaryTree>
    <BinaryTree type="DecisionTree" boostWeight="1.0000000000000000e+00" itree="1738">
      <Node pos="s" depth="0" NCoef="0" IVar="1" Cut="3.3733133226633072e-02" cType="1" res="-2.5019875238285749e-07" rms="3.2194936275482178e-01" purity="5.9855979681015015e-01" nType="0">
        <Node pos="l" depth="1" NCoef="0" IVar="-1" Cut="0.0000000000000000e+00" cType="1" res="-2.4310810840688646e-04" rms="3.0218109488487244e-01" purity="7.4727153778076172e-01" nType="-99"/>
        <Node pos="r" depth="1" NCoef="0" IVar="1" Cut="4.1143562644720078e-02" cType="1" res="3.9991288213059306e-04" rms="3.3845248818397522e-01" purity="4.6719187498092651e-01" nType="0">
          <Node pos="l" depth="2" NCoef="0" IVar="-1" Cut="0.0000000000000000e+00" cType="1" res="1.0424305684864521e-02" rms="2.6251077651977539e-01" purity="7.9730796813964844e-01" nType="-99"/>
          <Node pos="r" depth="2" NCoef="0" IVar="-1" Cut="0.0000000000000000e+00" cType="1" res="-1.8670028657652438e-04" rms="3.4162384271621704e-01" purity="4.5147916674613953e-01" nType="-99"/>
        </Node>
      </Node>
    </BinaryTree>
    <BinaryTree type="DecisionTree" boostWeight="1.0000000000000000e+00" itree="1739">
      <Node pos="s" depth="0" NCoef="0" IVar="0" Cut="1.2981009483337402e+00" cType="1" res="-6.1446243648788368e-08" rms="3.2194676995277405e-01" purity="5.9855979681015015e-01" nType="0">
        <Node pos="l" depth="1" NCoef="0" IVar="-1" Cut="0.0000000000000000e+00" cType="1" res="-4.2705389205366373e-05" rms="3.2319137454032898e-01" purity="6.2081432342529297e-01" nType="-99"/>
        <Node pos="r" depth="1" NCoef="0" IVar="0" Cut="1.3318313360214233e+00" cType="1" res="1.9687355961650610e-03" rms="2.9357758164405823e-01" purity="1.1468288302421570e-01" nType="0">
          <Node pos="l" depth="2" NCoef="0" IVar="-1" Cut="0.0000000000000000e+00" cType="1" res="2.7504207566380501e-02" rms="3.5203942656517029e-01" purity="1.4285714924335480e-01" nType="-99"/>
          <Node pos="r" depth="2" NCoef="0" IVar="-1" Cut="0.0000000000000000e+00" cType="1" res="-1.4796410687267780e-04" rms="2.9009389877319336e-01" purity="1.1324200779199600e-01" nType="-99"/>
        </Node>
      </Node>
    </BinaryTree>
    <BinaryTree type="DecisionTree" boostWeight="1.0000000000000000e+00" itree="1740">
      <Node pos="s" depth="0" NCoef="0" IVar="2" Cut="3.8813500404357910e+00" cType="1" res="-2.5702914285830047e-07" rms="3.2194608449935913e-01" purity="5.9855979681015015e-01" nType="0">
        <Node pos="l" depth="1" NCoef="0" IVar="2" Cut="3.3121306896209717e+00" cType="1" res="1.9596285710576922e-05" rms="3.2188639044761658e-01" purity="5.9940659999847412e-01" nType="0">
          <Node pos="l" depth="2" NCoef="0" IVar="-1" Cut="0.0000000000000000e+00" cType="1" res="-1.3777435924566817e-05" rms="3.2180401682853699e-01" purity="6.0064917802810669e-01" nType="-99"/>
          <Node pos="r" depth="2" NCoef="0" IVar="-1" Cut="0.0000000000000000e+00" cType="1" res="5.5317045189440250e-03" rms="3.4548059105873108e-01" purity="2.2543352842330933e-01" nType="-99"/>
        </Node>
        <Node pos="r" depth="1" NCoef="0" IVar="-1" Cut="0.0000000000000000e+00" cType="1" res="-3.1307826284319162e-03" rms="3.4811064600944519e-01" purity="2.1052631735801697e-01" nType="-99"/>
      </Node>
    </BinaryTree>
    <BinaryTree type="DecisionTree" boostWeight="1.0000000000000000e+00" itree="1741">
      <Node pos="s" depth="0" NCoef="0" IVar="2" Cut="2.6487591266632080e+00" cType="1" res="-2.4547767907279194e-07" rms="3.2194560766220093e-01" purity="5.9855979681015015e-01" nType="0">
        <Node pos="l" depth="1" NCoef="0" IVar="-1" Cut="0.0000000000000000e+00" cType="1" res="2.7779969968833029e-05" rms="3.2185450196266174e-01" purity="6.0597991943359375e-01" nType="-99"/>
        <Node pos="r" depth="1" NCoef="0" IVar="0" Cut="5.7971012592315674e-01" cType="1" res="-3.2995203509926796e-03" rms="3.2700914144515991e-01" purity="1.8142075836658478e-01" nType="0">
          <Node pos="l" depth="2" NCoef="0" IVar="-1" Cut="0.0000000000000000e+00" cType="1" res="-6.5090418793261051e-03" rms="3.7656840682029724e-01" purity="3.0120483040809631e-01" nType="-99"/>
          <Node pos="r" depth="2" NCoef="0" IVar="-1" Cut="0.0000000000000000e+00" cType="1" res="1.6743842279538512e-03" rms="3.0615660548210144e-01" purity="1.3663662970066071e-01" nType="-99"/>
        </Node>
      </Node>
    </BinaryTree>
    <BinaryTree type="DecisionTree" boostWeight="1.0000000000000000e+00" itree="1742">
      <Node pos="s" depth="0" NCoef="0" IVar="1" Cut="1.5829585790634155e+00" cType="1" res="-2.4210217475229001e-07" rms="3.2194501161575317e-01" purity="5.9855979681015015e-01" nType="0">
        <Node pos="l" depth="1" NCoef="0" IVar="-1" Cut="0.0000000000000000e+00" cType="1" res="1.7307507732766680e-05" rms="3.2185384631156921e-01" purity="6.0176652669906616e-01" nType="-99"/>
        <Node pos="r" depth="1" NCoef="0" IVar="3" Cut="2.2992578148841858e-01" cType="0" res="-4.9251369200646877e-03" rms="3.3392408490180969e-01" purity="1.6795866191387177e-01" nType="0">
          <Node pos="l" depth="2" NCoef="0" IVar="-1" Cut="0.0000000000000000e+00" cType="1" res="2.0629381760954857e-03" rms="3.4101989865303040e-01" purity="1.7511521279811859e-01" nType="-99"/>
          <Node pos="r" depth="2" NCoef="0" IVar="-1" Cut="0.0000000000000000e+00" cType="1" res="-6.7446366883814335e-03" rms="3.2417988777160645e-01" purity="1.5882353484630585e-01" nType="-99"/>
        </Node>
      </Node>
    </BinaryTree>
    <BinaryTree type="DecisionTree" boostWeight="1.0000000000000000e+00" itree="1743">
      <Node pos="s" depth="0" NCoef="0" IVar="1" Cut="1.7341328859329224e+00" cType="1" res="-2.4177631985367043e-07" rms="3.2194495201110840e-01" purity="5.9855979681015015e-01" nType="0">
        <Node pos="l" depth="1" NCoef="0" IVar="-1" Cut="0.0000000000000000e+00" cType="1" res="-1.5732668543932959e-05" rms="3.2172149419784546e-01" purity="6.0092604160308838e-01" nType="-99"/>
        <Node pos="r" depth="1" NCoef="0" IVar="0" Cut="1.4305347204208374e+00" cType="0" res="5.5900868028402328e-03" rms="3.5788711905479431e-01" purity="1.9607843458652496e-01" nType="0">
          <Node pos="l" depth="2" NCoef="0" IVar="-1" Cut="0.0000000000000000e+00" cType="1" res="-2.7933574747294188e-03" rms="3.5753491520881653e-01" purity="2.0000000298023224e-01" nType="-99"/>
          <Node pos="r" depth="2" NCoef="0" IVar="-1" Cut="0.0000000000000000e+00" cType="1" res="6.4314478076994419e-03" rms="3.5776644945144653e-01" purity="1.9277107715606689e-01" nType="-99"/>
        </Node>
      </Node>
    </BinaryTree>
    <BinaryTree type="DecisionTree" boostWeight="1.0000000000000000e+00" itree="1744">
      <Node pos="s" depth="0" NCoef="0" IVar="0" Cut="2.3213393688201904e+00" cType="1" res="-2.4049271019066509e-07" rms="3.2194429636001587e-01" purity="5.9855979681015015e-01" nType="0">
        <Node pos="l" depth="1" NCoef="0" IVar="-1" Cut="0.0000000000000000e+00" cType="1" res="-2.2474423531093635e-05" rms="3.2166796922683716e-01" purity="6.0334169864654541e-01" nType="-99"/>
        <Node pos="r" depth="1" NCoef="0" IVar="1" Cut="1.6741628944873810e-01" cType="0" res="4.1701914742588997e-03" rms="3.4553745388984680e-01" purity="1.7465753853321075e-01" nType="0">
          <Node pos="l" depth="2" NCoef="0" IVar="-1" Cut="0.0000000000000000e+00" cType="1" res="-1.0268120095133781e-03" rms="3.4737572073936462e-01" purity="1.7768594622612000e-01" nType="-99"/>
          <Node pos="r" depth="2" NCoef="0" IVar="-1" Cut="0.0000000000000000e+00" cType="1" res="1.9441800191998482e-02" rms="3.3450213074684143e-01" purity="1.5999999642372131e-01" nType="-99"/>
        </Node>
      </Node>
    </BinaryTree>
    <BinaryTree type="DecisionTree" boostWeight="1.0000000000000000e+00" itree="1745">
      <Node pos="s" depth="0" NCoef="0" IVar="2" Cut="3.4542517662048340e+00" cType="1" res="-3.0878300094627775e-07" rms="3.2194304466247559e-01" purity="5.9855979681015015e-01" nType="0">
        <Node pos="l" depth="1" NCoef="0" IVar="-1" Cut="0.0000000000000000e+00" cType="1" res="1.3238370229373686e-05" rms="3.2185959815979004e-01" purity="6.0029160976409912e-01" nType="-99"/>
        <Node pos="r" depth="1" NCoef="0" IVar="3" Cut="3.1491026282310486e-01" cType="0" res="-6.5019563771784306e-03" rms="3.4058436751365662e-01" purity="1.9911503791809082e-01" nType="0">
          <Node pos="l" depth="2" NCoef="0" IVar="-1" Cut="0.0000000000000000e+00" cType="1" res="2.6876830961555243e-03" rms="3.6699602007865906e-01" purity="2.6446279883384705e-01" nType="-99"/>
          <Node pos="r" depth="2" NCoef="0" IVar="-1" Cut="0.0000000000000000e+00" cType="1" res="-1.0188642889261246e-02" rms="3.0644947290420532e-01" purity="1.2380952388048172e-01" nType="-99"/>
        </Node>
      </Node>
    </BinaryTree>
    <BinaryTree type="DecisionTree" boostWeight="1.0000000000000000e+00" itree="1746">
      <Node pos="s" depth="0" NCoef="0" IVar="2" Cut="2.6300268173217773e+00" cType="1" res="-3.0911650128473411e-07" rms="3.2194262742996216e-01" purity="5.9855979681015015e-01" nType="0">
        <Node pos="l" depth="1" NCoef="0" IVar="-1" Cut="0.0000000000000000e+00" cType="1" res="-2.7765669074142352e-05" rms="3.2175692915916443e-01" purity="6.0616320371627808e-01" nType="-99"/>
        <Node pos="r" depth="1" NCoef="0" IVar="1" Cut="8.9955024421215057e-02" cType="1" res="3.1365945469588041e-03" rms="3.3180004358291626e-01" purity="1.8802520632743835e-01" nType="0">
          <Node pos="l" depth="2" NCoef="0" IVar="-1" Cut="0.0000000000000000e+00" cType="1" res="6.7739416845142841e-03" rms="3.5757151246070862e-01" purity="2.5762712955474854e-01" nType="-99"/>
          <Node pos="r" depth="2" NCoef="0" IVar="-1" Cut="0.0000000000000000e+00" cType="1" res="-1.5374339418485761e-03" rms="3.1933131814002991e-01" purity="1.5677320957183838e-01" nType="-99"/>
        </Node>
      </Node>
    </BinaryTree>
    <BinaryTree type="DecisionTree" boostWeight="1.0000000000000000e+00" itree="1747">
      <Node pos="s" depth="0" NCoef="0" IVar="0" Cut="1.9465267658233643e+00" cType="1" res="-3.0642542014902574e-07" rms="3.2194146513938904e-01" purity="5.9855979681015015e-01" nType="0">
        <Node pos="l" depth="1" NCoef="0" IVar="-1" Cut="0.0000000000000000e+00" cType="1" res="-2.7241650968790054e-05" rms="3.2188573479652405e-01" purity="6.0647767782211304e-01" nType="-99"/>
        <Node pos="r" depth="1" NCoef="0" IVar="1" Cut="7.7211391925811768e-01" cType="0" res="3.2031117007136345e-03" rms="3.2503864169120789e-01" purity="1.5393012762069702e-01" nType="0">
          <Node pos="l" depth="2" NCoef="0" IVar="-1" Cut="0.0000000000000000e+00" cType="1" res="8.9081451296806335e-03" rms="3.8458657264709473e-01" purity="2.2448979318141937e-01" nType="-99"/>
          <Node pos="r" depth="2" NCoef="0" IVar="-1" Cut="0.0000000000000000e+00" cType="1" res="-5.3302943706512451e-03" rms="2.8260490298271179e-01" purity="1.1169284582138062e-01" nType="-99"/>
        </Node>
      </Node>
    </BinaryTree>
    <BinaryTree type="DecisionTree" boostWeight="1.0000000000000000e+00" itree="1748">
      <Node pos="s" depth="0" NCoef="0" IVar="1" Cut="1.3018491268157959e+00" cType="1" res="-3.9422315012416220e-07" rms="3.2193928956985474e-01" purity="5.9855979681015015e-01" nType="0">
        <Node pos="l" depth="1" NCoef="0" IVar="-1" Cut="0.0000000000000000e+00" cType="1" res="2.5849591111182235e-05" rms="3.2203909754753113e-01" purity="6.0432100296020508e-01" nType="-99"/>
        <Node pos="r" depth="1" NCoef="0" IVar="2" Cut="7.7421963214874268e-01" cType="1" res="-4.3436321429908276e-03" rms="3.1390661001205444e-01" purity="1.4241960644721985e-01" nType="0">
          <Node pos="l" depth="2" NCoef="0" IVar="-1" Cut="0.0000000000000000e+00" cType="1" res="9.9013969302177429e-03" rms="3.4095934033393860e-01" purity="1.5841583907604218e-01" nType="-99"/>
          <Node pos="r" depth="2" NCoef="0" IVar="-1" Cut="0.0000000000000000e+00" cType="1" res="-6.9947927258908749e-03" rms="3.0027344822883606e-01" purity="1.3525499403476715e-01" nType="-99"/>
        </Node>
      </Node>
    </BinaryTree>
    <BinaryTree type="DecisionTree" boostWeight="1.0000000000000000e+00" itree="1749">
      <Node pos="s" depth="0" NCoef="0" IVar="1" Cut="8.8330835103988647e-01" cType="1" res="-4.6157396127455286e-07" rms="3.2193866372108459e-01" purity="5.9855979681015015e-01" nType="0">
        <Node pos="l" depth="1" NCoef="0" IVar="-1" Cut="0.0000000000000000e+00" cType="1" res="3.7851696106372401e-05" rms="3.2259455323219299e-01" purity="6.1389672756195068e-01" nType="-99"/>
        <Node pos="r" depth="1" NCoef="0" IVar="2" Cut="1.6821681261062622e+00" cType="0" res="-2.4917218834161758e-03" rms="3.0090028047561646e-01" purity="1.2339645624160767e-01" nType="0">
          <Node pos="l" depth="2" NCoef="0" IVar="-1" Cut="0.0000000000000000e+00" cType="1" res="7.8493133187294006e-03" rms="3.3593657612800598e-01" purity="1.6956521570682526e-01" nType="-99"/>
          <Node pos="r" depth="2" NCoef="0" IVar="-1" Cut="0.0000000000000000e+00" cType="1" res="-5.5665490217506886e-03" rms="2.8564414381980896e-01" purity="1.0535258799791336e-01" nType="-99"/>
        </Node>
      </Node>
    </BinaryTree>
    <BinaryTree type="DecisionTree" boostWeight="1.0000000000000000e+00" itree="1750">
      <Node pos="s" depth="0" NCoef="0" IVar="2" Cut="1.9256891012191772e+00" cType="1" res="-5.7422118970862357e-07" rms="3.2193669676780701e-01" purity="5.9855979681015015e-01" nType="0">
        <Node pos="l" depth="1" NCoef="0" IVar="-1" Cut="0.0000000000000000e+00" cType="1" res="5.5542950576636940e-05" rms="3.2153561711311340e-01" purity="6.2506610155105591e-01" nType="-99"/>
        <Node pos="r" depth="1" NCoef="0" IVar="0" Cut="1.0244877636432648e-01" cType="1" res="-1.8128879601135850e-03" rms="3.2808732986450195e-01" purity="1.8757881224155426e-01" nType="0">
          <Node pos="l" depth="2" NCoef="0" IVar="-1" Cut="0.0000000000000000e+00" cType="1" res="1.0563333518803120e-02" rms="3.8199990987777710e-01" purity="7.7857142686843872e-01" nType="-99"/>
          <Node pos="r" depth="2" NCoef="0" IVar="-1" Cut="0.0000000000000000e+00" cType="1" res="-1.5568280359730124e-03" rms="3.2527664303779602e-01" purity="1.6029024124145508e-01" nType="-99"/>
        </Node>
      </Node>
    </BinaryTree>
    <BinaryTree type="DecisionTree" boostWeight="1.0000000000000000e+00" itree="1751">
      <Node pos="s" depth="0" NCoef="0" IVar="3" Cut="2.6784995198249817e-01" cType="1" res="-4.8980712108459556e-07" rms="3.2193601131439209e-01" purity="5.9855979681015015e-01" nType="0">
        <Node pos="l" depth="1" NCoef="0" IVar="-1" Cut="0.0000000000000000e+00" cType="1" res="2.3700016026850790e-04" rms="2.8379893302917480e-01" purity="6.0393178462982178e-01" nType="-99"/>
        <Node pos="r" depth="1" NCoef="0" IVar="3" Cut="2.9303637146949768e-01" cType="0" res="-4.6523081255145371e-04" rms="3.6193549633026123e-01" purity="5.9219861030578613e-01" nType="0">
          <Node pos="l" depth="2" NCoef="0" IVar="-1" Cut="0.0000000000000000e+00" cType="1" res="1.4580064453184605e-04" rms="3.6658325791358948e-01" purity="6.3296645879745483e-01" nType="-99"/>
          <Node pos="r" depth="2" NCoef="0" IVar="-1" Cut="0.0000000000000000e+00" cType="1" res="-2.0241774618625641e-03" rms="3.3759206533432007e-01" purity="3.8743719458580017e-01" nType="-99"/>
        </Node>
      </Node>
    </BinaryTree>
    <BinaryTree type="DecisionTree" boostWeight="1.0000000000000000e+00" itree="1752">
      <Node pos="s" depth="0" NCoef="0" IVar="2" Cut="3.5591530799865723e-01" cType="1" res="-4.5036307483314886e-07" rms="3.2193621993064880e-01" purity="5.9855979681015015e-01" nType="0">
        <Node pos="l" depth="1" NCoef="0" IVar="-1" Cut="0.0000000000000000e+00" cType="1" res="-3.3956998959183693e-04" rms="2.8131011128425598e-01" purity="8.3244299888610840e-01" nType="-99"/>
        <Node pos="r" depth="1" NCoef="0" IVar="3" Cut="1.2260454148054123e-01" cType="0" res="3.4247559960931540e-04" rms="3.4539103507995605e-01" purity="4.4918462634086609e-01" nType="0">
          <Node pos="l" depth="2" NCoef="0" IVar="-1" Cut="0.0000000000000000e+00" cType="1" res="1.9777996931225061e-04" rms="3.4592184424400330e-01" purity="4.5148795843124390e-01" nType="-99"/>
          <Node pos="r" depth="2" NCoef="0" IVar="-1" Cut="0.0000000000000000e+00" cType="1" res="-1.4620159752666950e-02" rms="2.4225765466690063e-01" purity="7.2164945304393768e-02" nType="-99"/>
        </Node>
      </Node>
    </BinaryTree>
    <BinaryTree type="DecisionTree" boostWeight="1.0000000000000000e+00" itree="1753">
      <Node pos="s" depth="0" NCoef="0" IVar="0" Cut="1.9465267658233643e+00" cType="1" res="-4.8815491027198732e-07" rms="3.2193538546562195e-01" purity="5.9855979681015015e-01" nType="0">
        <Node pos="l" depth="1" NCoef="0" IVar="-1" Cut="0.0000000000000000e+00" cType="1" res="-2.8494601792772301e-05" rms="3.2188296318054199e-01" purity="6.0647767782211304e-01" nType="-99"/>
        <Node pos="r" depth="1" NCoef="0" IVar="0" Cut="2.0435578823089600e+00" cType="1" res="3.3399488311260939e-03" rms="3.2484722137451172e-01" purity="1.5393012762069702e-01" nType="0">
          <Node pos="l" depth="2" NCoef="0" IVar="-1" Cut="0.0000000000000000e+00" cType="1" res="2.2244470193982124e-02" rms="3.6230981349945068e-01" purity="1.9417475163936615e-01" nType="-99"/>
          <Node pos="r" depth="2" NCoef="0" IVar="-1" Cut="0.0000000000000000e+00" cType="1" res="-1.1616426054388285e-03" rms="3.1928569078445435e-01" purity="1.4883148670196533e-01" nType="-99"/>
        </Node>
      </Node>
    </BinaryTree>
    <BinaryTree type="DecisionTree" boostWeight="1.0000000000000000e+00" itree="1754">
      <Node pos="s" depth="0" NCoef="0" IVar="0" Cut="2.3213393688201904e+00" cType="1" res="-5.8387871604281827e-07" rms="3.2193291187286377e-01" purity="5.9855979681015015e-01" nType="0">
        <Node pos="l" depth="1" NCoef="0" IVar="-1" Cut="0.0000000000000000e+00" cType="1" res="-2.3733284251648001e-05" rms="3.2165873050689697e-01" purity="6.0334169864654541e-01" nType="-99"/>
        <Node pos="r" depth="1" NCoef="0" IVar="1" Cut="3.9855071902275085e-01" cType="0" res="4.3733096681535244e-03" rms="3.4534633159637451e-01" purity="1.7465753853321075e-01" nType="0">
          <Node pos="l" depth="2" NCoef="0" IVar="-1" Cut="0.0000000000000000e+00" cType="1" res="-2.2890106774866581e-03" rms="3.5170233249664307e-01" purity="1.8110236525535583e-01" nType="-99"/>
          <Node pos="r" depth="2" NCoef="0" IVar="-1" Cut="0.0000000000000000e+00" cType="1" res="1.1656508781015873e-02" rms="3.3216792345046997e-01" purity="1.6256158053874969e-01" nType="-99"/>
        </Node>
      </Node>
    </BinaryTree>
    <BinaryTree type="DecisionTree" boostWeight="1.0000000000000000e+00" itree="1755">
      <Node pos="s" depth="0" NCoef="0" IVar="3" Cut="3.4780514240264893e-01" cType="0" res="-6.0079531749579473e-07" rms="3.2193195819854736e-01" purity="5.9855979681015015e-01" nType="0">
        <Node pos="l" depth="1" NCoef="0" IVar="-1" Cut="0.0000000000000000e+00" cType="1" res="-3.0596912256442010e-04" rms="3.6696842312812805e-01" purity="7.3368912935256958e-01" nType="-99"/>
        <Node pos="r" depth="1" NCoef="0" IVar="3" Cut="3.4571141004562378e-01" cType="0" res="2.3364028311334550e-04" rms="3.0788204073905945e-01" purity="5.6002062559127808e-01" nType="0">
          <Node pos="l" depth="2" NCoef="0" IVar="-1" Cut="0.0000000000000000e+00" cType="1" res="7.8081758692860603e-03" rms="3.5279890894889832e-01" purity="6.1245673894882202e-01" nType="-99"/>
          <Node pos="r" depth="2" NCoef="0" IVar="-1" Cut="0.0000000000000000e+00" cType="1" res="3.2579777325736359e-05" rms="3.0753082036972046e-01" purity="5.5964595079421997e-01" nType="-99"/>
        </Node>
      </Node>
    </BinaryTree>
    <BinaryTree type="DecisionTree" boostWeight="1.0000000000000000e+00" itree="1756">
      <Node pos="s" depth="0" NCoef="0" IVar="2" Cut="2.6487591266632080e+00" cType="1" res="-5.3152075452089775e-07" rms="3.2193091511726379e-01" purity="5.9855979681015015e-01" nType="0">
        <Node pos="l" depth="1" NCoef="0" IVar="-1" Cut="0.0000000000000000e+00" cType="1" res="2.7334455808158964e-05" rms="3.2184186577796936e-01" purity="6.0597991943359375e-01" nType="-99"/>
        <Node pos="r" depth="1" NCoef="0" IVar="1" Cut="1.0607196092605591e+00" cType="1" res="-3.2627985347062349e-03" rms="3.2688146829605103e-01" purity="1.8142075836658478e-01" nType="0">
          <Node pos="l" depth="2" NCoef="0" IVar="-1" Cut="0.0000000000000000e+00" cType="1" res="3.4316017990931869e-04" rms="3.2552042603492737e-01" purity="1.8349753320217133e-01" nType="-99"/>
          <Node pos="r" depth="2" NCoef="0" IVar="-1" Cut="0.0000000000000000e+00" cType="1" res="-1.2639617547392845e-02" rms="3.3570209145545959e-01" purity="1.6504853963851929e-01" nType="-99"/>
        </Node>
      </Node>
    </BinaryTree>
    <BinaryTree type="DecisionTree" boostWeight="1.0000000000000000e+00" itree="1757">
      <Node pos="s" depth="0" NCoef="0" IVar="1" Cut="1.5704647302627563e+00" cType="1" res="-5.1990525662404252e-07" rms="3.2193025946617126e-01" purity="5.9855979681015015e-01" nType="0">
        <Node pos="l" depth="1" NCoef="0" IVar="-1" Cut="0.0000000000000000e+00" cType="1" res="-1.9977900592493825e-05" rms="3.2176926732063293e-01" purity="6.0177844762802124e-01" nType="-99"/>
        <Node pos="r" depth="1" NCoef="0" IVar="0" Cut="2.0102448463439941e+00" cType="0" res="5.4203551262617111e-03" rms="3.4225538372993469e-01" purity="1.7839196324348450e-01" nType="0">
          <Node pos="l" depth="2" NCoef="0" IVar="-1" Cut="0.0000000000000000e+00" cType="1" res="7.0343711413443089e-03" rms="4.1291123628616333e-01" purity="2.8571429848670959e-01" nType="-99"/>
          <Node pos="r" depth="2" NCoef="0" IVar="-1" Cut="0.0000000000000000e+00" cType="1" res="-1.1117263929918408e-03" rms="3.0987858772277832e-01" purity="1.3636364042758942e-01" nType="-99"/>
        </Node>
      </Node>
    </BinaryTree>
    <BinaryTree type="DecisionTree" boostWeight="1.0000000000000000e+00" itree="1758">
      <Node pos="s" depth="0" NCoef="0" IVar="1" Cut="3.7731134891510010e-01" cType="1" res="-4.8495223836653167e-07" rms="3.2192945480346680e-01" purity="5.9855979681015015e-01" nType="0">
        <Node pos="l" depth="1" NCoef="0" IVar="-1" Cut="0.0000000000000000e+00" cType="1" res="-7.9020494013093412e-05" rms="3.2075056433677673e-01" purity="6.5712046623229980e-01" nType="-99"/>
        <Node pos="r" depth="1" NCoef="0" IVar="1" Cut="3.9448359608650208e-01" cType="1" res="1.1804112000390887e-03" rms="3.3026543259620667e-01" purity="1.7822554707527161e-01" nType="0">
          <Node pos="l" depth="2" NCoef="0" IVar="-1" Cut="0.0000000000000000e+00" cType="1" res="1.4017160050570965e-02" rms="3.8061603903770447e-01" purity="3.3908045291900635e-01" nType="-99"/>
          <Node pos="r" depth="2" NCoef="0" IVar="-1" Cut="0.0000000000000000e+00" cType="1" res="-4.1480205254629254e-04" rms="3.2701113820075989e-01" purity="1.6897918283939362e-01" nType="-99"/>
        </Node>
      </Node>
    </BinaryTree>
    <BinaryTree type="DecisionTree" boostWeight="1.0000000000000000e+00" itree="1759">
      <Node pos="s" depth="0" NCoef="0" IVar="1" Cut="1.2106447219848633e+00" cType="1" res="-4.9991149353445508e-07" rms="3.2192608714103699e-01" purity="5.9855979681015015e-01" nType="0">
        <Node pos="l" depth="1" NCoef="0" IVar="-1" Cut="0.0000000000000000e+00" cType="1" res="-2.6673274987842888e-05" rms="3.2196563482284546e-01" purity="6.0544127225875854e-01" nType="-99"/>
        <Node pos="r" depth="1" NCoef="0" IVar="1" Cut="1.3020795583724976e+00" cType="1" res="3.6583116743713617e-03" rms="3.1929495930671692e-01" purity="1.4649681746959686e-01" nType="0">
          <Node pos="l" depth="2" NCoef="0" IVar="-1" Cut="0.0000000000000000e+00" cType="1" res="1.8499018624424934e-02" rms="3.4349602460861206e-01" purity="1.6666667163372040e-01" nType="-99"/>
          <Node pos="r" depth="2" NCoef="0" IVar="-1" Cut="0.0000000000000000e+00" cType="1" res="-1.4687611255794764e-03" rms="3.1371858716011047e-01" purity="1.4241960644721985e-01" nType="-99"/>
        </Node>
      </Node>
    </BinaryTree>
    <BinaryTree type="DecisionTree" boostWeight="1.0000000000000000e+00" itree="1760">
      <Node pos="s" depth="0" NCoef="0" IVar="1" Cut="1.5704647302627563e+00" cType="1" res="-5.6630869949003682e-07" rms="3.2192432880401611e-01" purity="5.9855979681015015e-01" nType="0">
        <Node pos="l" depth="1" NCoef="0" IVar="-1" Cut="0.0000000000000000e+00" cType="1" res="-1.9793294995906763e-05" rms="3.2176363468170166e-01" purity="6.0177844762802124e-01" nType="-99"/>
        <Node pos="r" depth="1" NCoef="0" IVar="1" Cut="1.7793014049530029e+00" cType="0" res="5.3640357218682766e-03" rms="3.4221094846725464e-01" purity="1.7839196324348450e-01" nType="0">
          <Node pos="l" depth="2" NCoef="0" IVar="-1" Cut="0.0000000000000000e+00" cType="1" res="-8.6311053019016981e-04" rms="3.5576516389846802e-01" purity="1.9424460828304291e-01" nType="-99"/>
          <Node pos="r" depth="2" NCoef="0" IVar="-1" Cut="0.0000000000000000e+00" cType="1" res="1.2376319617033005e-02" rms="3.0776223540306091e-01" purity="1.4166666567325592e-01" nType="-99"/>
        </Node>
      </Node>
    </BinaryTree>
    <BinaryTree type="DecisionTree" boostWeight="1.0000000000000000e+00" itree="1761">
      <Node pos="s" depth="0" NCoef="0" IVar="1" Cut="1.7341328859329224e+00" cType="1" res="-5.5344264637824381e-07" rms="3.2192301750183105e-01" purity="5.9855979681015015e-01" nType="0">
        <Node pos="l" depth="1" NCoef="0" IVar="-1" Cut="0.0000000000000000e+00" cType="1" res="-1.7297958038398065e-05" rms="3.2170218229293823e-01" purity="6.0092604160308838e-01" nType="-99"/>
        <Node pos="r" depth="1" NCoef="0" IVar="2" Cut="1.2996939420700073e+00" cType="1" res="6.0970359481871128e-03" rms="3.5745686292648315e-01" purity="1.9607843458652496e-01" nType="0">
          <Node pos="l" depth="2" NCoef="0" IVar="-1" Cut="0.0000000000000000e+00" cType="1" res="6.5915472805500031e-03" rms="3.6441779136657715e-01" purity="2.1333333849906921e-01" nType="-99"/>
          <Node pos="r" depth="2" NCoef="0" IVar="-1" Cut="0.0000000000000000e+00" cType="1" res="-2.2405828349292278e-03" rms="3.5019484162330627e-01" purity="1.7948718369007111e-01" nType="-99"/>
        </Node>
      </Node>
    </BinaryTree>
    <BinaryTree type="DecisionTree" boostWeight="1.0000000000000000e+00" itree="1762">
      <Node pos="s" depth="0" NCoef="0" IVar="2" Cut="3.7989275455474854e+00" cType="1" res="-5.1882221896448755e-07" rms="3.2192218303680420e-01" purity="5.9855979681015015e-01" nType="0">
        <Node pos="l" depth="1" NCoef="0" IVar="2" Cut="3.3657162189483643e+00" cType="1" res="-2.2577745767193846e-05" rms="3.2181510329246521e-01" purity="5.9950596094131470e-01" nType="0">
          <Node pos="l" depth="2" NCoef="0" IVar="-1" Cut="0.0000000000000000e+00" cType="1" res="1.2637542567972559e-05" rms="3.2183954119682312e-01" purity="6.0052978992462158e-01" nType="-99"/>
          <Node pos="r" depth="2" NCoef="0" IVar="-1" Cut="0.0000000000000000e+00" cType="1" res="-7.5546186417341232e-03" rms="3.1114643812179565e-01" purity="1.8604651093482971e-01" nType="-99"/>
        </Node>
        <Node pos="r" depth="1" NCoef="0" IVar="-1" Cut="0.0000000000000000e+00" cType="1" res="3.0824479181319475e-03" rms="3.6199399828910828e-01" purity="2.2137404978275299e-01" nType="-99"/>
      </Node>
    </BinaryTree>
    <BinaryTree type="DecisionTree" boostWeight="1.0000000000000000e+00" itree="1763">
      <Node pos="s" depth="0" NCoef="0" IVar="2" Cut="2.6300268173217773e+00" cType="1" res="-4.8620523784848046e-07" rms="3.2192200422286987e-01" purity="5.9855979681015015e-01" nType="0">
        <Node pos="l" depth="1" NCoef="0" IVar="-1" Cut="0.0000000000000000e+00" cType="1" res="-2.7673298973240890e-05" rms="3.2173958420753479e-01" purity="6.0616320371627808e-01" nType="-99"/>
        <Node pos="r" depth="1" NCoef="0" IVar="1" Cut="2.4987505748867989e-03" cType="1" res="3.1163035891950130e-03" rms="3.3160722255706787e-01" purity="1.8802520632743835e-01" nType="0">
          <Node pos="l" depth="2" NCoef="0" IVar="-1" Cut="0.0000000000000000e+00" cType="1" res="-7.1938331238925457e-03" rms="3.4780219197273254e-01" purity="2.3353293538093567e-01" nType="-99"/>
          <Node pos="r" depth="2" NCoef="0" IVar="-1" Cut="0.0000000000000000e+00" cType="1" res="3.3151106908917427e-03" rms="3.2787266373634338e-01" purity="1.7834395170211792e-01" nType="-99"/>
        </Node>
      </Node>
    </BinaryTree>
    <BinaryTree type="DecisionTree" boostWeight="1.0000000000000000e+00" itree="1764">
      <Node pos="s" depth="0" NCoef="0" IVar="1" Cut="1.0457271337509155e+00" cType="1" res="-4.7200526864799031e-07" rms="3.2192105054855347e-01" purity="5.9855979681015015e-01" nType="0">
        <Node pos="l" depth="1" NCoef="0" IVar="-1" Cut="0.0000000000000000e+00" cType="1" res="3.0464540031971410e-05" rms="3.2227650284767151e-01" purity="6.0884672403335571e-01" nType="-99"/>
        <Node pos="r" depth="1" NCoef="0" IVar="0" Cut="1.9365317821502686e+00" cType="0" res="-2.9450773727148771e-03" rms="3.0529785156250000e-01" purity="1.3055062294006348e-01" nType="0">
          <Node pos="l" depth="2" NCoef="0" IVar="-1" Cut="0.0000000000000000e+00" cType="1" res="6.2609235756099224e-03" rms="3.8604071736335754e-01" purity="2.3828125000000000e-01" nType="-99"/>
          <Node pos="r" depth="2" NCoef="0" IVar="-1" Cut="0.0000000000000000e+00" cType="1" res="-5.3543420508503914e-03" rms="2.7674621343612671e-01" purity="9.8850578069686890e-02" nType="-99"/>
        </Node>
      </Node>
    </BinaryTree>
    <BinaryTree type="DecisionTree" boostWeight="1.0000000000000000e+00" itree="1765">
      <Node pos="s" depth="0" NCoef="0" IVar="2" Cut="1.9256891012191772e+00" cType="1" res="-5.1155785740775173e-07" rms="3.2192012667655945e-01" purity="5.9855979681015015e-01" nType="0">
        <Node pos="l" depth="1" NCoef="0" IVar="-1" Cut="0.0000000000000000e+00" cType="1" res="5.3867941460339352e-05" rms="3.2152613997459412e-01" purity="6.2506610155105591e-01" nType="-99"/>
        <Node pos="r" depth="1" NCoef="0" IVar="3" Cut="4.0190321207046509e-01" cType="0" res="-1.7576375976204872e-03" rms="3.2796335220336914e-01" purity="1.8757881224155426e-01" nType="0">
          <Node pos="l" depth="2" NCoef="0" IVar="-1" Cut="0.0000000000000000e+00" cType="1" res="8.5112750530242920e-03" rms="4.1325554251670837e-01" purity="6.1688309907913208e-01" nType="-99"/>
          <Node pos="r" depth="2" NCoef="0" IVar="-1" Cut="0.0000000000000000e+00" cType="1" res="-1.5363297425210476e-03" rms="3.2291442155838013e-01" purity="1.6567263007164001e-01" nType="-99"/>
        </Node>
      </Node>
    </BinaryTree>
    <BinaryTree type="DecisionTree" boostWeight="1.0000000000000000e+00" itree="1766">
      <Node pos="s" depth="0" NCoef="0" IVar="1" Cut="1.7341328859329224e+00" cType="1" res="-4.6487679128404125e-07" rms="3.2191994786262512e-01" purity="5.9855979681015015e-01" nType="0">
        <Node pos="l" depth="1" NCoef="0" IVar="-1" Cut="0.0000000000000000e+00" cType="1" res="-1.6031261111493222e-05" rms="3.2169955968856812e-01" purity="6.0092604160308838e-01" nType="-99"/>
        <Node pos="r" depth="1" NCoef="0" IVar="0" Cut="1.4305347204208374e+00" cType="0" res="5.6579434312880039e-03" rms="3.5739016532897949e-01" purity="1.9607843458652496e-01" nType="0">
          <Node pos="l" depth="2" NCoef="0" IVar="-1" Cut="0.0000000000000000e+00" cType="1" res="-2.9600553680211306e-03" rms="3.5661652684211731e-01" purity="2.0000000298023224e-01" nType="-99"/>
          <Node pos="r" depth="2" NCoef="0" IVar="-1" Cut="0.0000000000000000e+00" cType="1" res="6.6510364413261414e-03" rms="3.5758897662162781e-01" purity="1.9277107715606689e-01" nType="-99"/>
        </Node>
      </Node>
    </BinaryTree>
    <BinaryTree type="DecisionTree" boostWeight="1.0000000000000000e+00" itree="1767">
      <Node pos="s" depth="0" NCoef="0" IVar="1" Cut="1.5829585790634155e+00" cType="1" res="-4.4310689872872899e-07" rms="3.2191923260688782e-01" purity="5.9855979681015015e-01" nType="0">
        <Node pos="l" depth="1" NCoef="0" IVar="-1" Cut="0.0000000000000000e+00" cType="1" res="1.7990074411500245e-05" rms="3.2183137536048889e-01" purity="6.0176652669906616e-01" nType="-99"/>
        <Node pos="r" depth="1" NCoef="0" IVar="2" Cut="9.8254376649856567e-01" cType="0" res="-5.1444615237414837e-03" rms="3.3346572518348694e-01" purity="1.6795866191387177e-01" nType="0">
          <Node pos="l" depth="2" NCoef="0" IVar="-1" Cut="0.0000000000000000e+00" cType="1" res="1.3617145596072078e-03" rms="3.5134220123291016e-01" purity="1.9066147506237030e-01" nType="-99"/>
          <Node pos="r" depth="2" NCoef="0" IVar="-1" Cut="0.0000000000000000e+00" cType="1" res="-9.9968714639544487e-03" rms="2.9416626691818237e-01" purity="1.2307692319154739e-01" nType="-99"/>
        </Node>
      </Node>
    </BinaryTree>
    <BinaryTree type="DecisionTree" boostWeight="1.0000000000000000e+00" itree="1768">
      <Node pos="s" depth="0" NCoef="0" IVar="1" Cut="1.7341328859329224e+00" cType="1" res="-4.3387751702539390e-07" rms="3.2191914319992065e-01" purity="5.9855979681015015e-01" nType="0">
        <Node pos="l" depth="1" NCoef="0" IVar="-1" Cut="0.0000000000000000e+00" cType="1" res="-1.6037371096899733e-05" rms="3.2169932126998901e-01" purity="6.0092604160308838e-01" nType="-99"/>
        <Node pos="r" depth="1" NCoef="0" IVar="0" Cut="1.4305347204208374e+00" cType="0" res="5.6654117070138454e-03" rms="3.5730054974555969e-01" purity="1.9607843458652496e-01" nType="0">
          <Node pos="l" depth="2" NCoef="0" IVar="-1" Cut="0.0000000000000000e+00" cType="1" res="-2.6807493995875120e-03" rms="3.5663607716560364e-01" purity="2.0000000298023224e-01" nType="-99"/>
          <Node pos="r" depth="2" NCoef="0" IVar="-1" Cut="0.0000000000000000e+00" cType="1" res="6.3703614287078381e-03" rms="3.5745877027511597e-01" purity="1.9277107715606689e-01" nType="-99"/>
        </Node>
      </Node>
    </BinaryTree>
    <BinaryTree type="DecisionTree" boostWeight="1.0000000000000000e+00" itree="1769">
      <Node pos="s" depth="0" NCoef="0" IVar="1" Cut="1.5829585790634155e+00" cType="1" res="-4.1281688822891738e-07" rms="3.2191845774650574e-01" purity="5.9855979681015015e-01" nType="0">
        <Node pos="l" depth="1" NCoef="0" IVar="-1" Cut="0.0000000000000000e+00" cType="1" res="1.7794725863495842e-05" rms="3.2183137536048889e-01" purity="6.0176652669906616e-01" nType="-99"/>
        <Node pos="r" depth="1" NCoef="0" IVar="2" Cut="9.8254376649856567e-01" cType="0" res="-5.0851502455770969e-03" rms="3.3336716890335083e-01" purity="1.6795866191387177e-01" nType="0">
          <Node pos="l" depth="2" NCoef="0" IVar="-1" Cut="0.0000000000000000e+00" cType="1" res="1.1491719633340836e-03" rms="3.5123857855796814e-01" purity="1.9066147506237030e-01" nType="-99"/>
          <Node pos="r" depth="2" NCoef="0" IVar="-1" Cut="0.0000000000000000e+00" cType="1" res="-9.4853043556213379e-03" rms="2.9418703913688660e-01" purity="1.2307692319154739e-01" nType="-99"/>
        </Node>
      </Node>
    </BinaryTree>
    <BinaryTree type="DecisionTree" boostWeight="1.0000000000000000e+00" itree="1770">
      <Node pos="s" depth="0" NCoef="0" IVar="1" Cut="1.7341328859329224e+00" cType="1" res="-4.0231324760497955e-07" rms="3.2191842794418335e-01" purity="5.9855979681015015e-01" nType="0">
        <Node pos="l" depth="1" NCoef="0" IVar="-1" Cut="0.0000000000000000e+00" cType="1" res="-1.6023894204408862e-05" rms="3.2169911265373230e-01" purity="6.0092604160308838e-01" nType="-99"/>
        <Node pos="r" depth="1" NCoef="0" IVar="3" Cut="2.3375508189201355e-01" cType="1" res="5.6659667752683163e-03" rms="3.5722389817237854e-01" purity="1.9607843458652496e-01" nType="0">
          <Node pos="l" depth="2" NCoef="0" IVar="-1" Cut="0.0000000000000000e+00" cType="1" res="6.6337171010673046e-03" rms="3.6919990181922913e-01" purity="2.1232876181602478e-01" nType="-99"/>
          <Node pos="r" depth="2" NCoef="0" IVar="-1" Cut="0.0000000000000000e+00" cType="1" res="-2.3644554894417524e-03" rms="3.4548392891883850e-01" purity="1.8125000596046448e-01" nType="-99"/>
        </Node>
      </Node>
    </BinaryTree>
    <BinaryTree type="DecisionTree" boostWeight="1.0000000000000000e+00" itree="1771">
      <Node pos="s" depth="0" NCoef="0" IVar="1" Cut="1.5829585790634155e+00" cType="1" res="-3.8302420080071897e-07" rms="3.2191771268844604e-01" purity="5.9855979681015015e-01" nType="0">
        <Node pos="l" depth="1" NCoef="0" IVar="-1" Cut="0.0000000000000000e+00" cType="1" res="1.7617705452721566e-05" rms="3.2183137536048889e-01" purity="6.0176652669906616e-01" nType="-99"/>
        <Node pos="r" depth="1" NCoef="0" IVar="3" Cut="2.2992578148841858e-01" cType="0" res="-5.0310860387980938e-03" rms="3.3327072858810425e-01" purity="1.6795866191387177e-01" nType="0">
          <Node pos="l" depth="2" NCoef="0" IVar="-1" Cut="0.0000000000000000e+00" cType="1" res="1.9170549931004643e-03" rms="3.4016844630241394e-01" purity="1.7511521279811859e-01" nType="-99"/>
          <Node pos="r" depth="2" NCoef="0" IVar="-1" Cut="0.0000000000000000e+00" cType="1" res="-6.6752657294273376e-03" rms="3.2381445169448853e-01" purity="1.5882353484630585e-01" nType="-99"/>
        </Node>
      </Node>
    </BinaryTree>
    <BinaryTree type="DecisionTree" boostWeight="1.0000000000000000e+00" itree="1772">
      <Node pos="s" depth="0" NCoef="0" IVar="1" Cut="1.7341328859329224e+00" cType="1" res="-3.6732788544213690e-07" rms="3.2191768288612366e-01" purity="5.9855979681015015e-01" nType="0">
        <Node pos="l" depth="1" NCoef="0" IVar="-1" Cut="0.0000000000000000e+00" cType="1" res="-1.5972747860359959e-05" rms="3.2169893383979797e-01" purity="6.0092604160308838e-01" nType="-99"/>
        <Node pos="r" depth="1" NCoef="0" IVar="2" Cut="1.2996939420700073e+00" cType="1" res="5.6536290794610977e-03" rms="3.5713958740234375e-01" purity="1.9607843458652496e-01" nType="0">
          <Node pos="l" depth="2" NCoef="0" IVar="-1" Cut="0.0000000000000000e+00" cType="1" res="6.4972019754350185e-03" rms="3.6395800113677979e-01" purity="2.1333333849906921e-01" nType="-99"/>
          <Node pos="r" depth="2" NCoef="0" IVar="-1" Cut="0.0000000000000000e+00" cType="1" res="-2.4517001584172249e-03" rms="3.5000851750373840e-01" purity="1.7948718369007111e-01" nType="-99"/>
        </Node>
      </Node>
    </BinaryTree>
    <BinaryTree type="DecisionTree" boostWeight="1.0000000000000000e+00" itree="1773">
      <Node pos="s" depth="0" NCoef="0" IVar="1" Cut="1.5829585790634155e+00" cType="1" res="-3.5064766734649311e-07" rms="3.2191687822341919e-01" purity="5.9855979681015015e-01" nType="0">
        <Node pos="l" depth="1" NCoef="0" IVar="-1" Cut="0.0000000000000000e+00" cType="1" res="1.7453330656280741e-05" rms="3.2183137536048889e-01" purity="6.0176652669906616e-01" nType="-99"/>
        <Node pos="r" depth="1" NCoef="0" IVar="2" Cut="1.1131349802017212e+00" cType="0" res="-4.9802470020949841e-03" rms="3.3316206932067871e-01" purity="1.6795866191387177e-01" nType="0">
          <Node pos="l" depth="2" NCoef="0" IVar="-1" Cut="0.0000000000000000e+00" cType="1" res="1.5400731936097145e-03" rms="3.4789156913757324e-01" purity="1.8454936146736145e-01" nType="-99"/>
          <Node pos="r" depth="2" NCoef="0" IVar="-1" Cut="0.0000000000000000e+00" cType="1" res="-7.6683391816914082e-03" rms="3.0903846025466919e-01" purity="1.4285714924335480e-01" nType="-99"/>
        </Node>
      </Node>
    </BinaryTree>
    <BinaryTree type="DecisionTree" boostWeight="1.0000000000000000e+00" itree="1774">
      <Node pos="s" depth="0" NCoef="0" IVar="1" Cut="1.7341328859329224e+00" cType="1" res="-3.4071422305714805e-07" rms="3.2191690802574158e-01" purity="5.9855979681015015e-01" nType="0">
        <Node pos="l" depth="1" NCoef="0" IVar="-1" Cut="0.0000000000000000e+00" cType="1" res="-1.5981464457581751e-05" rms="3.2169863581657410e-01" purity="6.0092604160308838e-01" nType="-99"/>
        <Node pos="r" depth="1" NCoef="0" IVar="3" Cut="2.3375508189201355e-01" cType="1" res="5.6612882763147354e-03" rms="3.5706263780593872e-01" purity="1.9607843458652496e-01" nType="0">
          <Node pos="l" depth="2" NCoef="0" IVar="-1" Cut="0.0000000000000000e+00" cType="1" res="6.5385596826672554e-03" rms="3.6879113316535950e-01" purity="2.1232876181602478e-01" nType="-99"/>
          <Node pos="r" depth="2" NCoef="0" IVar="-1" Cut="0.0000000000000000e+00" cType="1" res="-2.2811107337474823e-03" rms="3.4558108448982239e-01" purity="1.8125000596046448e-01" nType="-99"/>
        </Node>
      </Node>
    </BinaryTree>
    <BinaryTree type="DecisionTree" boostWeight="1.0000000000000000e+00" itree="1775">
      <Node pos="s" depth="0" NCoef="0" IVar="1" Cut="1.5829585790634155e+00" cType="1" res="-3.2673048622200440e-07" rms="3.2191619277000427e-01" purity="5.9855979681015015e-01" nType="0">
        <Node pos="l" depth="1" NCoef="0" IVar="-1" Cut="0.0000000000000000e+00" cType="1" res="1.7306054360233247e-05" rms="3.2183137536048889e-01" purity="6.0176652669906616e-01" nType="-99"/>
        <Node pos="r" depth="1" NCoef="0" IVar="3" Cut="2.2992578148841858e-01" cType="0" res="-4.9353847280144691e-03" rms="3.3307349681854248e-01" purity="1.6795866191387177e-01" nType="0">
          <Node pos="l" depth="2" NCoef="0" IVar="-1" Cut="0.0000000000000000e+00" cType="1" res="1.9037346355617046e-03" rms="3.4005099534988403e-01" purity="1.7511521279811859e-01" nType="-99"/>
          <Node pos="r" depth="2" NCoef="0" IVar="-1" Cut="0.0000000000000000e+00" cType="1" res="-6.5902848728001118e-03" rms="3.2352113723754883e-01" purity="1.5882353484630585e-01" nType="-99"/>
        </Node>
      </Node>
    </BinaryTree>
    <BinaryTree type="DecisionTree" boostWeight="1.0000000000000000e+00" itree="1776">
      <Node pos="s" depth="0" NCoef="0" IVar="1" Cut="1.7341328859329224e+00" cType="1" res="-3.1603184424966457e-07" rms="3.2191616296768188e-01" purity="5.9855979681015015e-01" nType="0">
        <Node pos="l" depth="1" NCoef="0" IVar="-1" Cut="0.0000000000000000e+00" cType="1" res="-1.5911655282252468e-05" rms="3.2169845700263977e-01" purity="6.0092604160308838e-01" nType="-99"/>
        <Node pos="r" depth="1" NCoef="0" IVar="2" Cut="1.2996939420700073e+00" cType="1" res="5.6405095383524895e-03" rms="3.5697913169860840e-01" purity="1.9607843458652496e-01" nType="0">
          <Node pos="l" depth="2" NCoef="0" IVar="-1" Cut="0.0000000000000000e+00" cType="1" res="6.3886386342346668e-03" rms="3.6369624733924866e-01" purity="2.1333333849906921e-01" nType="-99"/>
          <Node pos="r" depth="2" NCoef="0" IVar="-1" Cut="0.0000000000000000e+00" cType="1" res="-2.3583329748362303e-03" rms="3.4996894001960754e-01" purity="1.7948718369007111e-01" nType="-99"/>
        </Node>
      </Node>
    </BinaryTree>
    <BinaryTree type="DecisionTree" boostWeight="1.0000000000000000e+00" itree="1777">
      <Node pos="s" depth="0" NCoef="0" IVar="1" Cut="1.5829585790634155e+00" cType="1" res="-3.0384768479052582e-07" rms="3.2191538810729980e-01" purity="5.9855979681015015e-01" nType="0">
        <Node pos="l" depth="1" NCoef="0" IVar="-1" Cut="0.0000000000000000e+00" cType="1" res="1.7166657926281914e-05" rms="3.2183137536048889e-01" purity="6.0176652669906616e-01" nType="-99"/>
        <Node pos="r" depth="1" NCoef="0" IVar="2" Cut="1.2530542612075806e+00" cType="0" res="-4.8928903415799141e-03" rms="3.3296769857406616e-01" purity="1.6795866191387177e-01" nType="0">
          <Node pos="l" depth="2" NCoef="0" IVar="-1" Cut="0.0000000000000000e+00" cType="1" res="2.1154461428523064e-03" rms="3.4481400251388550e-01" purity="1.7961165308952332e-01" nType="-99"/>
          <Node pos="r" depth="2" NCoef="0" IVar="-1" Cut="0.0000000000000000e+00" cType="1" res="-6.5646106377243996e-03" rms="3.1853690743446350e-01" purity="1.5469613671302795e-01" nType="-99"/>
        </Node>
      </Node>
    </BinaryTree>
    <BinaryTree type="DecisionTree" boostWeight="1.0000000000000000e+00" itree="1778">
      <Node pos="s" depth="0" NCoef="0" IVar="1" Cut="1.7341328859329224e+00" cType="1" res="-2.9656405331479618e-07" rms="3.2191541790962219e-01" purity="5.9855979681015015e-01" nType="0">
        <Node pos="l" depth="1" NCoef="0" IVar="-1" Cut="0.0000000000000000e+00" cType="1" res="-1.5904006431810558e-05" rms="3.2169830799102783e-01" purity="6.0092604160308838e-01" nType="-99"/>
        <Node pos="r" depth="1" NCoef="0" IVar="3" Cut="2.3375508189201355e-01" cType="1" res="5.6410906836390495e-03" rms="3.5688105225563049e-01" purity="1.9607843458652496e-01" nType="0">
          <Node pos="l" depth="2" NCoef="0" IVar="-1" Cut="0.0000000000000000e+00" cType="1" res="6.4616091549396515e-03" rms="3.6844632029533386e-01" purity="2.1232876181602478e-01" nType="-99"/>
          <Node pos="r" depth="2" NCoef="0" IVar="-1" Cut="0.0000000000000000e+00" cType="1" res="-2.2262234706431627e-03" rms="3.4557056427001953e-01" purity="1.8125000596046448e-01" nType="-99"/>
        </Node>
      </Node>
    </BinaryTree>
    <BinaryTree type="DecisionTree" boostWeight="1.0000000000000000e+00" itree="1779">
      <Node pos="s" depth="0" NCoef="0" IVar="1" Cut="1.5829585790634155e+00" cType="1" res="-2.8615164637812995e-07" rms="3.2191470265388489e-01" purity="5.9855979681015015e-01" nType="0">
        <Node pos="l" depth="1" NCoef="0" IVar="-1" Cut="0.0000000000000000e+00" cType="1" res="1.7040321836248040e-05" rms="3.2183137536048889e-01" purity="6.0176652669906616e-01" nType="-99"/>
        <Node pos="r" depth="1" NCoef="0" IVar="3" Cut="2.2992578148841858e-01" cType="0" res="-4.8547880724072456e-03" rms="3.3288004994392395e-01" purity="1.6795866191387177e-01" nType="0">
          <Node pos="l" depth="2" NCoef="0" IVar="-1" Cut="0.0000000000000000e+00" cType="1" res="1.8685633549466729e-03" rms="3.3987900614738464e-01" purity="1.7511521279811859e-01" nType="-99"/>
          <Node pos="r" depth="2" NCoef="0" IVar="-1" Cut="0.0000000000000000e+00" cType="1" res="-6.4899348653852940e-03" rms="3.2331308722496033e-01" purity="1.5882353484630585e-01" nType="-99"/>
        </Node>
      </Node>
    </BinaryTree>
    <BinaryTree type="DecisionTree" boostWeight="1.0000000000000000e+00" itree="1780">
      <Node pos="s" depth="0" NCoef="0" IVar="1" Cut="1.7341328859329224e+00" cType="1" res="-2.7874924057869066e-07" rms="3.2191470265388489e-01" purity="5.9855979681015015e-01" nType="0">
        <Node pos="l" depth="1" NCoef="0" IVar="-1" Cut="0.0000000000000000e+00" cType="1" res="-1.5822433852008544e-05" rms="3.2169812917709351e-01" purity="6.0092604160308838e-01" nType="-99"/>
        <Node pos="r" depth="1" NCoef="0" IVar="1" Cut="2.0068433284759521e+00" cType="0" res="5.6149279698729515e-03" rms="3.5679841041564941e-01" purity="1.9607843458652496e-01" nType="0">
          <Node pos="l" depth="2" NCoef="0" IVar="-1" Cut="0.0000000000000000e+00" cType="1" res="-1.3333391398191452e-03" rms="3.7635302543640137e-01" purity="2.2043010592460632e-01" nType="-99"/>
          <Node pos="r" depth="2" NCoef="0" IVar="-1" Cut="0.0000000000000000e+00" cType="1" res="9.4948066398501396e-03" rms="3.2357013225555420e-01" purity="1.5833333134651184e-01" nType="-99"/>
        </Node>
      </Node>
    </BinaryTree>
    <BinaryTree type="DecisionTree" boostWeight="1.0000000000000000e+00" itree="1781">
      <Node pos="s" depth="0" NCoef="0" IVar="3" Cut="2.2162583470344543e-01" cType="1" res="-2.8101638349653513e-07" rms="3.2191368937492371e-01" purity="5.9855979681015015e-01" nType="0">
        <Node pos="l" depth="1" NCoef="0" IVar="-1" Cut="0.0000000000000000e+00" cType="1" res="3.2604217994958162e-04" rms="2.7288118004798889e-01" purity="6.8584614992141724e-01" nType="-99"/>
        <Node pos="r" depth="1" NCoef="0" IVar="3" Cut="2.2622206807136536e-01" cType="0" res="-3.5732620744965971e-04" rms="3.5294389724731445e-01" purity="5.3588420152664185e-01" nType="0">
          <Node pos="l" depth="2" NCoef="0" IVar="-1" Cut="0.0000000000000000e+00" cType="1" res="2.7053076337324455e-05" rms="3.5424545407295227e-01" purity="5.4089373350143433e-01" nType="-99"/>
          <Node pos="r" depth="2" NCoef="0" IVar="-1" Cut="0.0000000000000000e+00" cType="1" res="-1.2205754406750202e-02" rms="2.7262046933174133e-01" purity="2.6534295082092285e-01" nType="-99"/>
        </Node>
      </Node>
    </BinaryTree>
    <BinaryTree type="DecisionTree" boostWeight="1.0000000000000000e+00" itree="1782">
      <Node pos="s" depth="0" NCoef="0" IVar="1" Cut="1.5829585790634155e+00" cType="1" res="-3.1519221010967158e-07" rms="3.2191094756126404e-01" purity="5.9855979681015015e-01" nType="0">
        <Node pos="l" depth="1" NCoef="0" IVar="-1" Cut="0.0000000000000000e+00" cType="1" res="1.6972308003460057e-05" rms="3.2182869315147400e-01" purity="6.0176652669906616e-01" nType="-99"/>
        <Node pos="r" depth="1" NCoef="0" IVar="1" Cut="1.8520064353942871e+00" cType="0" res="-4.8389625735580921e-03" rms="3.3273622393608093e-01" purity="1.6795866191387177e-01" nType="0">
          <Node pos="l" depth="2" NCoef="0" IVar="-1" Cut="0.0000000000000000e+00" cType="1" res="1.2017041444778442e-03" rms="3.6555656790733337e-01" purity="2.0816326141357422e-01" nType="-99"/>
          <Node pos="r" depth="2" NCoef="0" IVar="-1" Cut="0.0000000000000000e+00" cType="1" res="-1.0140078142285347e-02" rms="2.6615598797798157e-01" purity="9.8591551184654236e-02" nType="-99"/>
        </Node>
      </Node>
    </BinaryTree>
    <BinaryTree type="DecisionTree" boostWeight="1.0000000000000000e+00" itree="1783">
      <Node pos="s" depth="0" NCoef="0" IVar="1" Cut="7.5837081670761108e-01" cType="1" res="-3.1953743473422946e-07" rms="3.2191103696823120e-01" purity="5.9855979681015015e-01" nType="0">
        <Node pos="l" depth="1" NCoef="0" IVar="-1" Cut="0.0000000000000000e+00" cType="1" res="-4.2145125917159021e-05" rms="3.2262063026428223e-01" purity="6.1891573667526245e-01" nType="-99"/>
        <Node pos="r" depth="1" NCoef="0" IVar="0" Cut="1.4242878556251526e-01" cType="1" res="2.0591255743056536e-03" rms="3.0497515201568604e-01" purity="1.2621359527111053e-01" nType="0">
          <Node pos="l" depth="2" NCoef="0" IVar="-1" Cut="0.0000000000000000e+00" cType="1" res="9.3916635960340500e-03" rms="4.1387265920639038e-01" purity="2.4709302186965942e-01" nType="-99"/>
          <Node pos="r" depth="2" NCoef="0" IVar="-1" Cut="0.0000000000000000e+00" cType="1" res="-1.8955193227156997e-03" rms="2.7932956814765930e-01" purity="1.0335349291563034e-01" nType="-99"/>
        </Node>
      </Node>
    </BinaryTree>
    <BinaryTree type="DecisionTree" boostWeight="1.0000000000000000e+00" itree="1784">
      <Node pos="s" depth="0" NCoef="0" IVar="1" Cut="1.5704647302627563e+00" cType="1" res="-3.9949713936948683e-07" rms="3.2190898060798645e-01" purity="5.9855979681015015e-01" nType="0">
        <Node pos="l" depth="1" NCoef="0" IVar="-1" Cut="0.0000000000000000e+00" cType="1" res="-1.8440150597598404e-05" rms="3.2175588607788086e-01" purity="6.0177844762802124e-01" nType="-99"/>
        <Node pos="r" depth="1" NCoef="0" IVar="1" Cut="1.7505661249160767e+00" cType="0" res="5.0131436437368393e-03" rms="3.4126833081245422e-01" purity="1.7839196324348450e-01" nType="0">
          <Node pos="l" depth="2" NCoef="0" IVar="-1" Cut="0.0000000000000000e+00" cType="1" res="-8.2823651609942317e-04" rms="3.5122492909431458e-01" purity="1.9047619402408600e-01" nType="-99"/>
          <Node pos="r" depth="2" NCoef="0" IVar="-1" Cut="0.0000000000000000e+00" cType="1" res="1.3662809506058693e-02" rms="3.1046193838119507e-01" purity="1.4423076808452606e-01" nType="-99"/>
        </Node>
      </Node>
    </BinaryTree>
    <BinaryTree type="DecisionTree" boostWeight="1.0000000000000000e+00" itree="1785">
      <Node pos="s" depth="0" NCoef="0" IVar="0" Cut="2.6736631989479065e-01" cType="1" res="-4.0398970213573193e-07" rms="3.2190778851509094e-01" purity="5.9855979681015015e-01" nType="0">
        <Node pos="l" depth="1" NCoef="0" IVar="-1" Cut="0.0000000000000000e+00" cType="1" res="-1.1681656906148419e-04" rms="3.3523309230804443e-01" purity="7.9215997457504272e-01" nType="-99"/>
        <Node pos="r" depth="1" NCoef="0" IVar="3" Cut="3.9722949266433716e-01" cType="0" res="6.8794831167906523e-04" rms="2.8456661105155945e-01" purity="9.7883418202400208e-02" nType="0">
          <Node pos="l" depth="2" NCoef="0" IVar="-1" Cut="0.0000000000000000e+00" cType="1" res="2.2613419219851494e-02" rms="4.5507583022117615e-01" purity="3.2653060555458069e-01" nType="-99"/>
          <Node pos="r" depth="2" NCoef="0" IVar="-1" Cut="0.0000000000000000e+00" cType="1" res="-6.7033557570539415e-05" rms="2.8219166398048401e-01" purity="9.5557704567909241e-02" nType="-99"/>
        </Node>
      </Node>
    </BinaryTree>
    <BinaryTree type="DecisionTree" boostWeight="1.0000000000000000e+00" itree="1786">
      <Node pos="s" depth="0" NCoef="0" IVar="3" Cut="3.4780514240264893e-01" cType="0" res="-6.0143923974464997e-07" rms="3.2190278172492981e-01" purity="5.9855979681015015e-01" nType="0">
        <Node pos="l" depth="1" NCoef="0" IVar="-1" Cut="0.0000000000000000e+00" cType="1" res="-3.0985675402916968e-04" rms="3.6693027615547180e-01" purity="7.3368912935256958e-01" nType="-99"/>
        <Node pos="r" depth="1" NCoef="0" IVar="3" Cut="3.3771607279777527e-01" cType="0" res="2.3678079014644027e-04" rms="3.0785578489303589e-01" purity="5.6002062559127808e-01" nType="0">
          <Node pos="l" depth="2" NCoef="0" IVar="-1" Cut="0.0000000000000000e+00" cType="1" res="3.3942677546292543e-03" rms="3.7912470102310181e-01" purity="5.7616358995437622e-01" nType="-99"/>
          <Node pos="r" depth="2" NCoef="0" IVar="-1" Cut="0.0000000000000000e+00" cType="1" res="-6.5593936596997082e-05" rms="3.0496832728385925e-01" purity="5.5943840742111206e-01" nType="-99"/>
        </Node>
      </Node>
    </BinaryTree>
    <BinaryTree type="DecisionTree" boostWeight="1.0000000000000000e+00" itree="1787">
      <Node pos="s" depth="0" NCoef="0" IVar="3" Cut="2.9058721661567688e-01" cType="0" res="-5.3538218480753130e-07" rms="3.2190132141113281e-01" purity="5.9855979681015015e-01" nType="0">
        <Node pos="l" depth="1" NCoef="0" IVar="-1" Cut="0.0000000000000000e+00" cType="1" res="-2.0936789223924279e-04" rms="3.6652237176895142e-01" purity="6.2768095731735229e-01" nType="-99"/>
        <Node pos="r" depth="1" NCoef="0" IVar="3" Cut="2.8884452581405640e-01" cType="1" res="3.5937764914706349e-04" rms="2.8991106152534485e-01" purity="5.8000564575195312e-01" nType="0">
          <Node pos="l" depth="2" NCoef="0" IVar="-1" Cut="0.0000000000000000e+00" cType="1" res="8.7930631707422435e-05" rms="2.8950151801109314e-01" purity="5.8100521564483643e-01" nType="-99"/>
          <Node pos="r" depth="2" NCoef="0" IVar="-1" Cut="0.0000000000000000e+00" cType="1" res="9.7242416813969612e-03" rms="3.3440166711807251e-01" purity="4.6037736535072327e-01" nType="-99"/>
        </Node>
      </Node>
    </BinaryTree>
    <BinaryTree type="DecisionTree" boostWeight="1.0000000000000000e+00" itree="1788">
      <Node pos="s" depth="0" NCoef="0" IVar="3" Cut="2.7259728312492371e-01" cType="0" res="-4.9458975581728737e-07" rms="3.2189929485321045e-01" purity="5.9855979681015015e-01" nType="0">
        <Node pos="l" depth="1" NCoef="0" IVar="-1" Cut="0.0000000000000000e+00" cType="1" res="-1.8158776219934225e-04" rms="3.6301150918006897e-01" purity="5.9957766532897949e-01" nType="-99"/>
        <Node pos="r" depth="1" NCoef="0" IVar="3" Cut="2.7095374464988708e-01" cType="1" res="3.8325029890984297e-04" rms="2.8496676683425903e-01" purity="5.9774965047836304e-01" nType="0">
          <Node pos="l" depth="2" NCoef="0" IVar="-1" Cut="0.0000000000000000e+00" cType="1" res="1.0473631118657067e-04" rms="2.8462374210357666e-01" purity="5.9903115034103394e-01" nType="-99"/>
          <Node pos="r" depth="2" NCoef="0" IVar="-1" Cut="0.0000000000000000e+00" cType="1" res="1.0056172497570515e-02" rms="3.2112395763397217e-01" purity="4.5019921660423279e-01" nType="-99"/>
        </Node>
      </Node>
    </BinaryTree>
    <BinaryTree type="DecisionTree" boostWeight="1.0000000000000000e+00" itree="1789">
      <Node pos="s" depth="0" NCoef="0" IVar="2" Cut="3.5591530799865723e-01" cType="1" res="-4.5885525423727813e-07" rms="3.2189708948135376e-01" purity="5.9855979681015015e-01" nType="0">
        <Node pos="l" depth="1" NCoef="0" IVar="-1" Cut="0.0000000000000000e+00" cType="1" res="-3.3843884011730552e-04" rms="2.8129565715789795e-01" purity="8.3244299888610840e-01" nType="-99"/>
        <Node pos="r" depth="1" NCoef="0" IVar="0" Cut="1.8740630149841309e-01" cType="1" res="3.4139642957597971e-04" rms="3.4533879160881042e-01" purity="4.4918462634086609e-01" nType="0">
          <Node pos="l" depth="2" NCoef="0" IVar="-1" Cut="0.0000000000000000e+00" cType="1" res="7.4629404116421938e-04" rms="3.7559229135513306e-01" purity="7.6515668630599976e-01" nType="-99"/>
          <Node pos="r" depth="2" NCoef="0" IVar="-1" Cut="0.0000000000000000e+00" cType="1" res="-7.5049820588901639e-04" rms="3.1123977899551392e-01" purity="1.2493658065795898e-01" nType="-99"/>
        </Node>
      </Node>
    </BinaryTree>
    <BinaryTree type="DecisionTree" boostWeight="1.0000000000000000e+00" itree="1790">
      <Node pos="s" depth="0" NCoef="0" IVar="3" Cut="2.6784995198249817e-01" cType="1" res="-4.1197964151251654e-07" rms="3.2189744710922241e-01" purity="5.9855979681015015e-01" nType="0">
        <Node pos="l" depth="1" NCoef="0" IVar="-1" Cut="0.0000000000000000e+00" cType="1" res="2.5195576017722487e-04" rms="2.8376302123069763e-01" purity="6.0393178462982178e-01" nType="-99"/>
        <Node pos="r" depth="1" NCoef="0" IVar="2" Cut="4.4492575526237488e-01" cType="1" res="-4.9428228521719575e-04" rms="3.6189386248588562e-01" purity="5.9219861030578613e-01" nType="0">
          <Node pos="l" depth="2" NCoef="0" IVar="-1" Cut="0.0000000000000000e+00" cType="1" res="1.4689561212435365e-03" rms="3.2323405146598816e-01" purity="8.3468484878540039e-01" nType="-99"/>
          <Node pos="r" depth="2" NCoef="0" IVar="-1" Cut="0.0000000000000000e+00" cType="1" res="-5.5406574392691255e-04" rms="3.7244105339050293e-01" purity="5.2124679088592529e-01" nType="-99"/>
        </Node>
      </Node>
    </BinaryTree>
    <BinaryTree type="DecisionTree" boostWeight="1.0000000000000000e+00" itree="1791">
      <Node pos="s" depth="0" NCoef="0" IVar="2" Cut="7.9050660133361816e-01" cType="1" res="-3.4404928328513051e-07" rms="3.2189697027206421e-01" purity="5.9855979681015015e-01" nType="0">
        <Node pos="l" depth="1" NCoef="0" IVar="-1" Cut="0.0000000000000000e+00" cType="1" res="-1.7666592611931264e-04" rms="3.0650576949119568e-01" purity="7.4346238374710083e-01" nType="-99"/>
        <Node pos="r" depth="1" NCoef="0" IVar="2" Cut="7.9391616582870483e-01" cType="1" res="6.3200778095051646e-04" rms="3.4910771250724792e-01" purity="3.2500413060188293e-01" nType="0">
          <Node pos="l" depth="2" NCoef="0" IVar="-1" Cut="0.0000000000000000e+00" cType="1" res="2.2744534537196159e-02" rms="3.4606331586837769e-01" purity="5.6000000238418579e-01" nType="-99"/>
          <Node pos="r" depth="2" NCoef="0" IVar="-1" Cut="0.0000000000000000e+00" cType="1" res="1.3588959700427949e-04" rms="3.4910240769386292e-01" purity="3.2370069622993469e-01" nType="-99"/>
        </Node>
      </Node>
    </BinaryTree>
    <BinaryTree type="DecisionTree" boostWeight="1.0000000000000000e+00" itree="1792">
      <Node pos="s" depth="0" NCoef="0" IVar="0" Cut="2.6736631989479065e-01" cType="1" res="-2.9154449521229253e-07" rms="3.2189401984214783e-01" purity="5.9855979681015015e-01" nType="0">
        <Node pos="l" depth="1" NCoef="0" IVar="-1" Cut="0.0000000000000000e+00" cType="1" res="-1.2155626609455794e-04" rms="3.3521997928619385e-01" purity="7.9215997457504272e-01" nType="-99"/>
        <Node pos="r" depth="1" NCoef="0" IVar="3" Cut="4.0016287565231323e-01" cType="0" res="7.1621203096583486e-04" rms="2.8455075621604919e-01" purity="9.7883418202400208e-02" nType="0">
          <Node pos="l" depth="2" NCoef="0" IVar="-1" Cut="0.0000000000000000e+00" cType="1" res="2.1938262507319450e-02" rms="4.5835271477699280e-01" purity="3.3333334326744080e-01" nType="-99"/>
          <Node pos="r" depth="2" NCoef="0" IVar="-1" Cut="0.0000000000000000e+00" cType="1" res="2.6524076019995846e-05" rms="2.8247585892677307e-01" purity="9.5833621919155121e-02" nType="-99"/>
        </Node>
      </Node>
    </BinaryTree>
    <BinaryTree type="DecisionTree" boostWeight="1.0000000000000000e+00" itree="1793">
      <Node pos="s" depth="0" NCoef="0" IVar="3" Cut="3.4780514240264893e-01" cType="0" res="-4.5039695351078990e-07" rms="3.2188996672630310e-01" purity="5.9855979681015015e-01" nType="0">
        <Node pos="l" depth="1" NCoef="0" IVar="-1" Cut="0.0000000000000000e+00" cType="1" res="-3.0509612406603992e-04" rms="3.6690577864646912e-01" purity="7.3368912935256958e-01" nType="-99"/>
        <Node pos="r" depth="1" NCoef="0" IVar="3" Cut="3.4692808985710144e-01" cType="0" res="2.3332802811637521e-04" rms="3.0784690380096436e-01" purity="5.6002062559127808e-01" nType="0">
          <Node pos="l" depth="2" NCoef="0" IVar="-1" Cut="0.0000000000000000e+00" cType="1" res="1.0613661259412766e-02" rms="3.5115250945091248e-01" purity="6.1403506994247437e-01" nType="-99"/>
          <Node pos="r" depth="2" NCoef="0" IVar="-1" Cut="0.0000000000000000e+00" cType="1" res="7.2384464147035033e-05" rms="3.0771178007125854e-01" purity="5.5986905097961426e-01" nType="-99"/>
        </Node>
      </Node>
    </BinaryTree>
    <BinaryTree type="DecisionTree" boostWeight="1.0000000000000000e+00" itree="1794">
      <Node pos="s" depth="0" NCoef="0" IVar="3" Cut="2.6085385680198669e-01" cType="1" res="-3.9886262470645306e-07" rms="3.2188868522644043e-01" purity="5.9855979681015015e-01" nType="0">
        <Node pos="l" depth="1" NCoef="0" IVar="-1" Cut="0.0000000000000000e+00" cType="1" res="2.4961211602203548e-04" rms="2.8148353099822998e-01" purity="6.1474961042404175e-01" nType="-99"/>
        <Node pos="r" depth="1" NCoef="0" IVar="3" Cut="2.6288652420043945e-01" cType="0" res="-4.4225584133528173e-04" rms="3.6067366600036621e-01" purity="5.8097934722900391e-01" nType="0">
          <Node pos="l" depth="2" NCoef="0" IVar="-1" Cut="0.0000000000000000e+00" cType="1" res="-8.2656733866315335e-05" rms="3.6079943180084229e-01" purity="5.8383738994598389e-01" nType="-99"/>
          <Node pos="r" depth="2" NCoef="0" IVar="-1" Cut="0.0000000000000000e+00" cType="1" res="-8.1130517646670341e-03" rms="3.4965988993644714e-01" purity="3.4551495313644409e-01" nType="-99"/>
        </Node>
      </Node>
    </BinaryTree>
    <BinaryTree type="DecisionTree" boostWeight="1.0000000000000000e+00" itree="1795">
      <Node pos="s" depth="0" NCoef="0" IVar="2" Cut="3.5591530799865723e-01" cType="1" res="-3.7103100680724310e-07" rms="3.2188779115676880e-01" purity="5.9855979681015015e-01" nType="0">
        <Node pos="l" depth="1" NCoef="0" IVar="-1" Cut="0.0000000000000000e+00" cType="1" res="-3.4420081647112966e-04" rms="2.8129565715789795e-01" purity="8.3244299888610840e-01" nType="-99"/>
        <Node pos="r" depth="1" NCoef="0" IVar="0" Cut="1.8740630149841309e-01" cType="1" res="3.4735570079647005e-04" rms="3.4532460570335388e-01" purity="4.4918462634086609e-01" nType="0">
          <Node pos="l" depth="2" NCoef="0" IVar="-1" Cut="0.0000000000000000e+00" cType="1" res="7.1411405224353075e-04" rms="3.7558001279830933e-01" purity="7.6515668630599976e-01" nType="-99"/>
          <Node pos="r" depth="2" NCoef="0" IVar="-1" Cut="0.0000000000000000e+00" cType="1" res="-6.9745426299050450e-04" rms="3.1122419238090515e-01" purity="1.2493658065795898e-01" nType="-99"/>
        </Node>
      </Node>
    </BinaryTree>
    <BinaryTree type="DecisionTree" boostWeight="1.0000000000000000e+00" itree="1796">
      <Node pos="s" depth="0" NCoef="0" IVar="0" Cut="2.6736631989479065e-01" cType="1" res="-3.3132451449091604e-07" rms="3.2188814878463745e-01" purity="5.9855979681015015e-01" nType="0">
        <Node pos="l" depth="1" NCoef="0" IVar="-1" Cut="0.0000000000000000e+00" cType="1" res="-1.2694626639131457e-04" rms="3.3521658182144165e-01" purity="7.9215997457504272e-01" nType="-99"/>
        <Node pos="r" depth="1" NCoef="0" IVar="3" Cut="3.9722949266433716e-01" cType="0" res="7.4777606641873717e-04" rms="2.8453710675239563e-01" purity="9.7883418202400208e-02" nType="0">
          <Node pos="l" depth="2" NCoef="0" IVar="-1" Cut="0.0000000000000000e+00" cType="1" res="1.8041403964161873e-02" rms="4.5517691969871521e-01" purity="3.2653060555458069e-01" nType="-99"/>
          <Node pos="r" depth="2" NCoef="0" IVar="-1" Cut="0.0000000000000000e+00" cType="1" res="5.4981337598292157e-05" rms="2.8219583630561829e-01" purity="9.5557704567909241e-02" nType="-99"/>
        </Node>
      </Node>
    </BinaryTree>
    <BinaryTree type="DecisionTree" boostWeight="1.0000000000000000e+00" itree="1797">
      <Node pos="s" depth="0" NCoef="0" IVar="3" Cut="3.1232503056526184e-01" cType="0" res="-4.4582552050087543e-07" rms="3.2188466191291809e-01" purity="5.9855979681015015e-01" nType="0">
        <Node pos="l" depth="1" NCoef="0" IVar="-1" Cut="0.0000000000000000e+00" cType="1" res="-2.5631123571656644e-04" rms="3.6896455287933350e-01" purity="6.6702169179916382e-01" nType="-99"/>
        <Node pos="r" depth="1" NCoef="0" IVar="3" Cut="3.0637693405151367e-01" cType="1" res="3.3342852839268744e-04" rms="2.9682800173759460e-01" purity="5.6592863798141479e-01" nType="0">
          <Node pos="l" depth="2" NCoef="0" IVar="-1" Cut="0.0000000000000000e+00" cType="1" res="2.5583914975868538e-05" rms="2.9488405585289001e-01" purity="5.6868368387222290e-01" nType="-99"/>
          <Node pos="r" depth="2" NCoef="0" IVar="-1" Cut="0.0000000000000000e+00" cType="1" res="4.0844678878784180e-03" rms="3.6030310392379761e-01" purity="4.6575343608856201e-01" nType="-99"/>
        </Node>
      </Node>
    </BinaryTree>
    <BinaryTree type="DecisionTree" boostWeight="1.0000000000000000e+00" itree="1798">
      <Node pos="s" depth="0" NCoef="0" IVar="3" Cut="3.0382978916168213e-01" cType="0" res="-4.0629933550917485e-07" rms="3.2188367843627930e-01" purity="5.9855979681015015e-01" nType="0">
        <Node pos="l" depth="1" NCoef="0" IVar="-1" Cut="0.0000000000000000e+00" cType="1" res="-2.3345109366346151e-04" rms="3.6828723549842834e-01" purity="6.5106219053268433e-01" nType="-99"/>
        <Node pos="r" depth="1" NCoef="0" IVar="3" Cut="3.0321919918060303e-01" cType="1" res="3.4007403883151710e-04" rms="2.9402443766593933e-01" purity="5.7043123245239258e-01" nType="0">
          <Node pos="l" depth="2" NCoef="0" IVar="-1" Cut="0.0000000000000000e+00" cType="1" res="7.5619274866767228e-05" rms="2.9384881258010864e-01" purity="5.7047849893569946e-01" nType="-99"/>
          <Node pos="r" depth="2" NCoef="0" IVar="-1" Cut="0.0000000000000000e+00" cType="1" res="2.6145769283175468e-02" rms="3.3871498703956604e-01" purity="5.5555558204650879e-01" nType="-99"/>
        </Node>
      </Node>
    </BinaryTree>
    <BinaryTree type="DecisionTree" boostWeight="1.0000000000000000e+00" itree="1799">
      <Node pos="s" depth="0" NCoef="0" IVar="3" Cut="2.6784995198249817e-01" cType="1" res="-3.8760396137149655e-07" rms="3.2187959551811218e-01" purity="5.9855979681015015e-01" nType="0">
        <Node pos="l" depth="1" NCoef="0" IVar="-1" Cut="0.0000000000000000e+00" cType="1" res="2.4995591957122087e-04" rms="2.8375786542892456e-01" purity="6.0393178462982178e-01" nType="-99"/>
        <Node pos="r" depth="1" NCoef="0" IVar="0" Cut="1.3055971860885620e+00" cType="1" res="-4.9031700473278761e-04" rms="3.6186400055885315e-01" purity="5.9219861030578613e-01" nType="0">
          <Node pos="l" depth="2" NCoef="0" IVar="-1" Cut="0.0000000000000000e+00" cType="1" res="-2.8770053177140653e-04" rms="3.6168333888053894e-01" purity="5.9926015138626099e-01" nType="-99"/>
          <Node pos="r" depth="2" NCoef="0" IVar="-1" Cut="0.0000000000000000e+00" cType="1" res="4.7041228972375393e-03" rms="3.7089267373085022e-01" purity="2.2394677996635437e-01" nType="-99"/>
        </Node>
      </Node>
    </BinaryTree>
    <BinaryTree type="DecisionTree" boostWeight="1.0000000000000000e+00" itree="1800">
      <Node pos="s" depth="0" NCoef="0" IVar="2" Cut="2.6487591266632080e+00" cType="1" res="-3.7228963378765911e-07" rms="3.2187834382057190e-01" purity="5.9855979681015015e-01" nType="0">
        <Node pos="l" depth="1" NCoef="0" IVar="-1" Cut="0.0000000000000000e+00" cType="1" res="2.6726633223006502e-05" rms="3.2179430127143860e-01" purity="6.0597991943359375e-01" nType="-99"/>
        <Node pos="r" depth="1" NCoef="0" IVar="1" Cut="1.0607196092605591e+00" cType="1" res="-3.1812137458473444e-03" rms="3.2655182480812073e-01" purity="1.8142075836658478e-01" nType="0">
          <Node pos="l" depth="2" NCoef="0" IVar="-1" Cut="0.0000000000000000e+00" cType="1" res="2.9681989690288901e-04" rms="3.2534116506576538e-01" purity="1.8349753320217133e-01" nType="-99"/>
          <Node pos="r" depth="2" NCoef="0" IVar="-1" Cut="0.0000000000000000e+00" cType="1" res="-1.2151855044066906e-02" rms="3.3437621593475342e-01" purity="1.6504853963851929e-01" nType="-99"/>
        </Node>
      </Node>
    </BinaryTree>
    <BinaryTree type="DecisionTree" boostWeight="1.0000000000000000e+00" itree="1801">
      <Node pos="s" depth="0" NCoef="0" IVar="1" Cut="1.7341328859329224e+00" cType="1" res="-3.7338833180911024e-07" rms="3.2187777757644653e-01" purity="5.9855979681015015e-01" nType="0">
        <Node pos="l" depth="1" NCoef="0" IVar="-1" Cut="0.0000000000000000e+00" cType="1" res="-1.6568857972742990e-05" rms="3.2166346907615662e-01" purity="6.0092604160308838e-01" nType="-99"/>
        <Node pos="r" depth="1" NCoef="0" IVar="3" Cut="2.3375508189201355e-01" cType="1" res="5.8649471029639244e-03" rms="3.5641294717788696e-01" purity="1.9607843458652496e-01" nType="0">
          <Node pos="l" depth="2" NCoef="0" IVar="-1" Cut="0.0000000000000000e+00" cType="1" res="6.5230075269937515e-03" rms="3.6822566390037537e-01" purity="2.1232876181602478e-01" nType="-99"/>
          <Node pos="r" depth="2" NCoef="0" IVar="-1" Cut="0.0000000000000000e+00" cType="1" res="-2.1247735712677240e-03" rms="3.4486463665962219e-01" purity="1.8125000596046448e-01" nType="-99"/>
        </Node>
      </Node>
    </BinaryTree>
    <BinaryTree type="DecisionTree" boostWeight="1.0000000000000000e+00" itree="1802">
      <Node pos="s" depth="0" NCoef="0" IVar="2" Cut="3.2781672477722168e+00" cType="1" res="-3.5561632216740691e-07" rms="3.2187706232070923e-01" purity="5.9855979681015015e-01" nType="0">
        <Node pos="l" depth="1" NCoef="0" IVar="-1" Cut="0.0000000000000000e+00" cType="1" res="-1.5941168385325000e-05" rms="3.2172209024429321e-01" purity="6.0073769092559814e-01" nType="-99"/>
        <Node pos="r" depth="1" NCoef="0" IVar="0" Cut="7.6633840799331665e-01" cType="1" res="5.7974336668848991e-03" rms="3.4784379601478577e-01" purity="2.1812079846858978e-01" nType="0">
          <Node pos="l" depth="2" NCoef="0" IVar="-1" Cut="0.0000000000000000e+00" cType="1" res="1.1138073168694973e-02" rms="3.9516249299049377e-01" purity="3.1372550129890442e-01" nType="-99"/>
          <Node pos="r" depth="2" NCoef="0" IVar="-1" Cut="0.0000000000000000e+00" cType="1" res="-3.8422700017690659e-03" rms="3.1938403844833374e-01" purity="1.6836734116077423e-01" nType="-99"/>
        </Node>
      </Node>
    </BinaryTree>
    <BinaryTree type="DecisionTree" boostWeight="1.0000000000000000e+00" itree="1803">
      <Node pos="s" depth="0" NCoef="0" IVar="3" Cut="4.9747130274772644e-01" cType="0" res="-3.5226881323069392e-07" rms="3.2187610864639282e-01" purity="5.9855979681015015e-01" nType="0">
        <Node pos="l" depth="1" NCoef="0" IVar="-1" Cut="0.0000000000000000e+00" cType="1" res="4.1479803621768951e-03" rms="3.1841811537742615e-01" purity="8.5981309413909912e-01" nType="-99"/>
        <Node pos="r" depth="1" NCoef="0" IVar="3" Cut="4.9123075604438782e-01" cType="0" res="-1.9492559658829123e-05" rms="3.2188287377357483e-01" purity="5.9802478551864624e-01" nType="0">
          <Node pos="l" depth="2" NCoef="0" IVar="-1" Cut="0.0000000000000000e+00" cType="1" res="-5.1317200995981693e-03" rms="2.9976996779441833e-01" purity="8.7096774578094482e-01" nType="-99"/>
          <Node pos="r" depth="2" NCoef="0" IVar="-1" Cut="0.0000000000000000e+00" cType="1" res="1.2701821106020361e-05" rms="3.2198399305343628e-01" purity="5.9672302007675171e-01" nType="-99"/>
        </Node>
      </Node>
    </BinaryTree>
    <BinaryTree type="DecisionTree" boostWeight="1.0000000000000000e+00" itree="1804">
      <Node pos="s" depth="0" NCoef="0" IVar="3" Cut="4.8847633600234985e-01" cType="0" res="-2.9563062753368285e-07" rms="3.2187548279762268e-01" purity="5.9855979681015015e-01" nType="0">
